<unk>	0
<s>	0
</s>	0
്	-3.80272
ം	-3.97087
ു	-4.14295
യ	-4.33416
▁	-4.54352
ി	-4.56798
▁ഒരു	-4.74416
വ	-4.8036
ര	-4.81159
േ	-4.81665
െ	-4.83737
ാ	-4.86741
മ	-4.8802
ക്ക	-4.88754
ത	-5.00591
ും	-5.02475
ോ	-5.04036
▁ആ	-5.05966
ല	-5.08396
ക	-5.09013
▁അ	-5.26332
ണ	-5.27409
ട	-5.28373
ത്ത	-5.31209
ന	-5.33172
പ	-5.33228
ു്	-5.39943
▁ഞാൻ	-5.443
ൻ	-5.47815
ീ	-5.48255
റ	-5.48737
▁മ	-5.50614
ർ	-5.52707
▁അവൾ	-5.52753
▁ക	-5.54136
ാൻ	-5.57722
പ്പ	-5.58324
▁പ	-5.59093
യും	-5.59355
ട്ട	-5.59689
ിൽ	-5.61646
ൂ	-5.61647
സ	-5.65092
ള	-5.65879
തു്	-5.6968
ില്ല	-5.7313
▁ത	-5.76039
ിക്ക	-5.76423
ിയ	-5.79099
ച്ച	-5.8082
വും	-5.84041
ിച്ചു	-5.84221
ിച്ച	-5.84994
ഴ	-5.88183
ദ	-5.89318
ന്ന	-5.90357
യിൽ	-5.90796
ുന്ന	-5.91119
യുടെ	-5.9224
തു	-5.95856
ശ	-6.01041
ാണു്	-6.0117
▁ച	-6.02485
▁എന്ന	-6.02777
▁വ	-6.03374
ുക	-6.04708
ത്തിൽ	-6.0539
ൊ	-6.06157
▁പറഞ്ഞു	-6.06528
ാൽ	-6.08176
ൽ	-6.11868
ാന	-6.13318
▁ഇ	-6.13519
▁ന	-6.13827
▁അയാൾ	-6.13849
▁സ	-6.1421
മ്പ	-6.16553
മായ	-6.16982
്യ	-6.17473
ണ്ട	-6.17884
▁നീ	-6.18296
ക്കു	-6.18772
കള	-6.18917
▁എന്റെ	-6.19149
ടി	-6.19927
▁ഈ	-6.22191
▁അവളുടെ	-6.22737
ിന്റെ	-6.24664
▁വര	-6.25575
യാണു്	-6.27546
▁വി	-6.28814
മായി	-6.29298
തി	-6.29544
ക്കു്	-6.29897
ായ	-6.33483
ാം	-6.33768
ാതെ	-6.34798
ങ്ങൾ	-6.3499
ഭ	-6.35819
ല്ല	-6.36421
ായി	-6.36474
▁പ്ര	-6.36943
പ്പോൾ	-6.37324
ാവ	-6.38209
ഹ	-6.39485
ഷ	-6.39661
ണം	-6.40595
▁കു	-6.40695
▁നാ	-6.40862
യെ	-6.42943
റ്റ	-6.44082
വി	-6.46058
ച	-6.46106
▁നോക്കി	-6.49956
ാത്ത	-6.50556
ന്റെ	-6.51307
ങ്ങ	-6.51612
കൾ	-6.5202
ത്തെ	-6.5246
സ്	-6.56115
രു	-6.56989
ില	-6.57009
ത്തി	-6.57428
ള്ള	-6.57499
ിരുന്നു	-6.58822
▁കാണ	-6.58858
യ്ക്ക	-6.59135
തന്നെ	-6.59252
▁എ	-6.61657
ഞ്ഞ	-6.61796
▁അതു	-6.62505
ുമ്പോൾ	-6.63215
പോലെ	-6.6324
▁പാ	-6.63832
▁അത	-6.6389
ത്തിന്റെ	-6.64344
ുള്ള	-6.65212
▁അമ്മ	-6.653
രി	-6.6539
▁പറയ	-6.65569
ഞ്ഞു	-6.66535
ത്ര	-6.66837
ാര	-6.67028
ിട്ട	-6.67168
▁വാ	-6.6723
▁ദ	-6.68395
▁അവർ	-6.68779
നി	-6.6895
ഗ	-6.69119
ൊന്നും	-6.69291
ൊക്കെ	-6.69876
മ്മ	-6.70486
ായിരുന്നു	-6.71041
മാണു്	-6.71197
ാണ	-6.71937
മാ	-6.72406
ച്ചു	-6.7333
▁എന്നു	-6.73457
ൊരു	-6.73679
▁കൈ	-6.74138
▁ബ	-6.74847
ിരുന്ന	-6.74873
ധ	-6.76952
ിട്ടു്	-6.77923
▁തന്നെ	-6.78384
▁തന്റെ	-6.79271
▁വന്ന	-6.79547
ന്ത	-6.80465
ങ്ങള	-6.80784
▁കണ്ട	-6.81276
ക്ഷ	-6.82511
യോ	-6.82695
▁പൊ	-6.83628
ുകൾ	-6.8573
കൊണ്ടു്	-6.85749
ന്നു	-6.86795
ുന്നതു്	-6.86925
യുള്ള	-6.87619
▁പറഞ്ഞ	-6.88358
▁പിന്നെ	-6.88562
ഞ്ച	-6.89272
▁കാ	-6.89903
ങ്ക	-6.90465
റിയ	-6.90573
▁വെ	-6.90792
▁പു	-6.90962
ട്ടി	-6.9098
കൂടി	-6.91105
▁മു	-6.92108
ന്നു്	-6.92774
▁അതു്	-6.92855
ാല	-6.93119
▁ഇല്ല	-6.93702
ിക	-6.94606
ത്തു	-6.9511
▁നി	-6.95284
കാര	-6.95386
ാമ	-6.95801
യ്ക്കു്	-6.96035
ന്	-6.97833
ർത്ത	-6.97901
▁രണ്ടു	-6.98061
ക്	-6.98229
നെ	-6.9849
▁ചെയ്യ	-6.98703
വര	-6.9911
െന്ന	-6.99377
▁ശ	-6.99525
▁എന്നു്	-6.99561
ിട	-7.00145
▁വളരെ	-7.00175
▁തല	-7.01076
ൈ	-7.01087
ിട്ടു	-7.01647
വാ	-7.02663
▁നല്ല	-7.03033
▁കാല	-7.03956
▁അവളെ	-7.0416
▁എന്നെ	-7.05201
ജ	-7.06819
റി	-7.07604
ത്തു്	-7.08162
ങ്ങി	-7.08479
ക്കി	-7.09213
▁നോക്ക	-7.09545
ുമ	-7.10027
▁വേ	-7.10652
യാ	-7.10673
യായി	-7.10769
ുന്നു	-7.11997
▁ഇട	-7.12201
ബ	-7.12253
▁എനിക്കു്	-7.12779
▁അവിടെ	-7.13586
ിനെ	-7.14353
▁വന്നു	-7.14381
സ്സ	-7.1484
▁ഓ	-7.14844
▁മൂ	-7.14859
▁പോയ	-7.15043
താണു്	-7.15257
മു	-7.16284
ലി	-7.16868
▁വേണ്ട	-7.17044
▁ഇത	-7.17475
ിക്കുന്ന	-7.18088
ക്കാര	-7.18127
▁മാ	-7.18922
▁ഒന്നും	-7.19095
യില്ല	-7.1911
▁ഗ	-7.19422
▁പോക	-7.19536
നിന്നു	-7.19538
▁അറിയ	-7.19659
വർ	-7.19975
ക്കും	-7.2
ിന	-7.20237
▁ല	-7.20517
കൊണ്ടു	-7.20549
▁ഒന്നു	-7.20792
▁കട	-7.21274
ാസ	-7.21717
▁കഴിഞ്ഞ	-7.22029
▁അവൾക്കു്	-7.22266
ൃ	-7.22529
▁എന്തു	-7.23144
▁സാ	-7.23276
മില്ല	-7.23492
▁വലിയ	-7.24032
റു	-7.24494
▁കുട്ടി	-7.25112
െന്നു്	-7.25859
▁പോയി	-7.26231
▁ഞാന	-7.26531
ിരിക്ക	-7.26603
െങ്കിലും	-7.27202
ട്ടെ	-7.27255
▁അയാളുടെ	-7.27831
പ്പെട്ട	-7.28049
▁ഹ	-7.28059
▁പക്ഷേ	-7.28192
▁നിങ്ങൾ	-7.28253
▁എനിക്കു	-7.29028
ിട്ടില്ല	-7.29189
േയും	-7.29388
▁അദ്ദേഹം	-7.29474
ട്ടു	-7.29522
▁അവൻ	-7.29597
▁സ്വ	-7.29815
ാള	-7.29816
▁നിന്നു	-7.29864
▁പൊന്നി	-7.30015
▁തോന്നി	-7.30247
ിലെ	-7.30991
ളി	-7.31292
▁കൂടി	-7.31849
െല്ലാം	-7.32183
▁ഭ	-7.32195
ുകയാണു്	-7.323
ിക്കാൻ	-7.32534
▁ചോദിച്ചു	-7.32821
▁ഒര	-7.329
▁കണ്ടു	-7.33319
ത്തന്നെ	-7.3335
ിത	-7.33416
▁കോ	-7.33451
▁അങ്ങിനെ	-7.33607
യ്ക്കു	-7.34054
ാറ	-7.34167
കളുടെ	-7.34292
▁ജ	-7.34319
പ്ര	-7.34494
ിച്ചു്	-7.34512
േണ്ട	-7.3507
ൾ	-7.35463
▁കാര്യം	-7.35518
▁ശരി	-7.3589
▁കിട്ട	-7.35949
പ്പോഴ	-7.36028
ിനു	-7.36074
ന്റ	-7.3628
▁നില	-7.36535
▁പി	-7.3664
സ്ഥ	-7.37357
യില	-7.37399
ുടെ	-7.37759
െന്നു	-7.37764
്യാ	-7.38106
▁എന്നാൽ	-7.38455
▁പോ	-7.38456
▁ഇനി	-7.38923
ദ്ധ	-7.39125
മുള്ള	-7.3937
▁ചില	-7.3959
ഡ	-7.3975
ിരിക്കുന്നു	-7.40821
▁ഇപ്പോൾ	-7.41303
ാർ	-7.41322
▁ഒന്ന	-7.41722
മായിരുന്നു	-7.42138
▁ചെ	-7.42452
▁കൃ	-7.42622
്യം	-7.42787
ത്തോടെ	-7.43366
റ്റി	-7.44556
▁അവ	-7.44799
ർക്ക	-7.44813
▁സ്ത്രീ	-7.44988
▁നടന്നു	-7.45097
▁പൂ	-7.45118
ഫ	-7.45173
▁തിര	-7.4538
രം	-7.45724
ായിരിക്കും	-7.45994
ത്	-7.46942
ോടു്	-7.47125
▁ഇവിടെ	-7.47219
ടു	-7.47338
ണ്ടു്	-7.47361
യായ	-7.47743
വു	-7.48229
▁എന്ത	-7.48622
▁കൊ	-7.4868
▁താ	-7.49008
ോട്ട	-7.49369
▁വല്ല	-7.49583
നായ	-7.49636
ാനുള്ള	-7.50269
▁മതി	-7.50279
ാനും	-7.50557
▁മുറി	-7.50696
ുന്നതു	-7.51041
▁ഉള്ള	-7.51232
രാ	-7.51344
തും	-7.51696
▁തോന്ന	-7.51752
▁ചെയ്ത	-7.51973
താ	-7.5203
ക്കാൻ	-7.52205
ുണ്ടു്	-7.53686
ടെ	-7.53695
▁ഓരോ	-7.54005
▁കര	-7.54531
ഷ്	-7.54555
▁എത്ര	-7.54862
▁പല	-7.55405
▁മറ്റ	-7.55481
പ്പു	-7.55601
ഗ്	-7.55764
▁കണ്ണ	-7.55845
▁നിന്ന	-7.5588
ഷ്ട	-7.55919
ല്ലേ	-7.56412
▁പെ	-7.56632
ുകയും	-7.56941
നും	-7.56983
▁വഴി	-7.57289
▁ഇങ്ങിനെ	-7.57705
▁അപ്പ	-7.57919
ൗ	-7.58566
▁ഇത്ര	-7.5896
▁മറ	-7.5912
▁നേര	-7.59748
ോടു	-7.6014
ണ്ണ	-7.60425
ത്തില	-7.60451
ൺ	-7.60666
നാ	-7.60697
കളെ	-7.6096
നു	-7.60963
മേ	-7.61173
▁അല്ല	-7.61355
ലാ	-7.61589
▁ഓർമ്മ	-7.62136
ാക്കി	-7.62647
ിലും	-7.63257
▁ചെയ്തു	-7.63305
ർത്തി	-7.63359
േയ്ക്കു	-7.63487
പോയി	-7.63566
▁കുറച്ചു	-7.64029
പ്പി	-7.64266
ാക്ക	-7.64716
▁കൊണ്ടു	-7.64959
ഖ	-7.65321
▁അതിന്റെ	-7.65332
സ്റ്റ	-7.65707
ാത	-7.65738
യായിരുന്നു	-7.65776
▁പേര	-7.66013
▁ഭാര്യ	-7.66221
▁പറ്റ	-7.66804
▁മാത്രം	-7.67354
ങ്ങളും	-7.67371
▁പരി	-7.67987
▁തര	-7.68045
െപ്പോലെ	-7.68209
▁കൊടുക്ക	-7.68526
വരെ	-7.68739
കളും	-7.68951
വേ	-7.6937
▁കുറ	-7.69731
▁തീ	-7.69756
ത്തേ	-7.69979
സി	-7.70633
▁അടുത്ത	-7.70856
▁ജീവിത	-7.70954
▁തു	-7.7101
▁എനിക്ക	-7.71144
▁നടക്ക	-7.71328
ുവാൻ	-7.71398
▁റ	-7.71461
▁ദിവസം	-7.71685
ന്മാര	-7.71923
ാണെന്നു	-7.72065
ല്ലെ	-7.72275
ത്തിനു	-7.72304
യു	-7.72619
▁മര	-7.72679
▁കഥ	-7.73636
ിട്ടുണ്ടു്	-7.73722
▁തുടങ്ങി	-7.7389
ിരുന്നില്ല	-7.74158
▁പോലെ	-7.74485
ിലൂടെ	-7.74709
ല്ലോ	-7.74767
സ്ത	-7.74924
▁രാത്രി	-7.75102
▁കടന്നു	-7.75203
▁ജന	-7.75307
▁മനസ്സ	-7.75396
ുണ്ടോ	-7.75686
▁കയറി	-7.75951
▁എല്ലാ	-7.76306
▁ജോലി	-7.76407
▁കഴിയ	-7.76577
▁ഇഷ്ട	-7.76806
▁താൻ	-7.76811
▁മുഖം	-7.77109
ണ്ടു	-7.77173
വന്നു	-7.77226
ുണ്ടായിരുന്നു	-7.77242
▁മുഖ	-7.77261
▁അദ്ദേഹത്തിന്റെ	-7.77279
ിനു്	-7.77466
ോട	-7.77512
▁നിന്റെ	-7.78295
കൊണ്ട	-7.78835
▁ത്രേസ്യാമ്മ	-7.78845
മോ	-7.79202
നം	-7.79408
▁ആര	-7.79851
▁മണി	-7.79892
ാണെന്നു്	-7.8005
▁പിടിച്ചു	-7.80145
▁ഞങ്ങൾ	-7.80248
ക്കുന്ന	-7.805
ംഗ	-7.81031
▁അവള	-7.81117
▁ആള	-7.81153
▁കൂട്ട	-7.81181
▁അവരുടെ	-7.81305
▁തിരിച്ചു	-7.81427
ച്ചു്	-7.82251
വള	-7.82421
ാന്ത	-7.82458
▁കേട്ട	-7.82867
▁കുറെ	-7.82965
▁വീട്ട	-7.82999
പ്പെട	-7.83445
ഥ	-7.83514
പ്പോ	-7.8402
▁അതിന	-7.84166
കു	-7.84175
▁വീ	-7.84402
▁അത്ര	-7.84438
▁പുറത്ത	-7.84561
തിര	-7.84684
യ്യ	-7.84978
ങ്ങളുടെ	-7.85364
▁അയാളെ	-7.85864
▁സ്നേഹ	-7.85873
▁നിന്നു്	-7.86411
▁വീട്ടിൽ	-7.8643
▁ഒന്നു്	-7.86768
▁അച്ഛൻ	-7.8679
▁അപ്പോൾ	-7.87214
യിരുന്നു	-7.87643
▁മനുഷ്യ	-7.88175
▁എല്ലാം	-7.88436
പോയ	-7.88595
യിലെ	-7.8871
▁തന്ന	-7.88848
▁ദിവസ	-7.8927
വെ	-7.8939
▁പോകുന്ന	-7.89563
ാണു	-7.89622
▁പെണ്ണ	-7.89657
ഡ്	-7.9028
െങ്കിൽ	-7.90427
▁അന	-7.90444
▁കാര്യ	-7.91208
റ്റു	-7.91538
ുകയായിരുന്നു	-7.91601
▁എവിടെ	-7.91796
കൂട	-7.9208
▁എഴുത	-7.92118
▁വിവാഹം	-7.92135
ുമോ	-7.92151
ികൾ	-7.92242
▁കേൾക്ക	-7.92702
▁എടുത്തു	-7.92711
▁നിറ	-7.92839
ധി	-7.9325
പോ	-7.93335
▁അച്ഛന	-7.93375
ിയുടെ	-7.93807
ണ്ടാവ	-7.93943
വെച്ച	-7.94063
▁ഭയ	-7.94116
▁എന്താ	-7.94379
വേണ്ടി	-7.94529
ഭാഗ	-7.95052
▁പര	-7.95098
▁വരുന്ന	-7.95179
▁എഡോൾഫി	-7.95416
ിന്ന	-7.95929
മല്ല	-7.95997
▁എന്തോ	-7.96176
▁നട	-7.96527
പ്പെട്ടു	-7.96607
ിലേക്കു്	-7.96672
▁നെ	-7.96689
▁ചെറിയ	-7.96734
▁ഫ	-7.96821
ലോ	-7.9687
▁ഏത	-7.96961
ക്ര	-7.97064
▁രാ	-7.97301
▁വിളിച്ചു	-7.97605
ന്തി	-7.9779
▁കിടക്ക	-7.9786
മി	-7.98035
പോലും	-7.98049
യിരിക്ക	-7.98189
▁നിർ	-7.98461
പോക	-7.98729
ാണെന്ന	-7.98751
ച്ഛ	-7.9876
▁അവന്റെ	-7.99005
▁ജീവ	-7.99258
േര	-7.99374
ങ്ങളിൽ	-7.99698
ുപോയ	-7.99855
▁ഭാവ	-8.00159
▁അവര	-8.00515
▁അനുരാഗ	-8.00816
▁തോ	-8.00985
ിന്മേൽ	-8.01156
▁പണ	-8.01161
യോടെ	-8.01171
ക്കൊണ്ടു്	-8.01205
ത്തിന്നു	-8.01221
മുണ്ടു്	-8.01696
▁വിവര	-8.01799
▁സു	-8.0202
വശ	-8.0217
▁വില	-8.02218
▁ചാ	-8.02305
നായി	-8.02461
ീര	-8.02741
യി	-8.02743
നോക്കി	-8.02893
വൾ	-8.03025
▁നിങ്ങളുടെ	-8.03118
ിയും	-8.03165
ിറങ്ങി	-8.03352
െടുക്ക	-8.0346
ുമ്പോഴ	-8.03494
ിരിക്കുന്ന	-8.03809
ാലും	-8.04237
നോ	-8.0474
▁ഡ	-8.04826
▁ഇരു	-8.04968
▁ചേ	-8.04977
ക്കിട	-8.05059
▁വെള്ള	-8.05068
▁കിട്ടിയ	-8.05271
▁അടി	-8.05298
▁വാതിൽ	-8.05539
▁പോവ	-8.05612
ത്യ	-8.06016
▁ഉറക്ക	-8.06244
ിട്ടും	-8.06279
▁തുറന്നു	-8.06359
▁വീണ്ടും	-8.06806
▁പറയുന്ന	-8.06851
▁മുമ്പ	-8.07162
▁പുറത്തു	-8.07361
ുമായി	-8.0737
▁ചെന്നു	-8.07537
ായിരുന്ന	-8.07568
ദ്യ	-8.07638
വന്ന	-8.07643
▁ആവശ്യ	-8.07653
▁സം	-8.07695
▁അങ്ങനെ	-8.07964
യേ	-8.08097
ിയിൽ	-8.08113
ംകൊണ്ടു്	-8.08218
▁ചിത്ര	-8.08227
▁സമയം	-8.08235
▁അവസാന	-8.08503
▁വെച്ച	-8.08557
▁രാജ	-8.08685
കാല	-8.08854
ിൽനിന്നു്	-8.08933
▁വല	-8.09007
▁കണ്ണു	-8.0916
▁തനിക്ക	-8.09502
ാണോ	-8.09557
▁ചിരിച്ചു	-8.09591
▁ശ്രമ	-8.09653
▁പാട	-8.09676
കര	-8.10092
▁പണം	-8.10138
െടുത്തു	-8.10307
ടിച്ചു	-8.10464
നീ	-8.10581
ിപ്പാൻ	-8.10754
▁വിചാര	-8.1078
▁ലളിത	-8.10812
ുണ്ടായ	-8.10967
നു്	-8.11015
ിരുന്നതു്	-8.11067
ര്യ	-8.11257
▁മാത്രമ	-8.11381
▁പെട്ടെന്നു്	-8.11478
▁അതിനു	-8.1154
▁പറ	-8.11542
ത്തിലെ	-8.11573
നേ	-8.11583
ാണെങ്കിൽ	-8.11586
▁കൊണ്ട	-8.11589
തിന	-8.11617
▁അയാൾക്കു്	-8.11623
▁നേരം	-8.11642
▁അറിഞ്ഞ	-8.11671
▁കൊണ്ടു്	-8.11981
▁കഴിക്ക	-8.1201
ുന്നില്ല	-8.12238
▁ഭർത്താവ	-8.12281
▁ഇരിക്ക	-8.12601
▁അവൾക്കു	-8.12624
▁വയസ്സ	-8.12883
▁സുഖ	-8.12934
▁ശബ്ദം	-8.13045
▁അനു	-8.13103
▁മുഴുവൻ	-8.13173
ാതിരിക്ക	-8.13344
▁പടി	-8.13534
▁ഇതു	-8.13594
▁എന്താണു്	-8.13616
▁വേണ്ടി	-8.13727
കളിൽ	-8.14006
വന	-8.14008
▁കേ	-8.14142
വിന്റെ	-8.14247
▁രൂപ	-8.14269
ാൾ	-8.14308
▁എഴുന്നേറ്റു	-8.14376
▁പറഞ്ഞതു്	-8.14401
ോടെ	-8.14594
▁കല	-8.14635
▁ചിരി	-8.14692
ല്ലാതെ	-8.14919
ങ്ങിയ	-8.15022
▁മുറിയിൽ	-8.15505
ിലേയ്ക്കു	-8.15571
ബ്	-8.15672
▁അതെ	-8.157
▁ബാക്കി	-8.15773
ൊര	-8.16024
▁അയാള	-8.16495
ൊന്നു	-8.1656
▁ഇരുന്നു	-8.16734
ിന്നു്	-8.17085
▁ചായ	-8.1711
ിലേക്കു	-8.17287
▁സന്തോഷ	-8.17449
ിട്ടുള്ള	-8.17657
▁സ്	-8.1773
രുടെ	-8.17942
▁അങ്ങ	-8.18156
▁നിമിഷ	-8.1839
▁രക്ഷ	-8.1844
▁കൊടുത്ത	-8.18514
▁പ്രതി	-8.18541
▁സംഭവ	-8.18707
▁ചുമ	-8.18798
▁വിട്ടു	-8.18864
ത്തിനു്	-8.18965
െടുത്തു്	-8.18992
▁പുരുഷ	-8.19022
ലും	-8.19051
ിനി	-8.19086
▁അനുഭവ	-8.19454
▁അടുത്തു	-8.19596
▁സംശയ	-8.19662
▁തിരിഞ്ഞു	-8.19663
െത്തിയ	-8.19702
▁നിന്നെ	-8.19708
▁കൂ	-8.19721
▁രാജാവ	-8.1994
▁ജാ	-8.20247
▁ഹൃദയ	-8.20297
▁ചോദിക്ക	-8.20298
ടുക്ക	-8.20302
▁പുസ്തക	-8.20325
തിൽ	-8.20385
ത്തിന്നു്	-8.20421
വരും	-8.20524
▁മറ്റൊരു	-8.20533
ർമ്മ	-8.2093
പ്പൊ	-8.21084
▁ധ	-8.21151
▁ലോക	-8.21282
▁കളി	-8.21318
▁തെറ്റ	-8.21608
റ്റ്	-8.21951
▁ജോ	-8.22214
▁ഉണ്ടായിരുന്ന	-8.22246
നിന്നു്	-8.22416
▁മോ	-8.22435
ക്കൂടി	-8.22989
▁നിര	-8.23128
ുണ്ടാക്ക	-8.23161
▁പിടി	-8.23309
ഡി	-8.23339
മാര	-8.2351
▁ഒഴി	-8.2356
കൊടുത്ത	-8.23662
▁തെ	-8.23773
ില്ലാത്ത	-8.23907
ിക്കും	-8.23916
▁കഴിഞ്ഞു	-8.24053
ത്തിന	-8.24415
▁ഭാസ്കരൻ	-8.2456
▁വാങ്ങി	-8.24807
പ്പെടുത്ത	-8.2502
▁തുട	-8.2512
▁പണി	-8.25151
▁ധന	-8.2531
▁കേട്ടു	-8.25385
▁വാങ്ങ	-8.25441
▁കൂട	-8.25815
പ്പോയി	-8.25868
▁കാണാൻ	-8.26237
▁സ്വന്തം	-8.26255
▁ഓടി	-8.26464
ന്ത്ര	-8.26479
▁സ്ഥല	-8.26949
▁മുമ്പിൽ	-8.27107
▁ശി	-8.27204
▁ഇന്ദിര	-8.27277
ിലുള്ള	-8.27516
െപ്പറ്റി	-8.27638
▁മറ്റു	-8.27875
▁പിന്ന	-8.27967
ില്ലെന്നു	-8.28167
▁കാരണം	-8.28167
▁തട	-8.28169
മണി	-8.28174
▁രണ്ട	-8.28305
മില്ലാത്ത	-8.28386
ധാര	-8.28392
▁ഉച്ച	-8.28663
▁ചോദ്യ	-8.28665
▁ഇതു്	-8.28721
ിക്കുന്നതു്	-8.28731
▁അദ്ദേഹത്ത	-8.28736
▁ശബ്ദ	-8.29035
▁മൂന്നു	-8.29139
പറ	-8.29196
▁ഉറങ്ങ	-8.29364
▁എങ്ങിനെ	-8.29581
▁ഉടനെ	-8.298
▁നിൽക്ക	-8.30092
ടുത്ത	-8.30126
ിച്ചതു്	-8.30165
▁സംസാരിക്ക	-8.3034
ല്ല്യ	-8.30346
▁കാരണ	-8.30391
▁നല്ലവണ്ണം	-8.3047
ന്മാർ	-8.30638
▁ക്ഷണ	-8.30656
നിന്ന	-8.30687
▁കണ്ണുകൾ	-8.30705
▁അല	-8.30762
▁രാവിലെ	-8.31138
തായി	-8.31722
▁പേടി	-8.31756
തുകൊണ്ടു്	-8.31839
യല്ല	-8.31955
ില്ലേ	-8.32013
ിലാണു്	-8.32246
ക്ഷി	-8.32256
▁മോള	-8.32416
▁കൂടെ	-8.32658
▁കിടന്നു	-8.32685
രിപ്പ	-8.33186
യൊക്കെ	-8.33647
▁കുറേ	-8.33719
നാണു്	-8.33874
ശ്വ	-8.33916
▁നിങ്ങള	-8.34015
▁പുതിയ	-8.34061
പ്പാ	-8.34149
▁കെട്ടി	-8.34768
▁രതി	-8.34858
▁മേ	-8.35064
▁അസ	-8.35166
ിലേയ്ക്കു്	-8.3522
▁നേരെ	-8.35294
വാൻ	-8.35307
▁കുട	-8.35369
ർച്ച	-8.35453
▁ഒക്കെ	-8.35525
ക്കൊണ്ടു	-8.35729
തിന്റെ	-8.35759
ിയതു്	-8.3599
▁തുടങ്ങിയ	-8.36023
▁ധനം	-8.36205
▁പ്രത്യേക	-8.36276
▁എന്തെങ്കിലും	-8.3644
▁കണ്ടപ്പോൾ	-8.36703
▁വിചാരിച്ച	-8.36831
യ്ക്കും	-8.36947
ുന്നുണ്ടു്	-8.37083
ല്യ	-8.37133
▁ഉണ്ടായ	-8.37298
▁പെട്ടെന്ന	-8.37342
▁ആരും	-8.37357
▁കല്യാണ	-8.37418
▁വേറെ	-8.37424
▁ഞ	-8.37579
▁അര	-8.37757
▁നോട്ട	-8.38005
▁പണ്ട	-8.3812
▁വെച്ചു	-8.38243
ണമെന്നു	-8.38277
▁അതിൽ	-8.3849
ക്കോ	-8.3851
▁കുഴ	-8.38717
▁മനസ്സിൽ	-8.38786
▁കുഞ്ഞ	-8.38897
ാലോ	-8.38926
െയ്	-8.38989
▁സി	-8.39016
▁ചെയ്യുന്ന	-8.3903
ിക്കുക	-8.39159
▁വിനോദ	-8.39336
▁ദൈവ	-8.39342
ിക്കുന്നു	-8.39375
രിച്ചു	-8.39522
േറ്റ	-8.39551
ജി	-8.39653
▁ഒരാള	-8.39931
▁സഹായ	-8.39945
▁മാറി	-8.39987
രിയ	-8.40019
▁പിടിച്ച	-8.40069
ംബ	-8.40098
ുണ്ടായിരുന്ന	-8.40142
▁പഴയ	-8.40173
മേൽ	-8.40263
▁പോര	-8.40607
ാഞ്ഞ	-8.40621
ബന്ധ	-8.40625
ൊന്നുമില്ല	-8.40828
ാഹ	-8.40966
▁ഗോ	-8.41183
▁ശക്തി	-8.41306
▁വാതില	-8.41357
▁മുറ	-8.41614
പ്പോഴാണു്	-8.41617
മുണ്ടാ	-8.41831
▁പതിവ	-8.42155
▁ഉട	-8.42364
▁സാധിക്ക	-8.4251
▁ജന്നി	-8.4252
▁മിണ്ട	-8.42541
▁ഇന്ന	-8.42662
▁നിർത്തി	-8.42683
▁വള	-8.42852
പ്പിച്ചു	-8.43054
▁സ്റ്റ	-8.43435
▁ചോദിച്ച	-8.43529
▁നിങ്ങളെ	-8.4357
▁പറമ്പ	-8.43613
▁യാത്ര	-8.43707
കൊണ്ടും	-8.43789
▁ഉണ്ട	-8.43941
ൊഴി	-8.44071
▁അധിക	-8.44074
▁പദ്മിനി	-8.44107
▁രാജാ	-8.44239
സ്ത്ര	-8.44282
ത്തോളം	-8.44372
▁വിട	-8.44451
▁എന്നും	-8.44501
സ്ഥിതി	-8.44532
ണമെന്ന	-8.4457
രുതു്	-8.44582
ങ്ങളെ	-8.44653
▁കാത്തു	-8.44831
രിക	-8.44851
സ്വ	-8.45045
ിച്ചിരുന്നു	-8.45199
▁ദൂര	-8.45369
▁ഇറങ്ങി	-8.45508
ധന	-8.45562
▁മഴ	-8.45608
ുള്ളു	-8.45897
ാർത്ഥ	-8.46073
യോടു്	-8.46146
▁ഉണ്ടു്	-8.4624
തര	-8.46309
▁മാസ	-8.46348
▁സത്യ	-8.46599
▁ബോധ	-8.46716
വെച്ചു	-8.46763
▁വീട്ടില	-8.46785
▁കരുതി	-8.46901
െടുത്ത	-8.46961
▁വൈ	-8.47087
▁വീടു	-8.4723
കൊടുക്ക	-8.47315
ത്വ	-8.47383
വിടെ	-8.47471
▁കൊച്ച	-8.47485
▁പറയാൻ	-8.47645
▁മനസ്സിലായ	-8.47683
▁കൊടുത്തു	-8.47834
▁അല്ലെങ്കിൽ	-8.4793
മാത്രം	-8.4811
വ്വ	-8.48183
▁കിടക്കുന്ന	-8.48193
▁കൂട്ടി	-8.4825
▁ധൈര്യ	-8.48266
▁നടന്ന	-8.48423
▁നാലു	-8.48586
▁സമ	-8.48656
▁ദാവീദ	-8.48691
▁യാതൊരു	-8.48692
▁ഒരാൾ	-8.48783
റിഞ്ഞു	-8.48842
▁ഞാനും	-8.48949
▁ചെറു	-8.48965
▁അവരെ	-8.49091
ീകര	-8.49111
▁നമ്മുടെ	-8.4912
▁ഒരിക്കൽ	-8.49121
▁കണക്ക	-8.49496
▁ഒരിക്കലും	-8.49548
▁പരിചയ	-8.49553
▁വിഷമ	-8.49575
▁ആൾ	-8.49828
കൂടെ	-8.49951
▁ദേഹ	-8.49988
പ്പെടുത്തി	-8.50041
▁എത്തി	-8.50045
കൂട്ട	-8.50209
▁മരിച്ച	-8.50213
▁തോന്നുന്നു	-8.50329
േട്ടൻ	-8.50419
ജ്ജ	-8.50466
▁മനസ്സിലായി	-8.50563
▁സമ്മത	-8.50585
ശേഷം	-8.50601
▁നടത്ത	-8.50882
ദേശ	-8.5089
▁നായർ	-8.5092
▁ഇങ്ങനെ	-8.50995
▁വീട	-8.51343
ാഴ്ച	-8.51709
യാൾ	-8.51873
ുകയില്ല	-8.52002
▁വന്നു്	-8.52101
ക്കുട്ടി	-8.52303
▁കെട്ട	-8.52412
▁അവിട	-8.52423
▁തൂ	-8.52635
▁അതി	-8.52663
ണ്ടി	-8.52697
▁മുറ്റത്ത	-8.52706
▁വീണു	-8.52734
െന്താ	-8.52767
▁കള്ള	-8.52772
ല്ലൊ	-8.52954
▁കാര്യമ	-8.53072
▁ഇട്ട	-8.53189
▁തോന്നിയ	-8.53202
ാനാണു്	-8.53235
നേരം	-8.5333
േണ്ടതു്	-8.53372
▁താമസ	-8.53411
▁ഒപ്പം	-8.53496
▁നിറഞ്ഞ	-8.53523
▁തെളി	-8.53682
▁സംസാര	-8.53804
▁ഉപ	-8.53924
▁നിശ്ചയ	-8.54228
ാറില്ല	-8.54352
▁ജോസഫേട്ടൻ	-8.54395
യുമ	-8.54649
▁പെൺകുട്ടി	-8.54847
▁കൃഷ്ണൻനായർ	-8.54848
▁സ്വപ്ന	-8.54848
▁ചിന്ത	-8.5532
▁ജഡ്ജി	-8.55758
ദ്ദ	-8.55992
ുണ്ടെന്ന	-8.56036
▁ഇള	-8.56151
▁മുൻ	-8.56206
മാത്ര	-8.56444
▁അന്ന	-8.56611
▁താഴെ	-8.56685
▁കോണി	-8.56856
▁ചെന്ന	-8.56932
▁ഏതു	-8.57065
േക്കാൾ	-8.57207
▁പ്രേമ	-8.57213
▁അകത്ത	-8.57279
പ്പോയ	-8.5728
▁പറഞ്ഞാൽ	-8.57472
▁കാണുന്ന	-8.57519
▁നമുക്കു്	-8.57577
▁വെളിച്ച	-8.57613
കൾക്കു	-8.57649
ക്കാർ	-8.57888
ുമെന്നു്	-8.57951
▁വേദന	-8.57959
ക്കൂടെ	-8.58212
ുമെന്ന	-8.58229
▁രസ	-8.5828
▁പഠി	-8.58538
▁വൃദ്ധ	-8.58543
▁വണ്ടി	-8.58601
▁കയ്യ	-8.58735
പ്പു്	-8.58933
ജന	-8.59054
▁സീമ	-8.59069
കിട	-8.59234
▁മുട്ട	-8.59392
തുപോലെ	-8.59398
▁എന്നാണു്	-8.59403
ങ്ങൾക്കു	-8.59559
പാട	-8.59576
▁കാട്ട	-8.59626
▁മേല	-8.59683
▁കുളി	-8.59727
▁വിചാരിച്ചു	-8.59728
▁ഒറ്റ	-8.5978
▁നാളെ	-8.59995
കെട്ട	-8.60229
കൃത	-8.60278
ുവാ	-8.6045
▁ഇന്നു്	-8.60463
▁ആരോ	-8.60477
ാക്കിയ	-8.606
▁വിവാഹ	-8.60602
▁അതേ	-8.60663
▁കുറ്റ	-8.60818
▁വിളിക്ക	-8.61338
ുകളിൽ	-8.61379
ത്തിലും	-8.61479
▁കൊല്ല	-8.6152
▁ആലോചിച്ചു	-8.6153
വാദ	-8.6162
യോടു	-8.61623
ുകളും	-8.61737
ിപ്പിച്ചു	-8.61826
▁ആയി	-8.61929
▁അച്ഛന്റെ	-8.61933
മുണ്ടായ	-8.62074
▁വലിച്ച	-8.62324
▁മനോഹര	-8.62381
▁ആശ	-8.62415
്റെ	-8.62428
▁മനസ്സിലാക്ക	-8.62575
ാറുണ്ടു്	-8.62598
▁സഹ	-8.62707
▁ബന്ധ	-8.62731
▁അതുകൊണ്ടു്	-8.62914
▁തിരിച്ച	-8.62944
▁മാന	-8.63258
ിട്ടാണു്	-8.63274
▁ഉദ	-8.63363
▁ഈശ്വര	-8.6337
യുണ്ടു്	-8.63597
▁കയറ	-8.63716
ക്കൾ	-8.6374
▁രാമ	-8.63846
▁സങ്കട	-8.63864
മുറി	-8.63879
▁പാറ	-8.63916
▁മടങ്ങി	-8.64076
▁പറയുന്നതു്	-8.6425
യിലും	-8.64425
റിഞ്ഞ	-8.6443
▁ആത്മ	-8.64433
െണ്ണ	-8.64552
▁പൊട്ടി	-8.64622
▁കഷ്ട	-8.64697
▁തുടങ്ങ	-8.64798
▁വെള്ളം	-8.64801
കാര്യ	-8.64854
▁മറുപടി	-8.64856
▁വൈകുന്നേര	-8.64856
വെച്ചു്	-8.64879
▁തുടർന്നു	-8.64906
▁അല്പം	-8.65358
ാമെന്നു	-8.65483
▁മനസ്സിലാക്കി	-8.6567
▁കൊച്ചു	-8.65782
▁രണ്ടാ	-8.65799
വരുടെ	-8.6615
പിടിച്ചു	-8.66259
യിൽനിന്നു്	-8.66298
▁ഇതൊക്കെ	-8.66408
ക്കൊണ്ട	-8.6641
▁ശേഷം	-8.66616
▁പാടില്ല	-8.66654
▁മാത്രമേ	-8.66741
▁ഉള്ളിൽ	-8.66854
വരുന്ന	-8.67046
▁ചെറിയമ്മ	-8.6713
ാവുന്ന	-8.67277
▁ഉണ്ടാക	-8.67352
▁കൊള്ള	-8.67383
▁ചൈനാനി	-8.67394
▁സമാധാന	-8.67394
▁കൊണ്ടുവന്ന	-8.67426
▁ഇന്നു	-8.6755
▁ഫല	-8.67611
പ്രകാരം	-8.67733
കൊള്ള	-8.67747
▁കഴിഞ്ഞു്	-8.67768
ടുത്തു	-8.67838
▁എന്നാലും	-8.67868
ൊട്ട	-8.67924
▁മാറ	-8.68158
▁ആയിരുന്നു	-8.68389
▁കാർ	-8.68557
▁നമുക്ക	-8.68565
▁നിണക്കു്	-8.68626
▁മോശ	-8.68869
▁യോഗ	-8.68963
▁നാല	-8.68983
▁അന്നു	-8.69203
▁അവനെ	-8.69215
▁ദേവ	-8.6933
ുണ്ടായിരുന്നില്ല	-8.69451
▁പറഞ്ഞില്ല	-8.69471
▁യൂജീൻ	-8.69472
▁ആലോചിക്ക	-8.69472
▁തയ്യാറ	-8.69474
തായിരുന്നു	-8.69594
▁നിൽക്കുന്ന	-8.69606
▁ആദ്യ	-8.69688
▁വന്നതു്	-8.69715
▁ഞങ്ങള	-8.69751
▁മേശ	-8.69883
▁വെറും	-8.70023
▁മധു	-8.70042
▁ഞങ്ങളുടെ	-8.70116
▁വല്ലതും	-8.70214
നന്ദ	-8.70551
▁നേർ	-8.70638
▁എന്നിട്ടു്	-8.70639
ത്തെപ്പറ്റി	-8.70693
ിങ്	-8.70702
ൽപ്പ	-8.70888
▁അകത്തു	-8.7089
▁ഓട	-8.70908
▁യൂ	-8.71127
പ്പുറത്ത	-8.71303
പ്പാട	-8.71393
▁ശങ്ക	-8.71638
യെങ്കിലും	-8.71729
യാണെന്നു്	-8.72085
▁സകല	-8.72184
▁കഴിച്ചു	-8.72238
നിൽക്ക	-8.72495
▁വേണം	-8.72509
കഴിഞ്ഞ	-8.72567
▁കൃഷ്ണൻ	-8.72675
▁ഭാഗ്യ	-8.72705
▁എന്താണ	-8.72726
ീട്ടു	-8.7281
േണ്ടി	-8.72886
ൊന്നു്	-8.72995
മാർ	-8.73025
▁അവന	-8.73099
▁ഹാ	-8.73145
▁ഒരേ	-8.73192
▁വെറുതെ	-8.73215
▁വിശ	-8.73268
▁കവി	-8.73619
▁വിറ	-8.73761
▁സാധാരണ	-8.73791
ാകട്ടെ	-8.73806
▁അടുക്കള	-8.73993
▁ഉണ്ടായിരുന്നു	-8.74159
▁കാറ	-8.74229
▁തിരുമേനി	-8.74311
▁ഉര	-8.74864
▁അവസര	-8.74894
ിനെപ്പറ്റി	-8.74922
▁കാര്യങ്ങൾ	-8.75333
കുട്ടി	-8.7535
▁അയാൾക്കു	-8.7538
പുര	-8.75493
▁കോഴി	-8.75587
യ്ക്കാൻ	-8.75742
ത്തോടു	-8.75795
ാതിരുന്ന	-8.75925
▁പ്രതീക്ഷ	-8.75978
▁ശ്രദ്ധിച്ച	-8.76
▁പിന്നേയും	-8.76093
േണ്ടുന്ന	-8.76149
▁നിങ്ങൾക്കു്	-8.7628
മുഖ	-8.76313
▁ഉണ്ടാക്കി	-8.76506
ഠ	-8.76542
▁പിന്നീട	-8.76549
കൊണ്ടിരിക്ക	-8.76554
ജ്ഞ	-8.76555
▁അന്നു്	-8.76679
▁വയ്യ	-8.76763
മില്ലാതെ	-8.76862
ാനായി	-8.76922
▁അതൊക്കെ	-8.77021
ുമായിരുന്നു	-8.77063
▁ഭക്ഷണ	-8.77134
ധികം	-8.7715
▁നമ്മൾ	-8.77674
▁തട്ടി	-8.77926
ിന്നു	-8.78024
പൂർവ്വ	-8.78253
▁എത്തിയ	-8.78291
രിഞ്ഞു	-8.78429
ശ്ശ	-8.78496
▁ക്ല	-8.78554
വഴി	-8.7866
▁കാണിച്ചു	-8.79003
▁പറ്റിയ	-8.79212
▁ഭംഗി	-8.79405
▁കയ്യിൽ	-8.79415
▁മകന	-8.79607
▁മാതിരി	-8.79793
▁എണ്ണ	-8.7984
▁കിടന്ന	-8.79844
നോടു	-8.7993
▁ആനന്ദ	-8.80681
▁പ്ല	-8.80704
യാണോ	-8.80938
▁മുഖത്തു്	-8.81029
▁പത്തു	-8.81293
ിക്കുകയും	-8.81537
▁ഇരുട്ട	-8.81673
▁സംഗതി	-8.8177
▁ഉപദേശ	-8.8177
▁എനിയ്ക്കു	-8.81776
▁എല്ലാവരും	-8.81824
▁മറന്നു	-8.81852
▁വൈക	-8.81924
ഭാഷ	-8.82067
▁കുടി	-8.82095
▁കവിത	-8.82236
▁മന്ദാരം	-8.82341
▁മാറ്റ	-8.82388
ശാല	-8.82513
യ്ക്കുന്ന	-8.82931
ണമെങ്കിൽ	-8.82947
▁ചുണ്ട	-8.83269
ക്കാരന	-8.83341
▁പതുക്കെ	-8.8354
▁കഴിച്ച	-8.8358
▁നടക്കുന്ന	-8.83736
െന്തു	-8.83771
തിനു	-8.8385
▁ആഗ്രഹ	-8.84105
▁ചെറുപ്പക്കാര	-8.84147
▁സരള	-8.84188
കൃഷ്ണ	-8.84191
▁തീർച്ച	-8.84223
തെന്ത	-8.84428
▁കുള	-8.84473
രാജ	-8.84576
ക്കൂട്ട	-8.84683
ിപ്പിച്ച	-8.84744
▁വെളുത്ത	-8.84757
▁ഇതുവരെ	-8.8486
▁ശാന്ത	-8.85061
േണ്ടിവന്ന	-8.85106
▁ആദ്യം	-8.85152
ുമെന്നു	-8.85249
▁അഭി	-8.85492
▁എത്ത	-8.85523
▁ഹേമാംഗൻ	-8.85591
ത്തിൽനിന്നു്	-8.85611
ൂറ	-8.8633
▁മുമ്പു്	-8.86445
▁ചാടി	-8.86606
ചന്ദ്ര	-8.86608
ിപ്പോക	-8.86694
▁വീഴ	-8.86773
രീതി	-8.8704
▁ഏക	-8.87232
▁ചേച്ചി	-8.87265
▁ചെല്ല	-8.87858
▁ഉത്തര	-8.87862
▁അമ്മയുടെ	-8.87863
ങ്ങളില	-8.87902
ക്കഴിഞ്ഞ	-8.88243
▁വശ	-8.88317
പ്പെടുന്ന	-8.88425
▁അപർണ്ണ	-8.88494
▁ഉദ്ദേശ	-8.88495
പിടിച്ച	-8.88549
പെട്ട	-8.88553
▁ഓർത്തു	-8.88556
ാണെങ്കിലും	-8.88593
ദിവസ	-8.88704
▁സംസാരിച്ച	-8.88846
▁പെട്ടി	-8.88877
▁ഉണ്ടായി	-8.89059
പോകുന്ന	-8.89127
▁തൊട്ട	-8.89145
▁അതില	-8.89192
▁ജാനു	-8.89268
▁കൂടുതൽ	-8.89772
▁എങ്കിലും	-8.89773
▁വിശേഷ	-8.8978
▁മേൽ	-8.89814
ങ്ങനെ	-8.89933
▁വരുത്ത	-8.90181
▁അടുക്കെ	-8.90426
▁പ്രായ	-8.90443
▁കേറി	-8.90461
രൂപ	-8.90745
▁തൊട	-8.90957
▁അത്ഭുത	-8.91067
ർത്ഥ	-8.91375
▁മാറ്റി	-8.91509
▁ലക്ഷ്മിഅമ്മ	-8.9172
▁കട്ടില	-8.9178
▁മുഴ	-8.91896
▁മുഖത്തു	-8.92022
മെന്	-8.92164
▁വിശ്വാസ	-8.92172
▁ചൂട	-8.92247
▁മുന്നിൽ	-8.92479
▁വിശ്വസിക്ക	-8.92612
ശീല	-8.92621
ശ്ര	-8.92668
ിക്കുന്നതു	-8.92679
ില്ലെങ്കിൽ	-8.92886
ർഗ്ഗ	-8.92962
▁കണ്ടാൽ	-8.92968
▁വന്ദന	-8.93041
കൊണ്ടിരുന്നു	-8.93112
▁കണ്ണുകള	-8.93146
▁നില്ക്ക	-8.93422
▁നന്നായി	-8.93437
▁എപ്പോഴും	-8.93712
▁ഇന്നലെ	-8.93715
▁തുറന്ന	-8.94132
▁ഊർമ്മിള	-8.94378
▁പ്രശ്ന	-8.94379
▁ശരീര	-8.94381
പ്പിടിച്ചു	-8.94407
ിളക്ക	-8.94524
▁ഒന്നിച്ചു	-8.9469
▁പേർ	-8.95165
ത്തുടങ്ങി	-8.95177
യുമായി	-8.95327
▁പിന്നിൽ	-8.95413
▁നില്ക്കുന്ന	-8.95633
▁ചുറ്റും	-8.95635
▁പിടിക്ക	-8.95734
▁ക്ഷീണ	-8.95735
▁വേഗം	-8.9575
ഗ്രഹ	-8.9579
▁കടലാസ	-8.95806
▁ഇരുന്ന	-8.95916
▁എങ്ങനെ	-8.95958
വണ്ണം	-8.96073
▁കാര്യത്തിൽ	-8.9644
▁കിടപ്പ	-8.96489
ോളു	-8.9664
▁കാഴ്ച	-8.96669
▁എഴുത്തു	-8.9672
ാളി	-8.96798
▁ബാല	-8.96834
▁ഇനിയും	-8.96921
▁അർത്ഥ	-8.96961
▁അവർക്കു്	-8.96968
▁നീട്ടി	-8.97025
▁യഥാർത്ഥ	-8.97109
▁ആശ്വാസ	-8.9711
▁മണ്ണ	-8.9733
കൊണ്ടാണു്	-8.97422
ാകുന്ന	-8.97642
▁അദ്ഭുത	-8.97803
▁ഒളി	-8.97803
ുടേയും	-8.97929
▁എന്നോടു്	-8.98233
▁ആകാശ	-8.98503
▁മന്ദ	-8.98506
ായിരിക്കണം	-8.98663
▁പിൻ	-8.98669
▁1	-8.9884
ശേഷ	-8.9901
ിറങ്ങ	-8.99195
▁ഡോക്ടർ	-8.99207
▁കേവലം	-8.99207
▁ഭൂമി	-8.99209
▁സുനിൽ	-8.99213
▁നമ്മള	-8.99218
▁നിനക്ക	-8.99376
▁ഡി	-8.99486
▁ബുദ്ധി	-8.99722
▁അഭിപ്രായ	-8.99916
▁ജോസഫേട്ടന	-8.99916
▁സിനിമ	-8.99936
▁അറിവ	-9.00103
▁കാര്യങ്ങള	-9.0019
കരമായ	-9.00517
▁മാത്രമാണു്	-9.0052
▁കുടിക്ക	-9.00613
▁ഊണു	-9.0063
▁കൊണ്ടുവര	-9.0068
▁യുവതി	-9.00766
ുന്നതിനു	-9.00829
▁ഇവിട	-9.00858
യെപ്പറ്റി	-9.01035
▁ചാരി	-9.01488
ിലേക്ക	-9.01669
തുടങ്ങി	-9.01702
▁എടുക്ക	-9.01705
▁ജനല	-9.0189
▁എന്തൊക്കെ	-9.01907
ോർത്തു	-9.01926
▁നാൻസി	-9.02082
▁മരണ	-9.02123
▁അദ്ദേഹത്തെ	-9.02246
▁കുട്ടികൾ	-9.02338
ചെയ്യ	-9.02744
▁ഉമ്മറത്ത	-9.02804
▁സുന്ദരി	-9.02804
▁പിന്നാലെ	-9.02806
▁നിവൃത്തി	-9.02812
▁വർഷ	-9.02829
ടർന്ന	-9.02928
▁തുറക്ക	-9.02947
▁മുകളിൽ	-9.0304
▁തൊട്ടു	-9.03305
▁കരുത	-9.03351
▁പാറുകുട്ടി	-9.0354
▁സ്ഥാന	-9.03553
▁ഏതായാലും	-9.03568
▁നിങ്ങൾക്കു	-9.03643
ണ്ടാക	-9.03678
▁മുകളില	-9.03734
▁ഇതിന	-9.03846
ാറുള്ള	-9.03866
തൃ	-9.03905
▁പഠിക്ക	-9.03923
▁സമയത്തു്	-9.04004
▁മലയാള	-9.04282
▁വിളി	-9.04359
പുറ	-9.04386
▁ഉണ്ടാക്ക	-9.04471
ക്കെട്ട	-9.04635
▁മഹാ	-9.04682
▁ശ്രദ്ധ	-9.04709
▁വായിക്ക	-9.04725
▁ഉറപ്പ	-9.05027
ുമ്പോലെ	-9.05071
▁മനോ	-9.05492
▁എത്രയോ	-9.05564
സാഹിത്യ	-9.05779
▁പെണ്ണു്	-9.05832
▁വിധി	-9.06012
▁ഏറ്റവും	-9.06071
ിരിയ്ക്ക	-9.06477
▁കുതിര	-9.06507
▁ഭ്രാന്ത	-9.06536
ാതായി	-9.06551
▁പഠിച്ച	-9.06571
▁സമയമ	-9.06625
▁വച്ചു	-9.06858
ില്ലല്ലോ	-9.06908
▁ബ്ര	-9.0699
ിനുള്ളിൽ	-9.07044
വൃത്ത	-9.07273
▁മനസ്സിലാവ	-9.07302
▁വാക്കുകൾ	-9.07325
▁തിന്ന	-9.07342
ഴിഞ്ഞു	-9.07548
▁കുട്ടിയെ	-9.076
▁ആരാ	-9.07722
▁ചുറ്റി	-9.07938
ോളം	-9.07971
ിപ്പിക്കുന്ന	-9.08097
▁പിള്ള	-9.08153
മാർഗ്ഗ	-9.08273
▁ഏറ്റ	-9.08543
ിടത്തു	-9.08792
▁തമ്മിൽ	-9.08856
▁ദേവകി	-9.08877
▁കുറഞ്ഞ	-9.09322
▁നടത്തി	-9.09397
▁നായര	-9.09478
▁ഗുരു	-9.09643
▁പുറപ്പെട്ട	-9.0971
▁ചിലപ്പോൾ	-9.09785
▁എട്ടു	-9.09869
ജീവി	-9.09926
▁മാത്രമല്ല	-9.10218
ില്ലാതെ	-9.10292
▁ലക്ഷ	-9.10407
▁അധികാര	-9.10724
ചെയ്ത	-9.10918
▁ചുറ്റ	-9.11145
▁കർത്താവ	-9.11213
▁പ്രണയ	-9.11326
വിധത്തിൽ	-9.11393
ഫീസ	-9.11616
ോടുകൂടി	-9.11773
▁ആലോചന	-9.12006
▁ബസ്സ	-9.12154
▁ഗുണ	-9.1223
▁അവനു	-9.12309
▁ഒറ്റയ്ക്ക	-9.12318
▁നിനക്കു്	-9.12575
▁കേട്ടപ്പോൾ	-9.12634
▁സമയത്ത	-9.12774
▁പരീക്ഷ	-9.12814
പരിശോധ	-9.12819
▁വിളിച്ച	-9.13078
▁മേനോൻ	-9.13335
െങ്കിലു	-9.13416
▁നിശ്ശബ്ദ	-9.13626
▁കഴുത്ത	-9.13683
▁കറുത്ത	-9.13707
▁ഉണ്ടാവ	-9.13794
▁താമസിക്ക	-9.13834
▁സമ്മതിക്ക	-9.14152
ബോധ	-9.14281
▁വ്യസന	-9.14446
▁ക്ലാസ്സ	-9.14446
▁കഞ്ഞി	-9.14653
▁ഭാര	-9.14901
▁എങ്ങ	-9.14976
സമ്പാദ	-9.15317
▁വരിക	-9.15747
▁മോഹ	-9.15757
▁പള്ളി	-9.15783
▁ഇരിക്കുന്ന	-9.15984
▁സ്വയം	-9.16262
▁അറുമുഖൻ	-9.16946
▁എളുപ്പ	-9.16946
▁സർവ്വ	-9.16947
▁ആണു്	-9.17098
▁എന്തിനാ	-9.17259
▁എടുത്ത	-9.17467
▁നിലത്തു	-9.17581
▁കുട്ടേട്ടൻ	-9.17794
▁ആർക്കും	-9.17837
ത്തിലേക്കു	-9.18282
▁വിചാരിക്ക	-9.18528
ചേർന്ന	-9.18557
വിധം	-9.18588
▁കോളേജ	-9.18648
▁രഹസ്യ	-9.18648
▁ചെയ്വാൻ	-9.18648
▁ധൃതി	-9.18648
ാദ്ധ്യ	-9.18877
കിടക്കുന്ന	-9.18894
▁അടച്ച	-9.18907
വുമില്ല	-9.18993
▁സഹിക്ക	-9.19401
െന്താണു്	-9.19761
▁സുധ	-9.19924
ുണ്ടെങ്കിൽ	-9.20301
▁ശരിയായ	-9.20447
തോടെ	-9.20458
ൊന്നുമല്ല	-9.20492
▁ക്ഷമ	-9.20689
▁വിജയൻ	-9.20775
▁ആലോചിച്ച	-9.21034
▁ആശ്ചര്യ	-9.21257
ായാലും	-9.21286
▁മുതല	-9.21333
▁പറവാൻ	-9.21347
വെയ്ക്ക	-9.21723
സ്വരത്തിൽ	-9.21924
▁സൂര്യ	-9.22144
▁ഞെട്ടി	-9.22153
▁വായിച്ചു	-9.22347
▁സാരി	-9.2278
▁പരിഭ്രമ	-9.23034
▁മനഃ	-9.23036
▁ജാനകി	-9.23036
▁അടുപ്പ	-9.23096
▁ഉടുപ്പ	-9.23104
മാറി	-9.23118
▁എവിട	-9.23159
▁അമ്മച്ചി	-9.23185
തീർ	-9.23447
▁ഇറങ്ങ	-9.23607
▁മിസ്റ്റർ	-9.23935
പ്പിടി	-9.24023
▁പാട്ടു	-9.24164
▁നെറ്റി	-9.2422
ക്കാലം	-9.24356
ുന്നുണ്ടെന്നു	-9.2443
പ്പോകുന്ന	-9.2447
ഗതി	-9.24682
തിന്നു	-9.24753
▁ദീർഘ	-9.24844
▁കസേല	-9.24845
▁ഭയങ്കര	-9.24848
▁ഭേദ	-9.24867
▁നഗര	-9.24874
▁സാധിച്ച	-9.24884
▁ജന്മ	-9.25022
▁എന്തിനു	-9.25602
▁ഉണ്ണി	-9.25762
▁തൃപ്തി	-9.25762
▁ചങ്ങാതി	-9.25762
ഷ്ഠ	-9.25854
▁തമ്പ്രാ	-9.2605
▁വിജയ	-9.26298
▁നിർബ്ബന്ധ	-9.26688
▁സ്വഭാവ	-9.2669
▁തെങ്ങ	-9.26794
ക്കറിയാം	-9.27377
▁അതിന്നു	-9.27418
▁കാപ്പി	-9.27418
▁ഭാസ്കരന	-9.27603
▁മുഴുവനും	-9.27622
▁സൂക്ഷിച്ച	-9.27623
▁തണുത്ത	-9.27629
▁സാധു	-9.27655
▁മകൻ	-9.27734
▁ആദ്യത്തെ	-9.27897
▁നേരിട്ട	-9.28322
▁ഭാഗത്ത	-9.292
▁എന്തിനാണു്	-9.29524
▁ഭാസ്കരന്റെ	-9.29538
▁മട്ടിൽ	-9.29587
▁അവളോടു്	-9.29782
▁കൂടാതെ	-9.30018
ുണ്ടാകും	-9.30173
▁അന്യ	-9.30271
▁നമ്പൂതിരി	-9.3048
▁വക്കീൽ	-9.3048
▁പോലീസ	-9.30483
▁കോടതി	-9.30493
▁വിഷയ	-9.30526
▁തേങ്ങ	-9.30745
▁ആരെങ്കിലും	-9.30842
▁കൊണ്ടുപോയി	-9.30972
▁അടക്ക	-9.30972
▁വിശ്വസി	-9.31116
▁ഏർപ്പാട	-9.3145
▁ഫോൺ	-9.31452
▁മുതൽ	-9.31468
സിദ്ധി	-9.31793
▁റോഡ	-9.32439
▁പ്രയാസ	-9.32455
▁കുറച്ചുനേരം	-9.32538
▁ഉണർന്ന	-9.33421
▁രഘു	-9.33421
▁മെല്ലെ	-9.33438
▁സാമാന	-9.33448
▁ധരിച്ച	-9.33547
▁ശങ്കരൻനായർ	-9.34421
▁വിരോധ	-9.34421
▁രോഗ	-9.34422
▁എങ്കിൽ	-9.34426
▁പകരം	-9.34465
▁വിളക്കു	-9.34691
▁ശ്രദ്ധിക്ക	-9.34809
▁കെട	-9.34893
വ്യക്ത	-9.35256
മ്പ്രാ	-9.35345
▁ഒടുവിൽ	-9.35431
▁പുറപ്പെട	-9.35435
▁അങ്ങോട്ടു	-9.35463
മാതിരി	-9.35736
ാകും	-9.36009
ിൽനിന്നും	-9.36154
▁വിഡ്ഢി	-9.36451
▁സന്ധ്യ	-9.36451
▁സൗന്ദര്യ	-9.36451
▁തല്ക്കാലം	-9.36454
പിടി	-9.36455
നില്ക്കുന്ന	-9.36729
▁ആകെ	-9.36809
തോന്നി	-9.37338
▁ബോദ്ധ്യ	-9.37482
▁നന്ദി	-9.37573
തോറും	-9.3778
▁തുണി	-9.37894
ശക്തി	-9.38077
▁മടങ്ങ	-9.38184
ഛ	-9.38517
▁രണ്ടുപേരും	-9.38524
▁ആനന്ദവല്ലി	-9.38524
ദ്രോഹ	-9.38524
▁അമ്പല	-9.38608
▁ഗൗരവ	-9.39577
▁പിറ്റേന്നു	-9.39577
▁തലമുടി	-9.39581
▁വായന	-9.39663
▁കൃഷ്ണൻനായര	-9.40578
▁തറവാട്ട	-9.40641
▁ലക്ഷ്മി	-9.40642
▁ശുദ്ധ	-9.40652
▁മുന്നോട്ടു	-9.40677
▁എന്തായാലും	-9.40709
▁പ്രവൃത്തി	-9.40786
ബാധ	-9.40881
▁പറയേണ്ട	-9.41016
ിനിടയിൽ	-9.41026
▁ഗോപു	-9.41062
▁ഫോട്ടോ	-9.41717
▁മടക്കി	-9.41758
▁വിചാരിക്കുന്ന	-9.4182
▁തോന്നുന്നില്ല	-9.4193
കൊല്ലം	-9.41937
▁കൗതുക	-9.42803
▁മര്യാദ	-9.42804
▁ഗ്ലാസ്	-9.42805
▁സൃഷ്ടി	-9.42808
▁മനസ്സിലാക	-9.43891
▁ഷാപ്പ	-9.43903
ഞ്ജ	-9.43914
െഴുതി	-9.43942
▁ഫ്ര	-9.44167
ക്കാലത്തു	-9.44214
താഴ്ത്തി	-9.45018
▁ഉയർന്ന	-9.46136
▁ഏട്ടന	-9.46136
▁ഉത്സാഹ	-9.46136
▁ഷർട്ട	-9.46137
▁തീരുമാന	-9.47273
▁ചവിട്ട	-9.47752
▁പെണ്ണുങ്ങള	-9.48023
ച്ചിരി	-9.48159
▁സമ്മാന	-9.48431
▁അസാരം	-9.48432
▁അമ്മച്ചീ	-9.48443
േഷൻ	-9.48564
▁ഇരുപത്ത	-9.48608
▁ഹേമാംഗ	-9.49165
▁നഷ്ടപ്പെട്ട	-9.4959
▁കിഴക്ക	-9.49592
▁തീർന്ന	-9.49755
ിട്ടുണ്ടെന്നു	-9.50412
▁പകുതി	-9.50767
▁അന്ധ	-9.50793
▁കുട്ടൻ	-9.50797
▁ഭാട്ടിയാ	-9.51952
▁പാറുവമ്മ	-9.51952
▁ബുദ്ധിമുട്ട	-9.51955
ശൂന്യ	-9.51974
▁വളർന്ന	-9.52016
▁സുനന്ദ	-9.52035
▁അവകാശ	-9.53157
േണ്ടിവരും	-9.53766
▁യുവ	-9.53909
▁അന്യോന്യം	-9.54376
▁ശ്വാസം	-9.54376
▁ഒരുപക്ഷേ	-9.54377
▁പരമാർത്ഥ	-9.54377
▁തലയാട്ടി	-9.54377
▁വക്കീല	-9.54378
▁അറുമുഖന	-9.54378
▁മിണ്ടിയില്ല	-9.54382
▁കൃഷ്ണൻനായരുടെ	-9.54449
▁മക്കള	-9.54662
▁ഉണ്ടെന്ന	-9.55076
▁ഏറെ	-9.55611
▁വസുമതി	-9.55611
▁സ്ക്കൂള	-9.55611
▁കല്ലു	-9.56595
▁അത്യാവശ്യ	-9.56861
▁അന്വേഷിച്ചു	-9.56863
▁ഒരൊറ്റ	-9.56864
നില്ക്ക	-9.57977
▁ഏട്ടൻ	-9.58127
▁കുടുംബ	-9.5813
▁കീഴ	-9.58193
മുണ്ടെന്നു	-9.59031
ോടൊപ്പം	-9.59409
▁ശാരദ	-9.59414
▁പ്രധാന	-9.59415
▁അപേക്ഷ	-9.60708
ിട്ടുണ്ടാവും	-9.60712
▁ഒന്നാമതു	-9.60802
▁ബാധിച്ച	-9.60806
▁മാധവ	-9.6082
▁സാരമില്ല	-9.6083
▁കോമാളി	-9.62026
േപ്പോലെ	-9.6203
സമയത്തു	-9.63323
▁പല്ലു	-9.63341
▁സ്വീകരിക്ക	-9.63381
▁അച്ചായ	-9.63401
വിചാര	-9.63601
ായിരിക്കാം	-9.64417
ഃ	-9.64706
▁ഉറച്ച	-9.64708
▁പ്രാവശ്യം	-9.64708
▁ഏകദേശം	-9.64709
▁തീവണ്ടി	-9.6471
▁സ്ഥിര	-9.6471
▁ഹോട്ടല	-9.64713
▁സീലി	-9.64721
▁ആഴ്ച	-9.64781
േഴ്സ	-9.64815
▁സഞ്ചി	-9.64933
▁പതിഞ്ഞ	-9.64968
▁ഉയര	-9.66078
▁ഒതുക്ക	-9.66078
▁രക്ത	-9.66079
▁കൂട്ടുകാര	-9.6609
▁പ്രസവ	-9.66167
▁ന്യായ	-9.66239
▁ചുവന്ന	-9.6641
▁ബഹള	-9.67477
▁തീർച്ചയാക്കി	-9.67478
▁അഭിനയ	-9.67481
▁പുറത്തേക്കു	-9.67636
▁ചേർന്നു	-9.67658
രുതെന്ന	-9.68341
▁ബഹുമാന	-9.68875
▁യേശു	-9.68875
▁തണുപ്പ	-9.68882
▁അങ്ങുന്നേ	-9.68886
▁വർണ്ണ	-9.6889
▁പൊന്നീ	-9.68896
▁സിദ്ധിച്ച	-9.68899
▁നിരാശ	-9.6898
▁നനഞ്ഞ	-9.69213
▁പറവാന	-9.69396
നുഭവ	-9.69791
▁സൈക്കിൾ	-9.70304
▁ഇങ്ങോട്ടു	-9.70304
▁ദേഷ്യ	-9.70304
▁മെലിഞ്ഞ	-9.70304
▁കുമാരൻ	-9.70307
▁ഭക്തി	-9.70308
▁തക്കവണ്ണം	-9.70309
▁സമീപ	-9.70311
ില്ലായ്മ	-9.70342
▁നാട്ടില	-9.70839
▁സഹോദര	-9.71753
▁സുഖക്കേട	-9.71753
▁നളിനി	-9.71761
▁ശ്രീ	-9.71774
▁അച്ഛാ	-9.71775
▁ചില്ലറ	-9.71807
▁വ്യക്തമാ	-9.72058
ബുദ്ധി	-9.72149
▁മണിക്കൂർ	-9.73223
▁വർത്തമാനം	-9.73223
▁അനുകൂല	-9.73224
▁സംഭാഷണ	-9.73227
▁ഇങ്ങട്ടു	-9.73231
▁അന്വേഷിക്ക	-9.73237
▁മുന്നില	-9.73261
▁ചേർത്തു	-9.73293
▁മറ്റുള്ളവര	-9.73478
വേദന	-9.73658
▁അനാവശ്യ	-9.74716
▁ഉട്ടൂപ്പ	-9.74716
▁ഉറുപ്പിക	-9.74716
▁ചികിത്സ	-9.74716
▁സ്കൂള	-9.74716
▁കഠിന	-9.74717
▁ആശ്രമ	-9.74727
▁പൂമുഖത്ത	-9.74743
▁പരസ്യ	-9.74759
ായിരിക്കുമോ	-9.76204
▁വല്ല്യമ്മ	-9.76235
▁അയ്യോ	-9.76262
▁അസൂയ	-9.76288
വയ്യാത്ത	-9.76291
▁ഒന്നുരണ്ടു	-9.76306
▁സൂചി	-9.76485
▁പുറമെ	-9.7777
▁അകലെ	-9.77772
▁അനുകമ്പ	-9.7778
വിശ്വാസ	-9.78258
▁വാസന	-9.79164
▁ക്ഷീരം	-9.79332
▁കച്ചവട	-9.79333
നിമിത്തം	-9.79338
▁മന്ദഹസി	-9.79338
▁മൃഗ	-9.79339
▁അരികെ	-9.79353
▁കമ്പനി	-9.79356
▁കേരള	-9.79358
▁ചുകന്ന	-9.79604
▁ചോറു	-9.79682
▁താഴത്ത	-9.79685
െങ്ങിനെ	-9.80221
മദ്ധ്യ	-9.8047
▁കൃഷ്ണക്കുറുപ്പ	-9.80919
▁ബിജു	-9.8092
▁അഥവാ	-9.80923
ദർശന	-9.80924
▁കണ്ടുപിടിക്ക	-9.80927
▁ഒരേടത്തു	-9.80959
▁മുഴുകി	-9.80974
കാംക്ഷ	-9.81171
▁മേനോന	-9.81506
▁നിണക്കു	-9.82187
▁ചുംബന	-9.82533
▁കുട്ടേട്ടന	-9.82533
▁കസേര	-9.82543
ായിരിക്കുമെന്ന	-9.82883
▁ഇംഗ്ലീഷ	-9.84172
അ	-9.97264
1	-10.1381
ഞ	-10.5508
എ	-11.3306
ആ	-11.793
ഐ	-12.4266
ഢ	-12.4267
ഊ	-12.4268
ഘ	-12.4269
ഏ	-12.427
ഈ	-12.4271
ഉ	-12.4272
ഇ	-12.4273
ഒ	-12.4274
ഓ	-12.4275
ങ	-12.4275
