<unk>	0
<s>	0
</s>	0
▁ഒരു	-4.20849
്	-4.26249
▁	-4.823
▁ഞാൻ	-4.86024
▁ആ	-4.9775
▁അവൾ	-4.97753
ം	-5.07913
ു	-5.30586
ും	-5.46144
യും	-5.5349
▁അയാൾ	-5.57617
▁എന്റെ	-5.61546
▁അവളുടെ	-5.6447
▁പറഞ്ഞു	-5.6512
▁ഈ	-5.69843
ു്	-5.80993
യ	-5.96536
െ	-6.01601
ി	-6.05515
▁നീ	-6.1128
വും	-6.12758
ാണു്	-6.12808
േ	-6.12948
ാ	-6.13645
തു്	-6.13835
▁തന്റെ	-6.20609
▁അവർ	-6.20666
ോ	-6.21701
▁നോക്കി	-6.23728
ില്ല	-6.27986
▁എന്ന	-6.29461
യുടെ	-6.29771
▁അതു്	-6.3077
▁എന്നു	-6.34458
▁തന്നെ	-6.37332
▁എന്നു്	-6.38912
▁അതു	-6.39516
യാണു്	-6.40097
ിൽ	-6.44201
▁പിന്നെ	-6.46316
▁അവളെ	-6.46586
▁വളരെ	-6.47573
▁എന്നെ	-6.50765
ാൻ	-6.53212
▁എനിക്കു്	-6.53538
തന്നെ	-6.59441
ക്ക	-6.60939
▁നാ	-6.61192
▁ഒന്നും	-6.61711
കൊണ്ടു്	-6.62162
▁അവൾക്കു്	-6.63153
കൾ	-6.64724
വ	-6.66814
ായിരുന്നു	-6.67266
തു	-6.67794
▁നല്ല	-6.67925
▁വന്നു	-6.68171
▁അയാളുടെ	-6.69553
ിരുന്നു	-6.69609
▁പക്ഷേ	-6.69931
▁അവൻ	-6.71001
പോലെ	-6.7109
▁അദ്ദേഹം	-6.71217
യിൽ	-6.71439
ക	-6.73299
▁നിങ്ങൾ	-6.73679
▁ചോദിച്ചു	-6.74233
▁അവിടെ	-6.7467
▁പോയി	-6.7521
ക്കു	-6.75753
▁വലിയ	-6.76087
▁കാര്യം	-6.7623
▁രണ്ടു	-6.78389
▁എനിക്കു	-6.7851
▁എന്നാൽ	-6.79467
ൻ	-6.79548
▁തോന്നി	-6.81723
ിന്റെ	-6.84142
ക്കു്	-6.84946
മ	-6.85046
ത്തിൽ	-6.86329
▁ഇനി	-6.87461
▁നിന്നു	-6.88826
▁അ	-6.89342
▁ഇപ്പോൾ	-6.89771
ത	-6.89946
ായി	-6.91808
ത്ത	-6.9198
▁കൂടി	-6.92155
ത്തിന്റെ	-6.93188
മാണു്	-6.94054
യെ	-6.94428
▁കു	-6.94788
▁ഒന്നു	-6.96181
▁ഇവിടെ	-6.96302
മായി	-6.9644
▁ഇല്ല	-6.97256
ൽ	-6.98303
ന	-6.98929
ങ്ങൾ	-6.99504
ുന്ന	-6.99611
കൂടി	-7.02422
▁നടന്നു	-7.02844
ര	-7.03966
▁അങ്ങിനെ	-7.0556
ാൽ	-7.0564
▁അതിന്റെ	-7.06272
▁അമ്മ	-7.06591
▁മാത്രം	-7.08837
യോ	-7.10439
▁കണ്ടു	-7.10721
▁കൈ	-7.11279
മായ	-7.11454
▁ദിവസം	-7.11784
▁ഇങ്ങിനെ	-7.12779
▁താൻ	-7.15269
▁വന്ന	-7.15664
▁കൃ	-7.16308
▁തുടങ്ങി	-7.16371
▁ചെയ്തു	-7.18224
▁നിന്റെ	-7.18784
▁അദ്ദേഹത്തിന്റെ	-7.18909
▁എത്ര	-7.19051
▁മുഖം	-7.19121
▁പൊന്നി	-7.19497
പ്പോൾ	-7.19765
ല	-7.21402
▁എന്തു	-7.22134
▁അവരുടെ	-7.2276
▁പോലെ	-7.24791
▁നിന്നു്	-7.25257
▁ഒന്നു്	-7.25558
▁അയാളെ	-7.25805
▁ചില	-7.26453
▁മതി	-7.26891
ുള്ള	-7.27394
താണു്	-7.27743
യ്ക്കു്	-7.27783
▁അച്ഛൻ	-7.28534
ുണ്ടു്	-7.28565
ല്ല	-7.2896
▁അപ്പോൾ	-7.30437
ാതെ	-7.31651
▁രാത്രി	-7.32553
ള്ള	-7.32884
ിരിക്കുന്നു	-7.33418
▁ഓരോ	-7.33907
▁വിവാഹം	-7.34839
ത്തന്നെ	-7.34946
▁എല്ലാം	-7.34957
▁വീട്ടിൽ	-7.35613
▁ക	-7.37091
ുക	-7.37393
ണ	-7.38044
യായി	-7.38196
▁ത്രേസ്യാമ്മ	-7.38642
ന്റെ	-7.38672
യായിരുന്നു	-7.38674
പ്പ	-7.38714
▁എന്തോ	-7.38773
ത്തെ	-7.39152
ണം	-7.39195
▁തല	-7.40136
ുന്നതു്	-7.40404
▁അവന്റെ	-7.40513
ർ	-7.40876
പ	-7.42166
ൊ	-7.42193
▁എന്താ	-7.42665
തും	-7.44027
ക്കും	-7.44251
▁വേണ്ട	-7.44455
▁നിങ്ങളുടെ	-7.44707
ൂ	-7.45206
▁കഴിഞ്ഞ	-7.46957
ൊക്കെ	-7.48002
▁വീണ്ടും	-7.48547
ൊന്നും	-7.48619
▁ഞങ്ങൾ	-7.48683
െങ്കിലും	-7.48735
ിരുന്ന	-7.48743
റ	-7.49223
▁കൊണ്ടു്	-7.49363
▁കുറച്ചു	-7.49703
▁കയറി	-7.49826
▁പണം	-7.49869
ാത്ത	-7.50069
▁സമയം	-7.50634
നിന്നു	-7.50753
▁കുറെ	-7.51358
ുമ്പോൾ	-7.51455
▁അയാൾക്കു്	-7.52307
▁ചെറിയ	-7.5247
▁ജോലി	-7.52474
യുള്ള	-7.52485
ച്ച	-7.53367
▁പെട്ടെന്നു്	-7.53391
▁തിരിച്ചു	-7.53625
കളും	-7.54452
▁കണ്ട	-7.54876
▁എന്താണു്	-7.54944
▁മുഴുവൻ	-7.54953
▁ശബ്ദം	-7.55404
▁പറഞ്ഞതു്	-7.55484
▁ന	-7.56039
ള	-7.56291
▁കുട്ടി	-7.56391
ായ	-7.56444
കൊണ്ടു	-7.5684
ാം	-7.57999
▁നേരം	-7.58437
ിട്ടു്	-7.58689
ന്നു്	-7.58853
▁അടുത്ത	-7.5902
▁കൊണ്ടു	-7.59115
നിന്നു്	-7.59884
ന്ന	-7.60207
ണ്ടു്	-7.60958
കള	-7.6134
▁നിന്നെ	-7.61647
മായിരുന്നു	-7.62575
യ്ക്കു	-7.62924
▁മുറിയിൽ	-7.63348
ീ	-7.63371
▁വല്ല	-7.63422
▁ഭാര്യ	-7.63979
▁പറഞ്ഞ	-7.64227
▁ഇതു്	-7.65079
സ	-7.65176
▁കാണാൻ	-7.66088
ുകയും	-7.66171
▁ഭാസ്കരൻ	-7.66303
ങ്ങളും	-7.66514
▁അവൾക്കു	-7.66956
▁കാരണം	-7.6813
▁സ്വന്തം	-7.69053
▁മറ്റൊരു	-7.70476
ുന്നു	-7.70713
ിട്ടുണ്ടു്	-7.70807
▁കഴിഞ്ഞു	-7.71561
▁മുമ്പിൽ	-7.71805
▁വാതിൽ	-7.7185
▁വേണ്ടി	-7.71943
▁നല്ലവണ്ണം	-7.72172
▁വിളിച്ചു	-7.72924
▁എഡോൾഫി	-7.73104
ാനുള്ള	-7.73351
ല്ലേ	-7.74061
ട	-7.74779
ുവാൻ	-7.75291
▁ധനം	-7.75859
▁പല	-7.76288
▁എന്നും	-7.76776
▁അതെ	-7.76987
യില്ല	-7.76997
▁ഇരുന്നു	-7.77135
▁ശരി	-7.77187
▁കണ്ണുകൾ	-7.77198
▁കണ്ടപ്പോൾ	-7.77776
▁അങ്ങനെ	-7.77905
▁ആരും	-7.77954
▁എന്തെങ്കിലും	-7.78034
▁സ്ത്രീ	-7.78158
▁വര	-7.78254
▁പോയ	-7.78894
▁അതിൽ	-7.78981
▁വഴി	-7.7913
വരെ	-7.79293
▁അല്ല	-7.79342
പോയി	-7.79698
ുകൾ	-7.79704
മോ	-7.79942
ുകയായിരുന്നു	-7.80074
യായ	-7.8043
▁പറഞ്ഞു്	-7.80518
▁ചെന്നു	-7.80593
▁പിടിച്ചു	-7.80862
▁രാവിലെ	-7.81021
▁പുതിയ	-7.81133
▁ഇതു	-7.81608
െന്നു	-7.82041
ൊരു	-7.82114
▁ഒക്കെ	-7.8217
▁ഇത്ര	-7.8287
ുകയാണു്	-7.82984
▁മ	-7.83384
▁എല്ലാ	-7.83544
▁മണി	-7.83788
▁നേരെ	-7.8472
െന്നു്	-7.84767
വര	-7.85633
▁മനസ്സിൽ	-7.85779
▁കടന്നു	-7.85938
ട്ട	-7.86201
▁ചെയ്ത	-7.86239
▁കേട്ടു	-7.86523
▁അവരെ	-7.86612
▁അത്ര	-7.86821
▁പറയാൻ	-7.87191
▁വന്നു്	-7.87212
▁ഉണ്ടു്	-7.87541
▁നിങ്ങളെ	-7.87732
▁എടുത്തു	-7.88033
ുണ്ടായിരുന്നു	-7.88418
▁കൂടെ	-7.88633
▁വേറെ	-7.88741
▁ഞാനും	-7.88779
▁ചിരിച്ചു	-7.88918
ായിരിക്കും	-7.89127
വർ	-7.8961
▁എഴുന്നേറ്റു	-7.89614
▁അല്ലെങ്കിൽ	-7.89619
ിലെ	-7.9048
▁പഴയ	-7.90778
ിട്ടില്ല	-7.90816
▁കഥ	-7.90841
ിച്ച	-7.90968
▁ഒരിക്കലും	-7.9131
▁യാതൊരു	-7.91311
▁നമ്മുടെ	-7.91465
▁തുറന്നു	-7.91648
ുടെ	-7.92058
ിട്ടു	-7.92487
▁ഓർമ്മ	-7.92662
▁രാജാ	-7.92693
▁ജന്നി	-7.93172
മുള്ള	-7.9319
ണ്ട	-7.93492
▁പ	-7.93588
▁തോന്നുന്നു	-7.93845
▁ഓ	-7.9425
▁ഉടനെ	-7.94593
▁അതും	-7.94668
സ്	-7.94803
നെ	-7.95159
▁ഉള്ള	-7.95535
▁ജോസഫേട്ടൻ	-7.96138
▁ചായ	-7.96319
ിട്ട	-7.96458
▁ഉണ്ടായിരുന്ന	-7.97445
▁ലളിത	-7.97695
▁പറഞ്ഞാൽ	-7.98205
▁കിട്ടിയ	-7.98526
▁എന്നാണു്	-7.99217
▁ഇന്നു്	-7.9948
▁നമുക്കു്	-7.99667
▁ഒപ്പം	-7.99735
കളുടെ	-7.99932
▁കട	-8.00419
▁ഞാന	-8.00516
ാണെന്നു്	-8.00624
▁ഇന്ദിര	-8.00749
ാനും	-8.00876
▁പുറത്തു	-8.01848
▁ജഡ്ജി	-8.01999
ാന	-8.02399
ത്തോടെ	-8.03382
▁വി	-8.03443
▁വാ	-8.03572
▁അച്ഛന്റെ	-8.03644
ൾ	-8.03756
▁പോകുന്ന	-8.03818
▁കൊടുത്തു	-8.03971
പ്പെട്ട	-8.04381
▁അതുകൊണ്ടു്	-8.04453
▁അവ	-8.04896
▁ഇങ്ങനെ	-8.04908
▁സ	-8.05192
ക്	-8.0541
▁പറയുന്നതു്	-8.05419
▁ജാ	-8.055
ല്ലോ	-8.05503
കളിൽ	-8.05874
▁കഴിഞ്ഞു്	-8.06731
യിരുന്നു	-8.06973
▁വരുന്ന	-8.07073
▁എങ്ങിനെ	-8.07434
▁ശേഷം	-8.07503
ിരുന്നില്ല	-8.07594
▁എ	-8.07603
▁ഇതൊക്കെ	-8.07654
▁കിടന്നു	-8.08036
▁മനസ്സിലായി	-8.0825
▁വെള്ളം	-8.08516
▁താഴെ	-8.0861
▁അല്പം	-8.08673
▁നിന്ന	-8.09061
യാ	-8.09187
ക്കൊണ്ടു്	-8.09396
▁നാളെ	-8.09763
▁നിണക്കു്	-8.09985
▁ഉള്ളിൽ	-8.10016
▁വന്നതു്	-8.10052
യ്ക്ക	-8.10133
▁നായർ	-8.10186
▁എത്തി	-8.10274
ോടു്	-8.10501
ല്ലെ	-8.10551
▁ഉണ്ടായിരുന്നു	-8.10845
റ്റ	-8.10975
▁യൂജീൻ	-8.11215
▁എന്നിട്ടു്	-8.11218
നായ	-8.11277
▁ആയിരുന്നു	-8.11604
▁ഞങ്ങളുടെ	-8.11755
മില്ല	-8.11847
▁അവനെ	-8.11874
ത്തിനു	-8.12137
നും	-8.12335
ടെ	-8.12539
▁വെച്ചു	-8.12564
▁മൂന്നു	-8.12638
▁വെറും	-8.12804
▁വല്ലതും	-8.12901
▁അതേ	-8.12903
▁പണി	-8.13119
ിച്ചു	-8.1327
▁മുറി	-8.13395
▁വരും	-8.13486
▁വേണം	-8.13501
▁അന്നു്	-8.137
▁നിർത്തി	-8.13778
ില്ലേ	-8.14003
▁വാങ്ങി	-8.14022
ിനെ	-8.14316
▁ഒര	-8.15219
ിനു	-8.15843
▁വിചാരിച്ചു	-8.15956
▁വെറുതെ	-8.16023
േണ്ട	-8.16238
▁നിങ്ങൾക്കു്	-8.16957
ത്തി	-8.17288
▁വ	-8.17561
▁പിന്നേയും	-8.17786
▁രണ്ടു്	-8.17922
▁അത	-8.17952
്യ	-8.18067
▁ഇട	-8.18192
▁അതൊക്കെ	-8.18297
▁വില	-8.18308
േയും	-8.18514
ന്നു	-8.18576
തിന്റെ	-8.19138
പോലും	-8.19145
▁അയാൾക്കു	-8.19436
▁കാലം	-8.19589
▁ഒരാൾ	-8.19828
▁ജീവിതം	-8.19893
▁കാര്യങ്ങൾ	-8.19974
ത്	-8.19983
▁മാതിരി	-8.20765
▁മാത്രമേ	-8.20801
▁ആലോചിച്ചു	-8.20852
▁തിരിഞ്ഞു	-8.20867
▁രതി	-8.21019
ിനു്	-8.21214
▁മുഖത്തു്	-8.21533
ങ്ങളുടെ	-8.21558
ിയ	-8.21594
▁രൂപ	-8.22519
ശ	-8.22835
ച്ചു	-8.22883
▁തു	-8.23119
▁മാറി	-8.23355
മ്പ	-8.23445
▁എല്ലാവരും	-8.23516
▁ഒരിക്കൽ	-8.23962
▁കുറേ	-8.24105
▁മന്ദാരം	-8.24107
▁കൃഷ്ണൻനായർ	-8.24573
▁തുടർന്നു	-8.2461
ക്കാൻ	-8.2485
▁ആദ്യം	-8.24873
▁പദ്മിനി	-8.24893
ുണ്ടായിരുന്നില്ല	-8.25076
▁പിടിച്ച	-8.2583
▁കിടക്കുന്ന	-8.2586
▁ബാക്കി	-8.25911
വി	-8.2609
യിലെ	-8.26302
വെച്ചു	-8.26506
ിരിക്കുന്ന	-8.2678
▁എവിടെ	-8.27123
▁ഹേമാംഗൻ	-8.27123
▁ഇ	-8.27171
▁അതിനു	-8.27535
▁നമ്മൾ	-8.27679
▁മുമ്പു്	-8.27731
▁അമ്മയുടെ	-8.27915
ത്തിനു്	-8.28039
ങ്ങളിൽ	-8.2805
ദ	-8.28311
ട്ടെ	-8.28419
▁വെച്ച	-8.28806
യില	-8.29014
െന്ന	-8.29047
▁യാത്ര	-8.29071
വന്നു	-8.2943
ലും	-8.29574
▁ഇതുവരെ	-8.29647
▁സാധാരണ	-8.2969
യോടു്	-8.29751
ത്തിന്നു്	-8.29871
ഴ	-8.30349
▁അടുത്തു	-8.3044
▁വിചാരം	-8.30586
▁ചെയ്യും	-8.30665
▁മറ്റു	-8.30789
▁ഓർത്തു	-8.30917
▁ശക്തി	-8.31082
▁മറുപടി	-8.31165
▁കൂടുതൽ	-8.31515
▁എങ്കിലും	-8.31533
▁പാടില്ല	-8.31541
രു	-8.31725
ില	-8.31813
▁ചിരി	-8.31945
▁പതുക്കെ	-8.3216
▁മഴ	-8.32443
▁കരുതി	-8.32688
കളെ	-8.32829
▁മോശ	-8.32973
▁കണ്ടാൽ	-8.33098
യൊക്കെ	-8.33158
യൊ	-8.33449
▁കൃഷ്ണൻ	-8.3347
▁കൂട്ടി	-8.3351
▁എനിക്ക	-8.33607
▁അന്നു	-8.33662
▁മുന്നിൽ	-8.34186
▁കൊടുത്ത	-8.34375
▁വരാൻ	-8.35134
▁കയ്യിൽ	-8.35204
▁പറഞ്ഞില്ല	-8.35402
▁പറയ	-8.35444
▁എപ്പോഴും	-8.35458
▁ഇന്നലെ	-8.3546
▁വിവരം	-8.35692
ത്തു	-8.36122
ുമായി	-8.36458
ുന്നതു	-8.36523
മാത്രം	-8.36545
ാലും	-8.36709
▁പറയും	-8.36818
▁ചുറ്റും	-8.36833
▁തന്ന	-8.37007
ച	-8.37416
തുകൊണ്ടു്	-8.37469
▁കാര്യത്തിൽ	-8.37537
▁വേഗം	-8.37596
▁ഇറങ്ങി	-8.37905
▁വെള്ള	-8.38032
▁ച	-8.38049
ഷ	-8.382
▁കാല	-8.38206
▁കാർ	-8.38257
▁അദ്ദേഹത്തെ	-8.38363
ിലും	-8.38371
▁ഇനിയും	-8.38612
െങ്കിൽ	-8.38683
▁അവർക്കു്	-8.38714
▁ഒരേ	-8.38735
പോയ	-8.38827
യോടെ	-8.38935
▁ക്ഷണം	-8.39032
ിക്ക	-8.3954
തിൽ	-8.39614
▁അധികം	-8.39684
▁എന്നോടു്	-8.39962
▁സകല	-8.40042
▁എന്തു്	-8.40112
▁വീണു	-8.40292
▁ഉണ്ടായി	-8.40436
▁മറ്റും	-8.40659
▁ലക്ഷ്മിഅമ്മ	-8.40767
▁ഡോക്ടർ	-8.4095
ോട	-8.40956
▁കേവലം	-8.4097
വെച്ചു്	-8.40988
▁വൈകുന്നേരം	-8.40996
▁കളി	-8.41125
▁തനിക്കു്	-8.41167
മാ	-8.41433
യേ	-8.41549
▁പിന്നെയും	-8.41611
ിട്ടും	-8.41827
▁മാത്രമാണു്	-8.4193
ില്ലാത്ത	-8.4232
▁അടുക്കെ	-8.42332
യ്ക്കും	-8.42448
▁കണ്ടതു്	-8.42494
▁രാ	-8.42496
▁ഏതു	-8.42762
▁ആയ	-8.42925
▁കണ്ണു	-8.42933
ക്കുന്ന	-8.43347
▁വേദന	-8.43368
കൂടെ	-8.43386
ക്കൂടി	-8.43695
ാണോ	-8.43719
▁ദാവീദ്	-8.4394
▁നാലു	-8.44032
▁കൊച്ചു	-8.4424
▁പിന്നാലെ	-8.44548
▁ത	-8.44676
വൾ	-8.44823
▁വിട്ടു	-8.45212
▁ഏതായാലും	-8.45284
▁പി	-8.45352
▁1	-8.45505
▁ഇന്നു	-8.45553
▁അല്ലേ	-8.45624
▁സമയത്തു്	-8.45678
ങ്ങള	-8.46076
ടി	-8.46233
▁പെണ്ണു്	-8.46396
▁വണ്ടി	-8.46451
നോക്കി	-8.46538
ങ്ങ	-8.46569
▁എന്നാലും	-8.46946
▁എത്രയോ	-8.47068
▁അകത്തു	-8.47123
▁മനസ്സിലാക്കി	-8.47248
▁പാട	-8.47269
ുള്ളു	-8.47408
▁ആൾ	-8.47472
▁ഏറ്റവും	-8.47568
യി	-8.4778
▁പിടിച്ചു്	-8.47829
▁പോലും	-8.47884
▁വെളുത്ത	-8.48499
വെച്ച	-8.48751
ജ	-8.48792
ാണു	-8.48968
▁പ്രത്യേക	-8.49017
▁മുകളിൽ	-8.49022
െല്ലാം	-8.49382
▁മോളെ	-8.4952
ുണ്ടോ	-8.49552
▁പിന്നിൽ	-8.49635
▁പേർ	-8.49787
ാണെന്നു	-8.4982
▁സീമ	-8.49914
▁കുട്ടിയെ	-8.50029
വന്ന	-8.50093
▁അതിനു്	-8.50272
▁ചെയ്യുന്ന	-8.50391
▁സംഗതി	-8.50434
▁തമ്മിൽ	-8.50629
തായി	-8.50649
▁നിമിഷം	-8.50689
▁കല്യാണം	-8.50813
▁ചിലപ്പോൾ	-8.5085
ിക്കാൻ	-8.51258
യുണ്ടു്	-8.51468
റി	-8.51489
ാറില്ല	-8.51665
▁കേട്ട	-8.51881
ോടെ	-8.52343
▁കൂട്ട	-8.52502
▁ചൈനാനി	-8.52822
ാണെങ്കിൽ	-8.53
യിലും	-8.53371
്റെ	-8.53546
▁ആരോ	-8.53677
വരും	-8.53712
▁കേട്ടപ്പോൾ	-8.53858
▁വീടു്	-8.53863
ത്തെപ്പറ്റി	-8.53864
▁കഴിഞ്ഞാൽ	-8.54133
▁നന്നായി	-8.54543
▁മേനോൻ	-8.54582
▁നിനക്കു്	-8.54589
താ	-8.54791
▁വെച്ചു്	-8.55638
▁നിങ്ങൾക്കു	-8.55642
ാവ	-8.55765
മുണ്ടു്	-8.56303
ിക്കുന്ന	-8.5641
▁അനുരാഗം	-8.56464
▁ഒന്ന	-8.56534
▁നിറഞ്ഞ	-8.56639
▁പെട്ടെന്നു	-8.56695
▁ചെയ്യ	-8.56882
▁മാത്രമല്ല	-8.569
പ്പോ	-8.56903
▁പറയാം	-8.57114
യുമായി	-8.57145
▁ആലോചിക്ക	-8.57221
▁വന്നപ്പോൾ	-8.57389
▁പറ്റിയ	-8.57809
▁സ്വയം	-8.5785
▁ഇത്രയും	-8.57854
▁ഓടി	-8.58437
കൊണ്ടും	-8.58517
▁വയ്യ	-8.58584
▁അറുമുഖൻ	-8.58688
▁സുനിൽ	-8.58692
യല്ല	-8.58777
▁രാജാവു്	-8.58918
▁വാക്കുകൾ	-8.5903
▁ചെയ്യാൻ	-8.59089
▁തിരുമേനി	-8.59139
ോടു	-8.592
▁ആണു്	-8.59207
▁കിട്ടി	-8.5921
ംകൊണ്ടു്	-8.59482
▁കുട്ടേട്ടൻ	-8.59536
▁തുടങ്ങിയ	-8.59581
▁ആർക്കും	-8.59706
ിന	-8.59781
▁ഹൃദയം	-8.5993
ുമോ	-8.59975
മില്ലാത്ത	-8.60051
പ്പോലെ	-8.60123
▁കൊണ്ട	-8.60213
▁നോക്ക	-8.60291
ല്ലാതെ	-8.6057
മല്ല	-8.6074
▁കാണുന്ന	-8.60795
▁തുറന്നു്	-8.6091
രുതു്	-8.60956
ല്ലൊ	-8.6098
▁ചെറിയമ്മ	-8.60995
▁അവള	-8.61112
▁നടക്കുന്ന	-8.6133
▁തര	-8.6134
▁നിലയിൽ	-8.61529
▁ഇത	-8.61531
▁കേറി	-8.61728
▁കോണി	-8.61997
നിന്ന	-8.62142
▁സ്ഥലം	-8.62264
▁പറവാൻ	-8.63114
▁നിൽക്കുന്ന	-8.63238
▁വരുമ്പോൾ	-8.63318
▁കാണിച്ചു	-8.63414
തായിരുന്നു	-8.63458
▁പൊന്നിയുടെ	-8.63778
ിൽനിന്നു്	-8.63892
▁നട	-8.63894
▁ചെയ്വാൻ	-8.6394
▁ഇതാ	-8.64008
യൊന്നും	-8.64099
▁ഊർമ്മിള	-8.64171
യാൽ	-8.64174
▁സരള	-8.64249
▁തന്നെയാണു്	-8.64359
▁ഒറ്റ	-8.64457
▁കഴിച്ചു	-8.6467
▁അതാണു്	-8.64745
യാണെന്നു്	-8.64761
▁ഒട്ടും	-8.64815
▁നാൻസി	-8.65278
▁നടന്ന	-8.6537
▁മിസ്റ്റർ	-8.65679
▁സി	-8.65688
▁തീരെ	-8.65786
▁ഭക്ഷണം	-8.65841
▁കുട്ടികൾ	-8.66393
▁വിജയൻ	-8.66666
▁ചോദ്യം	-8.66832
ാലോ	-8.66968
ിരുന്നതു്	-8.6724
▁കാണും	-8.67285
ത്തിലെ	-8.67294
▁മുഖത്തു	-8.67787
▁നില്ക്കുന്ന	-8.67878
▁കെട്ടി	-8.67901
▁നമുക്കു	-8.6798
▁വരെ	-8.68058
▁എടുത്തു്	-8.68074
▁കാണ	-8.68099
▁തോന്ന	-8.68386
▁പറയാതെ	-8.68539
▁വരാം	-8.68651
ഞ്ഞ	-8.68692
ത്ര	-8.69055
വേണ്ടി	-8.69212
ക്കൊണ്ടു	-8.69269
▁മകൻ	-8.6937
▁ആദ്യത്തെ	-8.69395
ഹ	-8.69405
മേൽ	-8.69412
▁മുഴുവനും	-8.69447
▁പുറത്തു്	-8.69457
▁ചേച്ചി	-8.69529
ാല	-8.69628
▁ഇല്ലാത്ത	-8.69785
▁നീട്ടി	-8.6988
വരുന്ന	-8.70069
തുപോലെ	-8.70118
▁ഉണ്ടായ	-8.70266
▁അതിനെ	-8.70518
ത്തിലും	-8.70574
ുമായിരുന്നു	-8.70588
▁പറയുന്ന	-8.70661
ിട	-8.70682
്യാ	-8.70861
▁കണ്ണിൽ	-8.70877
▁പെട്ടി	-8.70893
▁വീണ	-8.70899
▁മാറ്റി	-8.70939
▁പത്തു	-8.70978
▁കാലത്തു്	-8.71009
▁ഭാസ്കരന്റെ	-8.71265
തി	-8.71338
▁എന്തിനാണു്	-8.71372
▁മട്ടിൽ	-8.71442
▁കൂടാതെ	-8.71624
▁അവളോടു്	-8.71658
▁മരിച്ചു	-8.71726
നായി	-8.71748
ിലേക്കു്	-8.72173
തിനു	-8.72234
▁ആരെങ്കിലും	-8.72259
▁ധാരാളം	-8.72278
▁അതൊന്നും	-8.72422
▁ഉറക്കം	-8.72548
▁മുറിയുടെ	-8.72663
▁പോയാൽ	-8.72746
ിട്ടുള്ള	-8.72787
നി	-8.73114
നു	-8.73178
▁ഫോൺ	-8.73195
▁നിന്നും	-8.7323
▁ചെന്നു്	-8.73384
▁പാവം	-8.73384
▁പോകാൻ	-8.73663
വൻ	-8.73687
▁കൊടുക്ക	-8.73808
ാറുണ്ടു്	-8.73861
▁മറന്നു	-8.73911
മേ	-8.74122
▁കുറച്ചുനേരം	-8.74192
േണ്ടുന്ന	-8.74207
പ്പി	-8.74234
▁കാണാം	-8.74275
മൊക്കെ	-8.74462
▁അര	-8.74513
▁ഒന്നിച്ചു	-8.75004
▁ആയി	-8.75082
▁മെല്ലെ	-8.75164
▁പേടി	-8.75308
▁ഒരാളെ	-8.75321
▁കണ്ടില്ല	-8.75333
▁അല്ലെ	-8.75504
▁അവളും	-8.75785
▁അവര	-8.75823
ുണ്ടെന്നു്	-8.75947
▁സുഖ	-8.75971
▁ശങ്കരൻനായർ	-8.76164
▁ശ്രമിച്ചു	-8.76164
▁എങ്കിൽ	-8.76166
▁കിടക്ക	-8.76189
▁നല്ലതു്	-8.76223
▁പകരം	-8.76327
▁തീ	-8.76359
▁അവസാനം	-8.76469
ങ്ക	-8.76548
▁പിന്നീടു്	-8.76669
മ്മ	-8.76939
ക്കി	-8.77059
റിയ	-8.77117
▁ഒടുവിൽ	-8.77174
▁വക്കീൽ	-8.772
▁കുറച്ചു്	-8.77302
▁പോക	-8.77323
▁മുതൽ	-8.77347
▁ചെയ്തതു്	-8.77935
▁മാറ്റ	-8.78178
ശേഷം	-8.78221
▁തല്ക്കാലം	-8.78243
ിന്മേൽ	-8.78644
▁അമ്മേ	-8.78662
ിരിക്ക	-8.78754
തെന്നു്	-8.78764
ലെ	-8.79331
▁കൊണ്ടുപോയി	-8.79486
▁പാറുകുട്ടി	-8.79521
▁പുസ്തകം	-8.79599
▁ഉള്ളു	-8.79741
▁വക	-8.79741
▁ബുദ്ധി	-8.7975
▁നീണ്ട	-8.79821
ഭ	-8.80123
▁മിണ്ടാതെ	-8.803
▁പെൺകുട്ടി	-8.80318
▁മനസ്സു്	-8.80361
യേയും	-8.80364
▁കവിത	-8.80374
▁രണ്ടുപേരും	-8.80399
▁അറിയ	-8.80521
▁പറ്റി	-8.80559
▁അപർണ്ണ	-8.80672
െടുത്തു	-8.80914
▁സം	-8.81079
▁എന്തൊരു	-8.81407
▁ഇന്ന	-8.81697
ത്തില	-8.8172
▁വിധി	-8.8172
▁വിട	-8.81745
▁മാസം	-8.81894
▁പച്ച	-8.82176
▁പൊ	-8.82186
യാണോ	-8.82316
▁എന്തായാലും	-8.82401
▁കേൾക്ക	-8.82593
▁പറ	-8.82647
▁ജീവിത	-8.8321
▁നടത്തി	-8.83259
▁കാത്തു	-8.83313
▁ജാനു	-8.83393
ക്കാർ	-8.83439
▁കിട്ട	-8.83493
▁പേരു്	-8.8358
▁നി	-8.83614
▁പ്ര	-8.83693
യല്ലേ	-8.83717
▁ചിത്രം	-8.83822
▁വരൂ	-8.8393
ഡ	-8.83989
▁തോന്നുന്നില്ല	-8.83998
▁തോന്നും	-8.84002
▁വന്നാൽ	-8.84024
▁കറുത്ത	-8.84098
▁ഗോ	-8.84113
ൊന്നു	-8.84266
▁അവർക്കു	-8.84611
▁മനുഷ്യൻ	-8.84657
നു്	-8.84709
ുണ്ടായിരുന്ന	-8.84789
▁ഇരിക്കുന്ന	-8.84842
▁പറയുന്നു	-8.85001
ില്ലെങ്കിൽ	-8.85001
▁എഴുന്നേറ്റു്	-8.85066
▁പറയുന്നതു	-8.85195
▁അറിഞ്ഞു	-8.85223
▁അമ്മച്ചി	-8.8542
▁ഭയങ്കര	-8.85512
▁അപ്പോഴാണു്	-8.85783
▁മകൾ	-8.85809
ത്തിന്നു	-8.85964
▁സത്യം	-8.86016
ബ	-8.86047
▁ആള	-8.86069
▁പറ്റില്ല	-8.86427
▁പോകുന്നതു്	-8.86741
▁വീട്ടിന്റെ	-8.8681
▁സംസാരിച്ചു	-8.86848
▁പ്രവൃത്തി	-8.86915
▁ഇപ്പോഴും	-8.86939
▁വിനോദ്	-8.86994
▁മാത്രമായിരുന്നു	-8.87098
കു	-8.8728
▁കൊല്ലം	-8.87348
▁ദേവകി	-8.87365
▁എങ്ങനെ	-8.87377
െപ്പറ്റി	-8.87506
ത്തു്	-8.87543
▁സാരി	-8.87634
▁നേരത്തെ	-8.87897
ാക്കി	-8.87916
▁ഏതോ	-8.87928
▁അമ്മയെ	-8.87935
▁കണ്ണു്	-8.88016
▁ഊണു	-8.88048
▁ചാടി	-8.8813
▁വല്ലാതെ	-8.88148
▁കഴിച്ച	-8.88306
▁കഴിഞ്ഞപ്പോൾ	-8.88306
▁ശരിയാണു്	-8.8839
▁നാം	-8.88446
ാവുന്ന	-8.88448
▁സുധ	-8.88725
▁വീട	-8.88787
ാണ	-8.88832
േണ്ടി	-8.88857
▁ഇരിക്ക	-8.88925
കൊണ്ടിരുന്നു	-8.8901
▁പോകും	-8.89034
ാകട്ടെ	-8.89087
▁വല്ലാത്ത	-8.8918
▁തലയിൽ	-8.89224
▁വെളിച്ചം	-8.89505
പ്പൊ	-8.89586
മൊന്നും	-8.89918
▁തലമുടി	-8.90156
▁അസാരം	-8.90191
യതു്	-8.90218
▁വിനോദ	-8.90469
▁കാഴ്ച	-8.90804
വാ	-8.91078
കാല	-8.91096
ീം	-8.9114
തന്നെയാണു്	-8.91401
കൊണ്ട	-8.91425
▁സന്തോഷ	-8.91482
▁മുട്ട	-8.91629
▁എണ്ണ	-8.91681
▁കാര്യ	-8.91783
നാണു്	-8.91964
▁തട്ടി	-8.92005
വുമായി	-8.92101
ിറങ്ങി	-8.92158
▁നടക്ക	-8.92233
ിലൂടെ	-8.92494
▁കിട്ടുന്ന	-8.92496
▁കുട്ടൻ	-8.92535
ന്ത	-8.92546
▁പേര	-8.92564
▁അറിയില്ല	-8.92564
▁ശങ്ക	-8.92619
▁ഉറക്കെ	-8.92647
ഗ	-8.92691
▁നീങ്ങി	-8.92833
▁വരുന്നതു്	-8.92849
ുന്നില്ല	-8.92966
െടുത്ത	-8.9311
▁അച്ഛനെ	-8.93399
▁വന്ദന	-8.9343
▁എന്നോടു	-8.93513
വോ	-8.93519
▁എന്നപോലെ	-8.9353
തോ	-8.93567
െന്നും	-8.93778
ങ്ങളെ	-8.93813
▁എനിയ്ക്കു്	-8.93839
രി	-8.93959
▁വച്ചു	-8.94095
▁നോക്കിയപ്പോൾ	-8.94177
▁അതി	-8.94268
▁ദൂരെ	-8.94278
▁അവന	-8.945
▁കണ്ടു്	-8.94667
ക്കൂടെ	-8.94688
▁തണുത്ത	-8.94714
▁ശ്രദ്ധിച്ചു	-8.94756
യെപ്പറ്റി	-8.94798
യോടു	-8.94869
ാനാണു്	-8.94917
▁സിനിമ	-8.9539
നാ	-8.95428
▁അനുരാഗ	-8.95472
ട്ടി	-8.95566
▁സ്ഥിതി	-8.95598
ത്തിന	-8.95618
ായിരുന്ന	-8.95654
▁കൊണ്ടുവന്ന	-8.95675
യപ്പോൾ	-8.95744
▁കുറഞ്ഞ	-8.95864
▁കടന്നു്	-8.95879
▁എന്നതു്	-8.96016
▁പകുതി	-8.96117
▁ഒരുപക്ഷേ	-8.9612
▁കൃഷ്ണൻനായരുടെ	-8.96128
▁നില	-8.96145
▁മിണ്ടിയില്ല	-8.96158
▁അന്യോന്യം	-8.96183
▁കാണുമ്പോൾ	-8.96192
▁അടി	-8.96266
ല്ല്യ	-8.96278
▁അതൊരു	-8.96287
▁അവസരം	-8.96293
▁തോന്നിയ	-8.96356
▁വിട്ട	-8.96418
ിന്നു്	-8.96579
▁ഗ	-8.96762
▁കൈയിൽ	-8.96784
തിനു്	-8.96857
ത്തിന്നും	-8.96945
▁ചങ്ങാതി	-8.96952
ാവും	-8.97037
േണ്ടതു്	-8.97368
▁തലയാട്ടി	-8.97369
▁ഏതു്	-8.97407
▁വൃദ്ധൻ	-8.97449
▁പറഞ്ഞതു	-8.97861
▁കാപ്പി	-8.97871
▁വിളി	-8.9789
▁ഓട	-8.98396
▁ചേട്ടൻ	-8.98623
▁ആകെ	-8.98751
▁പറയൂ	-8.98764
▁രൂപം	-8.99134
▁എഴുതിയ	-8.99268
▁ഭയം	-8.99281
▁തനിക്കു	-8.99346
▁കഞ്ഞി	-8.99417
ക്കോ	-8.99472
▁മരിച്ച	-8.99745
▁തുറന്ന	-8.99774
▁ഉണ്ടാക്കി	-8.998
▁കരഞ്ഞു	-8.99872
▁ഏട്ടൻ	-8.99875
▁ഏതെങ്കിലും	-8.99885
▁വന്നില്ല	-8.99904
ാര	-8.99972
കൊടുത്തു	-8.99979
▁മനസ്സിലായ	-9.00039
▁ആലോചന	-9.00057
പ്പോയി	-9.004
ുമെന്നു്	-9.00476
▁കാണുന്നതു്	-9.00521
▁ഭർത്താവു്	-9.00553
▁നഷ്ടപ്പെട്ട	-9.00876
▁അച്ഛന	-9.00937
ള്ളു	-9.01132
▁ഒരൊറ്റ	-9.01148
െപ്പോലെ	-9.01205
▁പൂ	-9.01242
▁നടക്കുമ്പോൾ	-9.01243
▁മേൽ	-9.01253
ിട്ടാണു്	-9.01258
ഡ്	-9.01277
വള	-9.01321
▁സംസാരിക്ക	-9.01411
▁പറഞ്ഞപ്പോൾ	-9.01449
▁മറ	-9.01601
ുമ	-9.01655
▁വിജയ	-9.0172
▁കുട	-9.01849
▁കൊണ്ടുവന്നു	-9.01884
▁പടി	-9.01914
▁വായിച്ചു	-9.02374
ഞ്ഞു	-9.02418
▁എത്ത	-9.02447
മാർ	-9.02465
ത്തിൽനിന്നു്	-9.02525
▁പോയതു്	-9.02571
▁ശരിയായ	-9.0271
▁മുട്ടി	-9.02749
▁ചെയ്യാം	-9.02772
തല്ല	-9.02837
▁ആളെ	-9.02885
▁സാരമില്ല	-9.0295
ക്ഷ	-9.02961
▁അതോ	-9.03101
▁എന്ത	-9.03123
▁മടങ്ങി	-9.03169
▁മനസ്സിലായില്ല	-9.03224
മുണ്ടായിരുന്നു	-9.03322
ാത	-9.034
▁വച്ച	-9.03467
▁എഴുതി	-9.03585
ായിരുന്നില്ല	-9.036
▁കടം	-9.03616
▁രഘു	-9.03755
▁ശ്രദ്ധ	-9.03866
▁മനസ്സിലാക്കിയ	-9.03921
▁ബ	-9.03937
▁ധൈര്യം	-9.04105
▁അറിഞ്ഞ	-9.04307
▁കാട്ടി	-9.04331
▁ഭാഗം	-9.04429
▁പോകുന്നു	-9.04469
▁സാധു	-9.04559
▁ചെന്ന	-9.04758
യ്യ	-9.04866
▁വലിച്ചു	-9.04958
മാണെന്നു്	-9.05113
യാണു	-9.05179
▁തൊട്ടു	-9.05205
▁വരുന്നു	-9.05225
▁അപ്പൊ	-9.05236
▁ആർ	-9.05246
▁അയാള	-9.05433
▁ദേഹം	-9.05433
▁ന്റെ	-9.05489
ഉണ്ടായിരുന്നില്ല	-9.05698
▁നോക്കാൻ	-9.05788
▁അദ്ദേഹത്തിന്നു്	-9.05804
▁ചോദിക്ക	-9.0585
▁കഴിക്ക	-9.05902
▁കുട്ടിയുടെ	-9.05922
▁കുളി	-9.05958
യിൽനിന്നു്	-9.05999
▁പ്രേമ	-9.06187
ാണെന്ന	-9.06228
▁അറിയാതെ	-9.06328
▁കാൽ	-9.06339
▁പാറുവമ്മ	-9.06377
▁ഏകദേശം	-9.06451
▁നേരിയ	-9.06468
▁പ്രാവശ്യം	-9.06498
▁സീലി	-9.06526
▁നിൽക്ക	-9.06538
▁അറിയാം	-9.06554
▁കണ്ടിട്ടില്ല	-9.06639
▁നടക്കാൻ	-9.06651
▁വേണ്ടതു്	-9.06896
െടുത്തു്	-9.06897
▁മാത്രമെ	-9.06918
ിരിക്കുന്നതു്	-9.06984
സ്സ	-9.07076
▁ചെയ്യുന്നു	-9.07249
▁അച്ഛനും	-9.07278
▁പരീക്ഷ	-9.07503
വുമായ	-9.07648
▁ഉണ്ടോ	-9.07753
▁ധനത്തിന്റെ	-9.07864
▁വിചാരിച്ച	-9.07865
▁അതുകൊണ്ടു	-9.07954
ുന്നുണ്ടു്	-9.08024
വച്ച	-9.08057
▁നടത്ത	-9.08178
പ്	-9.0829
▁മാത്രമ	-9.08351
▁നിറഞ്ഞു	-9.0858
▁ചെയ്യുന്നതു്	-9.08714
വരുടെ	-9.08727
▁സതി	-9.08734
തൊക്കെ	-9.08843
▁വായ	-9.0886
▁കോഴി	-9.09046
▁മുടി	-9.0907
ണ്ടോ	-9.09146
▁അമ്മച്ചീ	-9.0919
▁എന്തിനാ	-9.09199
▁അച്ചൻ	-9.09242
▁ചെല്ല	-9.09248
▁തവണ	-9.09306
▁ദിവസവും	-9.09397
ക്ക്	-9.09451
▁കല	-9.09499
ിലാണു്	-9.09588
ില്ലാതെ	-9.09602
▁വിവാഹ	-9.09669
ിലേക്കു	-9.09804
▁എത്തിയ	-9.09822
▁തുണി	-9.09867
യെങ്കിലും	-9.09917
▁തള്ള	-9.09965
▁എന്നോ	-9.09999
ിത	-9.10143
▁എനിയ്ക്കു	-9.10377
▁നിലത്തു	-9.1043
ലി	-9.10564
ുമെന്ന	-9.10569
▁അങ്ങുന്നേ	-9.10619
▁സ്നേഹം	-9.10635
▁പൊന്നീ	-9.10658
▁അപ്പോഴും	-9.1082
▁കൂട	-9.10853
▁പട	-9.11016
മു	-9.11054
▁ലോകം	-9.11084
▁ശരിക്കും	-9.11185
▁പാഞ്ഞു	-9.11203
ണു്	-9.11362
▁എന്താണ	-9.11512
▁ചിലർ	-9.11658
പ്പെട്ടു	-9.11674
ാനായി	-9.11748
▁കൈകൾ	-9.11762
▁തക്കവണ്ണം	-9.12104
ളി	-9.12201
▁നിറയെ	-9.12202
▁പലതും	-9.12282
ാണ്	-9.12289
▁കൂടിയ	-9.12304
▁വാങ്ങ	-9.12339
യിട്ട	-9.1237
ുമ്പോലെ	-9.12393
▁ഞങ്ങളെ	-9.12556
വന	-9.12625
▁ടി	-9.12679
ിക	-9.12775
▁ചീത്ത	-9.12789
▁പൊന്നിക്കു്	-9.12796
▁ചുറ്റി	-9.12836
യാണെന്നു	-9.1285
ത്തുടങ്ങി	-9.12892
▁ഹാ	-9.13041
▁മധു	-9.13092
പ്രകാരം	-9.13111
സി	-9.13115
▁തെളിഞ്ഞു	-9.13162
▁ഇട്ട	-9.13323
ക്കാ	-9.13359
▁നിവൃത്തിയില്ല	-9.13467
▁തീർച്ചയാക്കി	-9.13479
▁ഉം	-9.13496
▁അച്ഛാ	-9.13547
▁സ്വപ്നം	-9.13574
▁വൃദ്ധ	-9.13707
▁മനു	-9.1374
▁സിദ്ധിച്ച	-9.13773
സ്റ്റ	-9.13916
യില്ലാത്ത	-9.14035
ക്കൊണ്ടിരുന്നു	-9.14059
▁പൊന്നിയെ	-9.14147
മൊ	-9.14238
▁ചിരിച്ചുകൊണ്ടു്	-9.14301
▁സ്നേഹ	-9.14421
തേ	-9.14434
▁എന്നൊക്കെ	-9.14483
▁മേ	-9.14509
▁മനസ്സു	-9.14593
▁കെട്ട	-9.14664
▁നമ്പൂതിരി	-9.14705
▁നന്ദി	-9.14738
▁പുറത്തേയ്ക്കു	-9.14751
ിൻ	-9.15013
▁മണിക്കൂർ	-9.15022
▁മേലാൽ	-9.15024
▁ഭർത്താവിന്റെ	-9.15031
▁നോക്കുമ്പോൾ	-9.15134
▁വർത്തമാനം	-9.15168
പോകും	-9.15226
ൈ	-9.15303
മില്ലാതെ	-9.1535
▁കിടന്ന	-9.15543
▁പോ	-9.15586
▁കുത്തി	-9.15645
▁ആശ	-9.1577
ായിരിക്കണം	-9.15781
▁മരണ	-9.1592
വെ	-9.15939
▁നീണ്ടു	-9.16016
▁ചോര	-9.16077
▁കത്തി	-9.16112
▁പോര	-9.1612
ന്നാ	-9.1613
▁ഒച്ച	-9.16136
▁ചോദിച്ച	-9.1636
ലോ	-9.16402
▁സൈക്കിൾ	-9.16463
▁വാതിൽക്കൽ	-9.16472
▁മനസ്സിലാക്ക	-9.16493
േം	-9.16725
ില്ലെന്നു	-9.16849
▁മനസ്സിലാക്കാൻ	-9.1693
യായിരിക്കും	-9.1697
▁നീല	-9.17011
ങ്ങളായ	-9.17184
പിടിച്ച	-9.17245
▁നോട്ടം	-9.17321
▁ബി	-9.17375
നില്ക്കുന്ന	-9.17684
▁അയ്യോ	-9.17979
▁ഇപ്പോ	-9.17994
▁രാജാവിന്റെ	-9.18057
▁ശ്വാസം	-9.18094
ിലേയ്ക്കു	-9.1811
▁സംസാരിക്കാൻ	-9.18156
ട്ടു	-9.18207
▁അവനു്	-9.18242
▁കൊടുക്കാൻ	-9.18311
▁അടുത്തു്	-9.18353
▁ഞെട്ടി	-9.1836
ച്ചു്	-9.18451
▁ഭയ	-9.18551
മാര	-9.1856
▁കെ	-9.18711
▁ഒരാള	-9.18798
▁എടുത്ത	-9.18806
▁വയസ്സ	-9.18832
യിരിക്കുന്നു	-9.18943
▁ഭാര്യയുടെ	-9.18966
▁കുട്ടികളെ	-9.1916
▁വസുമതി	-9.19202
▁ഇടയിൽ	-9.19378
ുകളുടെ	-9.19432
▁സ്ത്രീകൾ	-9.19572
▁രണ്ട	-9.19577
▁മു	-9.19577
▁കൊ	-9.19599
▁അപ്പൻ	-9.19618
ുന്നതും	-9.19663
▁കഴിക്കാൻ	-9.1968
▁ദ	-9.19695
▁പഠിച്ച	-9.19811
▁അഭിപ്രായം	-9.19859
▁ചുണ്ടുകൾ	-9.19919
▁ആരാണു്	-9.19947
ിയുടെ	-9.20026
▁എടുക്ക	-9.20083
▁സംശയം	-9.20106
ന്	-9.20197
യു	-9.20276
നം	-9.20346
▁കപ്പ	-9.20473
▁കണ്ടിട്ടു്	-9.20591
▁ചിന്ത	-9.20796
▁വാക്കു്	-9.2104
പോക	-9.2107
▁ക്ഷീരം	-9.21075
ുകയോ	-9.21097
▁അരികെ	-9.21097
▁അന്നത്തെ	-9.21138
▁ശബ്ദ	-9.21208
▁മേശ	-9.21223
ിനി	-9.21424
▁കുടിച്ചു	-9.21508
▁അടുക്കളയിൽ	-9.21524
▁അതിനെപ്പറ്റി	-9.21566
ിയും	-9.21776
▁അവൾക്ക	-9.21803
വഴി	-9.21822
േയ്ക്കു	-9.21847
ക്കൊണ്ട	-9.21955
▁എം	-9.22114
ക്കണ്ട	-9.22145
▁കാണിക്ക	-9.22332
▁ശ	-9.22429
▁കാ	-9.22433
വിടെ	-9.22444
▁ഉണ്ണി	-9.22493
▁ഭാട്ടിയാ	-9.22653
▁അഥവാ	-9.22662
പ്പോയ	-9.227
യെല്ലാം	-9.22708
▁വിളിക്ക	-9.22714
▁ചോടെ	-9.22716
▁പോകാം	-9.22743
▁മനോഹരൻ	-9.22745
▁ഉറങ്ങാൻ	-9.22756
▁ഞാനൊരു	-9.22787
തെന്നു	-9.2279
▁ബോധം	-9.22791
▁എനിക്കും	-9.2289
▁ഇതൊന്നും	-9.22979
▁ഉള്ളൂ	-9.23067
▁വാങ്ങാൻ	-9.23184
ട്ടു്	-9.23236
ക്കാര	-9.23347
▁എന്നൊരു	-9.23468
▁അന്ന	-9.2355
▁ശാരദ	-9.23635
▁ഭ	-9.2366
▁കഴിയും	-9.23664
▁ആര	-9.23721
ുകയില്ല	-9.23779
▁താഴ്ത്തി	-9.23789
ുകളിൽ	-9.24003
ുള്ളൂ	-9.24032
ടാ	-9.24067
ണമെങ്കിൽ	-9.24095
പ്പെട	-9.24169
▁വീടു	-9.24276
▁വിചാര	-9.24286
▁പെണ്ണിന്റെ	-9.24321
പോകുന്ന	-9.24351
▁അതെല്ലാം	-9.24411
▁കൃഷ്ണക്കുറുപ്പ	-9.2449
▁ആട്ടെ	-9.2451
▁പേരും	-9.2451
▁പോവാൻ	-9.24562
▁പണ	-9.24612
▁തൊട്ട	-9.24684
ോടും	-9.24744
▁അന്വേഷിച്ചു	-9.24813
▁കാറിൽ	-9.24897
▁മര	-9.24933
ിന്നു	-9.24934
ാറ	-9.24959
ുമില്ല	-9.25101
▁എന്നിട്ടും	-9.25181
പോ	-9.25216
▁അവനു	-9.25234
▁കൊടുക്കുന്ന	-9.2537
▁സത്യ	-9.254
▁രക്ഷ	-9.25474
▁നിർത്ത	-9.25576
▁വന്നിരുന്നു	-9.25673
ിപ്പാൻ	-9.25776
▁നിനക്കു	-9.2579
▁സങ്കട	-9.25826
▁യാതൊന്നും	-9.25923
▁പലപ്പോഴും	-9.25941
▁കാക്ക	-9.25948
▁യഥാർത്ഥത്തിൽ	-9.25999
▁കിട്ടും	-9.26006
▁ഇരുന്ന	-9.26075
▁എന്നാലുംകൂടി	-9.26116
▁പേരു	-9.26124
▁നീലി	-9.26157
▁കൊല്ല	-9.26175
▁കടിച്ചു	-9.26234
വു	-9.26349
▁ആദ്യമായി	-9.2635
▁ഉച്ച	-9.26387
▁അർത്ഥം	-9.26439
▁സംസാരം	-9.26468
▁ഇതാണു്	-9.2654
ടുത്ത	-9.26559
▁ആവശ്യ	-9.26569
▁തിന്ന	-9.26618
▁വിശ്വാസം	-9.26772
▁ഒന്നുകൂടി	-9.26822
▁കണക്കു	-9.26823
▁സഞ്ചി	-9.26836
തോടെ	-9.26962
▁ഫോട്ടോ	-9.27001
▁ഇട്ടു	-9.27004
െന്നോ	-9.2706
▁ആനന്ദവല്ലി	-9.2714
▁ചാരി	-9.27157
▁രണ്ടും	-9.27267
▁ഭാഗ്യം	-9.27368
▁അല്ലാതെ	-9.27373
▁ചികിത്സ	-9.27374
▁എഴുത	-9.27388
▁ആന	-9.27401
▁വീട്ടില	-9.27493
▁ഉണ്ടാക്കിയ	-9.27584
▁രണ്ടാളും	-9.27609
▁കര	-9.27612
വേ	-9.27615
▁നിനക്ക	-9.27623
പ്പറ്റി	-9.27787
▁നോക്കിനിന്നു	-9.2779
ില്ലെ	-9.27838
▁ശുദ്ധ	-9.27938
▁സമ്മതിച്ചു	-9.27956
▁ഹ	-9.28117
▁പുറപ്പെട്ടു	-9.28139
ന്മാർ	-9.28191
ൊന്നുമില്ല	-9.28277
▁ദൈവം	-9.28278
യെപ്പോലെ	-9.28484
ധ	-9.28523
▁ഭൂമി	-9.28567
▁ഭാവം	-9.2859
▁പാറ	-9.28687
▁അറിയുന്ന	-9.28714
▁ചുവന്ന	-9.28777
▁കാറ്റു്	-9.28813
▁ഹൃദയത്തിൽ	-9.28872
▁അവസ്ഥ	-9.28961
റ്റ്	-9.28994
▁ചില്ലറ	-9.29116
▁മക്കൾ	-9.29186
ംപോലെ	-9.29228
▁ഒന്നുമില്ല	-9.29331
▁തങ്ങളുടെ	-9.29342
▁അപ്പന്റെ	-9.29346
കൊണ്ടാണു്	-9.29359
ാതിരിക്കില്ല	-9.29362
ിട്ടുണ്ടോ	-9.29418
▁മറ്റെ	-9.29477
▁വരില്ല	-9.29484
▁ഉത്തരം	-9.29489
▁മാറ	-9.29501
പ്പാ	-9.29701
▁അഞ്ചു	-9.29761
▁തോന്നിയതു്	-9.29804
ുണ്ടാവും	-9.29809
യിലേക്കു	-9.2982
മായിരിക്കും	-9.29922
ഞ്ച	-9.30061
▁അവരു്	-9.30082
▁ഭംഗി	-9.30086
▁എന്തേ	-9.30112
▁പതിവു്	-9.30116
▁താനും	-9.30139
▁പേരിൽ	-9.30175
ന്റ	-9.30292
▁പ്രേമം	-9.30317
▁അമ്മയ്ക്കു്	-9.30383
േക്കാൾ	-9.30428
▁നോക്കിക്കൊണ്ടു്	-9.30438
▁മുറ്റത്തു്	-9.30443
▁കാണിച്ച	-9.30518
മാവ	-9.30566
ിലേയ്ക്കു്	-9.30587
യാൾ	-9.30603
യല്ലെ	-9.30625
▁വച്ചു്	-9.3079
രിക്ക	-9.30797
ണ്ടാവും	-9.30947
കര	-9.30982
ാമായിരുന്നു	-9.30986
ണ്ടായിരുന്ന	-9.31007
പ്പാൻ	-9.31071
▁പോകുമ്പോൾ	-9.31234
▁അമ്മയും	-9.31282
▁സ്വരത്തിൽ	-9.31305
▁മഹാ	-9.31368
ക്കണം	-9.31381
▁ഭാരം	-9.31456
▁ജീവിതത്തിൽ	-9.31544
▁ആറു	-9.31604
വിന്റെ	-9.31623
▁ധ	-9.31693
▁മുന്നോട്ടു	-9.31722
▁തെറ്റ	-9.31791
▁പണ്ടു്	-9.31823
▁ലളിതയുടെ	-9.31823
▁ഭ്രാന്ത	-9.31884
▁പെ	-9.31945
▁പായ	-9.32058
െത്തി	-9.32061
▁നിൽക്കുന്നു	-9.32156
ണ്ടായിരുന്നു	-9.32367
▁പോവ	-9.324
▁ജാനകി	-9.32455
▁ചെയ്യുക	-9.32518
▁ചാത്ത	-9.32778
▁താന	-9.32824
▁അകലെ	-9.32832
▁ഇൻ	-9.32841
▁വയസ്സു	-9.32848
ത്രെ	-9.32861
േക്കു്	-9.32888
▁നാട്ടിൽ	-9.32898
▁വരട്ടെ	-9.33031
▁ഇതിന്റെ	-9.33033
▁അകത്തേയ്ക്കു	-9.33098
▁പുറത്തിറങ്ങി	-9.33263
ുകൊണ്ടു്	-9.3328
▁പനി	-9.33366
▁ചെ	-9.33401
▁മടക്കി	-9.33414
▁ഒരുതരം	-9.33419
ൊന്നു്	-9.3356
▁കാര്യവും	-9.33566
ൺ	-9.33629
ന്നും	-9.33638
ക്കുള്ള	-9.33712
ശക്തി	-9.33763
▁മുഖ	-9.33798
▁ബന്ധം	-9.33819
▁നിറം	-9.33879
▁മര്യാദ	-9.33888
▁നോക്കുന്ന	-9.33889
രും	-9.34027
▁അതിന്നു്	-9.34103
▁തനിക്ക	-9.34134
▁വീഴ	-9.34268
▁ദൈവ	-9.3428
▁തോന്നുന്ന	-9.34367
▁പൊട്ടി	-9.34458
▁ജ്ഞാനാനന്ദൻ	-9.3454
▁നിശ്ചയമായിട്ടും	-9.3454
▁കൂടക്കൂടെ	-9.34557
▁എന്തൊക്കെയോ	-9.34621
▁നിൽക്കുകയാണു്	-9.34643
▁കാണാതെ	-9.34721
ൊന്നുമല്ല	-9.34776
▁ഒഴുകി	-9.34881
▁സാധനം	-9.34892
▁ഇന്നും	-9.35018
▁പറന്നു	-9.35027
▁ഒഴിഞ്ഞ	-9.35441
▁വിശ്വസിക്ക	-9.35483
യില്ലാതെ	-9.35622
കാര	-9.35678
ില്ലെന്നു്	-9.35749
നിൽക്കുന്ന	-9.35762
തുടങ്ങി	-9.35782
▁ഹൃദയ	-9.35816
▁ഞങ്ങൾക്കു്	-9.35966
െന്നാണു്	-9.36104
▁പ്രിയ	-9.36141
▁കഴിഞ്ഞില്ല	-9.36293
▁കൊച്ചമ്പ്രാട്ടി	-9.36359
▁മാർത്ത	-9.36367
▁നമ്മടെ	-9.36368
▁ഇതെല്ലാം	-9.36449
▁ഏറെ	-9.36457
ുകളും	-9.36521
▁പ്രായം	-9.36609
ാതിരിക്ക	-9.36624
ണ്ടേ	-9.3665
▁പുക	-9.36681
▁പ്രതീക്ഷിച്ച	-9.36717
▁മോള്	-9.36721
▁മല	-9.36731
▁ബന്ധ	-9.3681
▁തീർച്ച	-9.36863
▁ചൈനാനിയുടെ	-9.36864
▁ഉണ്ടാകയില്ല	-9.36908
▁പൊട്ട	-9.3697
മി	-9.37001
▁ശരീരം	-9.37079
യിലേക്കു്	-9.37083
▁വായിച്ച	-9.37214
▁ഉയർന്നു	-9.37236
▁ഡി	-9.37239
വന്നു്	-9.37241
ലാ	-9.37253
▁അടുക്കള	-9.37262
▁കൊണ്ടുവര	-9.37304
▁വെ	-9.37384
▁മകളെ	-9.37402
വരാണു്	-9.37478
പ്പു	-9.37583
തര	-9.37622
▁അപ്പോ	-9.3765
ത്തിനും	-9.37712
ിക്കും	-9.37761
്യം	-9.3791
യെന്ന	-9.37997
▁നോക്കിയ	-9.38083
▁ഉണ്ടാക്ക	-9.38094
▁അതുപോലെ	-9.38165
▁പിള്ള	-9.38175
▁രാഘവൻ	-9.3821
▁ചന്ദ്രൻ	-9.38243
▁പകൽ	-9.38251
▁ധൃതിയിൽ	-9.38302
▁ഉച്ചത്തിൽ	-9.38329
▁നിലവിളിച്ചു	-9.38368
▁ദിവസങ്ങൾ	-9.38382
▁വീടിന്റെ	-9.38385
▁നിധി	-9.38395
▁ചെവി	-9.38408
▁ചെറു	-9.38449
▁എന്തൊക്കെ	-9.38522
▁മനസ്സിലായതു്	-9.38532
▁മകളുടെ	-9.38541
▁കൃഷ്ണൻനായർക്കു്	-9.38551
ത്തേ	-9.38592
▁പോരാഞ്ഞിട്ടു്	-9.38602
▁പോയപ്പോൾ	-9.38606
▁പ്രതി	-9.38651
▁നേരിട്ട	-9.38679
▁സംശയ	-9.38976
▁വിളിച്ച	-9.39049
▁അപ്പ	-9.39052
▁കോ	-9.39265
ണ്ട്	-9.39288
വച്ചു്	-9.39303
▁അതാ	-9.39326
ണതു്	-9.39332
▁കഴിയാത്ത	-9.39389
▁ഗുണ	-9.39435
▁വള	-9.39507
▁കോടതി	-9.39547
▁എന്തിനു്	-9.39554
▁സർവ്വ	-9.39836
▁കേട്ടു്	-9.39843
▁പുറമെ	-9.39981
▁ഹരി	-9.40006
▁അങ്ങോട്ടു	-9.40048
▁ഞായറാഴ്ച	-9.40097
▁ആകപ്പാടെ	-9.40097
▁ഇടയ്ക്കിടെ	-9.40097
▁പാല	-9.40118
േണ്ടിവന്നു	-9.40119
തുകൊണ്ടു	-9.40167
▁പൊടി	-9.40184
▁പരമാർത്ഥം	-9.4022
▁വെയിൽ	-9.40225
▁അയ	-9.40291
▁വെട്ടി	-9.40296
▁മറ്റോ	-9.40356
▁അവസാനത്തെ	-9.40379
▁കുതിര	-9.40484
▁വിധത്തിൽ	-9.40513
▁കല്ലു	-9.40522
തെന്ന	-9.40547
▁കാര്യമാണു്	-9.40557
▁വട്ടം	-9.40573
▁അമ്മായി	-9.40658
ിട്ടുണ്ടാവും	-9.40689
▁വിധം	-9.40735
▁പതിനഞ്ചു	-9.40811
യെന്നു്	-9.40837
▁ദയ	-9.40958
യിലാണു്	-9.40982
▁വിളക്കു	-9.41139
ണ്ടായ	-9.41305
▁വികാര	-9.41323
▁ഭാഷ	-9.41352
▁ചെയ്തു്	-9.41434
▁ഗുരു	-9.41499
െത്തിയ	-9.41524
രെ	-9.41603
ഗ്	-9.41614
ിരിക്കും	-9.41691
▁നളിനി	-9.41726
▁പിടി	-9.41795
▁ഉറുപ്പിക	-9.41856
യിട്ടു്	-9.41857
▁പ്രണയ	-9.41861
▁കഴിയുന്ന	-9.41894
▁കൂട്ടത്തിൽ	-9.41918
▁ഓഫീസിൽ	-9.41978
ാള	-9.42006
▁ക്രമേണ	-9.4202
▁നോക്കു്	-9.42053
▁ആദ്യ	-9.42266
▁പെണ്ണിനെ	-9.42272
▁കട്ടിലിൽ	-9.42305
നെപ്പോലെ	-9.42322
തിനെപ്പറ്റി	-9.42381
രുടെ	-9.42402
ണ്ണ	-9.42529
▁ദൂരം	-9.42677
▁നടന്നു്	-9.42793
പ്പോകുന്ന	-9.42911
▁പൂട്ടി	-9.42946
▁പറമ്പിൽ	-9.42947
ണമെന്ന	-9.42959
യിട്ടു	-9.42965
ിരിക്കയാണു്	-9.43053
▁നമുക്ക	-9.43075
▁ഭർത്താവിനെ	-9.431
കളിലും	-9.43241
കഴിഞ്ഞു	-9.43443
ാണെന്നും	-9.43456
രാ	-9.4346
▁കുടുംബ	-9.43482
▁ഏക	-9.43543
▁രവി	-9.43681
▁അതിന	-9.43702
▁ഇപ്പൊ	-9.43749
▁കണ്ണ	-9.43811
▁കഥകൾ	-9.43822
ാക്ക	-9.43869
മതി	-9.43947
പ്പോഴാണു്	-9.43964
ില്ലല്ലോ	-9.44001
▁ഇത്രത്തോളം	-9.44004
▁കാണണം	-9.44211
▁തരാം	-9.44307
ഷ്ട	-9.44325
▁എഴുത്തു	-9.44379
▁ചിത്രങ്ങൾ	-9.44436
▁സാക്ഷി	-9.44522
▁വലിയൊരു	-9.44617
▁പുഴ	-9.44646
▁പുസ്തക	-9.44692
▁കുപ്പി	-9.44784
▁മരണം	-9.44854
▁സന്തോഷം	-9.44883
▁സ്ത്രീയുടെ	-9.44984
ുമായിരിക്കും	-9.44988
▁മകനെ	-9.45024
യിലേയ്ക്കു	-9.45033
▁എൻ	-9.45136
▁കുട്ടികള	-9.45144
▁സാഹിത്യ	-9.45153
▁നോട്ട	-9.45213
കൂട	-9.45344
▁അമ്മു	-9.4535
▁നിശ്ചയിച്ചു	-9.45387
▁കാണുന്നില്ല	-9.45407
▁വാങ്ങിയ	-9.45424
ട്ട്	-9.45446
▁രസ	-9.45549
▁മെലിഞ്ഞ	-9.45663
▁വീടും	-9.45781
▁നിങ്ങള	-9.45802
▁ഒരാഴ്ച	-9.45874
▁ഭാവി	-9.45907
▁എന്നുവെച്ചാൽ	-9.45982
▁മകന്റെ	-9.45997
▁വേഗത്തിൽ	-9.46006
▁അത്യന്തം	-9.46013
▁കയറ	-9.46016
▁കുറെനേരം	-9.46017
▁സാർ	-9.46034
▁വാസന	-9.46049
യിട	-9.46076
▁പൊതി	-9.46095
▁നോക്കാം	-9.46216
▁ഒന്നാം	-9.46239
യുണ്ടായിരുന്നു	-9.46623
നോ	-9.46727
▁ഒന്നാമതു്	-9.46757
▁കരുത	-9.46862
ുന്നതിനു	-9.46901
▁അവിടെത്തന്നെ	-9.46966
▁ല	-9.46978
▁പുറപ്പെട്ട	-9.47039
യാക്കി	-9.47091
ക്കാരൻ	-9.47237
▁മനുഷ്യ	-9.4726
▁മഞ്ഞ	-9.47286
▁സങ്കടം	-9.47303
▁തള്ളി	-9.47337
▁കണ്ണുകളിൽ	-9.47337
▁സുഖം	-9.47482
▁അനുരാഗിക്കുന്ന	-9.47746
കഴിഞ്ഞ	-9.47881
കളാണു്	-9.47897
യുടെയും	-9.4796
▁ഉമ്മ	-9.48009
▁സാവധാനത്തിൽ	-9.48022
ിച്ചു്	-9.48028
▁ജോസഫേട്ടന്റെ	-9.48032
▁തമ്പ്രാൻ	-9.48053
▁കള്ള	-9.48073
▁ഭംഗിയുള്ള	-9.48088
▁വിശ്വസിച്ചു	-9.48173
▁എത്തിയപ്പോൾ	-9.48189
▁നായരുടെ	-9.48203
▁അർത്ഥ	-9.48257
▁ഇഷ്ടം	-9.48281
▁യഥാർത്ഥ	-9.48365
യിലൂടെ	-9.48525
ിക്കുന്നു	-9.48645
▁എസ്	-9.48688
▁എങ്ങിനെയാണു്	-9.48755
▁പിറ്റേന്നു്	-9.48777
പിടിച്ചു	-9.48806
▁വരുത്ത	-9.48826
▁യേശു	-9.48937
ുമ്പോഴും	-9.48955
▁അച്ഛനു്	-9.48996
▁വിചാരിക്കുന്ന	-9.49063
▁ഉയർത്തി	-9.49083
▁കെട്ടിപ്പിടിച്ച	-9.49168
ിട്ടുള്ളതു്	-9.49214
തൊന്നും	-9.49238
ായിട്ടു്	-9.49266
▁വാതില	-9.49298
▁ഇടയ്ക്കു്	-9.49349
വുമാണു്	-9.4941
▁ധരിച്ച	-9.4941
▁ചിത്ര	-9.49436
▁അവസാന	-9.49492
▁കവി	-9.49514
▁ത്രേസ്യാമ്മയുടെ	-9.49537
▁നെറ്റി	-9.49622
ച്ചാ	-9.49697
കൊണ്ടിരുന്ന	-9.49701
▁മടി	-9.49744
▁കരയ	-9.49745
▁ഭൂമിയിൽ	-9.4982
ത്തിലാണു്	-9.49948
ോട്ട	-9.50043
▁നിറ	-9.50074
▁യൂജീനിന്റെ	-9.50105
▁കുലുക്കി	-9.50109
▁വേറൊരു	-9.50115
▁മാലതി	-9.50115
▁എല്ലാവർക്കും	-9.50117
▁ആരോടും	-9.50183
▁വാസ്തവം	-9.50201
ണമെന്നു്	-9.5021
▁മുമ്പെ	-9.50217
▁ഒന്നുരണ്ടു	-9.50225
▁ഇന്നത്തെ	-9.50234
▁ഉറക്ക	-9.50235
▁വരച്ച	-9.50276
▁ചേർന്ന	-9.50281
▁ആളുകൾ	-9.50356
▁അതോടെ	-9.50358
▁പറ്റ	-9.50376
▁ലോക	-9.50388
▁അപേക്ഷ	-9.50397
▁പറയണം	-9.50429
▁താഴ്	-9.50493
▁എന്താണു	-9.50585
ർത്ത	-9.50637
▁നില്ക്ക	-9.50727
പ്പെടുന്ന	-9.50763
▁അല്ലാ	-9.50807
▁കുറ്റം	-9.50841
മുണ്ടായി	-9.50925
കൊടുത്ത	-9.50967
▁ഉണ്ടാക	-9.50997
▁നിവൃത്തി	-9.51086
ുമ്പോഴാണു്	-9.51167
യുമ	-9.51179
▁ഭക്തി	-9.51185
മണി	-9.51275
കൾക്കു	-9.51276
ുംകൂടി	-9.51319
▁വിട്ടു്	-9.51321
▁എട്ടു	-9.51373
▁ഹോ	-9.51462
▁ഉണ്ടായില്ല	-9.51498
▁ക്ഷമ	-9.51549
ോളം	-9.51558
▁മാന	-9.51588
▁വായന	-9.51619
്വോ	-9.51712
▁മൂന്നു്	-9.51736
േണ്ടിവരും	-9.51807
ിന്ന	-9.51811
▁കാര്യമില്ല	-9.51829
▁നേര	-9.5183
▁ചേർന്നു	-9.51914
▁മറ്റേ	-9.52052
▁സംഭവ	-9.52063
▁മിക്കവാറും	-9.52233
▁അടിച്ചു	-9.52235
▁കടന്ന	-9.52244
▁ഏതാനും	-9.52248
▁ഇരുവരും	-9.5225
▁പൊങ്ങി	-9.52297
▁കേട്ടോ	-9.52308
▁മൂലയിൽ	-9.52385
▁തിരിഞ്ഞുനോക്കി	-9.52399
▁മീതെ	-9.5242
▁കാര്യമ	-9.52447
റ്റി	-9.52575
പ്ര	-9.52598
ുമെന്നു	-9.52623
▁സംസാരിച്ച	-9.52652
▁വീട്ടിലെ	-9.52663
ിനും	-9.52765
▁അതിലും	-9.52809
▁ആയിരിക്കും	-9.5282
▁മുമ്പേ	-9.52838
ാസ	-9.5289
▁പോയിരുന്നു	-9.52897
ുണ്ടാകും	-9.52909
▁പുള്ളി	-9.53022
ണ്ടു	-9.53026
▁ജ	-9.53045
ുണ്ടായ	-9.53048
▁മനോഹര	-9.53067
▁ജനിച്ച	-9.53093
തോന്നി	-9.53151
▁കാറ്റു	-9.53195
▁പ്രണയം	-9.53218
▁എന്നായിരുന്നു	-9.53374
തിനെ	-9.53471
▁സഹിക്ക	-9.53476
ുണ്ടാക്കിയ	-9.53587
▁ഗോപു	-9.53611
▁മുമ്പു	-9.53614
ക്കഴിഞ്ഞു	-9.53742
▁തുറക്ക	-9.53825
ിങ്	-9.53882
ുന്നതിൽ	-9.5401
▁നിലവിളി	-9.54061
▁നിങ്ങള്	-9.54072
▁സ്വ	-9.54096
ുമൊക്കെ	-9.54115
വച്ചു	-9.54153
▁പറയേണ്ട	-9.54242
▁ഓർമ്മകൾ	-9.54292
▁മുത്തശ്ശി	-9.54309
▁ജോമോൻ	-9.54407
എന്തുകൊണ്ടെന്നാൽ	-9.54408
▁വരിക	-9.54468
▁വീട്ട	-9.54503
▁വാക്കു	-9.54526
▁നിലത്തു്	-9.54596
ക്കുന്നതു്	-9.54607
▁പറയുമ്പോൾ	-9.54608
കൂട്ടി	-9.54652
തിന	-9.54663
▁കുട്ടികളുടെ	-9.54696
▁പെട്ടെന്ന	-9.54707
▁സമാധാനം	-9.5482
▁പ്രധാന	-9.54821
വില	-9.54841
കിടക്കുന്ന	-9.54862
▁ക്ലാസ്സിൽ	-9.54935
മാക്കി	-9.54969
▁മറ്റ	-9.55028
▁തീര	-9.55068
വെന്നു്	-9.55174
▁നോക്കു	-9.55193
▁പറയുക	-9.55256
റക്ക	-9.55324
▁അതുവരെ	-9.55388
▁ഒറ്റയ്ക്കു്	-9.55502
ല്	-9.5557
ലിൽ	-9.55573
ഭാവം	-9.55608
കൊടുക്ക	-9.55631
▁മനസ്സില	-9.5567
▁പിടിക്ക	-9.55681
ന്ന്	-9.55756
▁നമ്മള്	-9.55779
ാണെങ്കിലും	-9.55851
െത്തിയപ്പോൾ	-9.55862
▁രാധ	-9.55952
ിട്ടില്ലാത്ത	-9.56013
▁ജനിച്ചു	-9.56127
▁കല്യാണ	-9.5615
▁ശ്രമിക്ക	-9.5632
▁പൂച്ച	-9.56435
▁പുറത്തേക്കു	-9.5648
▁ലക്ഷ്മി	-9.56511
▁പറ്റീ	-9.56512
▁തിരിച്ച	-9.56544
ണു	-9.56625
▁പാപ്പിഅമ്മ	-9.56629
▁മുൻകൂട്ടി	-9.56636
▁വേണമെങ്കിൽ	-9.56656
▁മറഞ്ഞു	-9.56671
▁എവിടെയെങ്കിലും	-9.56671
▁മുറ	-9.56681
▁ഇവരുടെ	-9.56693
▁കർത്താവേ	-9.56697
▁അയാള്	-9.56714
ീന്നു്	-9.56737
ലാണു്	-9.56814
▁ഒന്നിനും	-9.56828
▁സാധിച്ചില്ല	-9.5686
▁വിചാരിക്ക	-9.56913
▁ചുകന്ന	-9.56935
താണോ	-9.56949
▁കുറ	-9.56979
ത്വം	-9.5707
▁വിഷമം	-9.57107
▁മാറിയ	-9.57148
്യേ	-9.57287
▁മണം	-9.57389
▁കുടി	-9.57403
▁കൊടുത്തു്	-9.57508
▁സ്വഭാവ	-9.57582
ാണല്ലോ	-9.5779
ക്കുവേണ്ടി	-9.5788
▁അതിന്നു	-9.57881
▁തിരിഞ്ഞു്	-9.57892
ിനുള്ളിൽ	-9.58031
രായ	-9.58054
▁തമാശ	-9.58074
േയുള്ളു	-9.58094
▁ചൂട	-9.58209
▁ഉത്സാഹ	-9.58301
ാമെന്നു	-9.58327
▁തടിച്ച	-9.58337
▁സ്വഭാവം	-9.58344
റ്റു	-9.58352
▁തരം	-9.58371
യുന്ന	-9.5838
യുള്ളു	-9.58431
കളൊക്കെ	-9.58475
▁മനഃസ്ഥിതി	-9.58598
▁എന്തിനു	-9.58608
കളില	-9.58795
▁അനുഭവ	-9.58816
▁തിരിച്ചു്	-9.58826
▁അങ്ങിനെയാണു്	-9.58837
െടുക്ക	-9.58864
▁തിരികെ	-9.58885
▁നമ്മള	-9.58894
ോടി	-9.58902
▁കൊച്ചച്ഛൻ	-9.58903
▁അപ്പേട്ടൻ	-9.58905
▁നമ്പർ	-9.58912
▁ഇരുന്നു്	-9.58942
▁പോട്ടെ	-9.58963
▁എന്നുകൂടി	-9.59006
▁ഉട്ടൂപ്പ്	-9.59019
▁അറിയും	-9.59044
▁മുറ്റത്തു	-9.5906
▁സാധനങ്ങൾ	-9.59062
▁കുടിക്കാൻ	-9.59084
▁കണ്ണും	-9.591
െന്താണു്	-9.59148
▁പദ്മിനിയ്ക്കു്	-9.59171
▁പെണ്ണ	-9.59201
ന്മാര	-9.59208
▁ശ്രദ്ധിച്ച	-9.59215
ുന്നതുവരെ	-9.59277
രൂപ	-9.59308
▁കൊറച്ചു്	-9.59316
▁വരുന്നതു	-9.59408
▁പാ	-9.59454
മുറി	-9.59474
തായ	-9.59526
▁നിണക്കു	-9.59536
▁വെല	-9.59593
▁നല്ലൊരു	-9.59648
വിട്ട	-9.59691
▁നോക്കിയാൽ	-9.59846
▁ആവശ്യം	-9.59852
വാൻ	-9.59856
ണമെന്നു	-9.59864
▁സ്ഥാനം	-9.60056
ാമ	-9.60089
▁ആനന്ദ	-9.60168
▁ഇല്ലായിരുന്നു	-9.60229
▁സമ	-9.60231
▁ഉപദേശി	-9.60256
▁കിടക്കുന്നതു്	-9.60325
▁പരാതി	-9.60454
▁കാത്തിരിക്ക	-9.60484
▁ഞങ്ങള	-9.6061
മാതിരി	-9.60662
▁ഫ	-9.6069
▁അത്ഭുത	-9.60694
▁സർ	-9.60698
▁പ്രധാനമന്ത്രി	-9.60754
ലു	-9.60771
▁വഞ്ചന	-9.608
▁ആന്റി	-9.60818
പാട	-9.60835
കൊള്ള	-9.60839
ളും	-9.60859
▁ൽ	-9.60928
മാണോ	-9.60935
▁മനുഷ്യനെ	-9.60948
▁വല്ല്യമ്മ	-9.60988
ക്കൂട്ട	-9.60997
▁കഴിയ	-9.61024
▁നനഞ്ഞ	-9.61043
▁ആഴ്ച	-9.61101
ിച്ചിരുന്നു	-9.61162
▁മൂളി	-9.6118
▁ചേച്ചീ	-9.61195
▁പുറം	-9.61202
▁രാമൻനായർ	-9.61229
▁പുരുഷന്റെ	-9.61284
▁നിമിഷത്തിൽ	-9.61286
വർക്കു്	-9.61302
ക്കുകയും	-9.61379
ണോ	-9.61387
▁എടാ	-9.61395
▁തേടി	-9.61414
▁ഒഴിഞ്ഞു	-9.61449
▁നോക്കൂ	-9.61493
▁ധനത്തിന്നു്	-9.61502
▁രണ്ടാം	-9.61502
▁ആഗ്രഹം	-9.61613
യോടും	-9.61613
വുമില്ല	-9.61694
ക്കുകയാണു്	-9.61704
▁അരി	-9.61719
ാണതു്	-9.61741
▁ആശ്വാസം	-9.61821
▁ചെയ്യണം	-9.61825
ാതായി	-9.61857
▁മനസ്സ	-9.6188
പോലെയുള്ള	-9.61893
▁പാതിരി	-9.61933
▁യുവതി	-9.61965
▁റ	-9.62102
▁തീവണ്ടി	-9.62134
▁നാള	-9.62175
▁തികഞ്ഞ	-9.62182
▁സംഭവം	-9.62252
▁കഴിയില്ല	-9.62277
▁കയറിയ	-9.62279
ങ്ങളൊന്നും	-9.62316
▁വെക്ക	-9.62396
▁വീഴുന്ന	-9.62455
▁തൊട്ടു്	-9.62516
▁ആയാൾ	-9.62542
▁അനുകമ്പ	-9.62586
▁അറിവ	-9.62614
േയ്ക്കു്	-9.62616
▁ആരുമില്ല	-9.62623
▁താമസിക്ക	-9.62624
േറ്റ	-9.62637
▁അടച്ചു	-9.6265
▁കത്തു്	-9.62702
▁എഡോൾഫിയുടെ	-9.62719
വിചാര	-9.62753
▁മാത്രമായി	-9.62854
▁കിടക്കുന്നു	-9.62876
▁അങ്ങ	-9.62884
▁തീർന്ന	-9.62929
താണെന്നു	-9.62982
▁കിടക്കയിൽ	-9.63038
▁ഉദ്ദേശ	-9.6304
ിനെപ്പറ്റി	-9.63169
ന്നെ	-9.63194
യാണെന്ന	-9.63257
▁അതില	-9.63261
▁വെള്ളി	-9.63308
▁നിന്നിരുന്നു	-9.63485
▁മിന്നി	-9.63507
▁അധികാര	-9.63512
ുണ്ടെന്ന	-9.63538
▁മൂത്ത	-9.63567
▁കുടിച്ച	-9.63585
▁ഗുപ്തൻ	-9.63608
ത്തോടും	-9.63621
▁സ്വന്തമായി	-9.63626
▁കുറേനേരം	-9.63629
▁കുമാരൻ	-9.63638
▁വെയ്ക്ക	-9.63664
▁ഈശ്വരാ	-9.63692
▁ഒരിക്കൽക്കൂടി	-9.63697
▁മനുഷ്യന്റെ	-9.63714
▁സാറേ	-9.63732
നില	-9.63777
▁രോഗ	-9.63845
▁ചോദിക്കാൻ	-9.63869
▁തമ്മിലുള്ള	-9.63884
റു	-9.63916
▁ആളാണു്	-9.64095
▁നിന്നിരുന്ന	-9.64102
▁ഗതി	-9.64121
▁നിന്നോടു്	-9.64195
ാനോ	-9.64198
▁എന്നുമാത്രം	-9.64247
▁ഉണ്ടായിരിക്ക	-9.64625
▁കൃഷ്ണൻനായരെ	-9.64637
▁സമ്മതിക്ക	-9.64669
▁കള്ളി	-9.64724
▁നടക്കും	-9.64739
ഷ്	-9.64788
ുപോയ	-9.64867
▁പാതി	-9.64956
▁പത്ത	-9.65012
▁ഉറങ്ങ	-9.65135
▁കുറച്ച	-9.65174
യല്ലാതെ	-9.65227
▁ചേർത്തു	-9.65322
യെടുത്തു്	-9.65332
▁കോപം	-9.65377
ുണ്ടെങ്കിൽ	-9.65389
▁പുറത്ത	-9.65454
▁വിവര	-9.65489
▁എന്തുകൊണ്ടു്	-9.65583
▁വിചാരിച്ചു്	-9.65605
▁ഓർമ്മയിൽ	-9.6564
വിട	-9.65781
▁ബാക്കിയുള്ളവർ	-9.65794
▁എഴുന്നേറ്റ	-9.65828
▁കാണാന	-9.65831
▁തരുണി	-9.65855
ാറുള്ള	-9.65904
▁ഇവൾ	-9.65906
ടു	-9.65917
▁തൊട	-9.65922
▁പതിഞ്ഞ	-9.65934
▁പണ്ടത്തെ	-9.65965
▁മുതലായ	-9.65966
▁വായിക്ക	-9.65982
▁തീർന്നു	-9.66005
▁പരിഭ്രമ	-9.66066
▁വാസ്തവത്തിൽ	-9.66066
▁മന്ത്രിച്ചു	-9.66081
▁ചെറുപ്പക്കാരൻ	-9.66105
▁പുരുഷൻ	-9.66114
കൂടാതെ	-9.66167
▁എന്നിട്ടുകൂടി	-9.66196
▁വിറച്ചു	-9.6621
▁നോക്കട്ടെ	-9.66233
▁ദിവസ	-9.66237
കല	-9.66241
▁എന്നേ	-9.66251
▁എനിക്കൊരു	-9.66256
▁കാണിക്കുന്ന	-9.6626
▁ആശ്വാസ	-9.6629
▁കേട്ടാൽ	-9.66321
▁സമയമ	-9.66357
▁പുസ്തകങ്ങൾ	-9.66366
▁വിധു	-9.66515
▁ഇരു	-9.66529
▁കഴുകി	-9.6653
▁മാസ	-9.66689
നിർത്തി	-9.6673
▁നോക്കുക	-9.66731
ുടേയും	-9.66733
▁കേൾക്കാൻ	-9.66801
റിഞ്ഞ	-9.66801
്ട	-9.66911
▁എവിടെയാണു്	-9.66954
▁അയാളോടു്	-9.67
▁മങ്ങിയ	-9.67058
▁വർണ്ണ	-9.67066
മുഖ	-9.67075
▁ഇറക്കി	-9.67152
ായാലും	-9.67181
ുമുണ്ടു്	-9.67194
▁ഇങ്ങോട്ടു	-9.67221
▁ഇളക്കി	-9.6723
▁അതുതന്നെ	-9.67247
ങ്ങളൊക്കെ	-9.67253
ിരിക്കണം	-9.67295
▁ഫലം	-9.67306
▁അദ്ദേഹത്തിനു്	-9.67317
ലിന്റെ	-9.67379
ക്കഴിഞ്ഞ	-9.67384
കൂട്ട	-9.67556
▁കാമ	-9.6762
▁ഇല	-9.67666
▁വേണ്ടുന്ന	-9.67768
▁അന്യ	-9.67769
▁നടത്തിയ	-9.67825
ക്കേ	-9.67943
▁മധുര	-9.67975
എങ്ങിനെയെങ്കിലും	-9.67979
▁ധൃതി	-9.67986
▁മോൾ	-9.68035
▁സ്വർണ്ണ	-9.68086
▁പ്രത്യേകം	-9.6809
ടോ	-9.68254
▁നീയും	-9.68319
▁ഇതിൽ	-9.68335
▁കൊണ്ടിരുന്നു	-9.68344
▁തെറ്റി	-9.68346
▁നിർത്തിയ	-9.68369
ികൾ	-9.68395
ാതിരിക്കാൻ	-9.68491
▁വാർത്ത	-9.68658
▁ജനനം	-9.68675
ണ്ടാക്ക	-9.68679
▁കാണ്മാൻ	-9.68687
തല്ലെ	-9.68689
▁കോളേജിൽ	-9.68693
▁മണീ	-9.6871
ങ്ങനെ	-9.68715
▁വിചാരിച്ചിരുന്ന	-9.68733
▁സന്ധ്യ	-9.68753
▁സംഭവങ്ങൾ	-9.68786
▁വിശ്വാസ	-9.68799
▁കുറ്റ	-9.68824
▁താമസം	-9.68832
▁രണ്ടോ	-9.6888
▁ചോദിച്ചതു്	-9.68919
▁തോന്നുന്നതു്	-9.69025
▁ഇല്ലാതെ	-9.69035
▁ദേവി	-9.69049
ംകൊണ്ടു	-9.69062
▁കിട്ടാൻ	-9.69076
▁പണവും	-9.69083
ൂടെ	-9.69102
ങ്ങളെല്ലാം	-9.69181
▁സാധിക്കയില്ല	-9.69184
ർമ്മ	-9.69198
▁ഉച്ചയ്ക്കു്	-9.69214
മാണെന്നു	-9.69256
▁ബുദ്ധിമുട്ട	-9.69273
▁കത്ത	-9.69307
▁ഷാപ്പിൽ	-9.69312
▁തലോടി	-9.69324
ടിച്ചു	-9.69365
▁പാർക്ക	-9.69378
▁സ്വപ്ന	-9.69403
ക്കുവാൻ	-9.69428
▁ഒരേടത്തു്	-9.69436
▁പരസ്യ	-9.69572
റും	-9.6968
▁ഭാര്യയെ	-9.69758
▁പരിശോധിച്ചു	-9.69827
▁വെടി	-9.69847
ക്കാനും	-9.7
േക്കു	-9.70029
▁കണ്ണാടി	-9.70036
▁സൗന്ദര്യം	-9.70211
ങ്ങി	-9.70221
▁സംസാര	-9.70255
▁ഉണ്ട	-9.7029
ിക്കുകയും	-9.70394
▁ബാക്കിയുള്ള	-9.70397
▁നിര	-9.70411
▁വരു	-9.70438
▁പുല്ലു	-9.70539
▁കിട്ടിയാൽ	-9.70543
▁വല	-9.70566
▁പഠിച്ചു	-9.70571
ിലുള്ള	-9.70584
ക്കാരുടെ	-9.70633
▁അന്ത	-9.70662
▁പാർട്ടി	-9.7067
ിൽനിന്നു	-9.70677
▁പൈസ	-9.70761
▁ശീല	-9.70772
▁പ്രതീക്ഷ	-9.70802
▁പത	-9.7085
▁ചതുരംഗപ്പലക	-9.70917
▁മുള	-9.70988
▁വളർന്നു	-9.71026
▁പ്രകൃതി	-9.7106
▁ഉടൻ	-9.71063
ത്തിലേക്കു	-9.71081
▁അയ്യപ്പൻ	-9.71107
▁ങാ	-9.71111
▁രാവുണ്ണി	-9.71111
▁പ്രാർത്ഥന	-9.71112
ാമെന്ന	-9.71117
▁എനിക്കറിയാം	-9.7113
▁മേശമേൽ	-9.71139
▁ഈശ്വരൻ	-9.71158
▁കിടന്നു്	-9.7118
▁ചോദിച്ചാൽ	-9.71262
▁മനസ്സിന്റെ	-9.71284
▁അനേകം	-9.71352
ിനേയും	-9.71359
▁ഇതും	-9.71439
▁പതിവുപോലെ	-9.7144
▁പാത	-9.71445
▁വിളിക്കാൻ	-9.71477
ക്കട	-9.71582
രം	-9.71628
▁മുൻ	-9.71694
ക്കൾ	-9.71741
▁ഇറങ്ങ	-9.7176
▁തുടങ്ങിയിരുന്നു	-9.71917
▁മറിച്ചു്	-9.7194
▁കുറച്ചുകൂടി	-9.71947
▁അസൂയ	-9.71949
▁പിരിഞ്ഞു	-9.72048
▁ആവ	-9.72049
▁മന്ദഹസിച്ചു	-9.72057
▁മൂടി	-9.72078
▁കിട്ടിയില്ല	-9.72118
ിലേക്ക	-9.72194
ാത്തതു്	-9.7227
മൊന്നുമില്ല	-9.72286
▁നേരിട്ടു	-9.72322
▁പരിചയം	-9.72338
▁കണ്ണട	-9.72342
▁ചുംബിച്ചു	-9.72346
ക്കൊ	-9.72362
മാണെന്ന	-9.72369
▁ഉണർന്നു	-9.72379
▁ശരിക്കു	-9.72382
▁അന്വേഷിക്ക	-9.72436
▁മറന്ന	-9.7253
▁മരുന്നു	-9.72543
▁പോയിട്ടു്	-9.72563
▁ലജ്ജ	-9.7261
▁ഏഴു	-9.72616
ാമെന്നു്	-9.72624
ിനോടു്	-9.72711
▁പണ്ട	-9.72727
▁തോന്നിയില്ല	-9.72737
തെല്ലാം	-9.72738
ഥ	-9.72803
▁നോക്കിയിരുന്നു	-9.72826
▁ഗ്രാമ	-9.72883
1	-9.72898
▁രാമൻ	-9.73141
കളിലൂടെ	-9.73167
വെയ്ക്ക	-9.7321
▁അത്ഭുതം	-9.73223
▁മേശപ്പുറത്തു	-9.73281
▁കൈകൊണ്ടു്	-9.73282
▁പോണ	-9.7331
▁പുറപ്പെട	-9.73414
വിൽ	-9.7342
▁ബാ	-9.73427
ക്കാണു്	-9.73453
ിരിക്കാൻ	-9.73463
▁പകല	-9.73469
ിലു്	-9.73501
▁വരുത്തി	-9.73572
ൗ	-9.7362
▁കുറവ	-9.73695
▁പര	-9.73719
▁അമ്മാവൻ	-9.73744
▁താമസിക്കുന്ന	-9.7375
▁നെന്റെ	-9.73795
▁ഒരാളുടെ	-9.7381
▁പതിയെ	-9.73849
▁കഴിപ്പാൻ	-9.7387
▁ഉണ്ടെങ്കിൽ	-9.73882
മാരുടെ	-9.73897
▁ധാരണ	-9.73898
▁ആരെയും	-9.73919
▁വരാന്തയിൽ	-9.73943
▁പണമ	-9.73967
▁തോന്നൽ	-9.7401
ിക്കുക	-9.74071
▁കാരണ	-9.74084
▁കൃഷി	-9.74101
നട	-9.74117
▁കുടിക്ക	-9.74155
യിരുന്ന	-9.7416
മെടുത്തു്	-9.74173
▁വരച്ചു	-9.74252
▁നിമിത്തം	-9.74266
▁കണ്ടിട്ടുണ്ടു്	-9.74285
▁മടങ്ങ	-9.74321
▁പ്രശ്നം	-9.74336
▁തരാൻ	-9.74337
യ്ക്കാൻ	-9.74339
▁ശ്രമം	-9.74403
▁ആണ	-9.74405
മെ	-9.74409
▁വിഡ്ഢി	-9.74539
▁ഉടനെതന്നെ	-9.7458
▁രതിയുടെ	-9.74603
യിരിക്കും	-9.74622
▁വെളിച്ച	-9.74657
▁ഒറ്റയ്ക്ക	-9.74809
▁കെട്ടിയ	-9.74822
ടുത്തു	-9.74862
▁കേട്ടതു്	-9.74923
▁ഞാനാണു്	-9.75025
റിഞ്ഞു	-9.75028
ിക്കുന്നതു്	-9.75041
▁കെട്ടു	-9.7508
ങ്ങളാണു്	-9.75085
വനെ	-9.75104
▁രക്ത	-9.75117
▁കൂ	-9.75133
▁കണ്ണടച്ചു	-9.75163
േര	-9.75166
▁മണിക്കു്	-9.7525
▁അമർത്തി	-9.75272
▁പ്രകാരം	-9.75276
ണേ	-9.75295
ന്മാരുടെ	-9.75368
ിൽനിന്നും	-9.75382
ിടത്തു്	-9.75385
വർക്കു	-9.75457
മെന്നു	-9.75583
▁ചെയ്തിരുന്നു	-9.75584
▁കറ	-9.75629
ഴി	-9.75648
യെടുത്തു	-9.75743
▁സു	-9.75777
▁വീട്ടിലേക്കു	-9.75844
▁സുനന്ദ	-9.75927
ഗതി	-9.75982
▁മീശ	-9.76022
▁അനാവശ്യമായി	-9.76067
ഭാഗം	-9.76183
▁കേരള	-9.76295
▁പണ്ടേ	-9.76338
▁ശരിയായി	-9.76378
▁നടത്തുന്ന	-9.76437
▁ഒന്നാന്തരം	-9.76446
▁യൂജീനിനെ	-9.76446
▁സബ്ബ്	-9.76446
▁ഉപദേശിയാർ	-9.76449
▁കരച്ചിൽ	-9.76452
▁സൂക്ഷിച്ചു	-9.76469
▁ദൈവമേ	-9.76471
▁അച്ചായൻ	-9.76473
കെട്ടി	-9.76474
▁രണ്ടാമത്തെ	-9.76476
▁അവിടത്തെ	-9.76491
▁ഇരിക്കട്ടെ	-9.76508
▁രാജൻ	-9.76524
യിലേയ്ക്കു്	-9.76535
യാണെങ്കിൽ	-9.76538
▁കഴുത്തിൽ	-9.76541
ുന്നതിനുമുമ്പു്	-9.76554
▁ഇതൊരു	-9.76578
▁വള്ളി	-9.76646
▁വരികയാണു്	-9.76658
▁തുറക്കാൻ	-9.76721
▁കയ്യ	-9.76723
പ്പോഴും	-9.76728
▁ശബ്ദത്തിൽ	-9.76777
▁സമ്മതം	-9.76796
ചെയ്ത	-9.76809
▁സമ്മാനം	-9.76816
▁യു	-9.7687
▁മാ	-9.76876
▁കിടക്കുകയാണു്	-9.7705
▁അല	-9.77093
യുടേയും	-9.77105
തെ	-9.77174
െന്നപോലെ	-9.77196
വന്റെ	-9.77263
▁സുന്ദരി	-9.77308
ിരിക്കുകയാണു്	-9.77365
▁സൂക്ഷിച്ച	-9.77391
ക്കുക	-9.77398
▁തിര	-9.77417
ഫ്	-9.77487
▁വയസ്സായ	-9.77491
യുണ്ടോ	-9.77551
▁ഇപ്പോഴ	-9.77665
▁ഉണ്ടെന്നു്	-9.777
▁ചവിട്ട	-9.77707
തിന്നു	-9.77767
ിന്റെയും	-9.77803
▁കാട്ട	-9.77886
▁ഇവർ	-9.77917
ങ്ങും	-9.77958
്വാ	-9.78004
ല്ലാ	-9.78144
▁അവള്	-9.78155
മര	-9.78193
▁സംഭവിച്ച	-9.78199
രീതി	-9.78246
▁കൈകളിൽ	-9.78247
▁കൂട്ടർ	-9.78319
തോറും	-9.7835
▁നൂറു	-9.78371
ൊര	-9.78485
▁കയ്യില	-9.78493
തല്ലേ	-9.78505
▁കാള	-9.78537
ക്കര	-9.78597
▁കൊള്ള	-9.78636
▁വ്യസന	-9.78659
▁പെട്ട	-9.78703
▁കാലുകൾ	-9.78791
നേ	-9.78799
▁കൊട്ട	-9.78862
തൊട്ടു്	-9.78969
▁ഷർട്ട	-9.78982
▁ചോറു	-9.78992
▁ടിവി	-9.79075
▁വാഴ	-9.79087
പാ	-9.79093
▁മാധവി	-9.79141
▁മനോഹരമായ	-9.79144
കൊണ്ടിരിക്കുന്ന	-9.79163
▁രീതി	-9.79174
▁വിഷമ	-9.79184
▁പുരുഷന്മാർ	-9.7922
▁ശനിയാഴ്ച	-9.79223
▁നിഴൽ	-9.79224
▁ഇദ്ദേഹം	-9.79227
▁ആവോ	-9.79269
▁ഉട	-9.79274
▁എല്ലാരും	-9.79292
▁പോവാം	-9.79306
▁മുട്ടുകുത്തി	-9.79311
▁സ്കൂൾ	-9.79326
ാളി	-9.7933
▁കാറ്റിൽ	-9.79331
▁സാവിത്രി	-9.79352
▁കലശലായ	-9.79356
▁വിവരവും	-9.79374
ക്കുള്ളിൽ	-9.79491
▁തട്ട	-9.79508
▁ലോകത്തിൽ	-9.79531
▁കമ്പനി	-9.79543
ിട്ടേ	-9.79567
▁പിടിക്കാൻ	-9.79574
ില്ലെങ്കിലും	-9.79596
▁കാര്യങ്ങള	-9.79635
▁കിടക്കാൻ	-9.79642
▁അമ്പലത്തിൽ	-9.7965
▁സംശയമില്ല	-9.79679
▁ചാട	-9.79689
ലുകൾ	-9.79707
▁വിളിച്ചു്	-9.79731
▁ക്ഷീണം	-9.79781
▁മുകളിലെ	-9.7979
▁ആലോചിച്ച	-9.79792
▁വൈകി	-9.79809
▁വർഷം	-9.79841
ചെന്നു	-9.7994
▁സംശയിച്ചു	-9.79942
▁ഏർപ്പാട	-9.8
▁തയ്യാറായി	-9.80019
▁വേണ്ടില്ല	-9.80026
▁ഉമ്മറത്തു	-9.80029
യെന്നു	-9.80141
ുവാനും	-9.80153
ാകുന്ന	-9.80161
ത്തിലുള്ള	-9.80172
▁പറഞ്ഞിട്ടു്	-9.80262
▁ആരുടെ	-9.80308
▁ഇല്ലേ	-9.80308
ോം	-9.80327
▁നരച്ച	-9.80336
▁അഭിപ്രായ	-9.80437
ദേശ	-9.80509
മെന്ന	-9.80561
▁മനുഷ്യന	-9.80581
▁ആശ്ചര്യ	-9.80604
▁പ്രശ്ന	-9.80607
▁സ്ക്കൂളിൽ	-9.80616
ക്കുന്നു	-9.8062
▁വളർന്ന	-9.80655
▁ശാന്തി	-9.80669
▁സ്റ്റ	-9.8067
▁അധികാരി	-9.80821
ുത	-9.80888
▁വേണ്ടേ	-9.80906
▁അദ്ദേഹത്തിന്നു	-9.80918
▁തേങ്ങ	-9.80926
▁പഠിക്ക	-9.80951
▁മോഹ	-9.80986
ല്യ	-9.81042
▁അന	-9.81047
വശ	-9.81062
▁ബല	-9.81082
പോയാൽ	-9.81106
▁നന്മ	-9.81117
ക്കിടയിൽ	-9.81173
േയ്	-9.81348
▁അടുപ്പ	-9.81369
കളെല്ലാം	-9.8141
▁ശാന്ത	-9.81458
▁സമയ	-9.81544
▁ലഹള	-9.81591
▁സുന്ദര	-9.81663
രുന്നു	-9.81821
ദ്	-9.81822
റിയാതെ	-9.81847
▁വേണ്ടെന്നു	-9.81938
▁പോന്ന	-9.81946
െയ്	-9.82069
▁കുതിച്ചു	-9.82074
▁പുറമേ	-9.82081
▁ഇത്തരം	-9.82091
▁കസേലമേൽ	-9.82092
▁സുഖക്കേട	-9.82124
▁കാറിന്റെ	-9.82167
▁പറയട്ടെ	-9.82187
കണ്ടു	-9.82198
യായിരുന്ന	-9.82198
▁വാഗ്ദത്തം	-9.82218
▁കുട്ടിയേയും	-9.82228
▁തിളങ്ങുന്ന	-9.82273
▁അതിലെ	-9.82292
▁വിരൽ	-9.82335
▁വിദ്യ	-9.82363
▁ഉറപ്പ	-9.82394
▁പോകണം	-9.82403
▁പറ്റാത്ത	-9.82469
▁വേണ്ടതു	-9.82515
▁എനിയ്ക്ക	-9.82544
▁സൗകര്യ	-9.82586
▁വേലി	-9.82622
▁ദേ	-9.82639
▁ഭാവത്തിൽ	-9.82654
ക്കൊന്നും	-9.8266
▁വർദ്ധിച്ചു	-9.827
▁ബസ്സ്	-9.827
ക്കാന	-9.82783
ിപ്പിക്കുന്ന	-9.82807
▁ചാക്ക	-9.82878
▁മുഖവും	-9.82899
▁രഹസ്യം	-9.82904
▁കുഴി	-9.82915
▁മറിയ	-9.8297
▁തീർച്ചപ്പെടുത്ത	-9.83022
▁വാശി	-9.83033
▁രഹസ്യ	-9.83115
▁ഇവിട	-9.8315
▁പെണ്ണുങ്ങൾ	-9.83169
പ്പെടുത്തി	-9.83188
▁പോണം	-9.83194
ത്രേ	-9.83311
ണ്ടാ	-9.83406
യുമാണു്	-9.83408
യിലുള്ള	-9.83419
രസ	-9.83477
▁മേല	-9.8349
ിറങ്ങ	-9.83647
▁കന്യക	-9.83652
▁ഉയര	-9.83803
▁നിയമ	-9.83851
ബന്ധിച്ചേടത്തോളം	-9.83856
ുവാനുള്ള	-9.8387
▁വിറ്റ	-9.83905
▁ഇവളെ	-9.83979
വിട്ടു	-9.84002
മാത്രമേ	-9.84037
▁അതല്ല	-9.84132
▁അറിയിച്ചു	-9.84215
രുതെന്ന	-9.84279
▁അനുഭവം	-9.84314
▁സ്ക്കൂൾ	-9.84324
യുമില്ല	-9.84369
നീ	-9.84422
▁ഓർക്ക	-9.84471
ുമൊ	-9.84501
▁അദ്ദേഹത്തിനു	-9.84586
▁ദൂര	-9.84586
▁രക്ഷിക്ക	-9.8463
▁പാട്ട	-9.84636
മായും	-9.84701
▁വിചാരിക്കുന്നു	-9.84721
▁തുള്ളി	-9.84799
▁ശൈലജ	-9.84826
▁പോന്നു	-9.84957
▁വന്നതു	-9.84963
▁മേടിച്ചു	-9.8498
▁പുത്തൻ	-9.84986
▁മുഷിഞ്ഞ	-9.85022
▁പോരാത്തതിനു്	-9.85025
ിരിക്കുമ്പോൾ	-9.85033
▁ഓർഡർ	-9.85036
കളെപ്പോലെ	-9.8505
▁കോപത്തോടെ	-9.85061
▁പെണ്ണുങ്ങളുടെ	-9.85073
▁ആരേയും	-9.85081
▁മേരി	-9.85082
▁പറഞ്ഞപോലെ	-9.85083
▁അതിന്മേൽ	-9.85107
▁പുഞ്ചിരി	-9.85153
▁ലക്ഷ്മിക്കുട്ടി	-9.85189
ട്ടേ	-9.85223
▁രാജാവിന്നു്	-9.85271
▁സ്ത്രീയെ	-9.85288
▁അനുകൂല	-9.85319
▁സാധിക്കും	-9.85349
▁തുട	-9.85364
പ്പിച്ച	-9.8538
▁ഇംഗ്ലീഷ്	-9.85402
▁എവിടെയോ	-9.85429
ീട്ടു്	-9.85441
▁എടുത്തുകൊണ്ടു	-9.85492
▁പറമ്പും	-9.8551
ഭാഗ	-9.85517
ക്കൂട	-9.85518
ത്തിലേയ്ക്കു്	-9.85546
▁ഒതുക്കി	-9.85554
▁കോട്ട	-9.85562
▁തണുപ്പ	-9.85589
കളായ	-9.85595
പ്പോലും	-9.85671
ിരുന്നു്	-9.85721
▁അടക്കി	-9.85941
▁അയാളും	-9.85982
വുമ	-9.85985
ത്തിലൂടെ	-9.86109
▁നമ്മളെ	-9.86112
▁പറയാന	-9.8613
ാറായി	-9.86171
▁കുല	-9.86183
െന്ത	-9.86209
▁നിരാശ	-9.86222
▁പെൺകുട്ടിയെ	-9.86267
ക്കാം	-9.86277
▁മുമ്പ	-9.86291
ിയിൽ	-9.86299
കളഞ്ഞ	-9.86335
ാരും	-9.8638
ക്കിട	-9.86402
ുണ്ടെന്നും	-9.86432
▁കോടതിയിൽ	-9.86438
മുണ്ടായ	-9.86477
ോടുള്ള	-9.86516
ത്തിന്മേൽ	-9.86538
▁മുറിയില	-9.86555
▁ദേഹ	-9.86597
▁ഇരുപതു	-9.86628
ക്കെ	-9.86677
▁ഇടയ്ക്കു	-9.86682
▁ഇഷ്ടമ	-9.86808
▁വൈ	-9.86832
ിങ്ങനെ	-9.86864
▁കാത്തുനിന്നു	-9.86914
▁ആകാശ	-9.86928
▁നേർത്ത	-9.86961
▁അയച്ച	-9.87015
ക്കാരി	-9.87076
▁മുതല	-9.8709
വേണ്ട	-9.87175
യ്ക്കുന്ന	-9.87187
സ്ഥിതി	-9.87188
തായിരിക്കും	-9.87189
നേരെ	-9.87242
▁കണ്ടോ	-9.87308
രാജ	-9.87386
▁പ്രത്യക്ഷപ്പെട	-9.8741
▁ചിരിക്കുന്ന	-9.87427
▁സാധനങ്ങള	-9.87443
ത്തിന്ന	-9.87444
നേരം	-9.87524
ുകയാണെങ്കിൽ	-9.87546
▁കൂട്ടിക്കൊണ്ടു	-9.87588
ാവാൻ	-9.87589
ില്ലെന്ന	-9.87653
▁കുഞ്ഞിയമ്മ	-9.87827
ില്ലായിരുന്നു	-9.87888
▁സ്വാമി	-9.87914
▁വാക്ക	-9.87943
ത്തക്ക	-9.87966
ക്കുമ്പോൾ	-9.88005
▁പറഞ്ഞിരുന്നു	-9.88012
▁സവാരി	-9.88041
▁മാസ്റ്റർ	-9.88049
േനെ	-9.88049
▁പരിപാടി	-9.88069
ിരുന്നെങ്കിൽ	-9.8808
▁ദിവസങ്ങളിൽ	-9.88084
▁അത്തരം	-9.88094
▁എന്തെല്ലാം	-9.88102
▁നടുവിൽ	-9.88123
ധാര	-9.88128
▁പലരും	-9.88131
▁ഉറച്ച	-9.88137
പ്പിടിച്ചു	-9.88169
▁ഇരിക്കുമ്പോൾ	-9.88203
▁ഈശ്വരനെ	-9.88205
തുതന്നെ	-9.88232
▁വരുമോ	-9.88255
പ്പു്	-9.88302
▁വിശ്വസിക്കാൻ	-9.88308
▁ചെന്നപ്പോൾ	-9.88319
വിട്ടു്	-9.88323
▁ഒന്നര	-9.88379
ാവസ്ഥ	-9.88526
▁കയ്യും	-9.88536
▁തടി	-9.88543
▁ഉണ്ടായിട്ടില്ല	-9.8859
രായി	-9.8861
▁രണ്ടുമൂന്നു	-9.88631
▁മുഖത്ത	-9.88726
ിയെ	-9.88728
ത്തന്നെയാണു്	-9.88773
▁ശരീര	-9.88778
▁എന്തും	-9.88801
ുംപോലെ	-9.88866
▁ജനങ്ങൾ	-9.88883
▁എന്താണെന്നു്	-9.88893
▁കരി	-9.88903
▁തടഞ്ഞു	-9.88944
▁നമ്മെ	-9.88967
▁ഉദ്ദേശിച്ച	-9.88989
ദിവസം	-9.89016
▁നീയ	-9.89039
▁അറിയിച്ച	-9.89064
മയ	-9.89072
▁ചുമ	-9.8911
ിപ്പിച്ചു	-9.89166
▁അയച്ചു	-9.89186
വനാണു്	-9.89215
▁അവയുടെ	-9.89228
▁പറ്റും	-9.89254
▁ശ്രദ്ധിക്ക	-9.89316
ണ്ടാവ	-9.89327
▁താടി	-9.89363
▁ധന	-9.89392
▁മണ്ണ	-9.89401
▁രസം	-9.89425
▁അറിയിക്ക	-9.89429
▁ഉറച്ചു	-9.89546
▁പറഞ്ഞിട്ടില്ല	-9.89582
▁എന്തൊ	-9.89615
▁നായ	-9.89655
▁ഒന്നിച്ചു്	-9.89672
ായിരുന്നോ	-9.89696
പൂർവ്വം	-9.89702
▁സുന്ദരിയായ	-9.89707
▁കൊണ്ടും	-9.8971
▁ചവിട്ടി	-9.89769
▁കഴിക്കുന്ന	-9.89845
▁അഴിച്ചു	-9.89869
മുണ്ടോ	-9.89908
▁കോല	-9.8995
▁കല്ല	-9.89974
ോര	-9.90004
▁സൗന്ദര്യ	-9.90004
ട്	-9.90135
▁അദ്ഭുത	-9.90146
▁പരിശോധിക്ക	-9.90188
▁പാൽ	-9.90226
ത്തുടങ്ങിയ	-9.90332
▁ഓട്ട	-9.90442
▁വിശേഷ	-9.90473
ിവിടെ	-9.90635
ാകും	-9.90708
ോളു	-9.90733
▁ഭാഗ്യ	-9.90736
▁വീട്ടിലേയ്ക്കു	-9.9078
ങ്ങൾക്കു്	-9.90812
▁വെച്ചിരുന്ന	-9.90892
ാമല്ലോ	-9.90935
▁തപ്പി	-9.90939
ിപ്പിച്ച	-9.90953
▁പാടില്ലാത്ത	-9.90953
▁കസേര	-9.90982
▁തൃപ്തി	-9.91012
പ്പിടി	-9.91043
▁തൂങ്ങി	-9.91067
വിധം	-9.91068
▁നേരിട	-9.91147
▁കുട്ടിക്കാലത്തു	-9.91148
റുപ്പിക	-9.91161
▁വാരി	-9.91167
▁ഏയ്	-9.91177
▁ഐസ്ക്രീം	-9.91177
▁ദുർഗ്ഗമ്മ	-9.91177
▁തെക്കേ	-9.91183
▁ഏകാന്തത	-9.91183
യാള	-9.91195
▁ഇത്തിരി	-9.91196
▁ഭർത്താവു	-9.91197
▁കോലായിൽ	-9.91219
▁വല്ലപ്പോഴും	-9.91234
▁രാജമ്മ	-9.91244
▁ഉമ്മറത്തേയ്ക്കു	-9.9126
▁ചേര	-9.91276
▁പറമ്പിന്റെ	-9.91287
▁സന്തോഷത്തോടെ	-9.91327
▁വിവരങ്ങൾ	-9.91336
▁ചോദിച്ചപ്പോൾ	-9.91338
▁കിടക്കുമ്പോൾ	-9.91352
▁വാതിലിന്റെ	-9.91387
യാണെങ്കിലും	-9.91389
▁സഹോദരി	-9.91411
▁വയസ്സിൽ	-9.91505
▁വന്നിട്ടില്ല	-9.91547
▁മുൻപു്	-9.91599
▁ആവശ്യമില്ല	-9.91608
▁ഭയവും	-9.91636
▁വേഷം	-9.91674
ാറ്	-9.9169
▁ഷർട്ടും	-9.91706
▁സഹജമായ	-9.91742
▁പാവ	-9.91807
▁വേണ്ടാ	-9.91852
▁രാജാവിനെ	-9.91881
▁സീമയുടെ	-9.91945
െയും	-9.91985
▁കഷ്ട	-9.9201
▁നന	-9.92062
▁ഉപേക്ഷിക്ക	-9.92162
▁നേരത്തേ	-9.92174
▁യന്ത്ര	-9.92197
ങ്ങു	-9.92198
ായിരിക്കുമോ	-9.92275
▁മൃഗ	-9.92333
ിട്ടുണ്ടെന്നു്	-9.9234
▁വരണം	-9.92372
ിപ്പോൾ	-9.92381
▁വീട്ടു	-9.92421
▁ഒരുങ്ങി	-9.92423
▁ന്നു	-9.92428
▁ഉദ്ദേശം	-9.92447
ക്കിടക്കുന്ന	-9.92462
ച്ചാൽ	-9.92682
ാതിരുന്ന	-9.92689
▁നിശ്ചയിച്ച	-9.92736
ാണി	-9.92841
വരാൻ	-9.92892
▁കാത്തുനില്ക്ക	-9.92903
ന്റ്	-9.92912
ള്ളൂ	-9.92917
▁മനുഷ്യര	-9.92939
▁തോന്നല	-9.93035
▁തോറ്റു	-9.9312
▁കിട്ടിയതു്	-9.9314
▁രുചി	-9.93189
പ്പിക്കുന്ന	-9.93294
്യാണു്	-9.93362
▁നടത്തം	-9.93387
▁കേൾക്കുന്ന	-9.93431
▁വീശി	-9.93434
▁വിശ	-9.93435
▁വരുന്നില്ല	-9.93451
▁ആള്	-9.93489
▁മടിച്ചു	-9.93505
▁കത്തു	-9.93545
തുമില്ല	-9.93582
വീണു	-9.9361
▁ദിവ്യ	-9.93612
ിക്കണം	-9.93648
▁കടലാസ്സു	-9.93712
▁അവനും	-9.93815
▁അസുഖ	-9.93818
ൊന്നുംല്ല്യ	-9.93846
▁കരഞ്ഞ	-9.939
▁അട	-9.93922
െത്ത	-9.93926
▁അവരും	-9.93966
▁അതിശയ	-9.94037
ത്തേക്കാൾ	-9.94067
▁ഇരുത്തി	-9.94093
▁ഉള്ളില	-9.94095
ീര	-9.94243
ക്കായി	-9.94346
▁പുരുഷന	-9.94347
▁ഗ്ലാസ്	-9.9436
▁ഒടുക്കം	-9.94403
▁ഒന്നുകിൽ	-9.94407
▁ത്രേസ്യേ	-9.94414
▁അമ്മൂമ്മ	-9.94414
▁ലോനപ്പൻ	-9.94416
▁മറ്റുള്ളവരുടെ	-9.94427
▁സഹായിക്ക	-9.94429
▁വരി	-9.9443
▁മുതിർന്ന	-9.94431
െഴുതിയ	-9.94436
▁വയസ്സു്	-9.9445
▁കാര്യമായി	-9.9445
▁ക്ഷണത്തിൽ	-9.9446
▁വിറയ്ക്കുന്ന	-9.94469
▁ജാതി	-9.94522
▁നിർബ്ബന്ധ	-9.94533
▁വൃദ്ധന്റെ	-9.94559
▁കേൾക്കാം	-9.9456
▁പഠിക്കാൻ	-9.94578
▁ആവലാതി	-9.94582
▁ചോദ്യങ്ങൾ	-9.94605
നായിരുന്നു	-9.94607
▁ഇളം	-9.9463
▁തുടങ്ങും	-9.94637
കൊണ്ടുള്ള	-9.94644
▁വിനോദിന്റെ	-9.94707
▁മി	-9.94709
▁വിശാലമായ	-9.94724
ണതു	-9.9478
▁കുഞ്ഞു	-9.94805
▁രീതിയിൽ	-9.94863
ിയ്ക്ക	-9.94879
▁കോപ	-9.949
▁വിചാരിച്ചതു്	-9.94941
നടന്നു	-9.94998
ച്ചതു്	-9.95018
▁പോയിരിക്കുന്നു	-9.95063
▁ഉണ്ടാകും	-9.95076
▁തെളിഞ്ഞ	-9.95104
▁ചെയ്താൽ	-9.95109
▁ഉണ്ടാവ	-9.95122
▁സ്കൂളിൽ	-9.95163
▁ഉണ്ടായതു്	-9.95179
യാവും	-9.95232
ംഗ	-9.95235
യൊന്നു്	-9.95245
▁സ്വരം	-9.95245
മുമ്പു്	-9.95336
▁മുകളിലേയ്ക്കു	-9.9536
▁നിറച്ച	-9.95367
▁എണ്ണി	-9.95389
▁ഇഷ്ടപ്പെട്ട	-9.95411
▁മലയാള	-9.95415
▁നാട	-9.95421
▁മതിയായിരുന്നു	-9.9543
▁അതിനുള്ള	-9.9546
ിട്ടുണ്ടാകും	-9.95481
▁ജനല	-9.95495
വുംകൂടി	-9.95505
ബന്ധ	-9.95565
കാലത്തു്	-9.95603
▁തുടങ്ങ	-9.95639
▁നീക്കി	-9.95656
▁മറ്റു്	-9.95669
▁കാശു	-9.9568
▁കാണില്ല	-9.95708
▁പേടിയും	-9.95739
ിന്നും	-9.95791
▁എന്നാ	-9.95797
ായിരിക്കാം	-9.95803
സ്ഥ	-9.9582
വളും	-9.95972
▁ബഹള	-9.95992
വളാണു്	-9.96008
ാൻവേണ്ടി	-9.96038
▁ചെയ്യാതെ	-9.96101
▁തിരിച്ചുവന്നു	-9.96224
ത്താൽ	-9.96245
▁ഭംഗിയായി	-9.9627
ബുദ്ധി	-9.96272
മ്മാ	-9.9628
െടുക്കാൻ	-9.9633
▁തുടച്ചു	-9.96362
▁പോരാ	-9.96371
▁ആരാ	-9.96374
ളെ	-9.96376
▁നടക്കുന്നതു്	-9.96391
▁ഗോപാലക്കുറുപ്പ	-9.96416
ിങ്ങ്	-9.96474
പ്പെടുത്ത	-9.96541
▁ക്ഷണിച്ചു	-9.96595
▁കാശ	-9.966
▁അറ	-9.9661
▁പൂവ	-9.96617
▁കുളിച്ചു	-9.96628
▁എളുപ്പ	-9.96647
▁ഫല	-9.96686
▁പിന്നീട	-9.96702
▁പങ്കു	-9.96707
▁ധനത്തെ	-9.96756
ുമാണു്	-9.96783
▁ചെന്നിരുന്നു	-9.96793
▁പതിവു	-9.96794
ംകൊണ്ടും	-9.96817
▁തുക	-9.96889
▁ഇഷ്ട	-9.96903
ശീല	-9.96999
ന്നോ	-9.97011
▁കല്യാണി	-9.9704
▁പട്ടി	-9.97085
ക്കാണ	-9.97095
▁എഴുത്തു്	-9.97097
യില്ലേ	-9.97107
▁അധിക	-9.97137
പ്പറ	-9.97211
▁ഇപ്പ	-9.97218
▁തുറിച്ചു	-9.97231
▁ഭാവന	-9.97271
▁കുള	-9.97271
▁വശ	-9.97318
ാൾ	-9.97338
▁ചെയ്തില്ല	-9.97342
ുപോലെ	-9.97344
▁കണ്ടുപിടിച്ച	-9.97362
▁വീടിനു	-9.97376
▁കണ്ടിട്ടു	-9.97395
▁സ്വീകരിക്ക	-9.97455
ചെയ്തു	-9.97464
▁നടത്താൻ	-9.9747
▁കുറി	-9.97478
മ്മേ	-9.9748
▁സ്വാതന്ത്ര്യ	-9.97524
▁വീതി	-9.97537
ത്തും	-9.97574
▁തിരിഞ്ഞ	-9.97588
കൊണ്ടോ	-9.9761
▁പച്ചക്കറി	-9.97639
▁ഇരിക്കാൻ	-9.97641
ഫ	-9.97658
▁ഉണര	-9.97676
തിൽപ്പിന്നെ	-9.97693
ർക്ക	-9.97705
▁ജന്മ	-9.97726
▁കമ്പ്യൂട്ടർ	-9.97736
▁തികച്ചും	-9.97736
ിച്ചതു്	-9.9775
▁ജനലിലൂടെ	-9.97755
▁നഗരത്തിലെ	-9.97758
▁കൗതുകത്തോടെ	-9.97765
▁വിരലുകൾ	-9.97765
▁ഭാഗ	-9.97766
▁അത്രത്തോളം	-9.97774
▁ഹേമാംഗന്റെ	-9.97776
▁നദി	-9.97786
▁വസ്ത്രങ്ങൾ	-9.97849
▁കുറേക്കൂടി	-9.97862
▁പരസ്പരം	-9.97876
▁എന്തുകൊണ്ടോ	-9.97903
▁തോളിൽ	-9.97907
വുമില്ലാതെ	-9.9792
▁താമസിച്ച	-9.97987
▁ജോസഫേട്ടനു്	-9.98005
▁ഉണ്ടാക്കിക്കൊടു	-9.98006
▁കവിളിൽ	-9.98007
യിരുന്നില്ല	-9.98045
▁പറഞ്ഞാലും	-9.98091
▁കടൽ	-9.98122
▁സംബന്ധം	-9.98124
ക്കാത്ത	-9.98126
്ന്നു്	-9.98145
▁കൊടുക്കണം	-9.98191
▁സംഭാഷണം	-9.98202
▁പറവാന	-9.98212
▁അടക്ക	-9.9825
▁വിചാരിച്ചാൽ	-9.98281
▁അച്ഛനോടു്	-9.98304
▁വിചാരിച്ചിട്ടു്	-9.98396
ാഞ്ഞ	-9.98412
▁അസുഖം	-9.98441
▁ചുമലിൽ	-9.98471
▁ആളുകളെ	-9.98474
▁തിരുമേനിയുടെ	-9.98485
▁കുറഞ്ഞു	-9.98518
▁ചുവട്ടിൽ	-9.98523
▁ശ്രദ്ധിച്ചില്ല	-9.98529
േണ്ടിവന്ന	-9.98551
▁പോലീസ്	-9.98575
▁പൊന്തി	-9.98583
ായിരിക്കുന്നു	-9.98586
ങ്ങളിലും	-9.98627
▁തന്നോടു്	-9.98746
്ടെ	-9.98762
▁സാധന	-9.98794
▁മനസ്സിലാകുന്ന	-9.98829
▁വന്നിരിക്കുന്നു	-9.9886
▁നേർക്കു്	-9.98862
ുവാ	-9.98919
▁മുപ്പതു	-9.98952
സ്ത	-9.98957
▁അതായിരുന്നു	-9.98975
▁സാ	-9.98987
▁വീണു്	-9.98995
▁മിണ്ട	-9.99016
▁ത്രേസ്യാമ്മയെ	-9.99067
▁നിർ	-9.99129
▁കടക്ക	-9.9916
▁കൊണ്ടുപോയ	-9.99211
ളുടെ	-9.99221
നോടു്	-9.99243
▁ആവശ്യമ	-9.99282
▁ദുഃഖ	-9.99322
കാലം	-9.99337
▁ഇടയ്ക്കിടയ്ക്കു	-9.99356
▁വന്നിട്ടു്	-9.9943
▁ഞാ	-9.9943
▁കാത്തിരുന്നു	-9.99476
▁നായര	-9.99523
▁നെ	-9.99531
▁പത്ര	-9.99563
▁പോകുന്നതു	-9.9969
▁ഓരോന്നു	-9.99692
രിയ	-9.9973
ിരിക്കുക	-9.99758
▁ആലോചിച്ചു്	-9.99758
താണെന്നു്	-9.99771
ല്ലല്ലോ	-9.99825
ുമെന്നും	-9.99831
▁പിന്നീടു	-9.99832
▁നാല	-9.99838
▁ക്ഷീണ	-9.99873
▁ഓരോന്നു്	-9.99895
▁കൈയ്യ	-9.99914
റിയാത്ത	-9.9993
പ്പിച്ചു	-9.9995
▁ഒരുമാതിരി	-9.99954
കാര്യം	-9.99969
▁കൂട്ടുകാര	-9.99979
▁ജന	-10
▁കണ്ടുപിടിക്ക	-10
▁ഇല്ലെന്നു്	-10.0004
▁മനസ്സിലാവുന്ന	-10.0009
ല്ലാത്ത	-10.001
▁ന്യായ	-10.0011
▁പുരുഷ	-10.0011
▁കാലത്തു	-10.0012
▁ശുശ്രൂഷ	-10.0013
കൊള്ളാം	-10.0014
▁കച്ചവട	-10.0019
▁ഭക്ഷണ	-10.0023
▁താ	-10.0025
▁നായരെ	-10.0025
▁മരിച്ചുപോയ	-10.0026
▁കൊച്ച	-10.0031
▁പ്രകാശ	-10.0034
▁വഴിയിൽ	-10.0037
▁വിഷാദ	-10.0038
▁വരണ്ട	-10.004
▁അടച്ച	-10.0048
▁നാൾ	-10.0052
ത്തിന്റേയും	-10.0055
ലേ	-10.0058
▁താങ്ങി	-10.006
▁കയറ്റി	-10.0061
▁പിന്നോക്കം	-10.0064
▁മത	-10.0065
േലു്	-10.0067
▁നെഞ്ച	-10.0068
▁കെട	-10.0074
ത്വ	-10.0074
▁ഭർത്താവ	-10.0082
▁വെള്ളത്തിൽ	-10.0084
പരമായ	-10.0086
▁കമ്പി	-10.0087
▁ക്ഷീണിച്ച	-10.009
▁കൊളുത്തി	-10.009
▁തളർന്നു	-10.0093
▁ചില്ല	-10.0098
▁അകത്തേക്കു	-10.0098
▁വേ	-10.01
ക്കാതെ	-10.0109
▁കൂലി	-10.0109
▁അത്രയും	-10.0114
ുന്നതാണു്	-10.0117
▁അച്ചടി	-10.0118
▁ഭട്ടതിരി	-10.0118
▁ആത്മഹത്യ	-10.0118
▁ആനന്ദകൃഷ്ണൻ	-10.0118
▁യമുന	-10.0118
▁രാജേഷ്	-10.0118
▁ഓഹോ	-10.0118
▁യോഗിയാരുടെ	-10.0119
▁അപ്പൂട്ടി	-10.0119
▁ആശ്ചര്യപ്പെട്ടു	-10.012
▁പൂക്കൾ	-10.012
▁നെറ്റിമേൽ	-10.0121
▁ബസ്സിൽ	-10.0125
▁കട്ടിലിന്റെ	-10.0126
▁മീൻ	-10.0133
▁തിരക്ക	-10.0133
▁പടിഞ്ഞാറെ	-10.0134
▁വല്ലവരും	-10.014
▁കേൾക്കുമ്പോൾ	-10.0141
▁പുറത്തെടുത്തു	-10.0141
▁വിടാതെ	-10.0141
▁തന്നോടുതന്നെ	-10.0141
്യോ	-10.0142
▁പൊക്കി	-10.0144
▁ഭാർഗ്ഗവിഅമ്മ	-10.0146
▁ഇതിലും	-10.0146
▁തുണ	-10.0146
▁എടുക്കാൻ	-10.0152
▁കട്ട	-10.0154
▁ദേഷ്യം	-10.016
▁പരിചയമുള്ള	-10.0162
▁ദേവ	-10.0164
ങ്ങളായി	-10.0165
▁കാണുക	-10.0166
ാന്ത	-10.0168
▁രോഗി	-10.0174
പ്പോഴ	-10.0176
▁ഉറങ്ങിയ	-10.0181
▁തക്ക	-10.0183
▁രാജാവ	-10.0183
▁മകനും	-10.0193
▁തുടങ്ങിയപ്പോൾ	-10.0195
െഴുതി	-10.02
▁പ്രതീക്ഷിക്ക	-10.0201
▁സ്ഥാനത്തു്	-10.0204
പ്പിടിച്ചു്	-10.0205
പിടിച്ചു്	-10.0208
▁മൃദുവായ	-10.0211
▁സഹായം	-10.0214
ത്തോളം	-10.0218
▁വിശേഷം	-10.022
▁സംസാരിക്കുന്നതു	-10.0229
▁ബഹളം	-10.023
▁ഇങ്ങട്ടു്	-10.0231
▁വരവു്	-10.0238
▁ഭാസ്കരനെ	-10.0239
▁പഠിക്കുന്ന	-10.0241
▁മണ	-10.0242
ബന്ധിച്ചിടത്തോളം	-10.0248
▁കേറ	-10.0249
▁കനത്ത	-10.0251
▁പോവും	-10.0256
▁മൂല	-10.0259
▁തുടർന്നു്	-10.0262
▁ഇപ്പോൾത്തന്നെ	-10.0267
ലു്	-10.027
▁പുതുതായി	-10.0273
▁തെറ്റു	-10.0275
▁പടം	-10.0275
കെട്ട	-10.0278
ത്തിലേക്കു്	-10.0285
▁ഏറ്റ	-10.0291
കൾക്കു്	-10.0296
▁കൊണ്ടുവരാൻ	-10.0296
▁രക്ഷപ്പെട	-10.03
▁ഒരാൾക്കു്	-10.0309
▁സമ്പാദിച്ചു	-10.031
ക്കുറിച്ചു്	-10.0311
▁മനുഷ്യർ	-10.0312
▁മുഖത്തെ	-10.0316
കളൊന്നും	-10.0321
▁പ്രത്യേകത	-10.0332
▁എഴുത്ത	-10.0335
ക്കൊക്കെ	-10.0337
▁ചി	-10.0352
▁ജനിക്ക	-10.0353
▁സ്വീകരിച്ചു	-10.0355
▁മടിയിൽ	-10.0356
▁പറയുന്നില്ല	-10.0358
▁മുറുകെ	-10.0369
നിയ	-10.0373
▁പല്ലു	-10.0377
യൊരു	-10.0378
ിക്കുവാൻ	-10.0379
▁നേരിട്ടു്	-10.038
▁തോന്നിപ്പോകുന്ന	-10.0382
▁ഭാവ	-10.0382
▁കിടത്തി	-10.0383
കേ	-10.0384
▁പൈ	-10.039
▁ഇട്ടിരുന്ന	-10.0395
മ്പോ	-10.04
▁നടിച്ചു	-10.0402
▁ഉരുണ്ടു	-10.0409
കൊണ്ടിരിക്കെ	-10.041
ുകയാണോ	-10.0414
ോളാം	-10.0415
മെല്ലാം	-10.0415
▁ജെസ്സി	-10.0432
തിൽപിന്നെ	-10.0444
▁മുഴുകി	-10.045
▁രാഷ്ട്രീയ	-10.0451
്വാണു്	-10.0453
▁ശിക്ഷ	-10.0455
▁കേ	-10.0458
▁പേ	-10.0466
ട്ടോ	-10.0469
▁ചപ്രു	-10.0475
▁ബിജു	-10.0475
▁കണ്ണീർ	-10.0475
▁പയ്യൻ	-10.0476
▁നാണിഅമ്മ	-10.0476
▁ലഭിച്ച	-10.0476
▁പിന്നേ	-10.0476
▁രണ്ടായിരം	-10.0476
▁നിങ്ങടെ	-10.0477
▁നമ്ക്കു്	-10.0477
▁വെട്ട	-10.0477
▁വന്നിരുന്ന	-10.0478
▁അതായതു്	-10.0479
▁തനിയെ	-10.0482
▁പറയാറുണ്ടു്	-10.0489
▁സമാധാനമായി	-10.0491
▁കൈയ്യിൽ	-10.0491
▁കുട്ടാ	-10.0494
വല	-10.0494
▁നാഡി	-10.0496
▁പതിഞ്ഞു	-10.0499
▁വർഷ	-10.0504
▁പള്ളിയിൽ	-10.0504
▁ഇട്ടു്	-10.0507
▁ജീവിതത്തിന്റെ	-10.0509
▁ജനൽ	-10.051
▁സ്ഥാന	-10.0511
▁പെണ്ണേ	-10.0511
▁പുസ്തകങ്ങള	-10.0511
▁സ്വകാര്യ	-10.0512
▁നാഴിക	-10.0513
▁എന്നവൾ	-10.0516
മായിരുന്നില്ല	-10.0516
കളായി	-10.0519
ാലെ	-10.0522
▁കാണാത്ത	-10.0525
▁വിഷയം	-10.0528
▁കൂട്ടിൽ	-10.0529
▁ഭേദം	-10.0533
▁കണ്ണുകളും	-10.0537
▁മുണ്ടും	-10.0537
▁വെയില	-10.0541
ന്മാരും	-10.0543
▁സ്ത്രീകളുടെ	-10.0544
ബ്	-10.0546
▁പിന്നില	-10.0551
▁വ്യക്തമായി	-10.0552
▁കുഴപ്പ	-10.0552
▁പൊളിച്ചു	-10.0556
കിട	-10.056
▁ഇഷ്ടമുള്ള	-10.0561
▁വിരോധമില്ല	-10.0562
▁ഇടി	-10.0563
▁ഉണ്ടാക്കുന്ന	-10.0565
ുകയേ	-10.0566
▁പള്ളി	-10.0567
▁ഇതേ	-10.0569
ുമ്പോഴേയ്ക്കു്	-10.0576
കയറി	-10.0577
▁തറവാട്ടിൽ	-10.0581
▁മന	-10.0584
▁പൂർണ്ണ	-10.0589
ിക്കാതെ	-10.0592
▁പ്രശ്നങ്ങള	-10.0594
▁വായിൽ	-10.0594
▁മാല	-10.0595
തന്ന	-10.0596
▁നീച	-10.0596
മന	-10.0597
▁തിരിയ	-10.06
▁വന്നതാണു്	-10.0604
▁വായിക്കാൻ	-10.0605
തിന്നു്	-10.0606
ായിരുന്നെങ്കിൽ	-10.0608
▁നടവടി	-10.0609
▁കാത്തു്	-10.0611
ക്കുട്ടി	-10.0613
▁സ്നേഹിക്കുന്ന	-10.0613
ഞ്ഞി	-10.0614
ൃ	-10.0618
മാരും	-10.0623
▁എന്നെക്കൊണ്ടു്	-10.0624
▁ഒളിച്ചു	-10.0625
▁കയറുന്ന	-10.0633
▁മങ്ങി	-10.0633
ലേക്കു	-10.0633
▁വിശ്വസിക്കുന്ന	-10.0641
ിയായ	-10.0642
▁വീട്ടിലേയ്ക്കു്	-10.0648
▁സുഖമില്ല	-10.0648
▁ഇരുട്ടിൽ	-10.0649
വിളി	-10.0654
േണ്ടതു	-10.0654
മാത്രമാണു്	-10.0656
▁അനുഭവിക്ക	-10.0662
▁അവിടെയും	-10.0666
ങ്ങൾക്കും	-10.0669
▁കിട്ടുക	-10.067
▁ദൈവത്തെ	-10.0671
▁കഠിന	-10.0671
▁ഇരുമ്പു	-10.0672
▁കണ്ടതു	-10.0682
▁നാലഞ്ചു	-10.0684
▁മനസ്സിലാക	-10.0685
വാദ	-10.0689
വായ	-10.0694
▁പുറത്തിറങ്ങ	-10.0701
മ്പ്രാ	-10.0702
▁ഒന്നാമതു	-10.0703
▁പ്രവേശിച്ചു	-10.0703
▁ഇവിടുന്നു	-10.0709
▁കാരണമ	-10.0714
▁വണ്ടിയിൽ	-10.0715
▁വാതിലടച്ചു	-10.0717
▁ഫോണ	-10.0724
തുകൊണ്ടാണു്	-10.074
▁കോമാളി	-10.0741
▁വഴക്ക	-10.0742
ങ്ങളെപ്പറ്റി	-10.0747
▁നാടക	-10.0747
ാവണം	-10.0748
ത്തിന്റെയും	-10.0749
ക്കാൾ	-10.0754
റിയാം	-10.0755
▁ബഹുമാന	-10.0755
▁ദാ	-10.076
▁നന്നാ	-10.0762
▁പൂർവ്വ	-10.0762
▁വ്യക്തി	-10.0762
▁അവളോടു	-10.0764
ക്കുകയായിരുന്നു	-10.0769
▁സ്ഥലത്ത	-10.0769
▁ഇല്ലെന്നു	-10.077
▁സംഗീത	-10.077
മെന്നു്	-10.0783
▁ചരിത്ര	-10.0784
▁സംസ്കൃത	-10.0788
▁കാര്യമായ	-10.0797
ണ്	-10.0797
▁ചാർലി	-10.0799
▁ചട്ട	-10.0801
▁നിങ്ങൾക്ക	-10.0801
ക്കുറവ	-10.0813
▁അനുഭവിച്ച	-10.0814
▁കണ്ടിരുന്നു	-10.0815
▁ഓർത്ത	-10.082
▁ജാനകിയമ്മ	-10.0821
േപ്പോലെ	-10.0821
ഫല	-10.0829
▁കഷ്ടം	-10.0829
▁യുക്തി	-10.0834
തോടുകൂടി	-10.0838
▁സേതു	-10.0845
▁ഒന്നാമതായി	-10.0846
▁പൊടുന്നനെ	-10.0846
▁മൂന്നാമത്തെ	-10.0846
▁സാവധാനം	-10.0846
▁ഹോസ്റ്റലിൽ	-10.0846
▁ഒന്നാമത്തെ	-10.0846
▁കഴികയില്ല	-10.0846
▁കലർന്ന	-10.0846
▁കട്ടിലിന്മേൽ	-10.0847
▁അതിനിടയിൽ	-10.0848
▁രണ്ടാൾക്കും	-10.0848
▁ഞങ്ങള്	-10.0848
തിര	-10.085
▁സൂര്യൻ	-10.0853
▁എത്രത്തോളം	-10.0854
▁ചേട്ടാ	-10.0855
▁അറുമുഖനെ	-10.0856
▁നോക്കും	-10.086
▁വക്കീലിന്റെ	-10.0861
▁സാറെ	-10.0868
▁ചെവിയിൽ	-10.0871
▁നോട്ടുകൾ	-10.0871
▁വയസ്സൻ	-10.0873
▁അതിനിടയ്ക്കു്	-10.0873
▁തരണം	-10.0874
▁ഇര	-10.0877
▁വടക്കെ	-10.0877
തിനുശേഷം	-10.0881
▁മൂപ്പർ	-10.0881
▁മോനെ	-10.0887
▁നോക്കാതെ	-10.089
▁അവിട	-10.0893
▁കടല	-10.0894
▁പടർന്നു	-10.0894
▁തെ	-10.0894
▁ഒന്നുനോക്കി	-10.0895
▁ആഗ്രഹ	-10.0898
സൂ	-10.0899
▁മാറ്റാൻ	-10.09
▁വേഗത	-10.0903
▁സൈക്കിള	-10.0907
▁തീരുമാനിച്ചു	-10.0915
▁അടയ്ക്ക	-10.0916
▁ആശ്വസിപ്പിക്ക	-10.0916
▁സമാധാന	-10.0916
ണ്ടെ	-10.0923
▁ചീ	-10.0923
▁മരിക്ക	-10.0926
ാത്തവിധത്തിൽ	-10.0926
▁ഭേദ	-10.0926
ുണ്ടല്ലോ	-10.0926
ിയായി	-10.0927
▁അണ	-10.093
▁നട്ട	-10.0931
▁കഴിവ	-10.0934
▁താണു	-10.0936
▁കോള	-10.0937
▁നിസ്സാര	-10.0939
▁ശബ്ദവും	-10.0941
▁ശ്രമിച്ച	-10.0943
▁ഇതിനു	-10.0948
▁കാറ	-10.0951
▁നോക്കുന്നതു്	-10.0959
▁ആവശ്യപ്പെട്ട	-10.0961
ിളക്ക	-10.0964
കൾക്കിടയിൽ	-10.0966
മുണ്ടായിരുന്ന	-10.0967
വയ്ക്ക	-10.0968
▁കൊള്ളില്ല	-10.0968
▁തന്നേ	-10.0969
മല്ലേ	-10.0972
▁അത്രതന്നെ	-10.0975
▁തനിച്ച	-10.0975
▁വേണ്ടാത്ത	-10.0976
െന്തു	-10.0976
റപ്പ	-10.0977
ക്കൊണ്ടിരുന്ന	-10.0983
▁റോഡിൽ	-10.0984
▁അതെന്ത	-10.0987
▁ചന്ത	-10.0988
ടീ	-10.0989
▁കവിഞ്ഞ	-10.0993
▁ഇവിടുന്നു്	-10.0993
▁തൊണ്ട	-10.0997
▁വശം	-10.0998
മൂലം	-10.0998
ബോധ	-10.1003
▁എഴുന്നേൽക്ക	-10.1006
▁ചിരിക്ക	-10.1008
▁സമ്മതിച്ച	-10.1008
ോളൂ	-10.1009
▁വിറ	-10.1014
▁മനസ്സിലാവ	-10.1014
▁കുറുപ്പു	-10.1016
▁ശങ്കിച്ചു	-10.1018
പറഞ്ഞു	-10.1018
▁ദിവസമ	-10.1019
▁തരുന്ന	-10.1023
▁കിട്ടാതെ	-10.1024
ങ്ങൾക്കു	-10.1028
▁നൽക	-10.1031
▁സാധിച്ച	-10.1031
വരുമ്പോൾ	-10.1032
▁കൗതുക	-10.1032
ത്തോടുകൂടി	-10.1039
ദി	-10.1042
▁തലയുയർത്തി	-10.1047
ത്തേയും	-10.1048
▁ഇടവഴി	-10.1048
ഭാവ	-10.1055
▁രേഖ	-10.1058
വിടുന്ന	-10.106
▁ആനന്ദം	-10.1062
▁അതിനും	-10.1062
▁നിവർന്നു	-10.1065
▁ചുമര	-10.1067
▁തെറ്റു്	-10.1067
െടാ	-10.1071
ോടൊപ്പം	-10.1071
▁കാലു	-10.1077
▁പ്രവർത്തിക്ക	-10.1083
▁ജോലിയിൽ	-10.1083
കണ്ട	-10.1085
ാതിരിപ്പാൻ	-10.1087
▁ചോദ്യ	-10.1088
▁തലേന്നു	-10.1088
▁വയസ്സായി	-10.109
▁ജാസ്തി	-10.1092
▁യോഗ	-10.1098
▁പെണ്ണു	-10.11
▁എഞ്ചിൻ	-10.1102
പ്പുറം	-10.1102
▁നുണ	-10.1106
▁സഹായ	-10.1108
▁പുറത്തേക്കു്	-10.111
▁എന്നേയും	-10.1116
നോടു	-10.1119
▁അനിയത്തി	-10.1121
▁ലീല	-10.1127
▁പാടി	-10.113
▁മാനസിക	-10.1135
▁ലഹരി	-10.1139
▁ലോകത്ത	-10.115
▁പഠിപ്പിക്ക	-10.1153
▁അവൾക്കും	-10.1154
▁എന്നതാണു്	-10.1164
കളുമായി	-10.1166
▁വയ്യാത്ത	-10.117
യൊന്നു	-10.1172
▁സാധിക്ക	-10.1177
▁കിടന്നിരുന്ന	-10.1179
▁കഴിച്ചു്	-10.1184
▁മുറിച്ചു	-10.1185
▁പരി	-10.1188
ുണ്ടാക്കി	-10.1194
▁കഥകളി	-10.1198
ശബ്ദമുണ്ടാക്കാതെ	-10.1199
ര്യ	-10.1201
പ്പാട	-10.1203
ാർ	-10.1205
▁ചാര	-10.1206
▁ഉന്മേഷ	-10.1207
▁ശ്രമ	-10.1207
▁കൊണ്ടോ	-10.1209
▁മാപ്പിള	-10.1211
▁ഹരിതാഭ	-10.1211
▁പോലെയാണു്	-10.1211
▁ഗൗരവ	-10.1213
▁എന്നിട്ടു	-10.1214
▁ജോസഫേട്ടന	-10.1217
▁മദ	-10.1224
ഡി	-10.1226
ക്കറിയാം	-10.1228
▁നിത്യ	-10.1229
▁സാഹസ	-10.1229
▁യൂജിൻ	-10.1231
▁രണ്ടാമതും	-10.1231
▁രാരിച്ചൻ	-10.1231
▁ലേശം	-10.1231
▁ടീച്ചർ	-10.1231
▁പണിക്കർ	-10.1231
▁ഓരോരോ	-10.1231
▁അപ്പേട്ടന്റെ	-10.1231
▁ശാരി	-10.1231
▁ഹാളിൽ	-10.1232
▁കല്പിച്ചുകൂട്ടി	-10.1232
▁തിങ്കളാഴ്ച	-10.1232
▁ഒരേയൊരു	-10.1233
▁ഭാഗ്യത്തിനു്	-10.1234
ിരിക്കാം	-10.1234
▁ദേവിക	-10.1234
▁രമണി	-10.1235
▁പറ്റുമോ	-10.1237
▁നിശ്ചയമില്ല	-10.1237
ജന	-10.1239
▁കാരണവരുടെ	-10.1241
▁വീട്ടിലെത്തിയ	-10.1241
▁പറയരുതു്	-10.1241
കാൻ	-10.1244
▁പ്രത്യേകിച്ചും	-10.1244
േണമെങ്കിൽ	-10.1248
▁ഉണ്ടാവാൻ	-10.1249
▁വാചകം	-10.1252
▁ഓർമ്മവന്നു	-10.1254
ചെന്നു്	-10.1254
▁ഇത്രയൊക്കെ	-10.1255
▁കള	-10.1257
▁കുഞ്ഞ	-10.1259
▁നോക്കണം	-10.1259
▁മിക്ക	-10.1261
▁ഭാസ്കരന്നു്	-10.1262
ിംഗ്	-10.1263
▁ഉണ്ടെന്നു	-10.1266
തിലും	-10.1271
ച്ചില	-10.1272
▁അങ്ങിനെയുള്ള	-10.1273
▁പോകാതെ	-10.1276
▁ആവശ്യപ്പെട്ടു	-10.1276
▁പിടിത്തം	-10.1281
▁രണ്ടാഴ്ച	-10.1283
▁ടാ	-10.1284
▁ശമ്പളം	-10.1292
▁അനുഭവിച്ചു	-10.1296
ോട്ടെ	-10.1298
▁പെണ്ണുങ്ങളെ	-10.1298
▁നാമം	-10.1302
ുവോ	-10.1303
ഭാവത്തോടെ	-10.1303
▁നിൽക്കാൻ	-10.1303
▁വീട്ടിലു്	-10.1304
▁കോളേജ്	-10.1306
പോയതു്	-10.1309
▁ചെയ്തിരുന്ന	-10.1311
കളേയും	-10.1316
▁വാതിലും	-10.1317
▁സ്റ്റേഷനിൽ	-10.132
▁ഭാര്യയും	-10.132
വന്നതു്	-10.132
▁ഇവിടെത്തന്നെ	-10.1321
▁അയാളോടു	-10.1327
▁ബോദ്ധ്യമായി	-10.1329
▁മാറിൽ	-10.1332
▁പറഞ്ഞതാണു്	-10.1332
▁വരുന്നുണ്ടു്	-10.1333
▁തിരഞ്ഞു	-10.1335
▁തയ്യാറായ	-10.1339
▁പ്രയാസ	-10.1339
▁നിന്നുപോയി	-10.1341
▁സ്ത്രീക്കു്	-10.1346
▁ഇഷ്ടത്തി	-10.1347
വീ	-10.1353
ോർത്തു	-10.1353
▁നിങ്ങളോടു്	-10.1357
യാണ്	-10.1359
▁കോപ്പ	-10.136
ിച്ചിട്ടു്	-10.136
▁രാജ	-10.1364
ിപ്പോക	-10.1365
കാര്യ	-10.1365
▁പിടിപെട്ട	-10.1368
▁മക്കള	-10.1368
ച്ചിൽ	-10.1372
▁തീർക്ക	-10.1375
▁നിറയ	-10.1376
ിക്കുമ്പോൾ	-10.1379
▁മക്കളെ	-10.1383
രിക	-10.1384
▁മുങ്ങി	-10.1387
▁സീമയെ	-10.1388
▁പാട്ടു്	-10.1388
▁ഭാഗത്തു്	-10.1397
▁കരച്ചില	-10.1402
▁പുറത്തെ	-10.1403
▁ഡ	-10.1403
▁പലക	-10.1407
▁പിറ്റേന്നു	-10.1407
തുമായ	-10.1409
മായിരിക്കുന്നു	-10.1412
▁അടുത്തെത്തി	-10.1413
▁പിന്നിലെ	-10.1414
െന്തെങ്കിലും	-10.1419
▁കരുതിയ	-10.142
െന്താ	-10.1428
▁കൊടുക്കും	-10.1429
▁കാണാനില്ല	-10.1431
▁തർക്ക	-10.1436
ാഹ	-10.1436
ിരിക്കട്ടെ	-10.1438
ാത്തതു	-10.1441
ിര	-10.1441
ട്ടാ	-10.1442
ശാല	-10.1444
▁സേവ	-10.1448
യുംകൂടി	-10.145
▁വീട്ടിലേക്കു്	-10.145
▁ഉമ്മറത്തു്	-10.1454
▁നിൽക്കുന്നതു്	-10.1456
▁മറ്റുള്ളവർ	-10.1459
▁പെൺകുട്ടികൾ	-10.1475
ിക്കുകയാണു്	-10.1478
▁ബിസിനസ്സ	-10.1488
▁ബാധിച്ച	-10.1489
▁പെറുക്കി	-10.1491
▁പുറത്തേയ്ക്ക	-10.1492
പ്പിക്കാൻ	-10.1498
ന്നാണു്	-10.15
ക്കാനുള്ള	-10.1505
ാത്തതുകൊണ്ടു്	-10.1507
▁നിവർത്തി	-10.1509
റിയില്ല	-10.1512
യുള്ളൂ	-10.1514
▁ധൈര്യ	-10.1516
▁സ്ത്രീകളെ	-10.1517
ടിച്ച	-10.1518
▁വക്കീല	-10.1518
▁അടിച്ച	-10.1534
▁അപമാന	-10.1539
▁മൂന്ന	-10.1542
▁തന്നു	-10.1547
▁അവധി	-10.1554
പറ്റി	-10.1555
ത്തന്ന	-10.1557
്ള്ള	-10.1558
ത്തിന്നുവേണ്ടി	-10.1567
▁കാലത്തെ	-10.1568
▁ഇരിയ്ക്ക	-10.1572
▁മുന്നോട്ടു്	-10.1573
▁അതിഥി	-10.1574
▁ബോധ	-10.1578
▁പാറുക്കുട്ടി	-10.158
▁ദീർഘ	-10.1581
▁സിദ്ധിക്ക	-10.1582
▁ഇരുണ്ട	-10.1582
▁കുഴ	-10.1583
താനും	-10.1583
▁വേണ്ടു	-10.1583
▁തന്നെയായിരുന്നു	-10.1584
ിട്ട്ണ്ടു്	-10.1588
▁അവളിൽ	-10.1589
ക്കൊരു	-10.1591
ലായി	-10.1591
▁കർമ്മ	-10.1592
▁സമയത്ത	-10.1594
▁താഴത്തെ	-10.1594
യം	-10.16
▁കാത്തുനിൽക്ക	-10.1601
▁കുനിഞ്ഞു	-10.1603
▁പാറു	-10.1604
▁ഇടനാഴിക	-10.1608
്ണ്ണ്ടു്	-10.1609
പരി	-10.1623
▁നടക്കുകയ	-10.1623
▁സ്വാർത്ഥ	-10.1625
▁നോക്കാന	-10.1627
ിരിയ്ക്ക	-10.1628
▁വൈശാഖൻ	-10.1631
▁ഓഫീസ്	-10.1631
▁ഓരോന്നായി	-10.1631
▁സ്റ്റേഷൻ	-10.1631
▁അറുമുഖന്റെ	-10.1631
▁സ്ഥലമ	-10.1632
▁ബാദ്ധ്യത	-10.1636
▁സദാ	-10.1636
▁വാടക	-10.1637
▁ആംഗ്യം	-10.1638
▁പ്രിയപ്പെട്ട	-10.1638
തരം	-10.1638
▁ദാവീദിന്റെ	-10.1639
▁ശാലിനി	-10.1639
▁ഇപ്പോഴത്തെ	-10.164
▁പട്ടിണി	-10.1641
▁കയറുമ്പോൾ	-10.1642
▁വേണോ	-10.1642
▁കൊറേ	-10.1642
▁നിൽക്കുമ്പോൾ	-10.1647
▁ആരു	-10.1649
▁പോരെ	-10.1651
▁ഓർത്തതു്	-10.1655
▁പെണ്ണമ്മ	-10.1656
▁കയറാൻ	-10.166
▁ഓർമ്മയുണ്ടു്	-10.1662
▁കരുതിയതു്	-10.1663
▁ഞങ്ങൾക്കു	-10.1669
▁കൊതി	-10.1671
▁പിൻ	-10.1672
ട്ടും	-10.1675
▁ഇടത്തെ	-10.1676
▁പുതുമ	-10.1677
▁പൂജ	-10.1677
▁മേശയുടെ	-10.1679
ത്തിനുവേണ്ടി	-10.1682
നിൽക്ക	-10.1682
▁യോഗി	-10.1683
▁അടച്ചിട്ട	-10.1686
▁ചെറിയൊരു	-10.1688
▁വന്നുനിന്നു	-10.169
▁കനം	-10.1693
▁അറിയാൻ	-10.1694
▁മേലെ	-10.1696
▁അതിൽനിന്നു്	-10.1702
▁അവൾക്കറിയാം	-10.1705
▁രതിക്കു്	-10.1709
▁ഉണ്ടെന്ന	-10.171
വീണ	-10.1713
▁വല്യ	-10.1715
▁താണ	-10.1715
▁പാപ	-10.1719
▁കയ്യിൽനിന്നു്	-10.172
ച്ഛ	-10.1727
▁ഞാനാ	-10.1729
▁വേണമെന്നു്	-10.1733
തല	-10.1738
▁മകൾക്കു്	-10.1744
▁ചേ	-10.1744
നോക്കിയപ്പോൾ	-10.1752
▁എതിർ	-10.1753
▁പരന്ന	-10.1758
▁ചിലവ	-10.1759
ിട്ടുണ്ടെന്നു	-10.176
▁പറഞ്ഞോ	-10.1764
▁മുറുക്കി	-10.1766
▁മറ്റെല്ലാ	-10.1773
ുവാൻവേണ്ടി	-10.1781
▁സമീപ	-10.1784
▁ഒന്നോ	-10.1787
▁മണിക്കൂറ	-10.1789
▁അയാൾക്ക	-10.1792
▁അങ്ങു്	-10.1795
▁സഹായിച്ചു	-10.1795
▁കടന്നുപോയി	-10.1797
▁ദേവ്	-10.1799
ുണ്ടാക്ക	-10.1803
▁അഭിമാന	-10.1803
▁മിശ്ര	-10.1803
▁പറഞ്ഞില്ലേ	-10.1805
ീയ	-10.1806
▁മരങ്ങൾ	-10.1808
ാക്കിയ	-10.1808
▁കിടക്കും	-10.181
വേണം	-10.1811
ങ്ങളില	-10.1811
ിടത്തു	-10.1815
▁ഉറങ്ങി	-10.1815
ോടുകൂടി	-10.1817
ുന്തോറും	-10.1821
യൊന്നുമില്ല	-10.1822
▁അപകട	-10.1826
▁കഴിഞ്ഞിട്ടു്	-10.1826
▁മാമ	-10.1827
▁ഒരാൾക്കു	-10.183
ുണ്ടൊ	-10.1836
▁രക്തം	-10.1837
▁നാവു	-10.1837
▁മുന്നില	-10.184
▁കുട്ടിക്കു്	-10.184
▁ഉറപ്പു	-10.184
കളഞ്ഞു	-10.184
▁ചെറുപ്പ	-10.1841
▁അകത്തെ	-10.1842
▁വൈകിയ	-10.185
▁കട്ടി	-10.1852
വിധത്തിൽ	-10.1857
▁പതിവായി	-10.1859
കളുടേയും	-10.1859
▁തലയും	-10.1862
▁കുന്നു	-10.1866
ഠ	-10.1868
▁വിചാരിക്കുന്നതു	-10.1873
ൽപ്പ	-10.1881
▁നശിപ്പിക്ക	-10.1885
▁വട്ട	-10.1886
▁അപ്പോഴ	-10.1887
ൊന്നുമ	-10.1889
ണിയ	-10.189
▁ചുംബിക്ക	-10.1891
▁ഇരിക്കുന്നു	-10.1892
▁വരുത്തിയ	-10.1893
പ്പും	-10.1894
ാകെ	-10.1896
▁കളയ	-10.1901
▁നഗര	-10.1903
കളെപ്പറ്റി	-10.1905
▁അടഞ്ഞു	-10.1907
ക്കൂ	-10.191
▁തൊട്ടടുത്ത	-10.1915
▁അവിടെനിന്നു്	-10.1916
▁കൈപിടിച്ചു	-10.1919
▁എന്നതു	-10.192
ുണ്ടായി	-10.1921
ക്കുന്നതു	-10.1922
▁മുക്കി	-10.193
▁ബാധിച്ചു	-10.1931
▁നിമിഷ	-10.1931
▁ദോശ	-10.1932
വെള്ള	-10.1939
യേക്കാൾ	-10.194
▁കൊണ്ടാണു്	-10.1941
▁തനിക്കും	-10.1942
▁കണ്ടുപിടിച്ചു	-10.1943
ടുക്ക	-10.1943
▁മോ	-10.1946
ിന്റേയും	-10.1949
▁ഒളി	-10.1952
▁സൂചന	-10.1952
▁ഉപേക്ഷിച്ചു	-10.1952
ത്തക്കവണ്ണം	-10.1958
നിമിത്തം	-10.1965
കരമായ	-10.1969
▁വലിച്ച	-10.1969
ാവു	-10.1975
ജി	-10.1976
▁ആരോഗ്യ	-10.1978
▁മലയാളി	-10.1978
മുമ്പെ	-10.1979
▁പരിഹാസ	-10.1982
▁ബഹു	-10.1983
▁ഭാസ്കരന	-10.1989
▁ഉൾ	-10.1989
▁വേല	-10.199
▁ഇവര	-10.1992
▁ഇലകൾ	-10.1992
▁വരണ	-10.1996
ുണ്ടെന്നു	-10.1998
കളിലെ	-10.2003
▁കഴിച്ചുകൂട്ട	-10.2006
കിടന്ന	-10.2011
മുഖം	-10.2012
▁മുറ്റത്തേയ്ക്ക	-10.2013
▁തുടക്കം	-10.2013
പ്പാനുള്ള	-10.2013
കണ്ടു്	-10.2014
▁കണ്ടുമുട്ട	-10.2016
▁പരാജയ	-10.2019
ച്ചെന്നു	-10.202
▁അകത്തു്	-10.2026
▁ബാധിക്ക	-10.2029
▁ഇളക്ക	-10.203
▁ആത്മ	-10.2034
▁ഗ്രേസി	-10.2037
▁ടാക്സി	-10.204
കൊൾക	-10.2041
▁പടിക്കൽ	-10.2041
▁സ്വത്ത	-10.2042
▁നാലുകെട്ട	-10.2042
▁ഇരുട്ടു	-10.2044
രുന്ന	-10.2045
▁കുസൃതി	-10.2047
▁ടെലിഫോൺ	-10.2047
▁വിവിധ	-10.2047
▁പ്ലാസ്റ്റിക്	-10.2047
▁കണക്കിലേറെ	-10.2047
▁ദ്രോഹം	-10.2047
▁ഏട്ടത്തിയമ്മ	-10.2047
▁കുറുപ്പിന്റെ	-10.2048
▁നല്ലോണം	-10.2048
▁കണ്ണുനീർ	-10.2048
▁സാരല്ല്യ	-10.2048
▁ഇതുകേട്ടപ്പോൾ	-10.2048
▁മുടക്ക	-10.2049
▁കി	-10.205
▁ആയിരം	-10.205
▁യൂ	-10.2053
▁കുളത്തിൽ	-10.2055
▁ഇഷ്ടപ്പെടുന്ന	-10.2056
▁ജീവൻ	-10.2059
▁പരതി	-10.2059
▁പേന	-10.206
▁തെങ്ങിൻ	-10.2061
▁കൂടെക്കൂടെ	-10.2061
▁വിട്ടുപോയ	-10.2062
▁ജനലിന്റെ	-10.2062
▁കിടത്ത	-10.2063
മാസം	-10.2064
െങ്ങിനെ	-10.2068
▁ഒപ്പമ	-10.2069
▁ഏതാണ്ടു്	-10.2069
▁എന്തായിരിക്കും	-10.2069
▁കുഞ്ഞി	-10.2069
▁ഒന്നിനെ	-10.207
▁കൊണ്ടുപോക	-10.2071
▁വെളിച്ചത്തിൽ	-10.2073
▁ഇഷ്ടംപോലെ	-10.2074
▁സന്തോഷമായി	-10.2075
യുമൊക്കെ	-10.208
▁അനുരാഗത്തിന്റെ	-10.2082
▁പെയ്ത	-10.2084
▁സാറ	-10.2085
▁തിന്നാൻ	-10.2085
▁കൊടുപ്പാൻ	-10.2089
▁കാറ്റ	-10.2093
▁ക്ലാസ്സ	-10.2095
▁കീറ	-10.2096
ർച്ച	-10.2098
▁മനസ്സിലാവും	-10.2098
യൊന്നുമല്ല	-10.2104
▁പ്രതിമ	-10.2108
▁ഇല്ലെങ്കിൽ	-10.211
യിൽനിന്നു	-10.2111
▁അറിവു	-10.2112
▁ഒരോ	-10.2113
ബി	-10.2115
▁ഗൗരവം	-10.2116
ടിയ	-10.2123
▁എത്തിയതു്	-10.2129
▁വിരിച്ച	-10.213
▁ജീവി	-10.2132
▁കോലം	-10.2134
▁വിവരിച്ചു	-10.2135
▁ആകാശം	-10.2136
▁ഓടിവന്നു	-10.2139
▁ഗന്ധം	-10.2141
▁എന്തായിരുന്നു	-10.2143
▁അവിടുന്നു്	-10.2145
▁ഭാവമ	-10.2146
▁മുന്തിരി	-10.2152
▁ആളുടെ	-10.2152
റെ	-10.2154
▁വിശ്വസിക്കുന്നു	-10.2155
മ്പി	-10.2157
▁തിരിച്ചറിയ	-10.2167
▁മുടിയും	-10.2172
മാണെങ്കിൽ	-10.2181
▁ചുമരിൽ	-10.2181
▁കൊടുക്കുക	-10.2185
▁മടങ്ങിവര	-10.2191
▁പരിചയ	-10.2191
▁എന്തിന	-10.2192
പ്പൂ	-10.2193
▁സഹിച്ചു	-10.2201
▁സമയത്തും	-10.2203
▁പൂമുഖത്തു	-10.2203
യ്ക്കുള്ള	-10.2203
▁സ്വപ്നങ്ങൾ	-10.2206
▁മുറുക്ക	-10.221
▁ആണോ	-10.221
ത്താ	-10.2213
▁വിറ്റു	-10.2215
▁പോവ്വാ	-10.2216
▁കുട്ടികളും	-10.2217
▁നിശ്ചയ	-10.2228
▁കരയുന്ന	-10.2234
ക്കാരന	-10.2239
ുന്നതിനിടയിൽ	-10.2243
▁അറിവു്	-10.2248
▁മണിയുടെ	-10.2251
ക്കണ	-10.2252
▁ഇങ്ങ	-10.2254
ച്ഛാ	-10.2256
▁പക	-10.2263
▁കൊടുത്തതു്	-10.2264
▁ഒഴിച്ചു	-10.227
▁റി	-10.2271
ക്കേണ്ട	-10.2275
പ്പോലെയുള്ള	-10.2278
ഗാ	-10.2278
▁പൊട്ടിയ	-10.2289
▁കഴിഞ്ഞിരുന്നു	-10.229
▁ഒന്നിച്ച	-10.2293
▁എട	-10.2294
പറ	-10.2316
ിക്കൊണ്ടു്	-10.2318
▁സമയത്തു	-10.2319
▁യാഥാർത്ഥ്യ	-10.2329
▁സംസാരിക്കുന്ന	-10.2331
▁അത്	-10.2338
പ്പെട്ടു്	-10.2338
ുപോയി	-10.2339
▁നടക്കുന്നു	-10.234
▁പോക്ക	-10.2343
▁പിട	-10.2349
▁ജീവ	-10.2351
ക്കിടന്നു	-10.2355
▁മുന്നിലെ	-10.2364
▁മൃദുവായി	-10.2366
ണ്ടാക	-10.2367
ുണ്ടെങ്കിലും	-10.2367
▁പറമ്പ	-10.2371
▁ആക്ഷേപ	-10.2371
▁ഓർമ്മയില്ല	-10.2374
ഴിഞ്ഞു	-10.2378
▁കൃഷ്ണൻകുട്ടി	-10.2378
▁വിഷയ	-10.2382
▁പുരുഷനെ	-10.2385
ാറായ	-10.2389
▁പിന്ന	-10.239
കിടന്നു	-10.2392
സിന്റെ	-10.2393
▁ഹോട്ടലിൽ	-10.2394
▁കുത്തിയ	-10.2401
മെങ്കിൽ	-10.2404
▁ജീവിക്ക	-10.2407
ദ്യ	-10.2408
▁പിറ്റെ	-10.2409
▁നിറവേറ്റ	-10.2412
ക്കല	-10.2415
▁ജാതക	-10.2418
▁ബോദ്ധ്യ	-10.2418
▁കസേല	-10.2423
▁നരക	-10.2423
▁നായിക	-10.2424
▁വിചാരിച്ചിട്ട	-10.2426
ന്ത്ര	-10.2429
നല്ല	-10.2434
ാനൊന്നും	-10.2435
ൂം	-10.244
▁സ്തുതി	-10.2444
▁ഇവരെ	-10.2446
▁തറവാട	-10.2448
ാട്ടി	-10.2448
ിപ്പാനും	-10.2455
▁തലമുറ	-10.2457
▁ദിവസമായി	-10.2461
െടുക്കുന്ന	-10.2463
▁പുതു	-10.2463
ുമായുള്ള	-10.2463
▁മൂടിയ	-10.2464
▁വാര	-10.2469
▁തിരയ	-10.2471
▁വിശ്രമ	-10.2471
▁തെക്കെ	-10.2475
ല്ലെന്നു്	-10.2475
ത്തോ	-10.2478
▁ഡയറക്ടർ	-10.2482
▁പാടുള്ളേടത്തോളം	-10.2482
▁പിറുപിറുത്തു	-10.2482
▁പേപ്പർ	-10.2482
▁ത്രേസ്സ്യാമ്മ	-10.2482
▁ശുണ്ഠി	-10.2482
▁അങ്ക്ൾ	-10.2482
▁സഞ്ജയൻ	-10.2483
▁മേനോന്റെ	-10.2483
▁ജോൺ	-10.2483
▁സുഖമായി	-10.2483
▁ദാവീദിനെ	-10.2484
▁ചെയ്വാന	-10.2485
ുംമുമ്പെ	-10.2485
യില്ലെന്നു്	-10.2485
▁ഗ്ലാസ്സ്	-10.2487
▁കെട്ടിടത്തിന്റെ	-10.2487
യതും	-10.2488
▁പുരുഷന്മാര	-10.2489
▁നിറമുള്ള	-10.249
▁കൊള്ളാത്ത	-10.2491
▁മൗന	-10.2491
▁ഇങ്ങിനെയൊരു	-10.2492
ഖ	-10.2493
കേട്ടു	-10.2494
▁കണ്ടിരുന്ന	-10.2495
▁ഛായ	-10.2495
▁ജാനുവിന്റെ	-10.2495
▁പ്രസിദ്ധ	-10.2497
▁വല്ലാത്തൊരു	-10.2498
▁ചങ്ങമ്പുഴയുടെ	-10.2498
▁ശക്തിയോടെ	-10.2498
▁കസേരയിൽ	-10.2499
▁ഫോണിൽ	-10.2501
▁അവസരവും	-10.2502
▁തോന്നിപ്പോകും	-10.2503
▁ധരിച്ചു	-10.2504
▁മുഖങ്ങൾ	-10.2505
സ്ത്ര	-10.2505
▁തടവി	-10.2506
▁മാഷ്	-10.2512
▁ജയ	-10.2513
ടുത്തു്	-10.2513
▁സഹിക്കാൻ	-10.2513
▁അവരൊക്കെ	-10.2515
ത്തിനുള്ളിൽ	-10.2518
▁കാര്യത്തിന്റെ	-10.252
▁കൈയും	-10.252
▁സ്ഥിരം	-10.2521
▁ഇതുതന്നെ	-10.2521
▁ചിരിക്കാൻ	-10.2522
ാലെന്താ	-10.2522
▁മാർഗ്ഗം	-10.2525
▁ഞ	-10.2526
▁നിമിഷങ്ങൾ	-10.2528
▁നനഞ്ഞു	-10.2529
▁അങ്ങേ	-10.2536
▁ചെയ്തിട്ടുണ്ടു്	-10.2539
▁ദിക്കിൽ	-10.2542
▁നഷ്ടം	-10.2544
▁പറേണതു്	-10.2546
▁നിശ്ചയം	-10.2547
പക്ഷ	-10.2549
▁എങ്ങനെയാണു്	-10.255
കൂടാ	-10.2551
ൊഴി	-10.2552
ൊരിക്കലും	-10.2553
▁മറ്റൊന്ന	-10.2555
മാകും	-10.2556
▁അനുവദിക്ക	-10.2561
▁മടുത്തു	-10.2562
▁അല്ലെങ്കിലും	-10.2564
കേറി	-10.2567
▁സന്തോഷവും	-10.2569
▁നിലത്ത	-10.2572
▁ജീവിച്ചു	-10.2577
▁പറമ്പു്	-10.2579
▁ചെറിയമ്മയുടെ	-10.2579
ക്കാരനായ	-10.2582
ത്തോടു	-10.2584
▁പ്രാർത്ഥിച്ചു	-10.2585
▁ഒരാ	-10.2586
▁കാന്തി	-10.2591
▁അസ്തമിച്ചു	-10.2592
▁എലി	-10.2595
▁എന്നല്ല	-10.26
ിയിരുന്നു	-10.2603
▁സാധിക്കാത്ത	-10.2605
▁ചോറും	-10.2606
ാറുണ്ടോ	-10.2606
▁നിന്നിറങ്ങി	-10.2607
▁അനു	-10.2608
▁നഷ്ട	-10.2609
മുറിയിൽ	-10.261
തന്നെയായിരുന്നു	-10.2612
▁അത്രയ്ക്കു	-10.2612
▁ചാ	-10.2613
കട	-10.2616
▁കളവു	-10.2624
▁പാമ്പു്	-10.2624
▁ഭർത്താവും	-10.2627
▁വികാരം	-10.263
▁കാലമായി	-10.2635
▁അടുത്തുതന്നെ	-10.2635
▁പെട	-10.264
▁അവർക്ക	-10.2645
ണ്ടി	-10.2646
▁കറി	-10.2648
▁വാടി	-10.265
▁മാരാർ	-10.265
▁യുവ	-10.2655
ിരിക്കുന്നതു	-10.2658
▁കൊണ്ടുവന്നു്	-10.2659
▁അപ്പനെ	-10.2661
ുണ്ടാക്കുന്ന	-10.2663
പ്പെണ്ണ	-10.2664
▁ശിവ	-10.2666
▁നായർക്കു്	-10.2667
▁കളഞ്ഞ	-10.2672
▁തുടങ്ങിയതു്	-10.2673
▁അമ്മമ്മ	-10.2676
▁രാമ	-10.2677
▁അവരിൽ	-10.2679
▁പോയില്ല	-10.2688
ടങ്ങ	-10.2689
ർത്ഥ	-10.2697
യാണല്ലോ	-10.2699
യോടുകൂടി	-10.2707
ിന്റ	-10.271
▁സ്നേഹിക്ക	-10.2714
▁നിശ്ശബ്ദത	-10.2715
▁നിലം	-10.2716
മാണു	-10.2716
രേ	-10.2719
▁അമ്പല	-10.272
▁ജി	-10.2724
▁നല്ലതു	-10.2728
▁ഇങ്ങട്ടു	-10.2729
ത്തേക്ക	-10.2734
യാകട്ടെ	-10.2735
▁തൃഷ്ണ	-10.274
ത്തിലേയ്ക്കു	-10.2743
▁പറ്റിയില്ല	-10.2745
ൂന്നു്	-10.2745
▁ചുറ്റുമുള്ള	-10.2746
ച്ചിരി	-10.2746
▁ഇറങ്ങിയ	-10.2747
▁ശരിയാവില്ല	-10.275
▁ചെയ്യാ	-10.2752
▁വളഞ്ഞു	-10.2754
▁സ്വതന്ത്ര	-10.2755
ന്മാരെ	-10.2761
▁മറന്നു്	-10.2763
▁ചിരിയും	-10.2765
മെങ്കിലും	-10.2772
കള്	-10.2774
▁വെച്ചിരുന്നു	-10.2776
ണ്ടാവില്ല	-10.2776
ചെയ്യ	-10.2787
ീട്ടില്ല	-10.2787
വനു്	-10.279
▁ചൂടു	-10.2792
▁ഇടത്തു	-10.2792
▁ലക്ഷണമ	-10.2796
▁ഒരേടത്തു	-10.2797
യുണ്ടായ	-10.2798
▁പറയു	-10.2798
ന്താ	-10.2802
▁ഉള്ളതു്	-10.2803
▁സംഭാഷണ	-10.2809
▁പ്രായ	-10.2811
ുകയാണുണ്ടായതു്	-10.2811
▁വിപരീത	-10.2812
▁ഓടിപ്പോയി	-10.2813
േക്കും	-10.2821
െവിടെ	-10.2823
▁വലുതായ	-10.2831
▁പറഞ്ഞുകൊണ്ടു	-10.2833
ിടുന്ന	-10.2839
▁നിശ്ശബ്ദനായി	-10.2846
▁ഭീഷണി	-10.2847
മുതൽ	-10.2849
ക്കോളു	-10.2849
▁ക്ലാസ്സു	-10.285
കൊണ്ടൊന്നും	-10.285
▁കാട്ടു	-10.2855
വെങ്കിലും	-10.2856
▁വർത്തമാന	-10.2857
കൊണ്ടിരിക്ക	-10.2869
▁എങ്ങ	-10.287
വെക്കാൻ	-10.2872
വാങ്ങി	-10.2874
▁ജീവിതത്തെ	-10.2875
▁വെറുപ്പ	-10.2876
മൂ	-10.2885
▁അറിയാത്ത	-10.2886
▁വിട്ടുപോക	-10.2891
മുടി	-10.2893
ത്തിലായിരുന്നു	-10.29
▁കണക്കു്	-10.2901
ിച്ചാൽ	-10.2907
▁പ്രസംഗ	-10.2908
മല്ലാത്ത	-10.2909
▁തിരി	-10.2911
▁അടുക്കളയിലേ	-10.2911
▁മരുന്ന	-10.2912
കളുടെയും	-10.2913
കൊല്ലം	-10.2914
▁ഉണ്ടാവില്ല	-10.2916
▁തണുത്തു	-10.292
രാത്രി	-10.2924
▁തരും	-10.2925
▁സ്വാഭാവിക	-10.2926
മാറ്റി	-10.2927
▁ഉണർത്ത	-10.2927
യിട്ടുണ്ടു്	-10.2928
പ്പെടുത്തിയ	-10.2933
▁പലിശ	-10.2935
▁ആനന്ദഗുരു	-10.2936
▁റബ്ബർ	-10.2937
▁താക്കോൽ	-10.2937
▁ബാലഗോപാലൻ	-10.2937
▁മമ്മാലി	-10.2937
▁ധീര	-10.2937
▁നമ്പറ	-10.2937
▁കുന്നിന്റെ	-10.2937
▁ക്ലാര	-10.2937
ോച്ചിയപ്പാപ്പൻ	-10.2937
▁സുനന്ദിനി	-10.2938
▁എന്തുചെയ്യും	-10.2939
▁നീളം	-10.2939
▁ഏട്ടന്റെ	-10.2939
▁ഓരോരുത്തരായി	-10.2939
മാസ	-10.294
▁ഹൈ	-10.294
▁അനങ്ങാതെ	-10.294
ഫീസ	-10.2941
▁നിഴലുകൾ	-10.2942
▁മകള	-10.2942
▁ഇവളുടെ	-10.2942
▁നഗരത്തിൽ	-10.2942
ീലു്	-10.2943
▁പട്ട	-10.2944
▁ചളി	-10.2945
▁കിടപ്പുണ്ടു്	-10.2946
▁സ്വാഭാവികമായി	-10.2946
▁സംഖ്യ	-10.2946
▁കൊച്ചുത്രേസ്യേ	-10.2947
▁കിഴക്കെ	-10.2948
▁നാളുകൾ	-10.2948
▁നെനക്കു്	-10.2948
▁ഉത്സാഹം	-10.295
▁ഇത്രേം	-10.2951
▁സമ്മാന	-10.2952
ോടുകൂടെ	-10.2952
▁സ്	-10.2953
▁തിളങ്ങി	-10.2954
സ്വ	-10.2955
▁മുകളില	-10.2956
▁മലർന്നു	-10.2957
▁അവന്നു	-10.2958
▁മൂന്നോ	-10.296
മുട്ട	-10.2961
▁അതിനുശേഷം	-10.2961
▁കൊടുക്കാം	-10.2961
▁തികയ	-10.2962
▁നനച്ചു	-10.2962
▁ഹൃദയത്തിന്റെ	-10.2962
ാന്നു്	-10.2962
▁തോമസ്	-10.2964
▁മനസ്സിലായപ്പോൾ	-10.2965
▁കാമം	-10.2968
▁അവളേയും	-10.2969
യിട്ടും	-10.2972
▁പന്ത	-10.2977
▁ആയാളുടെ	-10.2978
ിട്ടുള്ളു	-10.2981
▁അദ്ദേഹത്തോടു്	-10.2982
▁നേരേ	-10.2985
▁കാണുന്നുണ്ടു്	-10.2985
▁മൂന്നാം	-10.2987
▁ഹേ	-10.2987
▁ലഭിക്ക	-10.2989
▁നാലു്	-10.299
ുകയാണെന്നു്	-10.299
ക്കൊടുത്തു	-10.2991
▁ആനയുടെ	-10.2993
▁ചിന്തിച്ചു	-10.2993
▁ഇടം	-10.2994
േക്കാം	-10.2995
ുകൊണ്ടു	-10.3002
▁എപ്പോൾ	-10.3008
▁കുട്ടേട്ടനും	-10.3009
▁നാരായണി	-10.3009
▁പൊത്തിപ്പിടിച്ച	-10.3011
▁വരുമെന്നു്	-10.3013
▁ഏത	-10.3013
▁ചെറുത	-10.3015
▁അതുകൊണ്ടാണു്	-10.3016
▁ഊഹം	-10.3016
▁തെങ്ങ	-10.302
▁കൂട്ടം	-10.3021
▁പകർന്നു	-10.3022
▁ചുരുങ്ങിയ	-10.3027
▁ചൂണ്ടി	-10.3027
▁പറയില്ല	-10.3029
▁ഇറങ്ങിവന്നു	-10.3029
▁കിട്ടില്ല	-10.3033
ാതിരുന്നില്ല	-10.3036
▁ചരിത്രം	-10.3037
▁സൂചിപ്പിക്കുന്ന	-10.3045
▁ശബ്ദങ്ങൾ	-10.3045
▁ഏർപ്പാടു്	-10.305
▁പദ	-10.3052
ുമല്ലോ	-10.3052
യിരുന്നതു്	-10.3054
▁നടന്നതു്	-10.3054
▁തട	-10.3057
▁കൊള്ളാം	-10.3058
▁ഇരിക്കുന്നതു്	-10.3058
▁ശ്രദ്ധിക്കുന്ന	-10.3058
ിട്ടുണ്ട	-10.3059
▁നന്നായിരുന്നു	-10.3059
▁അധികാരം	-10.306
▁ലോ	-10.306
▁കുളിമുറിയിൽ	-10.3062
ായാൽ	-10.3062
▁ഊണു്	-10.3073
ത്തിരി	-10.3075
▁തിരക്കു	-10.3077
പോകുന്നു	-10.3082
▁തകർന്നു	-10.3083
▁അമ്മൂ	-10.3085
ാണുപോലും	-10.3085
ത്തീര	-10.3086
▁ഇല്ലാതായി	-10.3087
▁ഒറ്റയ്ക്കു	-10.3088
▁ഉടുപ്പു്	-10.3089
ദ്ധ	-10.3091
▁കാമുകന	-10.3094
▁തൊഴുതു	-10.3104
▁ചോദിച്ചില്ല	-10.3105
ീസ്	-10.3106
▁കൈപിടിച്ചു്	-10.3109
▁മതിയോ	-10.3113
സ്ഥാനം	-10.312
യിന്മേൽ	-10.3121
▁ഉള്ളിലെ	-10.3124
മാറി	-10.3125
ായിപ്പോയി	-10.3127
▁പറഞ്ഞുകൊണ്ടു്	-10.3129
▁വീട്ടിൽനിന്നു്	-10.3132
ബല	-10.314
▁തിരിച്ചെത്തിയ	-10.3147
ാവില്ല	-10.3148
▁തുടച്ചു്	-10.3149
▁മഞ്ഞു	-10.3154
▁വൃത്തിയാക്ക	-10.3163
▁ഒരുവിധം	-10.3172
▁രാത്രിയിൽ	-10.3181
▁ഞാനീ	-10.3185
▁ആപത്ത	-10.3185
▁പൊക്ക	-10.3187
പറഞ്ഞ	-10.3189
ദിവസ	-10.3192
▁കാണിച്ചുകൊടുത്ത	-10.3193
▁പോവുക	-10.3193
പ്പം	-10.3194
▁കുട്ടിയാണു്	-10.3202
▁അപ്പാ	-10.3208
▁ഒപ്പ	-10.3214
െഴുത്തു	-10.3214
▁എവിട	-10.3214
▁സമ്മതിക്കില്ല	-10.3216
▁ഡയറി	-10.3225
ുമായിരുന്ന	-10.3226
തൊ	-10.3227
▁സ്വകാര്യമായി	-10.3228
▁മറ്റൊ	-10.3228
▁ഗർഭ	-10.3228
▁ഇരിപ്പ	-10.3231
▁അടുത്തുള്ള	-10.3236
▁ഉദ	-10.3236
ാലേ	-10.3237
ക്കാനായി	-10.3239
▁മുഴുകിയ	-10.3242
റങ്ങ	-10.3247
ംബ	-10.3247
രമ	-10.3255
കുട്ടി	-10.3256
ലേക്കു്	-10.3261
തിനാൽ	-10.3264
▁മൂക്കു	-10.3265
ന്നതു്	-10.3266
മാകുന്ന	-10.3269
നുമായ	-10.3269
▁ഭയപ്പെടുത്തി	-10.3277
▁കൈവച്ചു	-10.3279
ധി	-10.3279
െണ്ണ	-10.3285
ുവെന്ന	-10.3287
▁സമ്മത	-10.3291
▁ചലന	-10.3291
വുമായിരുന്നു	-10.3292
▁നേർക്കു	-10.3292
▁ഉത്തരവാദി	-10.3293
ഭാഷ	-10.3297
ക്കാരും	-10.3297
ശേഷ	-10.3298
േല്	-10.33
ാഴ്ച	-10.3304
▁പോയതു	-10.3308
ുണ്ട്	-10.3311
▁നാട്ടില	-10.3313
▁വയസ്സുള്ള	-10.3315
ലീ	-10.3315
▁പതിവ	-10.3318
▁തുന്നി	-10.3318
▁ശിപായി	-10.3321
▁വേവലാതി	-10.3325
▁ചേർന്നു്	-10.3327
വിശ്വാസ	-10.3328
▁വരവ	-10.3328
▁വായിക്കുന്ന	-10.3329
ുണ്ടായിരിക്കും	-10.333
▁ഒതുങ്ങി	-10.3337
ുതന്നെ	-10.3339
▁ഉപകാര	-10.3343
▁പുറപ്പെടുന്ന	-10.3349
▁ചെയ്യാന	-10.3351
ിച്ചിരുന്ന	-10.3362
വണ്ടി	-10.3367
കൊടുക്കുന്ന	-10.3367
വേദന	-10.3368
▁ശിശു	-10.337
▁ആവില്ല	-10.3372
റിയാൻ	-10.3373
▁ചിത്രങ്ങള	-10.3377
▁മനഃ	-10.3383
ശ്ര	-10.3385
▁കൂട്ടര	-10.339
▁വിളിക്കുന്ന	-10.3391
▁നാശ	-10.3396
▁മാസിക	-10.3402
ിയതു്	-10.3403
പോലെയാണു്	-10.3403
▁അവിടെനിന്നു	-10.3403
▁ലളിതയെ	-10.3408
കൃത	-10.3409
▁തുടങ്ങുന്ന	-10.3411
▁ഈശ്വരന	-10.3411
ച്ചി	-10.3412
▁ഉന്തി	-10.3413
▁കബീർ	-10.3413
▁ഗ്ലോറിയാന്റി	-10.3413
▁നിരവധി	-10.3413
▁പഞ്ചസാര	-10.3413
▁സിസീലി	-10.3413
▁സുനിൽകുമാർ	-10.3413
▁മികച്ച	-10.3413
▁വെറുത്തു	-10.3413
▁അരമണിക്കൂർ	-10.3413
▁ശാസ്ത്ര	-10.3413
▁എത്തും	-10.3413
▁ഉപദേശിയാരുടെ	-10.3413
▁മുതലാളി	-10.3414
▁സാക്ഷാൽ	-10.3414
▁അമ്മാവന്റെ	-10.3414
▁പണയം	-10.3414
▁അവരവരുടെ	-10.3418
▁ഓഫ്	-10.3419
ുള്ളതു്	-10.342
▁തൽക്കാലം	-10.3421
▁സാന്ത്വന	-10.3421
▁എന്നുമാത്രമല്ല	-10.3421
▁ആർക്കാണു്	-10.3421
▁പുഷ്പ	-10.3424
▁ഇവിടത്തെ	-10.3424
▁ഭാഗത്ത	-10.3426
▁അനാവശ്യ	-10.3426
▁സ്ഥാപിക്ക	-10.3427
▁എളുപ്പത്തിൽ	-10.3429
▁എല്ലു	-10.3429
▁ഇതെന്തു	-10.3429
▁ദുഷ്ട	-10.3429
▁തിരിച്ചറിയാൻ	-10.343
▁പ്രത്യേകിച്ചു്	-10.343
▁കത്തിച്ചു	-10.3431
▁ചിന്തകൾ	-10.3431
▁മേറി	-10.3432
▁സ്മരണ	-10.3435
▁താല്പര്യം	-10.3435
▁അറിയാമായിരുന്നു	-10.3439
▁കല്ല്യാണം	-10.3439
▁എടോ	-10.3442
▁അവറ്റ	-10.3444
▁പഠിപ്പിച്ചു	-10.3444
▁മുമ്പുതന്നെ	-10.3445
▁അത്യാവശ്യം	-10.3447
▁സംശയമാണു്	-10.3448
▁ശൂന്യത	-10.3449
▁മാന്യ	-10.345
▁യുവതിയുടെ	-10.3452
▁ഇഷ്ടമായിരുന്നു	-10.3452
▁രക്ഷപ്പെട്ടു	-10.3453
▁സ്കെച്ചു	-10.3453
▁വിനു	-10.3456
▁മുഖത്തിന്റെ	-10.3457
▁ഉടുപ്പ	-10.3458
▁പണത്തിന്റെ	-10.3458
▁നിറച്ചു	-10.346
▁ചെല്ലാൻ	-10.3464
▁മരത്തിന്റെ	-10.3467
▁ഏറ്റു	-10.3467
▁കാണിച്ചില്ല	-10.3469
▁കാണിക്കാൻ	-10.347
▁ഓർമ്മിച്ചു	-10.3475
▁തന്നാൽ	-10.3477
▁വിരോധം	-10.3478
▁വഞ്ചിക്ക	-10.3478
വർണ്ണ	-10.348
ാവട്ടെ	-10.3481
▁ഉടനെത്തന്നെ	-10.3485
▁വികസിച്ചു	-10.3486
▁ചെയ്യുന്നതു	-10.3493
▁നിഴല	-10.3497
▁പെൺകുട്ടിയുടെ	-10.3501
കളുള്ള	-10.3502
▁നിരത്തിന്മേൽ	-10.3502
ുണ്ടാകയില്ല	-10.3504
▁ബില്ല	-10.3506
▁കഴിച്ചതു്	-10.3509
▁അദ്ഭുതം	-10.3509
▁വിചാരിക്കും	-10.351
▁ചേച്ചിയുടെ	-10.3511
▁കേസ്	-10.3515
▁കിടന്നിരുന്നു	-10.3518
▁പ്രശ്നങ്ങൾ	-10.3519
▁പാത്രം	-10.352
▁നിന്നാൽ	-10.3526
▁അടുക്ക	-10.3527
▁കടുത്ത	-10.3528
▁വന്നിട്ടുണ്ടു്	-10.3531
▁ചെക്ക്	-10.3533
ാനുഭവ	-10.3534
▁വിഡ്ഢിത്ത	-10.3539
▁കിട്ടാത്ത	-10.3544
▁ഭാരമ	-10.3545
ക്കട്ടെ	-10.3545
ഭാവത്തിൽ	-10.3548
▁പറ്റുന്ന	-10.3549
▁അച്ച	-10.3549
▁വണ്ണം	-10.3551
▁ഇഷ്ടപ്പെട	-10.3551
▁പറയേണ്ടതു്	-10.3552
▁തി	-10.3553
േയോ	-10.3557
▁കാടു്	-10.3558
▁പരിചയപ്പെടുത്തി	-10.3559
കൊണ്ടായിരിക്കും	-10.3562
യച്ച	-10.3563
ിക്കേണ്ട	-10.3565
▁പദ്മിനിയുടെ	-10.3566
▁പറേ	-10.3567
▁കണ്ണുകള	-10.357
▁കണ്ടുപിടിക്കാൻ	-10.3571
▁ശരിയ്ക്കു	-10.3579
▁വടി	-10.3579
തിരി	-10.3582
ടയ്ക്ക	-10.3588
▁സ്വീകരിച്ച	-10.3597
▁മന്ദഹാസം	-10.36
▁മയക്ക	-10.36
▁പോയിട്ടില്ല	-10.3601
▁കുനിഞ്ഞു്	-10.3603
▁നില്ക്കുന്നതു്	-10.3603
▁സംഭവങ്ങള	-10.3604
ാട	-10.3607
▁ഇതിന	-10.3612
▁ഉത്തര	-10.3613
▁ലക്ഷ	-10.3618
▁കാലത്ത	-10.3624
▁തരമില്ല	-10.3626
▁പാട്ടു	-10.3627
▁പതിനൊന്നു	-10.363
▁ആശ്വാസമായി	-10.3633
▁കളവ	-10.3635
ുകയാണെന്ന	-10.3638
▁കൊടുത്താൽ	-10.3639
▁ഉറങ്ങുന്ന	-10.3643
▁ഉഷ്ണ	-10.3643
▁നിലയില	-10.3649
▁അസാധാരണ	-10.365
▁നോക്കിക്കൊണ്ടു	-10.3651
▁പുറത്തുവന്നു	-10.3652
▁വേണ്ടിയാണു്	-10.3652
ികളായ	-10.3658
▁ജോലിക്കു	-10.3661
▁മുണ്ടു്	-10.3661
▁എട്ട	-10.3661
▁ചാഞ്ഞു	-10.3667
ത്തിനെ	-10.3667
നിലയിൽ	-10.3672
തുകൊണ്ടും	-10.3674
▁മൂ	-10.3675
ംകൂടി	-10.3677
▁പിരിയ	-10.3681
ാനുണ്ടു്	-10.3686
▁ഇന്ദിരയുടെ	-10.3691
ന്നി	-10.3707
▁അവസര	-10.3711
വാര	-10.3712
▁മായ	-10.3716
▁പു	-10.3716
▁തരൂ	-10.3721
തീർ	-10.3722
ൂല	-10.3727
▁നടക്കുന്നതു	-10.3728
മുമ്പേ	-10.3728
▁കേട്ടില്ല	-10.3731
▁മറ്റുള്ള	-10.3732
▁മുഖത്തുനോക്കി	-10.3733
കഴിഞ്ഞാൽ	-10.3743
▁മരം	-10.3748
യെടുക്ക	-10.3751
▁ബോ	-10.3758
ങ്ങ്	-10.3759
▁മറിച്ചു	-10.3759
ാലൊ	-10.3763
▁ഇച്ഛാഭംഗ	-10.3765
▁പരിചയപ്പെട്ട	-10.3766
വെന്നു	-10.3769
▁ജീവിച്ചിരിക്ക	-10.3771
▁ഉണങ്ങിയ	-10.3772
യാവാൻ	-10.3774
തേയില്ല	-10.3778
ക്കണ്ടു	-10.3779
▁ആരാണ	-10.3782
▁അടുത്തേയ്ക്കു	-10.3782
▁തീർത്ത	-10.3786
▁നിങ്ങളും	-10.3795
▁വരവും	-10.3797
▁തൊഴിൽ	-10.3798
▁കേൾക്കാന	-10.3799
▁ഇരുട്ട	-10.3801
യമ്മ	-10.3803
പ്പണി	-10.3803
▁പതിച്ച	-10.3804
▁ചുമല	-10.3808
▁വിളക്കു്	-10.3813
െത്തുന്ന	-10.3816
ാലു്	-10.3819
▁അഞ്ചാറു	-10.3819
യായാലും	-10.382
▁നാട്ടിലെ	-10.3823
പാത	-10.3824
മാരെ	-10.3827
▁എണീറ്റ	-10.383
▁കുട്ടേട്ടന	-10.3831
▁ചെറുതായി	-10.3833
▁ഉണർന്ന	-10.3833
ജ്ഞ	-10.3835
▁ഒത്ത	-10.3836
രിപ്പ	-10.3837
ക്ഷി	-10.3841
▁മാഞ്ഞു	-10.3844
▁പെരുമാറ	-10.3845
▁വാത്സല്യ	-10.3847
▁ചെറുപ്പക്കാരി	-10.3848
ശബ്ദം	-10.3848
ണ്ടായി	-10.3851
▁ഫലമില്ല	-10.3855
ുന്നുണ്ടോ	-10.3856
▁അകല	-10.3861
▁ഇപ്പോൾതന്നെ	-10.3863
ക്കാരന്റെ	-10.3865
▁ഒമ്പതു	-10.3869
പടി	-10.3871
▁പിടിപ്പിച്ച	-10.3874
▁ആക്കി	-10.3877
നില്ക്ക	-10.3878
ാണൊ	-10.388
▁ഓടിയ	-10.388
▁ഭാ	-10.3882
▁പഠിപ്പിച്ച	-10.3882
▁തോ	-10.3883
േടെ	-10.3888
▁തല്ലി	-10.3889
നിന്നിരുന്ന	-10.3895
▁ആയിരുന്ന	-10.3895
ാനിടയുള്ള	-10.3897
▁യോഗിയാർ	-10.39
വെള്ളം	-10.3901
▁മതിയായ	-10.3903
ചെയ്യുന്ന	-10.3912
▁വല്ലായ്മ	-10.3913
▁ക്യാമറ	-10.3913
▁തോന്നുണു	-10.3913
▁കഷണ്ടി	-10.3913
ൊഴുകുന്ന	-10.3913
▁ചിത്രീകരണം	-10.3913
▁പൊയ്ക്കോളു	-10.3913
▁ഉരുള	-10.3913
▁മറ്റൊരാൾ	-10.3914
▁ഗുഡ്	-10.3914
▁നമ്പൂതിരിപ്പാട	-10.3914
▁മിസ്സ്	-10.3915
▁ഇദ്ദേഹത്തിന്റെ	-10.3915
▁കുട്ടേട്ടന്റെ	-10.3915
▁ആറ്റിറമ്പിലെ	-10.3915
▁മോഹനൻ	-10.3917
▁നേരത്തു്	-10.3917
ാകുമ്പോൾ	-10.3917
▁അമ്മുവിന്റെ	-10.3918
▁തലവേദന	-10.3919
▁അച്ചന്റെ	-10.3919
▁തോന്നണതു്	-10.3921
വളുടെ	-10.3922
▁ആരാന്റെ	-10.3923
▁എടീ	-10.3923
▁അവസരത്തിൽ	-10.3925
▁കാണുകയില്ല	-10.3925
േയുള്ളൂ	-10.3925
റച്ച	-10.3925
▁കാര്യങ്ങളൊക്കെ	-10.3926
▁അതിനൊന്നും	-10.3928
▁പാടുണ്ടോ	-10.3928
▁മടങ്ങിപ്പോക	-10.3931
▁ചാരിയിരുന്നു	-10.3931
▁ചെറുപ്പക്കാര	-10.3933
▁വേഷ	-10.3935
▁കളിക്കാൻ	-10.3935
▁ചേല	-10.3939
ിനേക്കാൾ	-10.394
കുന്ന	-10.3944
▁പരിഭ്രമം	-10.3948
▁അപ്രകാരം	-10.395
സ്സ്	-10.3955
▁നേരത്തോളം	-10.3957
▁വലതു	-10.3958
▁ഉപദേശം	-10.3958
പ്പോഴേക്കും	-10.396
▁ജാനുവ	-10.3961
▁വാക്കുകള	-10.3963
▁അന്യായം	-10.3964
▁പോവാന	-10.3965
▁മീനു	-10.3966
▁പെട്ടെന്നാണു്	-10.3967
▁എന്തൊക്കെയാണു്	-10.3968
ള്ളതു്	-10.3968
▁നടക്കുകയാണു്	-10.3973
▁ഭയംകൊണ്ടു്	-10.3975
▁വാങ്ങണം	-10.3978
ൽനിന്നു്	-10.3979
▁കാലി	-10.3981
▁സങ്കടവും	-10.3981
പ്പോഴേയ്ക്കു്	-10.3982
▁ചോദിക്കുന്നു	-10.3983
▁അകം	-10.3984
പ്പോയതു്	-10.3985
▁ദുർ	-10.3985
ണ്ടായതു്	-10.3986
ിട്ടുകൂടി	-10.3987
▁ഇതിന്നു്	-10.3987
▁നിറഞ്ഞിരുന്നു	-10.3992
▁പ്രയാസം	-10.3994
▁മനസ്സിലായോ	-10.3996
▁അഭിനയം	-10.3997
▁പോവുകയും	-10.4002
▁അവനോടു്	-10.4006
യിരിക്ക	-10.4008
ക്കിയ	-10.4009
തരും	-10.4009
▁കണ്ടിരുന്നില്ല	-10.4013
▁എഡോൾഫിക്കു	-10.4016
ിറങ്ങിയ	-10.4019
▁പാടു	-10.4022
▁പടിപ്പുര	-10.4022
രൂപം	-10.4024
▁കവിതകൾ	-10.4024
▁കൂടുതല	-10.4025
▁കണക്ക	-10.4026
▁മട്ട	-10.4028
മാൻ	-10.4029
▁ഞാനൊന്നും	-10.403
▁നിന്നപ്പോൾ	-10.4031
▁വിടർന്നു	-10.4032
ർത്തു	-10.4032
▁പാമ്പു	-10.4033
▁രമ	-10.4034
▁കുടില	-10.4038
▁കഴിഞ്ഞുപോയ	-10.4039
▁ചെലവ	-10.4042
തിനേക്കാൾ	-10.4043
കളിൽനിന്നു്	-10.4044
▁മൗനം	-10.4048
▁അറുപതു	-10.4049
ക്കൊപ്പം	-10.405
ിങ്ങ	-10.4056
▁ചുമ്മാ	-10.4057
▁കുളിച്ച	-10.4058
▁പ്രകാശം	-10.4058
▁വായിച്ചു്	-10.4059
▁അന്നും	-10.4068
▁മാനം	-10.4069
▁ഊർമ്മിളയുടെ	-10.4073
▁ആൾക്കാർ	-10.4074
▁മുമ്പില	-10.4074
▁വഴിക്കു	-10.4075
▁എന്നറിഞ്ഞില്ല	-10.4078
▁ചോദിക്കും	-10.4079
▁കുടുംബം	-10.408
▁ഡ്രൈവറ	-10.408
▁അടുത്തുവന്നു	-10.4084
ിപ്പോയ	-10.4085
▁തന്നതു്	-10.4085
ീസ	-10.4091
▁മന്ദ	-10.4092
▁മണ്ണു്	-10.4093
▁വിമാന	-10.4096
▁പ്രവേശിച്ച	-10.4102
▁ചങ്ങമ്പുഴ	-10.4102
▁ഗുണം	-10.4103
▁ബാധ	-10.4106
▁വയല	-10.4106
▁മുറ്റത്ത	-10.4111
▁എല്ലാംകൂടി	-10.4112
പ്പറ്റിയുള്ള	-10.4113
▁അമ്മയോടു്	-10.4116
േണ്ടതാണു്	-10.412
ുന്നതിന്റെ	-10.4122
▁താങ്ങ	-10.4124
▁യന്ത്രം	-10.4125
▁നെല്ലു	-10.4127
ിലോ	-10.4133
▁ശ്രമിക്കുന്ന	-10.4135
▁അവിടം	-10.4137
ച്ചപ്പോൾ	-10.4137
▁കാറു	-10.4143
▁ഭ്രമ	-10.4143
ുകയല്ലാതെ	-10.4147
▁ചൂടു്	-10.4148
ാംഗ	-10.415
▁ന്നാ	-10.415
യാൻ	-10.4156
▁ഇണ	-10.4158
▁സ്വര	-10.4167
▁എന്റേ	-10.4169
▁കൃഷ്ണ	-10.4171
തുള്ളി	-10.4175
▁ശകാരിച്ചു	-10.418
▁അറ്റ	-10.4181
▁നടന്നിരുന്ന	-10.4182
▁മുറികൾ	-10.4183
▁ചെടികള	-10.4184
ിയ്ക്കാൻ	-10.4184
▁പിടിച്ചുകൊണ്ടു്	-10.4188
▁എണ്ണം	-10.4193
▁ശീലിച്ച	-10.4195
▁ബലം	-10.4205
▁പോകുന്നില്ല	-10.4209
▁വിനയ	-10.421
▁നിങ്ങളോടു	-10.4212
തെങ്കിൽ	-10.4222
വളെ	-10.4223
▁നാമ	-10.4224
▁മനോ	-10.4225
ത്തിലായി	-10.4229
▁നശിച്ച	-10.423
▁രതിയെ	-10.4233
ുകൂടി	-10.4233
മാറ്റ	-10.4233
പോന്നു	-10.4235
ടച്ചു	-10.4241
▁തുറന്നിട്ട	-10.4244
▁ഉരുണ്ട	-10.4246
ായിട്ടാണു്	-10.4248
ോല	-10.4248
▁പോവില്ല	-10.425
▁ചൊല്ലി	-10.4251
▁ജന്മം	-10.4252
സ്വരത്തിൽ	-10.4254
▁എഡോൾഫിയെ	-10.4256
സ്ഥാന	-10.4256
ജോണിക്കുട്ടാട്ടൻ	-10.4258
ന്നേ	-10.4269
▁അറിഞ്ഞിരുന്നു	-10.4271
▁കോണിൽ	-10.4272
▁വ്യസനം	-10.4274
പിടി	-10.4279
▁ആസ്വദിച്ചു	-10.4283
▁അധ	-10.429
▁മുഴ	-10.4294
▁ചതി	-10.4301
▁വൃക്ഷ	-10.4301
റിയുന്ന	-10.4302
▁തോന്നിക്കുന്ന	-10.4311
▁കടന്നുവന്ന	-10.4317
▁തോർത്തു	-10.4317
▁ചുംബന	-10.4321
പുര	-10.4321
▁കഴുത്തു	-10.4324
▁കൊച്ചി	-10.4326
▁മുറിയിലെ	-10.4326
▁ഓല	-10.4327
▁സംഭവിക്ക	-10.4329
കിട്ടി	-10.4329
▁നോട്ടത്തിൽ	-10.4335
▁എണീറ്റു	-10.4339
മാർഗ്ഗ	-10.434
▁കെട്ടു്	-10.4341
▁അങ്ങോട്ടു്	-10.4344
▁അള	-10.4347
യായിട്ടു്	-10.4348
പണി	-10.4352
▁ദേഷ്യ	-10.4353
▁ദിവസത്തെ	-10.4353
▁വൈദ്യ	-10.4355
വരുന്നു	-10.4358
▁ദേവകിയെ	-10.4358
ല്ലാം	-10.4358
▁ക്ലേശ	-10.4359
▁എന്തിനാണ	-10.4361
ിക്കുന്നതു	-10.4362
▁ഇവള	-10.4362
മാത്രമായിരുന്നു	-10.4364
മാത്രമെ	-10.4364
▁പറഞ്ഞുകൊടുത്ത	-10.4374
ൂരി	-10.4377
▁വ്യക്തമായ	-10.4377
▁ത്യാഗ	-10.4378
▁തമ്മില	-10.4385
▁നൃത്തം	-10.4388
നിറ	-10.439
ക്കളയ	-10.4392
കണ്ടാൽ	-10.4397
▁ഹി	-10.4399
യുണ്ടായി	-10.4401
▁നര	-10.4401
▁വസ്തു	-10.4402
മുണ്ടാക	-10.4403
▁വളർച്ച	-10.4406
യാലും	-10.4413
▁ഇരിക്കു	-10.4413
ിട്ടുണ്ടെന്നും	-10.4417
യപ്പോഴാണു്	-10.4418
▁മാർട്ടി	-10.442
▁മുറിയിലേയ്ക്കു	-10.4422
▁ചക്രവാള	-10.4423
▁വിൽക്ക	-10.4423
▁പൊന്നു	-10.4427
▁നവ	-10.4431
▁വില്പന	-10.4432
▁ബ്ര	-10.4432
▁വിചിത്ര	-10.4432
▁മൂർച്ച	-10.4434
മാക്കിയ	-10.4434
▁രാജ്യ	-10.4435
▁ചിലതു്	-10.4436
▁കണ്ണീര	-10.4438
ാനുരാഗ	-10.4439
▁ആർദ്രത	-10.4439
▁ഗണപതി	-10.4439
▁ചതുര	-10.4439
▁മുത്തച്ഛൻ	-10.4439
▁വേദവതി	-10.4439
▁എല്ലായിടത്തും	-10.4439
▁കൂട്ടാക്കിയില്ല	-10.4439
▁പോക്കറ്റിൽ	-10.4439
▁പിറന്നാൾ	-10.4439
▁പിടുത്തം	-10.4439
▁നിമിഷനേരം	-10.444
▁അങ്കിൾ	-10.4441
▁കമ്പിളി	-10.4441
▁തുടർച്ചയായി	-10.4442
▁എല്ലാവരേയും	-10.4442
▁പന്ത്രണ്ടു	-10.4443
▁എനിക്കറിയില്ല	-10.4443
▁ചെളി	-10.4443
▁അക്കാലം	-10.4445
▁അദ്ഭുതത്തോടെ	-10.4445
▁വെളുത്തു	-10.4445
▁ശിശുവ	-10.4447
▁സ്നേഹിതൻ	-10.4447
ാണവൾ	-10.4449
▁ചോദിക്കട്ടെ	-10.4449
▁രാജീവൻ	-10.445
▁പറമ്പില	-10.445
ുകയുണ്ടായില്ല	-10.4452
ാഞ്ഞാൽ	-10.4452
▁കേറ്റ	-10.4453
വാണു്	-10.4453
▁തലയില	-10.4453
▁ഡ്രൈവർ	-10.4453
▁കൊറെ	-10.4456
▁അങ്ങിനെയൊരു	-10.4457
▁ട	-10.446
▁കിടപ്പ	-10.4461
▁അച്ഛന്നു്	-10.4461
▁ഉറപ്പിച്ചു	-10.4463
▁ജീവിക്കാൻ	-10.4463
▁നോട്ടു	-10.4464
▁പ്രേരണ	-10.4464
ൊഴുകി	-10.4465
▁കണ്ണാടിയിൽ	-10.4466
▁അട്ത്തു്	-10.4466
ാരം	-10.4467
▁അതുകൊണ്ട	-10.4467
ഗ്രഹ	-10.4469
▁സാധിക്കുകയില്ല	-10.4471
▁നെറ്റിയിൽ	-10.4471
▁നോ	-10.4472
വിഷയ	-10.4473
▁ചെയ്യുമ്പോൾ	-10.4475
▁ചെന്നാൽ	-10.4475
▁വല്ല്യ	-10.4476
▁വേണ്ടിവരും	-10.4478
▁അങ്ങയുടെ	-10.4481
▁കെട്ടിടം	-10.4481
▁നിശ്ചല	-10.4482
▁പ്രശ്നമ	-10.4487
▁അവകാശ	-10.4487
▁ശക്തിയുള്ള	-10.4489
▁നിലവിളക്കു	-10.4489
▁അങ്ങിനെയ	-10.449
▁കേട്ടിട്ടുണ്ടു്	-10.449
▁ഏല്പിച്ചു	-10.4491
▁കുടിച്ചു്	-10.4492
▁പാത്ര	-10.4492
▁നടന്നാൽ	-10.4493
▁പ്രയോജന	-10.4493
▁അടുക്കളയുടെ	-10.4494
▁സോഫ	-10.4496
▁പറഞ്ഞതിന്റെ	-10.4497
▁നീന്ത	-10.4499
▁ആനന്ദവല്ലിയുടെ	-10.45
▁ഉമ്മറത്ത	-10.4501
ടത്ത	-10.4502
▁ഓടാൻ	-10.4502
ുകൊണ്ട	-10.4503
▁വേണ്ടപ്പെട്ട	-10.4505
▁വിളിച്ചതു്	-10.4506
▁പറഞ്ഞുതന്ന	-10.4506
▁മറ്റൊന്നും	-10.4507
▁ചോദിയ്ക്ക	-10.4508
യിരിക്കുന്ന	-10.451
▁ഉപകാരം	-10.451
▁പകച്ചു	-10.4512
▁വഴിയും	-10.4512
ടേ	-10.4516
▁തൂക്കി	-10.452
▁പാപം	-10.4522
▁കാട	-10.4524
▁തറവാട്ട	-10.4524
▁നോക്കീട്ടു്	-10.4525
▁ആഹ്ലാദ	-10.4525
▁ഒന്നായിരുന്നു	-10.4526
ാതിരുന്നതു്	-10.4527
▁സുധയുടെ	-10.4529
▁ഉണ്ണാൻ	-10.453
▁സമ്പാദിക്ക	-10.4532
ക്കഴിഞ്ഞിരുന്നു	-10.4533
▁അറിഞ്ഞതു്	-10.4534
▁പത്രം	-10.4539
▁ബാക്കിയുള്ളവര	-10.454
ളള	-10.4541
▁എളുപ്പം	-10.4542
കളോ	-10.4546
▁മണിയ്ക്കു്	-10.4546
▁പീ	-10.4549
▁അടക്കം	-10.4549
▁കോമാളികൾ	-10.455
▁നന്നല്ല	-10.4551
▁കിട്ടണം	-10.4555
▁വീട്ടിലെത്തി	-10.4556
യാണവൾ	-10.4557
▁അന്നുതന്നെ	-10.4557
▁കളിച്ച	-10.4557
▁ഞെ	-10.4558
▁ബുദ്ധിമുട്ടിക്ക	-10.4558
▁അവസാനിപ്പിക്ക	-10.4559
▁താമസിച്ചിരുന്ന	-10.456
▁കണ്ണുതുറന്നു	-10.4563
▁കഥകള	-10.4566
ക്കാരെ	-10.457
▁ഊഹിച്ചു	-10.4571
▁യോഗ്യത	-10.4571
▁പരസ്യം	-10.4574
ിട്ടുമുണ്ടു്	-10.4575
▁തേച്ചു	-10.4576
▁വിഡ്ഢിത്തം	-10.4578
ികളുടെ	-10.4579
▁ഖേദ	-10.458
ത്തിൽനിന്നു	-10.4586
െണ്ണം	-10.4588
▁ചുംബനം	-10.4588
▁ഭാഷാ	-10.459
കൾക്കും	-10.459
▁ക്ഷീണിച്ചു	-10.4592
▁നിലച്ചു	-10.4592
▁സ്ഥലത്തു്	-10.4594
▁വെളി	-10.4597
▁സാമർത്ഥ്യ	-10.4598
▁മനസ്സിലാകാത്ത	-10.4601
രുതേ	-10.4603
▁പുറത്തിറങ്ങിയ	-10.4604
▁നില്ക്കുന്നു	-10.4604
▁അവരോടു്	-10.4606
റിൽ	-10.4607
ീകര	-10.4608
▁കാഴ്ചകൾ	-10.4608
േണമെന്ന	-10.4611
ക്കൽ	-10.4613
▁മുഖഭാവം	-10.4622
▁ചേർത്ത	-10.4622
▁തളത്തിൽ	-10.4623
▁വന്ദനയും	-10.4624
▁ചുരുട്ടി	-10.4627
പേർ	-10.463
▁കടിച്ച	-10.4639
▁അതെങ്ങിനെ	-10.464
▁പോണ്ട	-10.464
▁മണ്ട	-10.4641
▁നിൽക്കും	-10.4643
▁ഉടുപ്പു	-10.4644
▁മണിക്കു	-10.4646
▁പരിഭവ	-10.4647
മുണ്ടാ	-10.4648
▁രണ്ടുപേര	-10.4648
▁ഭൂ	-10.465
▁നാവു്	-10.4654
▁ചുണ്ടു	-10.4654
▁നീതി	-10.4655
ുള്ളതു	-10.4656
▁മൂക്ക	-10.4656
ീതു്	-10.4661
▁ഇരുട്ടു്	-10.4661
▁അവലംബിച്ചു	-10.4663
▁ഇഷ്ടാ	-10.4664
ഞ്ചു	-10.4666
ഴിച്ച	-10.4672
▁ശബ്ദമുണ്ടാക്കി	-10.468
▁അവരോടു	-10.4684
▁വിരിയ	-10.4685
ാവൂ	-10.4693
▁പൊള്ള	-10.4694
▁സമ്പാദിച്ച	-10.4696
ളിൽ	-10.4697
▁പറഞ്ഞതാ	-10.4699
▁താള	-10.4704
▁അങ്ങനെയാണു്	-10.4704
▁ഒരുദിവസം	-10.471
ാണയാൾ	-10.4712
▁ഇതിനു്	-10.4712
▁അക	-10.4717
ത്തരാം	-10.4725
▁തീരും	-10.4727
കം	-10.4728
ക്കിടയിലൂടെ	-10.4729
▁വേണ്ടെ	-10.4731
▁നിർത്താൻ	-10.4746
ായിത്തീർന്ന	-10.4751
യിലെത്തി	-10.4752
▁അടിയന്തര	-10.4756
യുണ്ടെന്നു	-10.4761
▁വെള്ളമ	-10.4765
▁മേശപ്പുറത്തു്	-10.4765
▁ആത്മാവ	-10.4766
▁ഉയർന്ന	-10.4766
▁താമസ	-10.4773
▁തൂക്ക	-10.4773
▁അമ്മയോടു	-10.4775
ുണ്ടായില്ല	-10.4778
▁കടന്നുവന്നു	-10.4782
രിഞ്ഞ	-10.4789
▁ചേർത്തു്	-10.4796
▁കിളി	-10.4796
ർക്കു	-10.4797
കാരൻ	-10.4799
വരില്ല	-10.48
യ്ക്കാണു്	-10.4801
▁രക്ഷിച്ച	-10.4802
ക്കരുതു്	-10.481
▁കുറിച്ച	-10.481
കൊണ്ടല്ല	-10.4816
ത്തോടുകൂടെ	-10.4816
▁വിരോധ	-10.4816
▁നഷ്ടപ്പെട	-10.4817
▁മൂട	-10.4821
▁മനസ്സിനെ	-10.4821
▁സുഖക്കേടു	-10.4822
ിയിരുന്ന	-10.4823
▁ഗന്ധ	-10.4824
ിലെവിടെയോ	-10.4824
▁പറഞ്ഞയച്ച	-10.4827
▁ചെയ്തിട്ടില്ല	-10.4832
▁കോണ	-10.4832
▁വിചാരണ	-10.4833
▁സിദ്ധി	-10.4837
▁കൃത്യ	-10.4837
▁ഞാനതു്	-10.4839
▁പ്രതിഷ്ഠ	-10.4846
നാൾ	-10.4847
കിട്ടിയ	-10.4851
▁വളർത്തിയ	-10.4857
നിൽ	-10.4864
▁മൈ	-10.4878
▁പരവശ	-10.4881
ീല	-10.4886
▁ചൂണ്ടിക്കാട്ടി	-10.4886
പ്പെട്ടി	-10.489
▁പൊതിഞ്ഞു	-10.4895
ാണത്രെ	-10.4896
▁പറഞ്ഞത	-10.49
ഷി	-10.49
▁ഞാനിത	-10.4901
കയറ	-10.4904
▁തനി	-10.4905
▁മുട്ടു	-10.4909
▁ഇതുപോലെ	-10.4911
▁മൊട്ട	-10.4913
▁കറുത്തു	-10.4913
▁എറിഞ്ഞു	-10.4917
ങ്ങിയ	-10.4918
ിക്കാത്ത	-10.4918
▁പക്കൽ	-10.492
▁എനിക്കില്ല	-10.4924
▁തോൽ	-10.4926
▁ചെരിഞ്ഞു	-10.4928
▁മുഴങ്ങി	-10.4932
▁പുച്ഛ	-10.4932
കൊണ്ടുതന്നെ	-10.4934
▁ഇടയ	-10.4938
ാവാം	-10.4942
▁സംബന്ധ	-10.4949
▁എന്നുള്ള	-10.4951
▁അന്വേഷിച്ചു്	-10.4955
▁ആകാശത്തിൽ	-10.4955
▁പൊന്നിയും	-10.4957
ക്കറ	-10.496
വാക്കുകൾ	-10.496
രിഞ്ഞു	-10.4962
ുമുള്ള	-10.4962
▁നടുക്ക	-10.4962
▁കലശലായി	-10.4968
▁രാജീവ	-10.4972
പ്രവർത്തന	-10.4976
▁കോണിപ്പടി	-10.4977
▁വിഷമമായി	-10.4979
▁ക്യൂബ	-10.498
ിരുന്നപ്പോൾ	-10.4981
▁നൈരാശ്യ	-10.4981
▁അപ്പഴ	-10.4985
▁ഉന്നത	-10.4989
ുമ്പോഴൊക്കെ	-10.499
▁ഉണക്ക	-10.4994
▁സുബ്ബു	-10.4995
▁ഉമാർ	-10.4995
▁കലിഗ്രഫി	-10.4995
▁തെറ്റിദ്ധാരണ	-10.4995
▁ദ്വേഷ്യം	-10.4995
▁ഇത്രയധികം	-10.4995
▁വമ്പിച്ച	-10.4995
▁പരിശോധന	-10.4995
▁മാതൃഭൂമി	-10.4995
▁ഇത്തവണ	-10.4995
▁താത്പര്യം	-10.4995
▁കൊച്ചമ്പ്രാട്ടീ	-10.4995
▁നോക്കിയിരുന്ന	-10.4995
▁അന്നേരം	-10.4995
▁മണിയൻ	-10.4995
▁ചുമതല	-10.4995
▁ആധാരം	-10.4996
▁ലൂയിസ്	-10.4996
▁താന്താങ്ങളുടെ	-10.4996
▁കാൽക്കൽ	-10.4996
▁ദാസി	-10.4997
▁വേണ്ടതിലധികം	-10.4997
▁പറ്റ്വോ	-10.4997
▁ചർച്ച	-10.4998
▁ചെട്ടിച്ച	-10.4999
▁ഉച്ചതിരിഞ്ഞ	-10.5
▁രണ്ടുപേർ	-10.5
▁കോൺ	-10.5001
െന്നെ	-10.5002
▁തമ്പുരാൻ	-10.5002
▁തലയണ	-10.5002
▁ചൂണ്ടിക്കാണിച്ച	-10.5004
▁ഉണർത്തി	-10.5004
▁കിടക്കുക	-10.5005
യാണതു്	-10.5006
▁മുഴു	-10.5006
▁തുടിച്ചു	-10.5007
▁തീർച്ചയായും	-10.5008
▁കുളിക്കാൻ	-10.501
▁കസേലയിൽ	-10.5011
▁ചുമൽ	-10.5012
ക്കൊണ്ടിരിക്കെ	-10.5013
▁മുറുക്കാൻ	-10.5014
▁തിരുമേനിടെ	-10.5015
▁കഠിനമായി	-10.5016
▁എതിരെ	-10.5016
▁നിസ്സഹായത	-10.5016
▁നിശ്ചയമുണ്ടു്	-10.5017
▁അനുഭവപ്പെട്ടു	-10.5017
▁പവൻ	-10.5017
▁മാത്രമേയുള്ളു	-10.5017
▁കാര്യത്തിലും	-10.5017
▁ചൂടുള്ള	-10.5021
▁കഴിക്കണം	-10.5021
▁സ്ഥല	-10.5023
▁ഇരിക്കുകയാണു്	-10.5024
▁ചോദിക്കാന	-10.5024
▁സഹായിക്കാൻ	-10.5024
▁ഇരട്ട	-10.5025
▁ട്ര	-10.5025
▁അങ്ങട്ടും	-10.5027
▁സ്വപ്നത്തിൽ	-10.5028
▁പോവുകയാണു്	-10.5028
പാഠ	-10.5031
▁കാണുന്നു	-10.5032
ബന്ധം	-10.5033
▁കൊടുക്കാതെ	-10.5033
▁ന്ന	-10.5034
▁പോകുകയാണു്	-10.5035
▁പൊട്ടിത്തെറി	-10.5036
▁ഓടിച്ചു	-10.5036
▁അറിഞ്ഞില്ല	-10.5037
▁അപ്പനും	-10.5039
▁സാരം	-10.5043
▁ക്രമ	-10.5044
▁സാമാന്യം	-10.5045
▁ചെയ്യാനുള്ള	-10.5049
▁തോട്ട	-10.5054
യിലായിരുന്നു	-10.5054
▁അങ്ങു	-10.5054
▁ഘട്ടത്തിൽ	-10.5055
▁നീട്ടിയ	-10.5056
▁തമിഴ്	-10.5058
▁സ്വാധീന	-10.5058
▁പൊതു	-10.5058
▁മാറ്റം	-10.5059
▁ഭാഷയിൽ	-10.506
▁മലയാളത്തിൽ	-10.506
▁വയ്യാ	-10.5062
▁നിമിഷവും	-10.5063
▁എനിക്കുവേണ്ടി	-10.5068
റ്	-10.507
▁കൂടിക്കൂടി	-10.5076
▁ഉള്ളിൽനിന്നു്	-10.5077
കഴിഞ്ഞു്	-10.5077
യുണ്ടായിരുന്ന	-10.5078
കളുണ്ടു്	-10.508
▁ഒരിക്കൽകൂടി	-10.5083
▁ലളിതയ്ക്കു്	-10.5084
▁ഉപയോഗിച്ച	-10.5085
▁നേർസ	-10.5086
കഥ	-10.5088
▁പിഴ	-10.5089
ാൽത്തന്നെ	-10.5089
▁അയാളാണു്	-10.509
▁കുഴപ്പം	-10.5092
▁സംഗീതം	-10.5092
▁രാവിലെത്തന്നെ	-10.5093
▁തെമ്മാടി	-10.5093
ക്കാണും	-10.5094
▁അയയ്ക്ക	-10.5094
▁ബ്ലൗസ	-10.5094
കൊള്ളട്ടെ	-10.5096
▁കൃത്യം	-10.5101
▁ഇടപെട	-10.5102
▁കൊടുത്തിരുന്നു	-10.5105
▁തുടങ്ങിയാൽ	-10.5107
▁കൊണ്ടുവന്നതു്	-10.5108
▁കരുതുന്നു	-10.5113
▁കുറിച്ചു്	-10.5113
വിരി	-10.5116
▁സംഭവിച്ചു	-10.5119
▁കോണിയുടെ	-10.512
വയാണു്	-10.512
▁അപൂർവ്വ	-10.5122
▁നക്ഷത്രങ്ങൾ	-10.5123
▁ലത	-10.5124
▁ഉണ്ടാക്കിത്തീർ	-10.5124
▁അടിയിൽ	-10.5126
ിത്ര	-10.5128
▁ഏറ്റെടുക്ക	-10.5132
▁അവസാനിച്ചു	-10.5134
െങ്കിലോ	-10.5135
▁കണ്ണിൽനിന്നു്	-10.5137
▁എന്നാല	-10.5137
▁ജന്മി	-10.5138
വെച്ചിരുന്നു	-10.5138
ത്ന്നു്	-10.514
ാമതി	-10.514
▁വന്നതാ	-10.5141
നുമാണു്	-10.5144
▁പ്രശംസ	-10.5144
▁കാലത്തിന്റെ	-10.5146
മ്മി	-10.5146
ക്കാരത്തി	-10.515
▁ഇറക്ക	-10.5152
▁മുറിയിലേക്കു്	-10.5155
▁നിയമം	-10.5155
▁ഇങ്ങിനെയുള്ള	-10.5158
▁കുടിയ	-10.5176
▁ഇഷ്ടമായ	-10.5177
▁സരളയുടെ	-10.518
▁ചെടി	-10.5182
▁ആളു	-10.5186
യ്ക്കോ	-10.5187
▁നിശ്ശബ്ദയായി	-10.519
ുകളിലും	-10.519
▁തിരിച്ചും	-10.5194
▁സ്ക്കൂള	-10.5198
മെന്നതു്	-10.5202
▁അടിച്ചുവാരി	-10.5204
തയും	-10.5206
▁ജ്ഞാനാനന്ദനെ	-10.5207
▁കണ്ടതും	-10.5214
▁സൂത്ര	-10.5223
▁കാറ്റും	-10.5225
▁തൂക്കിയ	-10.5227
മുണ്ടാക്കി	-10.5231
▁ചിരിച്ച	-10.5237
▁കൊണ്ടന്ന	-10.5237
▁സ്വാദ	-10.5238
▁ഭയപ്പെട്ടു	-10.524
▁പോലീസ	-10.524
▁ക്ലാസ	-10.5241
യായപ്പോൾ	-10.5242
ക്കാമെന്നു	-10.5243
▁മോഹം	-10.5245
▁സന്യാസി	-10.5246
▁സ്വപ്നങ്ങള	-10.5247
▁ഇവിടെയും	-10.5248
മാണെന്നും	-10.5249
▁ശരിയാക്കി	-10.525
▁നിന്നതു്	-10.525
▁പേടിച്ചു	-10.5251
▁ഭ്രമം	-10.5252
ുപോലും	-10.5256
വളാണെന്നു്	-10.5263
പ്പെടുത്താൻ	-10.5266
പുരുഷന	-10.5267
▁പറഞ്ഞില്ലെ	-10.5268
ത്യ	-10.5276
▁ഭാവമില്ല	-10.5277
▁കുരിശു	-10.5285
▁കുഴങ്ങി	-10.5291
ിരിക്കണതു	-10.5291
ക്കെട്ട	-10.5301
പോയിരുന്നു	-10.5307
ൊത്ത	-10.5307
നുള്ള	-10.5308
സം	-10.5313
▁പാർക്കുന്ന	-10.5316
▁എഴുത്തുകാര	-10.5317
▁മുണ്ടു	-10.5318
▁കിട്ടുമെന്ന	-10.5318
▁ഏല്പിച്ച	-10.532
▁വേദനയും	-10.5321
▁മറന്നുപോയ	-10.5321
▁കെടക്ക	-10.5321
ില്ലല്ലൊ	-10.5325
താണെങ്കിലും	-10.5328
▁സാധിച്ചു	-10.5328
▁വിരി	-10.5334
▁അകന്നു	-10.5335
ലേയ്ക്കു	-10.534
▁വിശ്വസിച്ച	-10.5341
▁വളർത്ത	-10.5353
▁ഏൽപ്പിച്ചു	-10.5354
▁വഴിപ്പെട	-10.5358
▁കുളിമുറി	-10.536
▁ചിന്തിച്ച	-10.5368
▁സമ്പൂർണ്ണ	-10.5368
പോകാൻ	-10.537
▁ആട്ടി	-10.5371
കിട്ട	-10.5371
ദ്ദേശ	-10.5372
▁ജീവന	-10.5375
▁എനി	-10.5388
മട്ടിൽ	-10.5388
▁കന	-10.5396
േണമെന്നു്	-10.5399
ാക്കാൻ	-10.5403
ക്കാർക്കു്	-10.5406
സ്വഭാവ	-10.5408
യാണെന്നും	-10.5421
▁തങ്ങൾ	-10.5423
▁കൊല്ലമായി	-10.5429
▁ചോദിക്കുന്ന	-10.5434
ിണി	-10.5435
▁നന്നായ	-10.5435
▁മുകളിലേക്കു	-10.5436
▁ഇളകി	-10.5439
▁ഒരുമിച്ചു	-10.5441
▁മയങ്ങി	-10.5442
▁ഇല്ലാ	-10.5442
▁ന്യായമായ	-10.5445
ജ്ജ	-10.5446
വരൊക്കെ	-10.5456
▁ശകാര	-10.546
ാശ	-10.5462
▁മുറിയിലേക്കു	-10.5463
▁നിശ്ശബ്ദ	-10.5469
▁വരാത്ത	-10.5473
റിഞ്ഞപ്പോൾ	-10.5473
ശൂന്യ	-10.5475
▁ചിന്തിക്ക	-10.5476
▁ജയിച്ച	-10.5478
യാത്ര	-10.5478
▁തുടുത്ത	-10.5482
▁ജോസഫേട്ടനെ	-10.5485
▁സാറ്	-10.5485
ങ്ങു്	-10.5485
▁തുടര	-10.5488
പ്പുറത്ത	-10.5488
▁മറച്ചു	-10.5489
ിരുന്നതു	-10.5489
▁താഴേയ്ക്കു	-10.5494
▁പണ്ടു	-10.5497
▁അങ്ങോട്ട	-10.5497
അ	-10.55
▁തെര	-10.55
▁സ്ഥാനത്തു	-10.5501
▁അകറ്റി	-10.5502
ട്ര	-10.5503
േയില്ല	-10.5504
▁വൈക	-10.5505
▁സുഖകരമായ	-10.5507
▁സ്നേഹിതന	-10.5509
▁നനയ്ക്ക	-10.5512
▁വഴിയില്ല	-10.5514
പ്പിന്നെ	-10.5518
▁ചെക്ക	-10.5521
▁ചായയും	-10.5522
കാരണം	-10.5523
▁ഒരുപാടു	-10.553
▁തങ്ക	-10.5531
ടക്കം	-10.5532
ിച്ചില്ല	-10.5536
▁ഏറ	-10.5541
▁നിഷേധിക്ക	-10.5543
ൊപ്പം	-10.5544
▁കിലോ	-10.5545
ിട്ടുണ്ടെന്ന	-10.5546
▁ശരിയല്ല	-10.5549
പ്പെട്ടിരുന്നു	-10.5549
▁വാത	-10.555
▁ജോ	-10.5554
▁പോവ്വ	-10.5554
ാനായില്ല	-10.5556
ാനന്ദ	-10.5557
▁എന്നോട	-10.5558
▁ഏല്പിക്ക	-10.5559
▁അമ്പ	-10.5561
ായിരിക്കകൊണ്ടു്	-10.5563
▁പറയുകയും	-10.5564
▁മാളിക	-10.5566
▁ഓട്ടോ	-10.5566
പ്പോകും	-10.5566
▁അപ	-10.5567
▁പ്രയോഗ	-10.5567
▁സമയമില്ല	-10.5568
▁പുര	-10.5568
▁ഉടമ	-10.5569
പോലുള്ള	-10.5569
▁തട്ടിയ	-10.5572
▁തയ്യാറ	-10.5573
▁എട്ടുമണി	-10.5573
▁ഭാവിച്ച	-10.5575
▁അഴകുള്ള	-10.5576
▁വിഷമമ	-10.5576
▁അന്ത്യ	-10.5577
▁യൗവന	-10.5577
▁സമ്മതിച്ചില്ല	-10.558
▁കൺ	-10.5581
▁സദ്യ	-10.5582
ഹീന	-10.5582
▁ശങ്കരൻ	-10.5582
▁വിവേക	-10.5583
▁മാർദ്ദവ	-10.5583
▁ഉണ്ണിക്കുട്ടൻ	-10.5583
▁നന്ദേട്ടൻ	-10.5583
▁ഷൂട്ടിങ്	-10.5583
▁കൂറ്റൻ	-10.5583
▁നോവൽ	-10.5583
▁പ്രാതൽ	-10.5583
▁മഹാകവി	-10.5583
▁വളരെയധികം	-10.5583
▁പഠിത്തം	-10.5583
▁ആർക്കെങ്കിലും	-10.5583
▁പ്ലീസ്	-10.5583
▁ആശംസ	-10.5583
▁പത്മിനി	-10.5583
▁സാരല്യ	-10.5583
▁പെൺ	-10.5583
▁ജീവകാലം	-10.5584
▁മറ്റുള്ളവരെ	-10.5584
▁കൊച്ചച്ഛന്റെ	-10.5584
െങ്കിലു	-10.5584
▁ഞങ്ങടെ	-10.5584
▁ഇഴഞ്ഞു	-10.5584
▁മിന്നുന്ന	-10.5585
▁സോറി	-10.5585
▁അനങ്ങിയില്ല	-10.5585
▁സുനിലിന്റെ	-10.5586
ാമല്ലൊ	-10.5588
▁മഷി	-10.5588
▁വടക്കേ	-10.5588
▁മാറാല	-10.5589
▁അമൃത	-10.559
▁മകന	-10.559
▁ആശ്വാസത്തോടെ	-10.5591
▁നാസർ	-10.5591
▁കുറേശ്ശെ	-10.5591
ാണല്ലൊ	-10.5592
▁കാടു	-10.5592
▁പറയുമ്പോലെ	-10.5593
▁ധർമ്മ	-10.5594
▁അടങ്ങിയ	-10.5595
▁ബോർഡ	-10.5595
▁ധ്വനി	-10.5596
▁എനിക്കിപ്പോൾ	-10.5596
▁ഡോക്ടറെ	-10.5597
▁കട്ടില	-10.5597
▁വലത്തെ	-10.5598
▁ശ്രദ്ധിക്കാതെ	-10.5598
▁നില്ക്കുമ്പോൾ	-10.5599
▁പ്ലാൻ	-10.56
▁സൂര്യന്റെ	-10.5602
▁അംഗ	-10.5602
▁പിറന്നാള	-10.5607
▁കഴിയാതെ	-10.5608
▁മുറ്റത്തെ	-10.5608
▁ആവശ്യപ്പെടുന്ന	-10.5608
▁ഇവൻ	-10.561
▁എന്നറിയില്ല	-10.5614
▁വെറുക്ക	-10.5615
▁ഇരുന്നാൽ	-10.5616
▁കൃഷ്ണൻനായരും	-10.5616
▁കേസ	-10.5617
▁അടിയ	-10.5617
▁കഷ്ണം	-10.5618
▁വിളങ്ങുന്ന	-10.5621
മുണ്ടെന്നു	-10.5621
▁വൻ	-10.5624
▁കഷായം	-10.5624
▁ഉറപ്പാക്കി	-10.5625
ായിരിക്കുമെന്ന	-10.5625
▁കട്ടിൽ	-10.5625
▁കരയാൻ	-10.5626
▁അറിഞ്ഞാൽ	-10.5629
▁മനുഷ്യരെ	-10.563
▁കുറവാണു്	-10.5635
▁ലോകത്തു്	-10.5635
▁എഴുതാൻ	-10.5637
കൊണ്ടുവന്നു	-10.5637
▁പോകട്ടെ	-10.5637
▁പാട്ടുകൾ	-10.5637
▁യുദ്ധം	-10.5638
▁ഭാഗത്തു	-10.564
▁സിനിമയിൽ	-10.5645
▁ശാന്തത	-10.5646
▁ഇഷ്ടമാണു്	-10.5646
▁ധർമ്മം	-10.5647
▁തങ്കം	-10.5648
▁ദിവസമാണു്	-10.5649
െക്കാൾ	-10.5649
▁നടു	-10.5655
▁ഒന്നുകൊണ്ടും	-10.5655
▁ക്ഷണ	-10.5658
▁തെറ്റാണു്	-10.5658
▁ആവശ്യമാണു്	-10.5659
ിലാക്കി	-10.5659
▁അവളൊന്നും	-10.566
ർക്കു്	-10.566
▁ഇങ്ങിനെയൊക്കെ	-10.566
▁താടിയും	-10.5663
▁അങ്ങട്ടു്	-10.5669
▁ഇങ്ങട്ടും	-10.5669
▁മോന	-10.5671
▁വെച്ചാൽ	-10.5671
▁കയറിയതു്	-10.5673
▁കീറിയ	-10.5673
▁അഴി	-10.5676
▁വെളിച്ചപ്പാട	-10.568
ന്മാർക്കു്	-10.5682
▁മറിച്ചും	-10.5685
▁പൊന്ന	-10.5687
▁നാടകം	-10.5687
▁പേടിയാണു്	-10.5688
▁നീട്ട	-10.5688
കളയുന്ന	-10.569
▁പരിഭ്രമിച്ചു	-10.5693
▁കിട്ടിയപ്പോൾ	-10.5694
▁നടപ്പു	-10.5696
ിലായിരുന്നു	-10.5697
▁ആശിച്ചു	-10.57
▁കാര്യങ്ങളും	-10.5703
ുന്നതുപോലെ	-10.5704
▁വിളക്ക	-10.5707
▁വിടാൻ	-10.5709
▁തിരുകി	-10.5712
▁ചെയ്യേണ്ടത	-10.5713
ത്തോടു്	-10.5718
▁പറഞ്ഞാ	-10.5718
▁തോന്നിയിരുന്നു	-10.5719
ില്ലെന്നും	-10.5721
▁കോളേജു	-10.5723
▁മണ്ണിൽ	-10.5723
▁തരക്കേടില്ല	-10.5726
▁അഗാധ	-10.5729
▁നിന്നുള്ള	-10.5731
ാടി	-10.5731
▁ഒരുപാടു്	-10.5731
▁ദോഷ	-10.5732
▁കിടപ്പു്	-10.5732
പ്പുറ	-10.5734
▁പിന്നിട്ട	-10.5737
▁രാമൻനായര	-10.5739
ക്കെട്ടു	-10.574
▁മാറും	-10.5741
▁ഉല	-10.575
ിനുവേണ്ടി	-10.5752
▁മടങ്ങിവന്നു	-10.5753
കാതെ	-10.5754
▁പെറ്റ	-10.5755
ിക്കാനും	-10.5755
▁എന്നാണോ	-10.5755
▁അടുപ്പിച്ചു	-10.5759
▁പച്ചപ്പയ്യിനെ	-10.5766
▁ഊരി	-10.5769
▁നില്ക്കും	-10.5771
മുണ്ടെങ്കിൽ	-10.5774
▁നിലാവ	-10.5775
▁പറയാനില്ല	-10.5775
▁കാട്ടിൽ	-10.578
▁ഹേമാംഗ	-10.5786
▁അയാളിൽ	-10.5788
▁ഇരിപ്പാൻ	-10.5792
▁റസ്റ്റോറണ്ടിൽ	-10.5794
▁അറിഞ്ഞുകൂടാ	-10.5795
▁കണ്ടെത്തി	-10.5796
▁അനുഭവമായി	-10.5798
▁വിയർപ്പു	-10.5799
▁നമ്മ	-10.58
▁വഴിയ	-10.5801
▁പ്രസന്ന	-10.5802
▁ബിസിനസ്സ്	-10.5803
▁ആണെന്ന	-10.5807
ാനില്ല	-10.5809
▁പുല	-10.5813
▁യോഗം	-10.5813
▁പൂമുഖത്തു്	-10.5816
▁അസാദ്ധ്യ	-10.5817
▁തലേന്നു്	-10.5817
ുകയായിരുന്ന	-10.5819
താണെന്നും	-10.582
▁കുത്തു	-10.5823
കാരി	-10.5827
▁ചക്ര	-10.5827
വെട്ട	-10.5829
▁നോക്കിയതു്	-10.583
ാതിരിക്കുന്ന	-10.583
▁ഹോട്ടലില	-10.5835
▁കൽ	-10.5837
ാണത്രേ	-10.5838
▁കളിച്ചു	-10.5838
▁അച്ഛനു	-10.5841
▁കൃത്യമായി	-10.5841
▁കാരണവര	-10.5844
▁വിളിക്കുന്നു	-10.5847
▁കായ്	-10.5848
▁വീട്ടുകാര	-10.5858
▁ഒളിപ്പിച്ചു	-10.5858
▁വെച്ചതു്	-10.586
▁പെരുമാറ്റം	-10.5864
ുമെല്ലാം	-10.5864
▁ഒരിട	-10.5866
ായിരിയ്ക്കും	-10.5869
▁അകത്തേക്കു്	-10.5869
▁കഥാ	-10.5869
▁തീർത്തു	-10.5869
▁വർഷങ്ങൾക്കു	-10.587
▁പുസ്തകത്തിൽ	-10.5871
▁അനുരാഗിക്ക	-10.5872
▁വിശ്വാസമില്ല	-10.5873
▁മടങ്ങിവന്ന	-10.5877
▁അവന്നു്	-10.5879
▁പാടത്തു	-10.588
കുത്തി	-10.5883
ചെറുപ്പക്കാരത്തി	-10.5896
▁നഗ്ന	-10.5896
യാകുന്ന	-10.5898
▁കുടുക്ക	-10.5901
▁പറ്റൂ	-10.5902
▁ചിരിച്ചു്	-10.5907
▁നശിച്ചു	-10.5908
▁അഞ്ച	-10.5909
▁പാതയിൽ	-10.591
▁പണിയ	-10.5911
ന്തി	-10.5914
▁വിധിച്ച	-10.5917
▁തളർന്ന	-10.592
▁കൊടുക്കേണ്ട	-10.5921
▁ഇതൊന്നു	-10.5924
ടു്	-10.593
യർന്ന	-10.5936
തായിരിക്കണം	-10.5936
▁വഴിക്കു്	-10.5936
▁ദിക്കു	-10.5937
ച്	-10.5938
▁എന്നല്ലേ	-10.5938
▁എഡോൾഫിക്കു്	-10.5948
ജീവിതം	-10.5951
▁തലയ്ക്കു	-10.5954
▁യോഗ്യ	-10.5955
▁ഞങ്ങൾക്ക	-10.5955
▁ഫലമ	-10.5961
▁സ്കൂള	-10.5962
▁വയറ	-10.5964
▁മനസ്സും	-10.5965
▁ഊഹിച്ച	-10.5965
▁വിരല	-10.5973
▁വരവു	-10.5977
▁പരിസര	-10.5977
▁കാത്തിരുന്ന	-10.5978
ൊന്നുമില്ലാതെ	-10.598
▁മറയ്ക്ക	-10.598
നാക്കി	-10.5982
▁എന്നൊന്നും	-10.5984
▁ടീച്ചറ	-10.5984
▁മനസ്സിലാക്കുന്ന	-10.5985
▁ജീവിക്കുന്ന	-10.5986
▁ബസ്സു	-10.5991
▁പൂട്ട	-10.5992
മാകുന്നു	-10.5992
▁എവിടെയും	-10.5993
താണെന്ന	-10.5996
▁ഇടയില്ല	-10.5996
▁പ്രേമിച്ച	-10.5996
▁ബാഗ	-10.5998
▁രക്ഷപ്പെട്ട	-10.6001
▁അവിടുന്നു	-10.6005
ാനിടയില്ല	-10.6005
മത	-10.6006
▁അന്യായ	-10.6006
▁അനുരാഗിച്ച	-10.6007
▁ചെറുപ്പക്കാരന	-10.6009
▁കൈയിലെ	-10.6011
▁ഒന്നുരണ്ടു്	-10.6017
ണ്ടെങ്കിൽ	-10.6017
▁എന്നെങ്കിലും	-10.6017
▁തൂ	-10.6019
ക്കൊള്ള	-10.6021
▁തുറ	-10.6021
പറയും	-10.6022
തുകണ്ടു	-10.6022
▁സ്വന്ത	-10.6023
▁ധിക്കാര	-10.6023
ല്ല്യേ	-10.6028
▁ഈശ്വര	-10.6029
പതി	-10.603
▁കാര്യമല്ല	-10.6031
രസം	-10.6032
കാർ	-10.6034
▁വാസ്തവമ	-10.6035
ങ്ങളിലൂടെ	-10.6039
ക്കിടക്ക	-10.6043
▁ചുരുണ്ടു	-10.6043
▁ആശ്ചര്യം	-10.6044
▁പൊത്തി	-10.6046
ിന്മേലും	-10.605
▁നരി	-10.6052
▁ദരിദ്ര	-10.6053
▁കുമ്പിട്ടു	-10.6057
▁താക്കീതു	-10.606
▁അടുത്തുചെന്നു	-10.6065
▁വൃത്തി	-10.6066
▁ഞാനതു	-10.6067
▁സോ	-10.6068
ക്കളഞ്ഞു	-10.6068
▁സൂര്യ	-10.6075
ക്കാനാണു്	-10.6078
സമയത്തു്	-10.6079
▁അലമാറി	-10.6082
▁നേരംപോക്ക	-10.6083
കാര്യത്തെപ്പറ്റി	-10.6087
▁സന്തോഷമ	-10.6088
ജീവി	-10.6088
ച്ചുകൊണ്ടു്	-10.6089
ന്റേയും	-10.6089
വുമുള്ള	-10.609
തന്നേ	-10.6094
▁കയറ്റ	-10.6095
യാർ	-10.6099
ാതിരുന്നാൽ	-10.6099
▁പാടം	-10.6102
▁കാര്യത്തിനു	-10.6102
▁കാണിച്ചു്	-10.6103
ൊട്ട	-10.6105
▁ആൾക്കൂട്ട	-10.6105
െത്തുമ്പോൾ	-10.6107
▁അദ്ധ്വാന	-10.6109
ിന്മേല	-10.6109
▁ആകൃതി	-10.6111
▁കാലു്	-10.6111
പ്രകാര	-10.6116
▁ശവം	-10.6122
▁കിടപ്പറ	-10.6123
▁ചുകന്നു	-10.6129
▁ചാരു	-10.6132
▁പൊതിഞ്ഞ	-10.6132
▁പിന്നോട്ടു	-10.6132
ാരോ	-10.6139
▁നെല	-10.6139
▁കുലുങ്ങ	-10.614
പുറ	-10.614
▁ദെവസ	-10.6141
▁ഒരിടത്തു	-10.6143
▁വരുമെന്ന	-10.6144
▁ചിരിച്ചുകൊണ്ടു	-10.6147
▁പാപ്പിച്ചേട്ടന	-10.615
▁മുഖത്തിൽ	-10.6153
▁രാമൻകുട്ടി	-10.6154
▁അനുസരിക്ക	-10.6158
▁കാണണമെന്നു	-10.6159
▁പരിഹാര	-10.6161
▁വരമ്പ	-10.6161
റുത്ത	-10.6161
ാറുള്ളു	-10.6163
▁ഇറച്ചി	-10.6165
▁ജോലിയെടുക്കുന്ന	-10.6165
ൂറ	-10.6167
▁സൂചി	-10.6168
▁മണ്ണു	-10.6169
ുകയുള്ളു	-10.6174
▁ദീപ	-10.6177
കൈ	-10.618
▁ഭാര	-10.6186
▁ജോസുകുട്ടി	-10.6188
പ്രിയ	-10.6188
▁ഭവാനി	-10.6189
▁തറവാട്ടുകാര	-10.619
ന്നൊക്കെ	-10.619
▁വേറെയും	-10.6191
▁മോശം	-10.6194
േരി	-10.6194
▁വിജനമായ	-10.6195
▁ചേർക്ക	-10.6196
▁പിറ്റേ	-10.6198
▁കോളനി	-10.6203
▁കല്പന	-10.6205
▁സഖി	-10.6206
ക്കൊള്ളാം	-10.6206
▁നിൽപ്പ	-10.6207
▁നിതിൻ	-10.6207
▁തലയിണ	-10.6208
▁ഉവ്വു്	-10.6208
▁എയർപോർട്ട	-10.6208
▁കാർത്ത്യായനി	-10.6208
▁കുർബാന	-10.6208
▁ചേലനാടൻ	-10.6208
▁ബാലചന്ദ്രൻ	-10.6208
▁സഹതാപ	-10.6208
▁അവയവങ്ങൾ	-10.6208
▁ഒരിയ്ക്കൽ	-10.6208
▁ഓഫീസർ	-10.6208
▁ഹരിറാം	-10.6208
▁കൂടിക്കാഴ്ച	-10.6208
▁ഇനീം	-10.6208
▁മാനേജർ	-10.6208
▁അനുസരണ	-10.6208
▁റെയിൽവേ	-10.6208
▁തളർച്ച	-10.6208
▁മന്ദസ്വരത്തിൽ	-10.6208
▁സൗഹൃദ	-10.6209
▁ഒരക്ഷരം	-10.6209
▁സാബ്	-10.6209
▁ജോമോന്റെ	-10.6209
കയും	-10.6209
▁വീട്ടുകാർ	-10.6209
▁മന്ദഹാസത്തോടെ	-10.621
▁ആർക്കറിയാം	-10.621
▁ഡോക്ടറുടെ	-10.621
▁അത്ഭുതപ്പെട്ടു	-10.6211
▁മുഖമുയർത്തി	-10.6212
▁ഞാനവളെ	-10.6212
▁കാമുകന്റെ	-10.6213
▁അപായ	-10.6214
ചുറ്റി	-10.6214
▁മക്കളുടെ	-10.6214
▁ഞെട്ടിപ്പോയി	-10.6214
▁രണ്ടുപേർക്കും	-10.6215
▁വൈകാതെ	-10.6216
▁കാര്യങ്ങളെല്ലാം	-10.6216
▁ജീവിച്ചിരുന്ന	-10.6217
▁ഇടാൻ	-10.6217
▁വേര	-10.6218
▁ഇവരൊക്കെ	-10.6219
▁എന്തുണ്ടായി	-10.622
ാഞ്ഞിട്ടു്	-10.622
ക്കളി	-10.622
▁ഞാനിനി	-10.6222
▁വിളമ്പ	-10.6224
▁പഴുത്ത	-10.6224
▁താനൊരു	-10.6225
ാണെന്നാണു്	-10.6225
മർത്തി	-10.6226
▁മറുപടിയൊന്നും	-10.6226
▁സ്ത്രീധനം	-10.6227
ടയ	-10.6227
ക്കിട്ട	-10.623
▁സാമാനങ്ങൾ	-10.6231
▁അത്യാവശ്യമാണു്	-10.6231
▁പറയുമോ	-10.6232
▁അതിൽപ്പിന്നെ	-10.6233
▁കീഴ	-10.6233
▁ചേച്ചിയെ	-10.6234
▁പോകേണ്ട	-10.6234
ക്കയറി	-10.6234
▁പങ്ക	-10.6235
▁സ്വീകരിക്കാൻ	-10.6237
▁വലിപ്പ	-10.6238
▁അപ്പോഴേക്കും	-10.6239
▁പറമ്പിലേയ്ക്കു	-10.624
▁പോകാനുള്ള	-10.6241
▁വളരെനേരം	-10.6241
▁ആഴ്ചയിൽ	-10.6242
▁കൊച്ചേ	-10.6243
▁അത്രയേ	-10.6244
▁സമയത്താണു്	-10.6244
▁അടിസ്ഥാന	-10.6244
▁ധൈര്യവും	-10.6247
▁വിളമ്പി	-10.6248
▁കുഴപ്പമില്ല	-10.6249
▁താമസിക്കാൻ	-10.625
▁സത്യത്തിൽ	-10.625
▁സെന്റ്	-10.6251
▁ഒരുക്കങ്ങൾ	-10.6251
▁വിശേഷങ്ങൾ	-10.6252
▁ദൃശ്യം	-10.6253
ണ്ടിൽ	-10.6253
▁സൗന്ദര്യവും	-10.6254
▁വരികൾ	-10.6256
▁പോയോ	-10.6258
▁കളഞ്ഞു	-10.6258
ക്കാര്യ	-10.6258
▁സമയവും	-10.6259
▁നടന്നപ്പോൾ	-10.6263
▁കോണിയിറങ്ങി	-10.6265
▁പെരു	-10.6266
▁പറഞ്ഞിരുന്നതു്	-10.6266
ങ്കൊണ്ടു്	-10.6266
▁ദുരന്ത	-10.6267
ച്ചിരുന്ന	-10.6267
▁പള്ള	-10.627
▁നീങ്ങുന്ന	-10.6271
▁ഉച്ചയ്ക്കു	-10.6272
▁ആണി	-10.6273
▁ശ്രദ്ധിച്ചതു്	-10.6273
▁കൊല	-10.6275
ായപ്പോൾ	-10.6276
മിട	-10.6279
▁പുസ്തകവും	-10.628
▁നേർത്തെ	-10.6284
▁ജെ	-10.6284
രുതെന്നു്	-10.6285
▁ചുണ്ട	-10.6286
▁മനസ്സിനു്	-10.6287
▁വിചാരവും	-10.6287
▁രാജ്യം	-10.6289
▁കടത്തി	-10.629
▁കേൾക്കേണ്ട	-10.629
താണെങ്കിൽ	-10.6291
▁തെല്ലു	-10.6294
▁പെട്ടിയിൽ	-10.6295
▁സങ്കല്പ	-10.6296
▁അവസാനിച്ച	-10.6299
▁ബോദ്ധ്യം	-10.6301
▁കവർ	-10.6302
▁പറയുകയാണു്	-10.6304
▁അറയിൽ	-10.6305
▁തന്നോടു	-10.6306
▁സ്നേഹവും	-10.6307
▁എനിക്കി	-10.6307
മറ്റ	-10.6308
▁അപകടം	-10.6308
▁മാപ്പു്	-10.631
▁കർത്താവു്	-10.631
▁വന്ദനയുടെ	-10.6311
▁പറ്റു	-10.6311
▁കാത	-10.6311
▁ചന്ദ്ര	-10.6312
▁നിഷ്കളങ്ക	-10.6312
▁വേള	-10.6314
▁ചോദ്യത്തിനു്	-10.6314
യേപ്പോലെ	-10.6315
▁ആശുപത്രിയിൽ	-10.6316
▁ആശ്രമത്തിൽ	-10.6316
ായിരുന്നല്ലോ	-10.6316
▁വയറ്റിൽ	-10.6322
▁മിനിറ്റ്	-10.6322
▁പോയിട്ടു	-10.6324
െത്ര	-10.6325
പ്പിന്റെ	-10.6327
േടത്തോളം	-10.6327
▁യൂജീനിന്നു്	-10.6328
▁ശരിയ്ക്കും	-10.6332
▁മലയാളം	-10.6333
▁അങ്ങിനെതന്നെ	-10.6336
▁പകര	-10.6338
▁ഇല്ലല്ലോ	-10.6341
▁ഞാനൊന്നു്	-10.6343
ഭേദ	-10.6343
▁ഇറങ്ങിപ്പോയി	-10.6344
▁കാത്തുനിന്ന	-10.6344
▁ഒരുസമയം	-10.6346
▁ഇന്ദിരയും	-10.6353
▁സ്ത്രീകൾക്കു്	-10.6353
▁വണ്ണ	-10.6359
▁കിട	-10.636
▁വരികയും	-10.636
▁ഭൂത	-10.6361
പ്പെടുകയും	-10.6365
▁ജന്തുവ	-10.6365
▁തിളക്ക	-10.6369
ാധി	-10.637
വരാത്ത	-10.6374
▁നിശ്ശബ്ദമായി	-10.6379
മാല	-10.6382
▁തയ്യാറാക്കി	-10.6383
▁ഒന്നാണു്	-10.6384
▁പെട്ടു	-10.6388
ങ്ങിനെ	-10.6388
▁ടീ	-10.6389
▁കേട്ടിട്ടു്	-10.6391
ിരിക്കുണു	-10.6392
▁അപ്പോൾത്തന്നെ	-10.6393
▁മുറിയിലേയ്ക്കു്	-10.6398
▁അമ്മയ്ക്കു	-10.64
▁പതിയ	-10.6403
▁ഭയങ്കരമായ	-10.6404
ുകാർ	-10.6405
ുമ്പോഴേക്കും	-10.6408
▁അപ്പേട്ടനു	-10.6416
▁അപരിചിത	-10.642
▁പറഞ്ഞയച്ചു	-10.642
▁തള	-10.6421
▁പ്രസവ	-10.6431
▁ഒരുപോലെ	-10.6437
▁അമ്മെ	-10.6445
്യല്ലെ	-10.6445
▁പേറി	-10.645
▁നേർ	-10.645
▁പുല്ല	-10.6451
▁കുറുപ്പു്	-10.6455
▁സ്വാതന്ത്ര്യം	-10.6466
▁സാധിക്കില്ല	-10.6468
സിദ്ധി	-10.647
▁പരമാനന്ദ	-10.647
▁അദ്ധ്വാനം	-10.6472
▁അസഹ്യമായ	-10.6474
▁അങ്ങോട്ടും	-10.6476
മാവാം	-10.6476
▁താമസിച്ചു	-10.6477
▁പറഞ്ഞിരുന്നില്ല	-10.6477
▁പ്രഭാത	-10.648
്യൻ	-10.648
പറവാൻ	-10.6482
▁കയറിവന്നു	-10.649
▁കൊടുക്കാന	-10.6491
▁കഠിനമായ	-10.6492
▁ഞാനോ	-10.6495
▁ടു	-10.6496
▁മോള	-10.6498
▁വിളിച്ചുകൊണ്ടു	-10.6507
ിട്ടായിരുന്നു	-10.651
▁ആരെ	-10.6515
▁ശരിയാ	-10.6516
▁തിന്നു	-10.6517
ൊടു	-10.6517
ല്ലെങ്കിൽ	-10.6521
▁തൊടങ്ങ	-10.6521
കളവാൻ	-10.6526
▁അവർക്കും	-10.6531
▁ആവശ്യമുള്ള	-10.6532
▁ഇവ	-10.6534
▁തുടങ്ങുക	-10.6534
ാവുന്നു	-10.6534
▁ഇരിക്കും	-10.6538
▁അമ്മയ്ക്ക	-10.6539
ചിന്ത	-10.6545
▁പ്രഭ	-10.6548
▁ആണുങ്ങള	-10.6559
▁മൊ	-10.6559
▁മേടിച്ച	-10.6559
ൂർ	-10.6562
ങ്ങളായിരുന്നു	-10.6563
▁ചുട്ട	-10.6564
▁പറവാനും	-10.6572
▁കഴിയുന്നില്ല	-10.6576
▁നിന്നാണു്	-10.6577
ിൽക്കൂടി	-10.6582
▁കണക്കെ	-10.6585
ിരുത്തി	-10.6586
നേയും	-10.6589
തയുടെ	-10.6591
േട്ടൻ	-10.6594
നിന്നും	-10.6596
വേദ	-10.6601
തെങ്കിലും	-10.6601
യ്ക്കുമ്പോൾ	-10.6602
ച്ചെടി	-10.6604
▁മനോരാജ്യ	-10.6605
▁കുര	-10.6606
▁ഇച്ഛാഭംഗം	-10.6608
▁ജീവിച്ച	-10.661
▁പിടിക്കുന്ന	-10.6619
▁വരയ്ക്ക	-10.662
▁വന്നുചേര	-10.662
▁വീ	-10.6622
▁പരന്നു	-10.6625
▁കൈനീട്ടി	-10.6626
▁കമ്പ്യൂട്ടറ	-10.6626
▁പ്രസാദ	-10.6628
പോവാൻ	-10.6629
യച്ചു	-10.6629
▁പലഹാര	-10.6634
ുന്നതിനേക്കാൾ	-10.6634
▁മേശപ്പുറത്ത	-10.6635
െന്തു്	-10.6635
സുഖ	-10.6636
▁പണമുണ്ടാക്ക	-10.6637
▁വാങ്ങുന്ന	-10.6638
▁ഭീകര	-10.6639
ായുധ	-10.6639
▁പിടിപെട്ടു	-10.664
കൊണ്ടിരിക്കുന്നു	-10.664
യില്ലെങ്കിൽ	-10.6641
▁പ്രാർത്ഥിക്ക	-10.6647
▁നിരത്തിൽ	-10.6647
▁ചെയ്തതു	-10.6647
പറഞ്ഞു്	-10.665
ുമുണ്ടായിരുന്നു	-10.6655
▁എതിര	-10.6655
▁എത്രതന്നെ	-10.6655
▁വിശപ്പു	-10.6657
ുന്നുണ്ടെന്നു	-10.6657
▁അതിനെന്താ	-10.6661
▁ഉള്ളതു	-10.6663
▁മനസ്സിലാവാത്ത	-10.6669
ത്തിലേ	-10.6671
▁കൂടു	-10.6675
ോർത്തു്	-10.6679
രിച്ചു	-10.6681
▁സീ	-10.6689
ിരിപ്പാൻ	-10.6689
▁പ്രേമിക്കുന്ന	-10.6689
▁പറയ്	-10.6697
സും	-10.6697
ന്നല്ലെ	-10.6697
ുപോയിരിക്കുന്നു	-10.6699
▁കുട്ടീ	-10.6699
ക്കാരനെ	-10.671
▁വാങ്ങിക്കൊണ്ടു	-10.6714
ന്യ	-10.6715
കത്തു	-10.6717
▁കഴിച്ചുകൂട്ടി	-10.6721
▁കാലിൽ	-10.6722
▁സ്നേഹിച്ച	-10.6724
▁വ്യത്യാസമ	-10.6735
▁ശേഷി	-10.6739
▁അനേക	-10.674
▁നാണം	-10.6741
▁ശമ്പള	-10.6743
▁അളിയന	-10.6748
▁അവസാനിക്കുന്ന	-10.675
▁പഴ	-10.6751
▁കൂറ	-10.6755
തിനും	-10.6758
ാഞ്ഞതു്	-10.6761
▁തിരിച്ചറിഞ്ഞ	-10.6763
▁കൊറച്ച	-10.6766
▁ഉറങ്ങുകയ	-10.6767
▁മുറിയ	-10.6775
▁സ്ഥാപന	-10.6776
▁കൊണ്ടുള്ള	-10.6776
ദർശന	-10.6779
ജ്ഞാന	-10.6781
ധർമ്മ	-10.6782
ശ്ശ	-10.6784
▁തുമ്പ	-10.6784
െപ്പറ്റിയും	-10.6785
▁കുരു	-10.6787
ബാധ	-10.6789
സ്നേഹ	-10.6792
▁പറയാനുള്ള	-10.6792
▁അതിരു	-10.6792
മുഴുവൻ	-10.6793
വസ്തുക്കള	-10.6793
▁താൽപര്യ	-10.6797
▁മനസ	-10.68
ബോധം	-10.6801
▁സ്പഷ്ട	-10.6806
ർത്ഥം	-10.6808
▁സങ്കോച	-10.6808
▁ഇഷ്ടമില്ല	-10.6809
▁ചുവപ്പു	-10.6814
▁രസിക	-10.6815
ൂലോ	-10.6817
ുതുടങ്ങി	-10.6818
▁ഉണങ്ങി	-10.6821
ണ്ണി	-10.6827
▁ആഘോഷ	-10.6829
▁മൂപ്പ	-10.6829
▁വന്നുചേർന്ന	-10.6829
ങ്കിലും	-10.683
ിക്കാം	-10.6831
▁താഴ	-10.6833
ഭ്ര	-10.6835
നിറഞ്ഞ	-10.6836
▁ഭയമായി	-10.6836
▁ഭഗവതി	-10.6843
▁അവയെ	-10.6844
െടീ	-10.6848
▁ദു	-10.6852
▁പൂമുഖത്ത	-10.6854
▁തന്ത്ര	-10.6854
താവാം	-10.6855
▁സരസ	-10.6859
▁കർക്കശ	-10.6863
▁ഭീമ	-10.6863
▁സമുദായ	-10.6867
▁ഗൗരവമായി	-10.6871
▁വിസ്മയ	-10.6871
▁ആളുകള	-10.6873
ുമ്പോളൊക്കെ	-10.6873
▁സമ്പാദ്യ	-10.6873
▁ആദർശ	-10.6875
▁ഇക്കൊല്ലം	-10.6875
▁ഐസ്	-10.6875
▁കുണ്ഠിത	-10.6875
▁താമസിയാതെ	-10.6875
▁പാരമ്പര്യ	-10.6875
▁രഹസ്യപ്പൊലീസ	-10.6875
▁വേലായുധൻ	-10.6875
▁അമ്മുച്ചെറിയമ്മ	-10.6875
▁ഇടവിടാതെ	-10.6875
▁മിനുറ്റ്	-10.6875
▁വേദവതിലളിത	-10.6875
▁പരുപരുത്ത	-10.6875
▁മറിയാമ്മ	-10.6875
▁പ്രൊഫസർ	-10.6875
▁ഭാസ്കരാ	-10.6875
▁അജിത	-10.6875
▁പെണ്ണുകാണാൻ	-10.6875
▁സത്യമായിട്ടും	-10.6875
▁സലാം	-10.6875
▁തന്നത്താൻ	-10.6875
▁ആരാധന	-10.6875
▁തിയ്യതി	-10.6875
▁കരുണ	-10.6875
▁കേൾപ്പാൻ	-10.6875
▁ഉറ്റ	-10.6875
▁കല്യാണിയമ്മ	-10.6876
▁ആയുസ്സ	-10.6876
▁കൺസ്റ്റബിൾ	-10.6876
▁തൊലി	-10.6876
▁തീർച്ചയായിട്ടും	-10.6876
ൊതുക്കി	-10.6876
▁പുസ്തകമ	-10.6876
▁ഡൈ	-10.6876
▁അടയാള	-10.6877
▁മാരാരുടെ	-10.6878
▁സായാഹ്ന	-10.6878
▁പോലീസുകാർ	-10.6878
▁യേശുവിന്റെ	-10.6879
▁അമ്മാമൻ	-10.6879
▁ചുറ്റിപ്പറ്റി	-10.6879
▁സൃഷ്ടി	-10.6879
▁ആഭരണങ്ങള	-10.688
▁കീർത്തി	-10.688
▁കുട്ടന്റെ	-10.688
▁ഏതൊരു	-10.6881
▁ഹെ	-10.6881
▁തമ്പ്രാന്റെ	-10.6881
▁അവയിൽ	-10.6882
▁ഞാനിവിടെ	-10.6882
▁തുല്യ	-10.6882
രിൽ	-10.6882
▁ഡോക്ടരെ	-10.6882
▁ലോകപരിചയ	-10.6883
▁പറഞ്ഞിട്ട്ണ്ടു്	-10.6883
▁തീരുമാനിച്ച	-10.6883
▁ഉണ്ടല്ലോ	-10.6883
▁കട്ടിയുള്ള	-10.6884
▁മരിച്ചുപോയി	-10.6884
▁ചേട്ടന്റെ	-10.6884
▁കർത്താവിന്റെ	-10.6885
▁കൊള്ളാവുന്ന	-10.6885
▁പോരെങ്കിൽ	-10.6886
▁തുടങ്ങുമ്പോൾ	-10.6886
▁നിരത്ത	-10.6887
▁ചെള്ള	-10.6887
▁സമാധാനിച്ചു	-10.6887
▁മടക്ക	-10.6887
▁വിദഗ്ദ്ധ	-10.6888
▁സങ്കടത്തോടെ	-10.6888
▁മരങ്ങളുടെ	-10.6888
▁തടയ	-10.6889
▁മറക്കാൻ	-10.6889
▁അമ്മച്ചീടെ	-10.689
▁മൺ	-10.689
▁അച്ഛനേയും	-10.689
▁സോഫയിൽ	-10.689
▁പ്രായത്തിൽ	-10.6891
▁ഭ്രാന്തു	-10.6891
▁കീഴിൽ	-10.6892
▁കേറ്റി	-10.6892
▁കാത്തിരിക്കുന്ന	-10.6892
▁സാറിന്റെ	-10.6892
▁രണ്ടാ	-10.6894
▁പിണങ്ങി	-10.6895
▁മോൻ	-10.6896
▁സോപ്പു	-10.6896
▁ബലമായി	-10.6898
▁പിന്തുടർന്നു	-10.6898
▁വലിക്കുന്ന	-10.69
▁അകത്തുനിന്നു	-10.6901
▁ടീച്ചറെ	-10.6901
▁കമ്പ	-10.6901
▁ചുമന്നു	-10.6901
▁ചെല്ലുമ്പോൾ	-10.6902
▁നിരന്തരം	-10.6903
▁ദാവീദിന്നു	-10.6904
▁വിളിച്ചുപറഞ്ഞു	-10.6904
▁സംസാരിക്കുമ്പോൾ	-10.6905
▁പറഞ്ഞുതരാം	-10.6906
▁കാറ്റിന്റെ	-10.6908
▁നിൽക്കാതെ	-10.6909
▁വർഷങ്ങൾ	-10.6909
▁മോളേ	-10.691
▁എന്നിട്ട	-10.6911
പ്പാട്ട	-10.6911
▁ജനങ്ങളുടെ	-10.6911
▁ഭദ്രമായി	-10.6912
നിന്നിരുന്നു	-10.6912
▁സന്തോഷിച്ചു	-10.6913
▁അകത്തുപോയി	-10.6914
▁മോനേ	-10.6914
▁വെണ്ട	-10.6916
വരേയും	-10.6917
▁ശ്രദ്ധിക്കാൻ	-10.6918
▁ന്നെ	-10.6919
ങ്കി	-10.692
▁വേണമെന്നു	-10.692
ധികാര	-10.6924
▁വന്നുകൂടിയ	-10.6924
▁കുഴപ്പമ	-10.6924
▁ബ്ലൗസും	-10.6926
▁അസ്വാസ്ഥ്യം	-10.6926
▁പുറത്തേക്ക	-10.693
▁ഉണ്ടാക്കാൻ	-10.6931
▁ഡാ	-10.6931
▁മറ്റൊരാളെ	-10.6932
▁സമാധാനമ	-10.6935
▁ഇടയ്ക്ക	-10.6937
▁നിശ്വസിച്ചു	-10.6937
▁പാദ	-10.6937
▁വ്യത്യാസം	-10.6938
▁തീർച്ചയാണു്	-10.6939
▁സ്ത്രീകള	-10.694
ക്ര	-10.694
▁ആലോചനയിൽ	-10.6943
▁എത്തിയാൽ	-10.6943
▁തനിച്ചു	-10.6945
▁പേരുള്ള	-10.6945
▁സംതൃപ്തി	-10.6945
ിരുന്നതുകൊണ്ടു്	-10.6946
▁ആർത്തി	-10.6946
▁അടിയന്തിര	-10.6947
▁ബന്ധപ്പെട്ട	-10.6947
▁എക്സ	-10.6949
▁മറു	-10.6951
▁കുറ്റി	-10.6952
▁ഇവൾക്കു്	-10.6954
ഴിഞ്ഞ	-10.6954
▁വീട്ടീ	-10.6955
▁ചെയ്യേണ്ട	-10.6957
▁സ്നേഹിക്കുന്നു	-10.6958
▁വന്നിട്ടു	-10.6962
▁കേൾക്കുന്നതു്	-10.6963
ത്തിന്നുള്ളിൽ	-10.6964
▁തൃപ്തിയും	-10.6964
ങ്ങുന്ന	-10.6965
▁ശാന്തമായ	-10.6965
▁തുറക്കുന്ന	-10.6967
▁പുഞ്ചിരിച്ചു	-10.6969
▁ഭവനത്തിൽ	-10.6975
▁ജാതകം	-10.6975
▁അമ്പതു	-10.6978
▁സമീപം	-10.6979
▁പ്രസംഗം	-10.6984
▁വിറകു	-10.6986
▁വലിച്ചു്	-10.6991
▁ബഹുമാനം	-10.6994
▁ചെയ്യ്	-10.6994
▁അറിഞ്ഞുകൂട	-10.6995
▁സ്വകാര്യം	-10.6998
ുന്നതിന്നു്	-10.6998
▁അപർണ്ണയുടെ	-10.7
ാനൊരു	-10.7
▁കൊത്ത	-10.7002
ൊണ്ടു്	-10.7002
▁ചെയ്യേണ്ടതു്	-10.7004
▁ഖ	-10.7005
▁എഴുതിയതു്	-10.7006
തട്ടി	-10.7009
▁ലാ	-10.701
▁ഒന്നായി	-10.702
ഥാ	-10.702
▁ഉണ്ടാകുന്ന	-10.7021
▁കിടന്നുറങ്ങ	-10.7023
▁അധികമ	-10.7023
▁അറിഞ്ഞിരുന്ന	-10.7025
▁പെട്ടെന്നവൾ	-10.7031
ന്മ	-10.7032
ാതിരിക്കയില്ല	-10.7033
▁പോലുമില്ല	-10.7035
▁ദൃഷ്ടി	-10.7036
▁പോകാറില്ല	-10.7038
▁ഉമ്മറത്തെ	-10.704
പ്പറഞ്ഞു	-10.704
▁തറ	-10.7043
ഷൻ	-10.7045
▁കാരണവർ	-10.7046
▁കിട്ടുന്നതു്	-10.7047
ായിരിക്കുമെന്നു്	-10.7048
പീഡ	-10.705
ാകുന്നു	-10.7051
▁വണ്ടിയുടെ	-10.7052
▁ഏട്ടനെ	-10.7053
പെട്ടു	-10.7053
പിടിക്ക	-10.7054
▁വില്ല	-10.7057
▁മനസ്സിൽനിന്നു്	-10.7058
▁കാവി	-10.7058
▁വെടിപ്പ	-10.7059
ുന്നതോടെ	-10.7062
▁വീട്ടിലും	-10.7063
▁ചുരുണ്ട	-10.7068
▁കേട്ടിട്ടില്ല	-10.7069
▁ആണെന്നു്	-10.707
▁കേടു	-10.7071
▁തല്ല	-10.7072
▁ഇങ്ങോട്ടും	-10.7072
▁പൊരിച്ച	-10.7073
▁സ്ത്രീകളും	-10.7075
▁നടുങ്ങി	-10.7076
ത്തെയും	-10.7076
▁സാദ്ധ്യമല്ല	-10.7078
▁ഇരുപത്തഞ്ചു	-10.7081
ാണെ	-10.7082
ടിയിൽ	-10.7084
▁നേട	-10.7088
▁മൂന്നാ	-10.709
▁സഞ്ചരിച്ചു	-10.7097
▁നൂറ	-10.7098
▁പുറത്തുവന്ന	-10.7099
▁ചെറുപ്പക്കാരനെ	-10.71
▁നീയ്	-10.7102
▁കാപ്പിയും	-10.7103
▁വെള്ളവും	-10.7105
▁അധീനത്തിൽ	-10.7107
▁കുറിക്കുന്ന	-10.7108
▁പുത്ര	-10.7109
▁പരമ	-10.7111
▁നടത്തുക	-10.7111
▁ഫലിച്ച	-10.7112
▁പിറന്ന	-10.7112
▁പൊങ്ങിയ	-10.7113
▁കഷ്ടപ്പെട്ട	-10.7116
▁കർമ്മം	-10.7118
▁അപ്പന	-10.7119
▁പദവി	-10.7121
▁കൂക	-10.7121
▁ചത്ത	-10.7124
▁യുദ്ധ	-10.7127
▁സൂചിപ്പിച്ച	-10.7132
▁കച്ചവടം	-10.7134
▁രോഗം	-10.7136
▁ബാല	-10.7136
▁ഉറക്കമ	-10.7137
തെന്ത	-10.7138
െങ്ങനെ	-10.7138
▁ഇരുന്നുകൊണ്ടു്	-10.7139
▁ശരീരത്തിൽ	-10.7139
▁നന്ന	-10.7141
രിക്കുന്നു	-10.7144
▁ഇടറി	-10.7144
▁തിരിച്ചുവര	-10.7147
ണ്ടല്ലോ	-10.715
ുണ്ടായിട്ടില്ല	-10.7151
▁കണക്കാക്കി	-10.7153
ിലു	-10.7155
▁കടയുടെ	-10.7155
▁പൊറത്ത	-10.7156
െന്നോണം	-10.7159
ളിച്ച	-10.7163
ടിച്ചു്	-10.7163
ുംവരെ	-10.7166
▁സഹായിച്ച	-10.717
▁കൂട്ടു	-10.7172
▁പയ്യന	-10.7172
▁നൽകി	-10.7172
▁കഴിയ്ക്ക	-10.7173
പ്പുറത്തു	-10.7174
മല്ലാതെ	-10.7175
▁വാതിലിനു	-10.7178
▁അത്യ	-10.7184
ത്തിനായി	-10.7184
▁അനുഭവമായ	-10.7187
▁അട്ത്ത	-10.7188
ിരുന്നുള്ളു	-10.7189
▁പുലർത്ത	-10.7198
▁ശത്രു	-10.7199
▁പ്രവേശിക്ക	-10.72
▁കൂടും	-10.7203
▁ആയിട്ടു്	-10.7203
ഭാഗത്തു്	-10.7204
▁തിരിഞ്ഞുനോക്ക	-10.7206
▁പശ്ചാത്തല	-10.7207
▁എന്നെപ്പോലെ	-10.7209
ന്മാരായ	-10.721
▁പഠിപ്പ	-10.7212
▁ഭൂമിയെ	-10.7215
▁ചെയ്തുപോയ	-10.7222
റിയാമായിരുന്നു	-10.7222
▁ബോംബെ	-10.7222
▁കർത്താവ	-10.7227
▁മുഖ്യ	-10.7227
കൂടാത്ത	-10.7227
ത്തെക്കുറിച്ചു്	-10.7232
▁തരില്ല	-10.7232
▁കത്തിക്ക	-10.7235
▁കഴി	-10.7237
നിമിഷ	-10.7238
ത്തിര	-10.7239
മുണ്ടാകും	-10.724
▁എന്റെകൂടെ	-10.7241
▁തൊഴില	-10.7244
▁ചുവര	-10.7244
▁സുന്ദരമായ	-10.7247
ുണ്ടാവില്ല	-10.7247
▁പരിചയമ	-10.725
▁ദുസ്സഹ	-10.7257
▁ഞാനല്ല	-10.7258
▁പോയിരുന്ന	-10.7262
ത്തതു്	-10.7265
▁പ്രത്യക്ഷമായ	-10.7266
▁എന്നൊ	-10.7272
▁ആവി	-10.7272
▁പല്ല	-10.7273
ീടെ	-10.7275
ൊരാൾ	-10.7279
▁ഏകാന്ത	-10.728
ിട്ടൊ	-10.7281
ിട്ടുള്ളതു	-10.7282
▁ആരു്	-10.7284
ിതമായ	-10.7287
െന്തോ	-10.729
▁മറവി	-10.7292
▁പെയ്തു	-10.7292
▁പറഞ്ഞുകൊടുത്തു	-10.7294
ച്ചെന്ന	-10.7295
▁കരാറ	-10.7298
േറിയ	-10.7299
▁ഇങ്ങോട്ടു്	-10.7301
▁വെറുക്കുന്നു	-10.7304
ാനാവാത്ത	-10.7306
▁അദ്ദേഹത്തിനെ	-10.731
▁വെളിപ്പെടുത്ത	-10.7311
▁പ്രസവിച്ച	-10.7316
▁ഈയിടെ	-10.7318
സ്വഭാവം	-10.7323
▁അടിച്ചുവാര	-10.7325
▁തിടുക്ക	-10.7326
▁എവിടുന്ന	-10.7327
▁പ്രായമായ	-10.7333
യില്ലെന്നു	-10.7335
ണ്ടാകുന്ന	-10.7336
▁കടന്നുപോയ	-10.7336
▁നരച്ചു	-10.7338
കെട്ടിപ്പിടിച്ചു	-10.7338
തുക	-10.7343
ർക്കും	-10.7344
സമയം	-10.7345
▁നൽകിയ	-10.7347
▁നായർക്കു	-10.7347
വുമുണ്ടു്	-10.7348
▁അന്വേഷിച്ച	-10.7348
▁നയ	-10.7351
▁തീരുമാന	-10.7351
കാശ	-10.7352
▁പൊന്ത	-10.7354
▁പറഞ്ഞയക്ക	-10.7361
▁പണമില്ല	-10.7361
▁ക്ഷണിക്ക	-10.7362
▁സ്പഷ്ടമായി	-10.7368
▁ബാധിക്കുന്ന	-10.7368
▁അടുക്കളയില	-10.7376
▁ആത്മാവിനെ	-10.738
വരിക	-10.738
▁അമ്പലത്തില	-10.7384
യിൽനിന്നും	-10.7384
യുമായുള്ള	-10.739
▁ഏർപ്പെട	-10.7393
▁പടർന്ന	-10.7393
▁ലൈറ്റ	-10.7394
പ്പോഴേയ്ക്കും	-10.7395
▁നടുവില	-10.7395
▁വേദനിപ്പിക്ക	-10.7396
▁മറ്റൊരാള	-10.7398
▁ആരുമ	-10.7399
▁സ്ഥിര	-10.7401
▁ഒതുക്ക	-10.7403
ാമെങ്കിൽ	-10.7409
▁ജയിച്ചു	-10.7413
റങ്ങി	-10.7415
▁കേട്ടിരുന്നു	-10.7416
▁കീറി	-10.7416
▁എട്ടു്	-10.7419
▁പോയിക്കഴിഞ്ഞ	-10.7423
മുണ്ടു	-10.7424
▁പോവുന്ന	-10.7425
▁വിട്ടുപോയി	-10.7431
▁കോഴിക്കുഞ്ഞു	-10.7431
ിക്കപ്പെട്ട	-10.7432
▁കുമാരൻനായർ	-10.7434
സുഹൃത്ത	-10.7436
കിടക്കുകയാണു്	-10.7437
ക്കണ്ടു്	-10.7442
▁പോരാഞ്ഞിട്ടു	-10.7446
മെടുത്തു	-10.7446
ഹൃദയ	-10.7446
▁ഉര	-10.7449
ുണ്ടാക്കാൻ	-10.7451
▁ഫ്ര	-10.7452
രണം	-10.7453
▁നല്ക	-10.7454
▁ആളും	-10.7454
സ്യ	-10.7457
▁കൊമ്പ	-10.7458
▁കുപ്പായ	-10.7459
▁പട്ടിക	-10.746
▁നേരമായി	-10.746
▁തെളിയിക്ക	-10.7462
പൂർവം	-10.7465
▁വലിച്ചെറിഞ്ഞു	-10.7467
▁കാവൽ	-10.7469
▁ഒരുക്കമ	-10.7473
▁ഭാഗ്യമ	-10.7478
▁കഴിഞ്ഞിട്ടു	-10.748
▁പൊട്ടിച്ച	-10.748
നിക്ക	-10.748
▁ആഗ്രഹമുണ്ട	-10.7487
▁മുണ്ട	-10.7489
▁ധൈര്യമുണ്ട	-10.7491
▁കുറഞ്ഞുപോയ	-10.7495
യായും	-10.7497
നിന്നാണു്	-10.7497
▁ശാന്തമായി	-10.7498
▁കണ്ടില്ലെ	-10.7499
▁മുറിയും	-10.75
▁കൊണ്ടുവാ	-10.75
്യാന്നു്	-10.7502
മറി	-10.7505
റിയും	-10.7506
▁കല്ക്കട്ട	-10.7506
ലൂടെ	-10.7507
▁തേവ	-10.7512
▁കഴുത്ത	-10.7514
വനും	-10.7514
▁ശിഷ്യ	-10.7516
▁എന്താണെന്നു	-10.7518
▁പ്രയോഗിച്ച	-10.7519
▁വേദാന്ത	-10.752
▁സാധ്യത	-10.7525
യാകെ	-10.7527
▁എന്നെയും	-10.7528
▁ചെല്ലുന്ന	-10.753
യ്ക്കായി	-10.7531
ങ്ങളുടെയും	-10.7535
▁സാമാന്യ	-10.7538
▁കൈവെച്ചു	-10.7538
▁കൊടുത്തയച്ച	-10.7541
▁പശു	-10.7542
▁റോ	-10.7542
▁ജനിക്കുന്ന	-10.7545
▁ഇപ്പഴ	-10.7545
▁തരു	-10.7546
▁വസ്ത്ര	-10.7547
ക്കറ്റ	-10.7548
▁ഡ്യൂട്ടി	-10.7549
▁കഴിഞ്ഞിട്ട	-10.7549
▁നേരമ	-10.7553
▁ഇന്ത്യ	-10.7554
▁പുറപ്പാട	-10.7555
ട്ടാണു്	-10.7558
യേറിയ	-10.7559
▁മേലോട്ട	-10.756
▁ഇയ്യാള	-10.7562
▁ഒത്തു	-10.7564
▁ഓർമ്മകളെ	-10.7566
സൂചകമായ	-10.7566
പ്പടി	-10.7567
▁റദ്ദാക്ക	-10.7567
▁പെൺകിടാവ	-10.7571
▁വഴിപ്പെട്ടു	-10.7573
ഛ	-10.7575
▁ഇതായിരുന്നു	-10.7576
▁ചോ	-10.7578
▁ലെ	-10.758
ുവോളം	-10.7584
▁പഴുത	-10.7584
▁വേലക്കാരത്തി	-10.7587
▁ടൈ	-10.7587
▁ആകർഷിക്ക	-10.7588
▁ഭീരുവ	-10.7588
▁പരിഷ്കാര	-10.7589
▁രേഷ്മ	-10.7589
▁കുമാരമാമ	-10.7589
▁ഗോപിയേട്ടൻ	-10.7589
▁ജെറാൾഡ്	-10.7589
▁പത്തിരുപതു	-10.7589
▁പീറ്റർ	-10.7589
▁പുൽത്തകിടി	-10.7589
▁പൊറ്റെക്കാട്ട	-10.7589
▁മുന്നറിയിപ്പു	-10.7589
▁സാഹചര്യ	-10.7589
▁സ്വതവേ	-10.7589
▁ഇതുവരയ്ക്കും	-10.7589
▁അസംബന്ധം	-10.7589
▁കാലൊച്ച	-10.7589
▁താഴേയ്ക്കിറങ്ങി	-10.7589
▁ഫയൽ	-10.7589
▁മിട്ടായി	-10.7589
▁കൺമുമ്പിൽ	-10.7589
▁വിമല	-10.7589
▁പുലർന്ന	-10.7589
▁വയൽ	-10.7589
▁ലൗകിക	-10.7589
▁ഗ്ര	-10.7589
▁എങ്ങിന്യാ	-10.7589
▁പെയ്യുന്ന	-10.7589
▁മനോവേദന	-10.7589
▁രജി	-10.7589
▁ചിന്താശ്വാസ	-10.7589
▁എഴുത്തുപെട്ടി	-10.759
▁എല്ലാറ്റിലും	-10.759
▁അതിർത്തി	-10.759
▁പെയിന്റിംഗ	-10.759
▁ആരെയെങ്കിലും	-10.759
▁രസകരമായ	-10.759
▁ചക്ക	-10.7591
▁ഒഴിവു	-10.7591
▁വേണമെങ്കിലും	-10.7591
▁സാമാനങ്ങളും	-10.7592
▁മാത്രേ	-10.7592
▁കള്ളന്മാർ	-10.7592
▁ഫാക്ടറി	-10.7592
▁പുരുഷന്മാരെ	-10.7593
▁ഒരെണ്ണം	-10.7593
▁കിഴക്കൻ	-10.7593
▁വാത്സല്യത്തോടെ	-10.7594
▁രഘുവിന്റെ	-10.7594
▁വിശുദ്ധ	-10.7594
▁ഇതിനൊക്കെ	-10.7595
▁നിരാശയോടെ	-10.7595
▁ഹേമാംഗന്നു്	-10.7595
▁ഗണിക്ക	-10.7595
▁കൈവശം	-10.7596
▁ആലിംഗനം	-10.7596
▁വേലിക്കൽ	-10.7596
▁ന്നാലും	-10.7596
ാലോചിച്ചു	-10.7596
▁അതങ്ങനെ	-10.7597
▁പെരുമാറ്റ	-10.7598
േറ്റു	-10.7599
▁മാത്രമായ	-10.7599
▁രണ്ടടി	-10.7599
▁അപ്പോഴേയ്ക്കും	-10.76
▁മുണ്ടിന്റെ	-10.76
▁പുരുഷന്മാരുടെ	-10.76
▁മർമ്മ	-10.76
▁വിചിത്രമായ	-10.76
▁കവിൾ	-10.7601
▁വഴികളിലൂടെ	-10.7601
▁തുഞ്ച	-10.7601
▁എപ്പോഴാണു്	-10.7601
▁വിലപിടിച്ച	-10.7603
▁ആത്മാവിന്റെ	-10.7603
▁സ്നേഹത്തോടെ	-10.7606
▁ശപഥം	-10.7606
▁തെങ്ങിന്റെ	-10.7606
▁എന്തുകൊണ്ട	-10.7608
▁മണൽ	-10.7609
▁ഉറങ്ങാതെ	-10.7609
▁ഏർപ്പാടുകൾ	-10.7609
▁കടക്കുമ്പോൾ	-10.7609
▁വലുപ്പം	-10.761
▁ശ്രീ	-10.7611
▁പിള്ളേരു്	-10.7612
▁ഫൂ	-10.7612
ിപ്പിച്ചിരുന്നു	-10.7614
▁ശാഠ്യം	-10.7614
▁നിങ്ങളൊക്കെ	-10.7615
▁ഉയരത്തിൽ	-10.7616
▁മുഴച്ചു	-10.7616
▁എളുപ്പമാണു്	-10.7617
▁കടലാസ്സിൽ	-10.762
▁സംസാരിക്കാം	-10.762
▁ഹാസം	-10.7621
▁കൊണ്ടുപോകാൻ	-10.7621
▁സൈക്കിളിൽ	-10.7621
▁തുറിച്ചുനോക്കി	-10.7621
▁മാസത്തിൽ	-10.7621
▁കയറിയിറങ്ങി	-10.7621
▁ദേഹത്തിന്റെ	-10.7622
▁കാണുവാൻ	-10.7623
▁അമ്മേടെ	-10.7624
▁അനുഭവിക്കാൻ	-10.7625
▁ഇങ്ങനെയൊക്കെ	-10.7627
▁വിളിച്ചാൽ	-10.7627
▁നിരത്തി	-10.7628
▁ദേഹത്തിൽ	-10.7629
▁യുവതിയെ	-10.763
▁കള്ളൻ	-10.763
▁എത്രയെങ്കിലും	-10.7631
▁ലളിതയോടു്	-10.7631
▁മദ്യം	-10.7632
േടത്തു്	-10.7632
▁തറവാട്ടിലെ	-10.7633
▁കിടന്നാൽ	-10.7634
▁കണ്ണിന്റെ	-10.7635
▁എന്നിങ്ങനെ	-10.7636
ന്റെയും	-10.7636
▁തല്ലു	-10.7637
ൊന്നുമുണ്ടായില്ല	-10.7638
▁പറഞ്ഞിട്ടാണു്	-10.7639
▁വരികയായിരുന്നു	-10.764
▁ചോർന്നു	-10.7641
െന്തിനാ	-10.7641
▁ആയിരിക്കണം	-10.7642
▁ദേഹവും	-10.7643
▁കോളേജ	-10.7644
▁വാതിലിൽ	-10.7645
തുടങ്ങിയ	-10.7648
▁പഠിപ്പു	-10.7649
▁ആലോചിക്കാതെ	-10.765
▁വയ്യാതെ	-10.765
▁ശല്യം	-10.765
▁സിനിമാ	-10.765
▁പിടിപ്പിക്ക	-10.765
പിടുത്ത	-10.7651
▁എങ്ങോട്ട	-10.7651
▁മനുഷ്യനാണു്	-10.7653
▁ഉപ്പു	-10.7653
▁വികാരങ്ങൾ	-10.7654
▁ശേഷമാണു്	-10.7654
▁പ്രതീക്ഷിച്ചു	-10.7656
▁സംസാരിച്ചില്ല	-10.7656
▁മധുരവും	-10.7659
▁അതിനി	-10.7661
▁നടക്കണം	-10.7662
▁പെണ്ണാണു്	-10.7663
▁കടക്കാൻ	-10.7664
▁പുരട്ടി	-10.7665
▁നിന്നിട്ടു്	-10.7666
▁കയറിയാൽ	-10.7666
രികെ	-10.7668
▁വശത്തു്	-10.7668
▁വിളക്കുകൾ	-10.7669
▁വിസ്തരിച്ചു	-10.767
▁വലിക്ക	-10.7674
▁വിളിച്ചുണർത്തി	-10.7676
മെന്നാണു്	-10.7676
▁കല്യാണിക്കുട്ടി	-10.7676
മെന്	-10.7677
▁തുടങ്ങുന്നു	-10.7677
▁വാതിലുകൾ	-10.7677
▁നിർത്തിയതു്	-10.7677
▁കാര്യങ്ങളിൽ	-10.7678
▁നിറത്തിൽ	-10.7679
▁കാണുകയും	-10.7679
▁മൈതാന	-10.768
▁ഫ്രീ	-10.7686
▁പ്രയാസപ്പെട്ട	-10.7689
▁കാണിച്ചതു്	-10.769
▁കൊണ്ടുപോകും	-10.769
▁കുട്ടികൾക്കു്	-10.7692
▁പറയുന്നുണ്ടു്	-10.7693
▁ചുമച്ചു	-10.7695
സുഖം	-10.7696
▁ആത്മാവു്	-10.7697
▁കാണുന്നതു	-10.7699
▁പിരി	-10.7699
▁പോരേ	-10.7702
▁നാട്ടുകാര	-10.7704
▁കീ	-10.7704
▁പറഞ്ഞിട്ടുണ്ടു്	-10.7705
▁മെലിഞ്ഞു്	-10.7706
▁ഒഴുകുന്ന	-10.7706
▁കഷ്ടിച്ചു്	-10.7707
▁അപർണ്ണയ്ക്കു്	-10.7707
▁അപ്പുറത്തു്	-10.7709
▁മന്ദമായി	-10.7712
▁സ്നേഹിത	-10.7715
▁അടങ്ങ	-10.7715
▁കിണറ	-10.7715
യിരിക്കുമ്പോൾ	-10.7716
ുള്ളപ്പോൾ	-10.7716
▁ഇളയ	-10.7716
▁അതെന്റെ	-10.7718
▁സംഗതികൾ	-10.7718
▁കയ്യിലുള്ള	-10.7719
▁മുഖത്തേക്കു്	-10.7719
▁വീട്ടിൽനിന്നു	-10.772
െന്നറിയാതെ	-10.7722
▁വരാതെ	-10.7722
▁എന്നറിഞ്ഞ	-10.7725
▁എന്തിന്നു്	-10.7727
വർക്കും	-10.7729
ത്തിലു്	-10.7731
▁മട്ടു്	-10.7732
▁കീഴ്	-10.7734
▁ഉണ്ടായിരിക്കും	-10.7737
▁ഉദ്ദേശിക്കുന്ന	-10.7738
ോടുകൂടിയ	-10.7738
▁പെട്ടിയുടെ	-10.7741
▁ഗ്രഹിച്ച	-10.7741
▁പേടിച്ച	-10.7743
ങ്ങളിലെ	-10.7743
ാഞ്ഞിട്ടാണു്	-10.7744
▁നിക്കു്	-10.7745
▁ഭയപ്പെട	-10.7746
ദാഹ	-10.7747
▁ദയയും	-10.7749
▁അമർത്തു	-10.7752
▁വേണ്ടൂ	-10.7755
▁സുഖവും	-10.7758
ട്ടൻ	-10.776
മണ	-10.7763
▁താര	-10.7766
▁ആരംഭ	-10.7767
▁എന്നല്ലാതെ	-10.7768
▁നിൽക്കുന്നതു	-10.7768
▁ബുദ്ധിമുട്ടു	-10.7768
▁വഞ്ചിച്ച	-10.7772
▁മുകളിലേക്കു്	-10.7773
▁ബാഗ്	-10.7774
▁വടക്കു	-10.7775
▁വിളിയ്ക്ക	-10.7778
▁കിടക്കുന്നതു	-10.778
▁നാണി	-10.7786
യിലിരുന്നു്	-10.779
നോക്കുന്ന	-10.7791
▁വിഷയങ്ങള	-10.7791
ിരുന്നെങ്കിലും	-10.7792
ായോ	-10.7794
▁വരാറില്ല	-10.7795
▁പാറി	-10.7795
െനിക്കു്	-10.7796
▁വീണുപോയ	-10.7798
▁സൃഷ്ടിച്ച	-10.7799
വ്വ	-10.7805
▁ആളല്ല	-10.7805
▁ഇരുന്നിരുന്ന	-10.7809
▁വയ്യാതായി	-10.7809
ക്കാര്യം	-10.781
▁പോയതാണു്	-10.781
▁ചിരിയുടെ	-10.7811
െത്തിയിരുന്നു	-10.7814
▁ചുവന്നു	-10.7815
▁പേടിച്ചു്	-10.7817
▁അടുപ്പം	-10.7817
▁അങ്ങേര	-10.7818
▁യുവതികൾ	-10.7818
▁ചുണ്ടിൽ	-10.7819
▁അവിവാഹിത	-10.7821
▁യഥാർത്ഥം	-10.7821
▁ഉത്തരമായി	-10.7821
▁കൂന	-10.7821
ൾക്കു്	-10.7822
▁അടുത്തേയ്ക്കു്	-10.7822
▁താഴോട്ടു	-10.7823
▁തോർത്ത	-10.7823
▁പൊട്ടിച്ചു	-10.7823
പ്പായ	-10.7824
▁ചൊല്ല	-10.7824
▁ചെല്ലും	-10.7825
▁മടുത്ത	-10.7826
ുകാരൻ	-10.7829
▁തമ്പ്രാ	-10.7829
▁ചെല	-10.783
ത്തിലാ	-10.7831
▁അഭിമാനം	-10.7836
ിട്ടില്ലെന്നു	-10.784
▁ചായക്കട	-10.7845
▁ഉറക്കത്തിൽ	-10.7855
▁മുറിയാണു്	-10.7856
▁അല്പ	-10.7859
ുമ്പോഴ	-10.7861
▁മണല	-10.7867
▁പുളി	-10.7872
യ്ക്ക്	-10.7872
പ്പെട്ടുപോയ	-10.7872
▁മറ്റുള്ളവര	-10.7873
▁ചിലവാക്ക	-10.7874
▁കടയിൽ	-10.7886
▁കടി	-10.7895
ാനൊ	-10.7897
ാന്നാ	-10.7901
യുമുണ്ടു്	-10.7905
ുവെന്നും	-10.7906
▁വെളിപ്പെടുത്തി	-10.7906
▁വരാന്തയില	-10.7906
▁മുറിച്ചു്	-10.7911
മാണെങ്കിലും	-10.7912
പ്പെടാൻ	-10.7914
▁കലി	-10.7916
▁നിർബ്ബന്ധിച്ചു	-10.7918
യുമായ	-10.7921
▁കാലത്തും	-10.7927
ര്തു്	-10.7927
▁ശകാരിക്ക	-10.7929
▁പാടില്ലെന്നു	-10.793
▁ദുസ്സഹമായ	-10.7932
ാണാവോ	-10.7933
▁പിച്ച	-10.7934
കൻ	-10.7938
▁പറഞ്ഞുകൊടുക്ക	-10.7939
മുണ്ടാവില്ല	-10.7939
▁കൊളുത്ത	-10.794
▁ഗുഹ	-10.7943
ാണുള്ളതു്	-10.7956
▁വിശ്വാസവും	-10.7964
▁പോണു	-10.7965
▁കുരിശ	-10.7966
ത്തിലേക്ക	-10.7967
▁പണക്കാര	-10.7971
മില്ലായ്മ	-10.7973
ല്ലെന്നും	-10.7973
▁വാക്കിൽ	-10.7975
യോളം	-10.7978
▁രാജി	-10.7979
ക്കപ്പെട്ട	-10.7982
▁കാര്യങ്ങള്	-10.7983
▁ഒന്നുംല്ല്യ	-10.7984
ന്നത	-10.7985
▁കണ്ടുകൂട	-10.7988
▁ഓർമ്മിപ്പിക്ക	-10.7989
▁പാമ്പ	-10.7989
▁നിന്നില്ല	-10.7994
▁കൊടുക്കില്ല	-10.7996
▁അവ്യക്ത	-10.7997
ുയർത്തി	-10.7997
▁സാധിക്കുന്ന	-10.7998
▁അഭിപ്രായപ്പെട്ട	-10.8
പോലെതന്നെ	-10.8005
▁ഡോ	-10.8008
▁സംശയങ്ങള	-10.8013
▁പറഞ്ഞിട്ട	-10.8013
ിനിടയിൽ	-10.8015
▁പെങ്ങൾ	-10.8016
▁ഒരുത്തി	-10.8019
ാദി	-10.8021
കും	-10.8022
യിട്ടുണ്ടാവും	-10.8025
▁തിരക്കില	-10.8029
▁രാജാവു	-10.803
ക്കുന്നതും	-10.8033
▁രസിക്ക	-10.8033
േഷൻ	-10.8037
▁ഒരുവൻ	-10.8037
േണ്ടതുണ്ടു്	-10.8037
തെന്തിനു്	-10.8043
എന്തിനായിരിക്കും	-10.8045
മൊന്നു	-10.8055
▁ഉണർന്നു്	-10.8058
യായിരുന്നില്ല	-10.8058
▁ശ്വാസ	-10.806
▁ശരിതന്നെ	-10.8061
▁സ്വീകരിക്കുന്ന	-10.8063
▁ഉപ	-10.8065
ത്തെപ്പറ്റിയും	-10.8066
▁കരിങ്ക	-10.8067
▁ആവർത്തിച്ചു	-10.8069
ിടത്തോളം	-10.8075
▁ശക്തിയും	-10.8076
▁വളർത്തു	-10.8086
▁കലാ	-10.8088
ധികം	-10.8091
▁വരേണ്ട	-10.8093
▁പ്രവർത്തിച്ച	-10.8093
▁പൊളിയ	-10.8094
മായാലും	-10.8096
▁ശല്യ	-10.8096
ഴഞ്ഞ	-10.8097
▁നിർബ്ബന്ധം	-10.8106
▁വഞ്ചക	-10.8107
▁റോസ്	-10.8107
▁വല്യമ്മ	-10.8109
▁പ്രാവ	-10.8111
നാഴിക	-10.8112
ടങ്ങിയ	-10.8113
▁മോളില	-10.8115
െങ്ങും	-10.8119
▁പൊങ്ങിവന്ന	-10.8119
▁അരുവി	-10.8126
▁കുതിരയെ	-10.8127
▁വാടിയ	-10.8129
▁അന്ധ	-10.813
▁സീറ്റ	-10.8131
▁മകനു	-10.8134
▁നേരിടുന്ന	-10.8137
▁റോഡ	-10.814
▁അങ്ങനെയ	-10.8143
ോളമ	-10.8143
േറ്റു്	-10.8144
▁ചൊ	-10.8154
▁ഞാനൊന്നു	-10.8155
വരോടു്	-10.8164
▁അഭിനയ	-10.8165
▁ശര്യാ	-10.8165
▁ഊതി	-10.817
ൊക്ക	-10.8173
▁പൊളിഞ്ഞു	-10.8179
ുണ്ടു	-10.8179
വേല	-10.8181
ിറക്കി	-10.8181
▁ഫോർ	-10.8184
▁നോക്കിനില്ക്ക	-10.8184
▁റോസ	-10.8187
ുപോയിരുന്നു	-10.8188
▁വിടർത്തി	-10.8191
▁കളിയാക്കി	-10.8194
ങ്ങോട്ടു	-10.8195
▁രാത്രിയുടെ	-10.8196
▁പൊറ്റക്കാട്ട	-10.8205
▁നാവ	-10.8205
ുവെന്നു	-10.8207
ജീവിത	-10.8208
▁വീട്ടിലുള്ള	-10.821
▁പൊയ്	-10.821
▁യൂജീനിന്നു	-10.8212
ക്കിടയിലെ	-10.8222
▁വകയായി	-10.8224
പെണ്ണു	-10.8225
▁അടുത്തേക്കു	-10.8226
▁തൈ	-10.8228
▁കണ്ടുപിടിയ്ക്ക	-10.8229
▁ഒറങ്ങ	-10.8234
▁വിളറിയ	-10.8236
ചക്ര	-10.8239
ൻഡ	-10.8244
▁ഒരുമ്പെട്ട	-10.8248
പെട്ടി	-10.8248
▁പരുങ്ങി	-10.825
▁അദൃശ്യ	-10.8251
▁കേട്ടിട്ട	-10.8253
▁തെറ്റിപ്പോയി	-10.8253
▁കാണിച്ചുകൊടുക്ക	-10.826
▁മയ	-10.8262
▁സന്തുഷ്ട	-10.8263
▁എത്തുന്ന	-10.8266
▁സൈ	-10.8267
▁കണ്ടെത്ത	-10.8268
തരാം	-10.8272
▁തട്ടിൻപുറത്തു	-10.8272
▁ഗു	-10.8273
വീട്ടിൽ	-10.8273
യിലേ	-10.8274
വീഴുന്ന	-10.8276
എ	-10.8276
വിളിച്ചു	-10.8278
വിദ്യ	-10.8281
കാണും	-10.8283
പ്രതി	-10.8284
ദൂരം	-10.8284
സ്ഥല	-10.8286
▁വ്യസനിക്ക	-10.8287
യാളുടെ	-10.8287
▁കിടപ്പു	-10.829
▁ആകർഷണ	-10.829
▁പുണ്യ	-10.829
കണ്ടപ്പോൾ	-10.829
ന്നതു	-10.8295
െയാണു്	-10.8297
▁നാറ്റ	-10.8298
▁തലോട	-10.8299
▁അട്ട	-10.8302
കഴിഞ്ഞപ്പോൾ	-10.8302
▁പൊരി	-10.8306
▁സ്ഫുരിച്ചു	-10.8307
▁മുഖത്തോടെ	-10.831
▁അഴക	-10.8311
▁മേട	-10.8311
▁അനുഭവപ്പെട	-10.8312
▁തിരു	-10.8313
▁സൂക്ഷ്മ	-10.8314
▁കണ്ണിൽനിന്നു	-10.8315
▁പാവാട	-10.8315
▁ലക്ഷ്യ	-10.8318
േണമെന്നു	-10.8321
▁ഒന്നുതന്നെ	-10.8324
▁പീടിക	-10.8324
ായതുകൊണ്ടു്	-10.8325
▁തീയതി	-10.8325
▁ഊർമ്മിളയെ	-10.8325
▁ഇരട്ടി	-10.8326
▁മറുഭാഗത്ത	-10.8326
കോപ	-10.8327
▁ഉദാസീന	-10.8332
പോലുമില്ല	-10.8333
സന്ധ	-10.8334
ച്ചെ	-10.8335
ക്രമ	-10.8335
▁സത്യമ	-10.8335
▁മത്സര	-10.8335
▁അതത്ര	-10.8339
▁ഓരോരുത്തർ	-10.8339
ൊഴിച്ചു	-10.8341
▁പെയിന്റ	-10.8345
▁അതാണ	-10.8346
▁സഹായത്തിന	-10.8347
▁ഉത്സവ	-10.8349
▁അഞ്ചുമണി	-10.835
▁കിടയ്ക്ക	-10.835
▁മുല്ല	-10.8351
▁ഒന്നിനു	-10.8351
▁പിടിക്കും	-10.8354
▁പിന്നിൽനിന്നു	-10.8354
▁മാരാര	-10.8355
▁തൂങ്ങിക്കിടക്ക	-10.8356
▁കുതറി	-10.8356
▁ഗ്ലോറി	-10.8358
▁വെണ്മ	-10.8358
▁അറുമുഖാ	-10.8358
▁ചന്ദന	-10.8358
▁ചുരുക്കിപ്പറഞ്ഞ	-10.8358
▁ജനുവരി	-10.8358
▁പുറകെ	-10.8358
▁മനസ്സാക്ഷി	-10.8358
▁മെമ്പറ	-10.8358
▁റാന്തൽ	-10.8358
▁വാഗ്ദാന	-10.8358
▁അപ്പേട്ടാ	-10.8358
▁അലങ്കാര	-10.8358
▁പുറകില	-10.8358
▁പ്രിയരതി	-10.8358
▁മേല്പറഞ്ഞ	-10.8358
▁ശുമ്മാ	-10.8358
▁ഹരജി	-10.8358
▁എമ്പ്രാന്തിരി	-10.8358
▁എല്ലാവരോടും	-10.8358
▁ആഭാസ	-10.8358
▁വിസ്കി	-10.8358
▁കടുപ്പം	-10.8358
കണ്ണുനീർത്തുള്ളി	-10.8358
▁മൂപ്പരു്	-10.8358
▁കമൽ	-10.8358
▁ആവർത്തിക്ക	-10.8358
▁ഒഴുക്ക	-10.8359
▁ജോർജ്	-10.8359
▁സെറ്റ	-10.8359
▁ചെട്ടി	-10.8359
മായിട്ടു്	-10.8359
▁മൂന്നുപേരും	-10.8359
▁കൂസലില്ലാതെ	-10.8359
▁ആകട്ടെ	-10.8359
▁പ്രധാനപ്പെട്ട	-10.8359
▁വിശേഷബുദ്ധി	-10.8359
▁ഓരോന്നോരോന്നായി	-10.8359
ൊഴികെ	-10.8359
▁ചാരിത്രശുദ്ധി	-10.8359
▁തെരുവിൽ	-10.8359
▁ചെലപ്പൊ	-10.836
▁കറങ്ങുന്ന	-10.836
▁തമ്പുരാന്റെ	-10.836
▁ബിജുവിന്റെ	-10.836
▁വഴിതെറ്റി	-10.836
▁ചുട	-10.836
▁രാവിലത്തെ	-10.836
▁അലമാര	-10.8361
▁സഹായിപ്പാൻ	-10.8361
▁ദേഹത്തിന്മേൽ	-10.8361
▁വണ്ടർലാൻഡിലെ	-10.8361
▁ഭഗവാനെ	-10.8361
▁വിലയേറിയ	-10.8361
▁വഹിച്ച	-10.8361
▁ചേട്ടനെ	-10.8361
▁നഹ	-10.8362
▁പാറക്കെട്ട	-10.8362
▁കൊച്ചുകുട്ടി	-10.8362
▁കൗമുദി	-10.8362
▁വേണ	-10.8362
▁മുദ്ര	-10.8362
▁വലിച്ചെറിയ	-10.8363
▁ആണുങ്ങൾ	-10.8363
▁തിരുത്ത	-10.8364
▁പരിചയമില്ലാത്ത	-10.8364
▁സമയമായ	-10.8364
▁ചോദ്യത്തോടെ	-10.8365
▁അനുജന	-10.8365
▁പ്രാരംഭ	-10.8365
വേഗം	-10.8365
▁വിശ്രമിക്ക	-10.8366
▁ആണെങ്കിൽ	-10.8366
▁വീണുകിടക്കുന്ന	-10.8367
▁ക്ഷമയോടെ	-10.8367
▁നാരായണൻ	-10.8367
▁പതച്ചു	-10.8367
േനേ	-10.8368
▁അഭിമുഖമായി	-10.8368
▁നിരന്നു	-10.8368
െക്കാളും	-10.8368
▁വൈകീട്ടു്	-10.8368
▁അധികമൊന്നും	-10.8368
▁പേടിക്കണ്ട	-10.8368
▁വിശ്വസ്ത	-10.8369
▁സുനിലിനെ	-10.8369
▁മാണി	-10.837
▁തോട്ടത്തിൽ	-10.837
ായിരിക്കയില്ല	-10.837
▁ദിവസത്തേയ്ക്കു്	-10.8371
▁കാമറ	-10.8371
▁പുരുഷന്നു്	-10.8371
▁വീതിയുള്ള	-10.8371
▁കടലാസിൽ	-10.8372
▁അയാള്ടെ	-10.8372
▁ശ്രദ്ധയോടെ	-10.8372
▁രാജന്റെ	-10.8372
▁ഇപ്രകാരം	-10.8373
▁പെട്ടെന്നൊരു	-10.8373
▁അറിയിക്കാം	-10.8374
▁തെളിവ	-10.8374
▁ലിസിപ്പെണ്ണു്	-10.8374
ുമ്പൊ	-10.8375
▁കൊന്നു	-10.8375
▁നമുക്കൊരു	-10.8375
▁ഈശ്വരന്റെ	-10.8375
വളായിരുന്നു	-10.8376
▁കൊച്ചമ്മേ	-10.8376
▁കേൾക്കട്ടെ	-10.8377
▁അതിനൊക്കെ	-10.8377
▁നിറയ്ക്ക	-10.8378
▁പ്രയാസമാണു്	-10.8378
▁ആശങ്ക	-10.8378
▁രോമങ്ങൾ	-10.8378
കൊണ്ടുവന്ന	-10.8379
▁കാണാറുണ്ടു്	-10.8379
▁സാധിക്കുമോ	-10.8379
▁പോരുന്ന	-10.8379
▁പിന്നെപ്പിന്നെ	-10.838
▁കാണട്ടെ	-10.838
▁രസമ	-10.8381
▁ആരെയാണു്	-10.8381
▁അടുക്കളയിലേക്കു	-10.8381
▁കൈവിട്ടു	-10.8381
▁എങ്ങോട്ടാണു്	-10.8382
▁കൃഷ്ണൻനായര	-10.8383
▁എഴുത്തും	-10.8385
▁മേനോനെ	-10.8385
▁അവളുമായി	-10.8386
▁രേഖകൾ	-10.8386
▁അവരെല്ലാം	-10.8387
▁കാണാമായിരുന്നു	-10.8388
▁എഴുന്നേൽക്കാൻ	-10.8389
ക്കൊണ്ടിരിക്കും	-10.839
▁എന്നറിയാൻ	-10.839
▁വിളങ്ങി	-10.839
▁ജീവിതകാലം	-10.8391
ണ്ടല്ലൊ	-10.8391
▁പുരികം	-10.8393
▁സങ്കടമ	-10.8393
▁കടന്നാൽ	-10.8394
യടക്കം	-10.8394
▁പുസ്തകങ്ങളുടെ	-10.8395
▁പറഞ്ഞതൊക്കെ	-10.8395
▁വൈദ്യർ	-10.8395
▁ഇരിക്കാം	-10.8396
▁പോയാലോ	-10.8397
▁മരിക്കാൻ	-10.8399
▁രാജ്യത്ത	-10.8401
▁ചെറുപ്പക്കാർ	-10.8401
തന	-10.8403
▁പുറപ്പെടാൻ	-10.8403
▁ദൈവത്തിന്റെ	-10.8403
▁എന്നതിൽപ്പിന്നെ	-10.8404
▁കുഞ്ഞേ	-10.8404
▁വെച്ചിട്ട	-10.8405
▁ഇറങ്ങാൻ	-10.8405
▁ചോദ്യമ	-10.8407
▁ബഹുമാനവും	-10.8407
▁കാണിക്കാതെ	-10.8407
▁ബെ	-10.8409
▁പമ്പ	-10.841
▁വിവാഹിത	-10.841
▁കോരി	-10.8411
▁സാവിത്രിയുടെ	-10.8412
▁അതിനാൽ	-10.8413
▁മോൾക്കു്	-10.8413
▁നിർഭാഗ്യ	-10.8414
▁പപ്പടം	-10.8415
▁പട്ടണ	-10.8416
▁കായല	-10.8416
▁ജോണിക്കുട്ടാട്ട	-10.8416
▁പത്തായപ്പുര	-10.8416
▁കടലിന്റെ	-10.8417
▁ശരീരവും	-10.8417
▁നേർത്തേ	-10.8419
▁എങ്ങനെയോ	-10.8419
▁വാങ്ങിക്കൊടുക്ക	-10.842
▁തൂക്കിയിട്ട	-10.842
▁അന്വേഷണം	-10.842
▁ശാപം	-10.8421
▁എഴുത്തുകൾ	-10.8422
▁കയറിയപ്പോൾ	-10.8422
▁സമയമെടുത്തു	-10.8422
▁കാക്കകൾ	-10.8423
▁ജോസഫ്	-10.8424
▁ലക്ഷ്യം	-10.8424
▁സാര	-10.8427
▁കുപ്പായം	-10.8429
ിയിരുന്നില്ല	-10.8429
പോയതു	-10.843
ത്വവും	-10.8431
▁ഉപദ്രവിച്ച	-10.8432
▁നെഞ്ഞ	-10.8432
▁വിറകുപുരയിൽ	-10.8432
തെന്തിനാണു്	-10.8433
▁അന്തരീക്ഷം	-10.8435
പുറത്തേക്കിറങ്ങി	-10.8435
▁ചുംബനങ്ങൾ	-10.8435
▁പാറുകുട്ടിയെ	-10.8436
▁യാത്രയായി	-10.8441
▁കാഴ്ചയിൽ	-10.8445
▁വക്കീലും	-10.8446
▁തോന്നിപ്പോയി	-10.8447
▁കരച്ചിലും	-10.8447
ത്തീർന്നു	-10.8449
▁സരളയെ	-10.8449
▁താളം	-10.8451
▁ഭാട്ടിയായുടെ	-10.8454
▁മൂന്നുനാലു	-10.8454
▁കല്പിച്ചു	-10.8455
മറിഞ്ഞു	-10.8455
▁എനിക്കൊന്നും	-10.8455
▁പറമ്പിലെ	-10.8456
▁അന്നേ	-10.8458
▁ദർശന	-10.8458
▁വിമാനം	-10.8458
▁ഹൃദയവും	-10.8458
▁നിലയ്ക്കു്	-10.8459
▁ചാണകം	-10.846
▁എവിടേക്ക	-10.846
ധന	-10.8462
▁പോയാ	-10.8462
▁എവിടെനിന്ന	-10.8463
ജനകമായ	-10.8468
▁അങ്ങിനെയല്ല	-10.8471
ല്ലെന്നു	-10.8474
▁തൊണ്ടയിൽ	-10.8475
▁ആശുപത്രി	-10.8477
▁മുറികളും	-10.8477
▁കെട്ടിട	-10.8478
▁സംഭവിച്ചതു്	-10.8478
▁ബദ്ധപ്പെട്ടു്	-10.8478
▁ഉപദ്രവിക്ക	-10.8481
▁പരിഹാസം	-10.8481
▁കാലടി	-10.8483
ിട്ടാണെങ്കിലും	-10.8483
▁മുന്നോട്ട	-10.8483
യത്തിൽ	-10.8484
▁നടക്കില്ല	-10.8485
ാണ്ന്നു്	-10.8486
▁പട്ടാള	-10.8487
▁വിവാഹവും	-10.8488
▁അറ്റത്തു്	-10.8492
▁പുറത്താക്ക	-10.8495
▁വിളിക്കുന്നതു്	-10.8496
▁ചെന്നതു്	-10.8496
തല്ലെന്നു	-10.8498
▁വിങ്ങി	-10.8501
ൊമ്പ	-10.8502
▁താല്പര്യമ	-10.8502
▁ആലോചിച്ചിട്ടു്	-10.8504
▁ആലോചിക്കാൻ	-10.8505
▁നശിക്ക	-10.8507
▁പരിഷ്ക്കാര	-10.8507
▁പോയിട്ടുണ്ടു്	-10.8509
▁അറിയുന്നതു്	-10.8513
▁ധൈര്യപ്പെട	-10.8514
▁അതല്ലേ	-10.8515
ിലൊക്കെ	-10.8515
വട്ടം	-10.8516
▁ഇന്നുതന്നെ	-10.8516
▁വാങ്ങിച്ചു	-10.8519
▁കോപ്പി	-10.8523
▁അന്ധകാര	-10.8525
▁വെറുപ്പു്	-10.8529
▁ഊഹ	-10.8529
▁പൊക്കിപ്പിടിച്ച	-10.8531
▁സ്ഫുരിച്ചിരുന്ന	-10.8532
▁മുഖഭാവ	-10.8533
▁വന്നുപോയ	-10.8533
▁കയറും	-10.8534
▁കാണാനും	-10.8535
▁തരത്തിൽ	-10.8537
▁ഒഴിവാക്കി	-10.8538
▁അല്ലായിരുന്നു	-10.8543
▁ചേരുന്ന	-10.8543
▁താക്കീതു്	-10.8544
ുണ്ടാവുക	-10.8546
▁വലിഞ്ഞു	-10.8546
ായിട്ടില്ല	-10.8546
യുണ്ടാവും	-10.8547
▁പുരണ്ട	-10.8547
▁കൊടുക്കുന്നതു്	-10.8547
യ്ക്കാതെ	-10.8548
▁പ്രദർശിപ്പിക്ക	-10.8548
▁കിടപ്പറയിൽ	-10.8549
▁ഭാസ്കരനും	-10.8552
▁പാടുപെട്ടു	-10.8553
ക്കോളും	-10.8555
▁പ്രതീതി	-10.8557
▁പിടിച്ചിരുന്നു	-10.8563
ാശയ	-10.8563
ൊഴിഞ്ഞു	-10.8564
▁മക്കളും	-10.8565
▁ബോർഡ്	-10.8567
▁ഉണ്ണ	-10.8568
▁കഴുക	-10.8568
▁പോണതു്	-10.857
▁ശാപ	-10.8573
▁അടുത്തടുത്തു	-10.8574
▁തണുപ്പു്	-10.8576
▁ദൃഢ	-10.8577
▁എന്നുതന്നെ	-10.8577
ക്കൂട്ടി	-10.8577
▁എന്തുതന്നെ	-10.8578
ിരിക്കയായിരുന്നു	-10.8578
▁ധരിക്ക	-10.8579
ാന്തര	-10.8582
▁ആടി	-10.8584
▁ശരിയായിരുന്നു	-10.8585
▁പെണ്ണിന	-10.8585
▁പറ്റിയതു്	-10.859
▁പെണ്ണുങ്ങള	-10.8593
▁പറയാറുള്ള	-10.8596
▁കഴു	-10.8605
▁പൊതിഞ്ഞു്	-10.8608
▁ബന്ധവും	-10.8609
തയോടെ	-10.861
▁മെക്കാനിക്ക	-10.8611
▁പുരുഷനും	-10.8612
▁കൊണ്ടുവരുന്ന	-10.8612
യപോലെ	-10.862
▁ഇളകുന്ന	-10.862
▁ജനത	-10.8621
▁മട്ടില	-10.8623
ാലാണു്	-10.8626
ാമായിരുന്നില്ലേ	-10.8629
▁വായനക്കാര	-10.863
സമ്മതിക്കുകയില്ല	-10.8632
▁അതിലൊന്ന	-10.8636
▁ഇരുട്ടി	-10.8636
▁ആശ്രമ	-10.8638
▁ക്ലാസ്സ്	-10.8639
▁ശങ്കയും	-10.8639
▁യാഥാർത്ഥ്യം	-10.8639
▁ആശാ	-10.864
ായിരുന്നുവെന്നു്	-10.8641
▁തിന്നുന്ന	-10.8644
▁തുപ്പി	-10.865
▁പേരെ	-10.8651
▁ഇന്റർവ്യൂ	-10.8651
വരാം	-10.8657
▁ഇല്ലെങ്കിലും	-10.8658
▁അതിനായി	-10.8658
▁അമ്പു	-10.8659
▁പ്രതീക്ഷിച്ചു്	-10.8661
▁നിക്ക	-10.8665
▁തെളി	-10.8666
▁ഈർഷ്യ	-10.8667
ുണ്ടായിരുന്നതു്	-10.8668
▁വയറു	-10.867
▁പത്രത്തിൽ	-10.867
മാത്ര	-10.8672
മൂടി	-10.8674
▁എന്തിനും	-10.8674
▁തൃപ്തിപ്പെടുത്ത	-10.8678
ാകുമോ	-10.8681
ഞ്ഞുപോയ	-10.8681
▁തുമ്പു	-10.8681
▁തോറ്റ	-10.8685
▁ഉറ	-10.8688
ക്കേണ്ടുന്ന	-10.8694
▁അന്വേഷണ	-10.8696
▁സൃഷ്ടിച്ചു	-10.8699
▁ക്ഷയിച്ചു	-10.87
▁ശരിയാക്ക	-10.8701
ിച്ചാലും	-10.8701
ണ്ടാക്കാൻ	-10.8702
▁ഓർക്കുന്നു	-10.8702
▁ഞങ്ങളും	-10.8703
▁എന്നിട്ടെന്താ	-10.8707
▁കണ്ടുകിട്ട	-10.8712
രണ	-10.8714
▁പ്രമാണ	-10.8715
▁മേശയ്ക്കു	-10.8715
▁തന്നെയും	-10.8716
ിലധികം	-10.8717
നല്ലേ	-10.8719
ികളും	-10.872
▁അതെന്താ	-10.8723
▁മിനിറ്റ	-10.8724
▁മനോഭാവ	-10.873
▁പ്രത്യക്ഷമായി	-10.8734
▁വെപ്പ	-10.8734
▁കഴിക്കാമെന്ന	-10.8735
പോരാ	-10.8736
▁ബോധിച്ച	-10.8738
വിലാസ	-10.8739
▁പാര	-10.8739
▁എനിക്കെന്ത	-10.8741
▁കളിക്കുന്ന	-10.8755
▁മുല	-10.8756
ോദ	-10.8762
ുവാനാണു്	-10.8764
ോണ്ടു്	-10.8768
▁ചാടിയ	-10.8776
▁കൂടാ	-10.878
യോടൊപ്പം	-10.8781
▁ജനാല	-10.8784
▁വട	-10.8788
▁വിഷമിക്ക	-10.8791
യുണ്ടാക്കി	-10.8791
▁തലയ്ക്കു്	-10.8792
മാക്കാൻ	-10.8792
ിതാ	-10.8793
▁അവകാശമില്ല	-10.8794
▁ഹേമാംഗനെ	-10.8794
▁യഥാർത്ഥമായി	-10.8797
▁ദേവകിയുടെ	-10.8797
▁കത്തുന്ന	-10.8806
▁വൃത്തിയാക്കി	-10.8813
▁ഇതല്ല	-10.8817
▁കാറും	-10.8822
ുമൊക്കെയായി	-10.8822
▁വാക്കും	-10.8823
▁ആഞ്ഞു	-10.8824
▁അലഞ്ഞു	-10.8824
ത്തരം	-10.8825
▁സ്റ്റൂള	-10.8829
▁ഉദാഹരണ	-10.883
▁പ്രേത	-10.8831
▁ബേങ്ക	-10.8832
▁ദാവീദ	-10.8832
▁മനം	-10.8833
▁കേട്ടിട്ടു	-10.8833
▁കമ്യൂണിസ്റ്റ	-10.8834
ായിത്തീർന്നു	-10.8837
▁സംസാരത്തിൽ	-10.8838
പ്പാണു്	-10.8838
ിരിക്കുമോ	-10.8839
▁കേൾക്കും	-10.884
▁കിഴക്കു	-10.8841
ർപ്പു	-10.8844
▁കുടിക്കുന്ന	-10.8853
▁വിധ	-10.8856
▁പരിധി	-10.8864
▁സംഭവിക്കുന്ന	-10.8864
▁ദീന	-10.8867
▁പൊളിക്ക	-10.8868
▁കത്തുകൾ	-10.8869
▁കിട്ടുകയില്ല	-10.8871
▁ഉപയോഗിക്കുന്ന	-10.8873
ത്തിനുശേഷം	-10.8878
▁കഴിഞ്ഞിട്ടില്ല	-10.8878
▁ഫലമായി	-10.888
▁മിണ്ടാതിരിക്ക	-10.8881
ക്കിടന്ന	-10.8885
▁വെയ്ക്കാൻ	-10.8888
▁ബിന്ദു	-10.8892
▁തെളിവു	-10.8893
▁ഓര	-10.8893
വെയ്ക്കാൻ	-10.8894
മുണ്ടായതു്	-10.8895
▁കൈയ്യില	-10.8898
വികാര	-10.8899
▁അലിഞ്ഞു	-10.8901
▁ക്രൂര	-10.8905
▁അധീന	-10.8906
▁നിഷ	-10.8906
ുമ്പം	-10.8909
▁ആൾക്കാര	-10.891
മിട്ടു്	-10.8915
▁ഒട	-10.8915
▁പരിചിത	-10.8918
▁പണിക്കര	-10.8922
കൾക്കിടയിലൂടെ	-10.8925
യുണ്ടാക്കിയ	-10.8927
▁ആയപ്പോൾ	-10.8929
▁ഗ്ലാസ്സു	-10.8929
ിട്ടിരുന്ന	-10.893
▁ഇല്ലെന്ന	-10.893
▁രക്ഷിക്കാൻ	-10.8932
വളല്ല	-10.8938
സമയത്തു	-10.8939
ുന്നിടത്ത	-10.894
▁അണിയ	-10.8941
▁പാടു്	-10.8942
▁യജമാനന	-10.8943
▁അദ്ധ്വാനിക്ക	-10.8943
▁മുള്ളു	-10.8945
താണ്	-10.8948
▁തോക്കു	-10.8949
ാളുകൾ	-10.8949
▁ഒഴിവാക്ക	-10.8949
▁ഇളക	-10.8951
▁ആദ്ധ്യാത്മിക	-10.8954
നിര	-10.8959
തൊട്ടു	-10.8961
▁അഞ്ചാറ	-10.8961
▁രാജാവും	-10.8964
▁ഉദ്യാന	-10.8965
▁തലയുടെ	-10.8967
▁വേറ	-10.8977
▁തേച്ച	-10.8981
▁കറങ്ങി	-10.8983
▁ആറാ	-10.8987
ീൻ	-10.8987
▁താക്കോല	-10.8991
▁പറഞ്ഞിട്ടു	-10.8993
കൊടുപ്പാൻ	-10.8993
വരായിരുന്നു	-10.8993
റിയണം	-10.8996
▁നിഷ്കളങ്കമായ	-10.8998
▁എതിരായി	-10.8999
പ്രകാരമായിരുന്നു	-10.9001
വരി	-10.9001
▁പേരിനു	-10.9003
ുന്നുണ്ടെന്നു്	-10.9004
▁മോന്ത	-10.9008
ഗണ	-10.9009
▁ദണ്ഡ	-10.9009
▁ഓണ	-10.9015
▁സഞ്ചരിക്കുന്ന	-10.9015
▁എവിടെപ്പോയി	-10.9015
▁ആനയെ	-10.9015
നടക്കുന്ന	-10.9016
▁തടിച്ചു	-10.9017
▁രാജാവിന	-10.9019
▁റിപ്പോർട്ട	-10.9022
▁പതിവില്ല	-10.9028
കളായിരുന്നു	-10.9029
െന്തിനാണു്	-10.903
▁പന്തല	-10.9031
ശബ്ദ	-10.9032
നീട്ടി	-10.9034
▁ജ്യേഷ്ഠന	-10.9034
▁ഒരുക്കി	-10.9036
▁നഴ്സ	-10.9041
ശരീര	-10.9043
▁മുഖത്തേക്കു	-10.9046
▁റെ	-10.9047
വെളിച്ചം	-10.9048
പ്രാ	-10.9051
▁തീറ്റ	-10.9052
▁പൊന്തിച്ചു	-10.9053
ചെന്ന	-10.9055
നോട്ടം	-10.906
▁തട്ടിൻപുറത്ത	-10.9064
▁സ്ഫുരിച്ച	-10.9065
പ്പിക്കും	-10.9067
▁പരീക്ഷയ്ക്കു	-10.907
▁നില്പ	-10.9071
▁ഗാന	-10.9071
തെന്താണെന്നു്	-10.9072
▁സഹജ	-10.9073
▁ഗോപാലൻ	-10.9074
▁അനിയൻ	-10.9074
മുട്ടി	-10.9075
▁തലേ	-10.9075
ുണർന്ന	-10.9076
▁അതല്ലെ	-10.9077
▁കുമാര	-10.9079
▁നിർദ്ദയ	-10.908
▁സ്നേഹിച്ചു	-10.908
▁ചോറ	-10.908
▁വസന്ത	-10.908
▁വയ്ക്കു	-10.9088
▁വിഷ	-10.9089
▁പോണതു	-10.9089
േറ്റി	-10.909
▁പട്ടണത്തിലെ	-10.9095
▁സ്നേഹിച്ചിരുന്ന	-10.9095
വയ്ക്കും	-10.9097
▁മുമ്പിലിരിക്ക	-10.9099
യ്ക്കുവേണ്ടി	-10.9099
്യമായ	-10.91
പെട	-10.9102
▁കഴിച്ചിട്ട	-10.9102
▁വൃത്ത	-10.9103
ജോലി	-10.9104
മേറ്റ	-10.9105
▁മുഴക്ക	-10.9106
രേഖ	-10.9109
നിധി	-10.9112
▁കണ്ടിട്ട	-10.9113
▁കോഴിക്കോട്ട	-10.9114
▁ഉപ്പ	-10.9116
▁വൈഭവ	-10.9117
കളെയും	-10.9118
▁ആരംഭിച്ച	-10.912
▁പ്രസവിക്ക	-10.9121
▁അമ്മാവന	-10.9121
▁ഉദ്വേഗ	-10.9123
▁തടസ്സ	-10.9126
▁കാലും	-10.9126
▁പിണക്ക	-10.9127
▁വെഷമ	-10.9127
▁ഉടുത്തു	-10.9127
രീതിയിൽ	-10.9128
▁നിങ്ങ	-10.9129
▁നന്ദൻ	-10.9131
പ്പോഴാണു	-10.9133
▁വലുത	-10.9134
▁തുടിപ്പ	-10.9135
▁ജല	-10.914
▁ബോധംകെട്ടു	-10.9142
▁നിശബ്ദ	-10.9146
ക്കത്ത	-10.9148
മണിക്കൂറിനുള്ളിൽ	-10.9149
▁നിസ്സഹായ	-10.9149
▁പാർപ്പ	-10.9152
ടിയും	-10.9156
▁വിളറി	-10.9156
▁മൃദു	-10.9158
▁അപ്രത്യക്ഷമായ	-10.9158
പ്പട	-10.9161
▁പരിശുദ്ധ	-10.9161
ണിഞ്ഞു	-10.9163
▁പിൻവലി	-10.9164
▁തെണ്ടി	-10.9164
▁തെളിയ	-10.9165
▁ചെലവാക്ക	-10.9168
യ്ക്കിടയിൽ	-10.9169
കളെക്കൊണ്ടു്	-10.917
▁വ്യക്തമാ	-10.9171
▁ആയിപ്പോയി	-10.9173
തരത്തിൽ	-10.9175
▁വീഴ്ച	-10.9176
▁അപരാധ	-10.9176
പെട്ട	-10.9176
▁തുള്ള	-10.9177
▁ചാവ	-10.9178
▁ഓമന	-10.9179
▁കൊടുക്കണ	-10.918
െന്നവൾ	-10.9181
▁മെഴുകുതിരി	-10.9183
▁കുനിച്ചു	-10.9183
മദ്ധ്യ	-10.9184
▁കൊടുത്തതു	-10.9185
▁ഒറ്റക്ക	-10.9186
▁അമ്പരന്നു	-10.9187
▁മിസ്സിസ്	-10.9188
▁മരുമകള	-10.9189
▁വാസു	-10.9189
▁കരുക്കള	-10.9189
▁തൊപ്പി	-10.919
▁കാലതാമസം	-10.9191
ഃ	-10.9191
▁ഭസ്മ	-10.9191
▁ഏങ്ങി	-10.9191
▁അനർഘ	-10.9191
▁ഇഡ്ഡലി	-10.9191
▁ക്രിസ്ത്യാനി	-10.9191
▁പാറൂട്ടി	-10.9191
▁ഫ്ലാറ്റ	-10.9191
▁മസാലദോശ	-10.9191
▁വാഷിങ്	-10.9191
▁വെറുതേ	-10.9191
▁സാമ്പത്തിക	-10.9191
▁അജ്ഞാത	-10.9191
▁ഇരുപത്തിനാലു	-10.9191
▁എപ്പോഴെങ്കിലും	-10.9191
▁കുട്ടേട്ടാ	-10.9191
▁ങും	-10.9191
▁ജോർജ്ജൂട്ടി	-10.9191
▁ഡൊണാൾഡങ്കിൾ	-10.9191
▁താരുണ്യ	-10.9191
▁നിഷ്ഠൂര	-10.9191
▁നൂലാമാല	-10.9191
▁പരമാവധി	-10.9191
▁പ്രതിഷേധ	-10.9191
▁മെർലി	-10.9191
▁റേഡിയോ	-10.9191
▁വെപ്രാള	-10.9191
▁ഹരീഷ്	-10.9191
▁കഴുവേറി	-10.9191
▁തണലിൽ	-10.9191
▁രേണു	-10.9191
▁ഹോട്ടൽ	-10.9191
▁ചങ്ങല	-10.9191
▁മാൻകുട്ടി	-10.9191
▁അമ്മിണിഅമ്മ	-10.9191
▁ചപല	-10.9191
▁അവിടുത്തെ	-10.9191
▁ആരാധിക്കുന്ന	-10.9191
▁പേജിൽ	-10.9191
▁പൂനയിൽ	-10.9191
▁കടുപ്പമായ	-10.9191
▁വ്യക്തമല്ല	-10.9191
▁സാന്നിധ്യം	-10.9192
▁ടെസ്റ്റ	-10.9192
▁എന്നുവച്ചാൽ	-10.9192
▁ഉടുത്ത	-10.9192
▁എല്ലാറ്റിന്നും	-10.9192
▁ഏണിപ്പടി	-10.9192
▁വാറണ്ടു	-10.9192
▁നീരജ	-10.9192
▁വയർ	-10.9192
▁എല്ലാറ്റിനും	-10.9192
▁അമാന്ത	-10.9192
▁മണിയന്റെ	-10.9192
▁എഡിറ്റ	-10.9192
▁മാപ്പാക്ക	-10.9192
▁ജൂൺ	-10.9192
▁തട്ടിൻപൊറത്തു്	-10.9192
ൊടുവിൽ	-10.9192
▁ഉണർവ്വ	-10.9192
▁വശീകരിക്ക	-10.9192
▁തോട്ടക്കാരൻ	-10.9193
▁ചുവട്ടില	-10.9193
▁ശ്വാസംമുട്ടി	-10.9193
▁വിരുന്നുകാര	-10.9193
▁പൊതുവെ	-10.9193
▁വല്ല്യമ്മച്ചി	-10.9193
ാണവർ	-10.9193
▁കാണിച്ചുതരാം	-10.9193
▁വെറുമൊരു	-10.9194
▁ജീവനോടെ	-10.9194
ാനന്തര	-10.9195
▁ചുമരിന്മേൽ	-10.9195
▁ഒടുവിലത്തെ	-10.9195
▁ചിമ്മി	-10.9195
മാർഗ്ഗം	-10.9195
▁ഫീസ്	-10.9195
▁അവനവന്റെ	-10.9196
▁തോൽവി	-10.9196
▁കുട്ടിക്കാലം	-10.9196
▁മറ്റൊരാളുടെ	-10.9196
▁മിക്കവരും	-10.9196
▁പലവട്ടം	-10.9196
▁അച്ചായന്റെ	-10.9196
▁ലോറി	-10.9197
▁മദ്ധ്യത്തിൽ	-10.9197
▁സ്വസ്ഥത	-10.9197
▁ഓരോരുത്തരുടെ	-10.9197
ിരിയ്ക്കുന്നു	-10.9197
▁ഏറിയ	-10.9197
▁മന്ദാരത്തിന്റെ	-10.9197
▁അരികിൽ	-10.9198
▁ജ്യേഷ്ഠൻ	-10.9198
▁വേലക്കാരൻ	-10.9198
▁തോമസ്സ്	-10.9198
▁മമത	-10.9198
▁തരികയ	-10.9199
▁പിതാവ	-10.9199
▁ക്ഷമിക്കണം	-10.9199
▁വിശദീകരിച്ചു	-10.9199
▁കഴിയുന്നത്ര	-10.9199
▁കുറുക്കൻ	-10.92
▁ഏട്ടത്തി	-10.92
▁എലിപ്പൂച്ചയെ	-10.9201
▁താണ്ടി	-10.9201
▁കെട്ടിപ്പിടിക്ക	-10.9201
▁അധികനേരം	-10.9201
▁മുൻവശത്തെ	-10.9201
▁ആദ്യമൊക്കെ	-10.9202
▁ഭൂതകാല	-10.9202
▁ജോലിക്കാര	-10.9202
▁കല്യാണത്തിനു്	-10.9202
▁നെന്നെ	-10.9202
▁നീയെന്താ	-10.9203
▁പക്ഷികൾ	-10.9203
▁ശാസന	-10.9203
▁നഗ്നമായ	-10.9203
▁പുഷ്ടി	-10.9204
▁ഒരുവക	-10.9204
▁വറ്റി	-10.9204
▁മനുഷ്യരുടെ	-10.9205
▁ഞെക്കി	-10.9206
▁ബാലൻ	-10.9206
▁തുരുത്ത	-10.9207
ണമെന്നില്ല	-10.9207
▁തവള	-10.9207
▁ഭീതി	-10.9207
ന്മാർക്കു	-10.9208
▁തോളത്തു	-10.9208
▁അടിയൻ	-10.9209
▁ജീപ്പ	-10.9209
▁കയർ	-10.9209
▁വയലിന്റെ	-10.921
▁ചുറ്റിലും	-10.921
▁ആളുകളുടെ	-10.921
▁ജാഗ്രത	-10.921
▁ഭയത്തോടെ	-10.921
▁പത്താം	-10.9211
▁കുനിച്ച	-10.9211
▁വായിലിട്ടു	-10.9211
▁മറുവശത്തു്	-10.9212
നിറം	-10.9212
ിടത്തേയ്ക്കു	-10.9212
▁ഇവ്ടെ	-10.9213
ിക്കു്	-10.9213
▁വിഷയത്തിൽ	-10.9213
▁കഴിയൂ	-10.9213
▁തന്ത	-10.9213
▁ഇതിനെപ്പറ്റി	-10.9214
▁ആവൂ	-10.9214
▁തുടരാൻ	-10.9214
▁പറഞ്ഞുപോയ	-10.9214
▁എവിടെനിന്നോ	-10.9214
▁വിനോദയാത്ര	-10.9214
▁ചെറുപ്പത്തിൽ	-10.9214
▁അറിയിക്കാതെ	-10.9214
▁കിടക്കട്ടെ	-10.9214
▁പാള	-10.9215
▁ഞങ്ങളൊക്കെ	-10.9215
▁അല്പനേരം	-10.9215
▁സഹ	-10.9215
ലേഖ	-10.9215
▁വാരിക	-10.9216
▁അതിലൂടെ	-10.9217
▁കലാശിച്ചു	-10.9217
▁സമ്പന്ന	-10.9218
▁പാമ്പിന്റെ	-10.9218
▁എനിക്കാണെങ്കിൽ	-10.9219
▁ആലോചിച്ചാൽ	-10.9219
▁എന്തെന്നു്	-10.922
▁ഓർമ്മയുണ്ടോ	-10.922
▁ചുറ്റ	-10.9221
▁വിനോദിനെ	-10.9221
▁കൊണ്ടുവരാം	-10.9222
▁അനുവാദം	-10.9223
▁അലങ്കരിച്ച	-10.9223
▁ഉണ്ടായിരിക്കണം	-10.9223
▁ചിരിയോടെ	-10.9223
▁കാര്യങ്ങളുടെ	-10.9224
▁ഭാവനയിൽ	-10.9224
ിലിരുന്നു്	-10.9225
▁കഴിക്കാം	-10.9226
▁ആശ്വസിപ്പിക്കാൻ	-10.9226
▁മുമ്പിലുള്ള	-10.9227
▁കാതിൽ	-10.9227
ിരിക്ക്യാണു്	-10.9227
ിട്ടുള്ളതാണു്	-10.9227
▁വിഷമിച്ചു	-10.9228
▁പ്രായമുള്ള	-10.9228
ിരിയ്ക്കയാണു്	-10.9228
▁കസേലയുടെ	-10.9229
▁രക്ഷപ്പെടാൻ	-10.9229
▁പ്രയാസപ്പെട്ടു്	-10.9229
▁ദിവസത്തിൽ	-10.923
▁തോന്നിയിട്ടുള്ള	-10.923
▁മരിച്ചിട്ടു്	-10.923
▁മേനോനു്	-10.923
▁കരിങ്കല്ല	-10.9231
ാണല്ലെ	-10.9232
▁സമ്പ്രദായം	-10.9232
▁ഉദ്ദേശ്യം	-10.9232
▁പ്രകാരത്തിൽ	-10.9233
▁മനസ്സിലാക്കണം	-10.9233
▁നെഞ്ചിൽ	-10.9233
▁ജനിക്കാൻ	-10.9233
യ്ക	-10.9233
▁ചിത്രത്തിന്റെ	-10.9234
▁സ്വന്തമായ	-10.9234
▁മോചനം	-10.9236
▁ഒന്നിച്ചാണു്	-10.9237
പ്പെടുന്നു	-10.9241
▁കാമുകി	-10.9241
▁പൂജാമുറി	-10.9242
ിക്കാനുള്ള	-10.9242
▁വിലാപ	-10.9242
▁സ്റ്റൂളിൽ	-10.9243
▁കേറാൻ	-10.9243
▁പാക്കറ്റ	-10.9243
▁സംശയമായി	-10.9244
▁പിൻഭാഗത്ത	-10.9245
▁തുറന്നപ്പോൾ	-10.9245
▁ഏതാണു്	-10.9245
▁ഹൂ	-10.9247
▁പടിഞ്ഞ	-10.9247
നില്ക്കുന്നതു	-10.9247
▁പാത്രങ്ങൾ	-10.9248
▁കന്യകയുടെ	-10.9248
ിട്ട്ണ്ടാവും	-10.9248
▁ഒപ്പിട്ടു	-10.9248
▁ഫലിത	-10.925
മാണ്	-10.925
▁വരദ	-10.9251
▁സ്നേഹത്തിന്റെ	-10.9251
▁മുറ്റം	-10.9254
▁വിവാഹത്തിന്റെ	-10.9254
▁കുഞ്ഞിയമ്മേ	-10.9256
▁പ്രകൃതിയുടെ	-10.9256
▁നിരത്തു	-10.9256
പ്പെടുത്തുവാൻ	-10.9257
▁പോകാന	-10.9259
▁സൃഷ്ടിച്ചതു്	-10.9259
▁ആശ്രമം	-10.926
▁നാട്ടു	-10.926
▁കഴിച്ചാൽ	-10.9261
▁കൊണ്ടുപോയതു്	-10.9261
▁ഓർമ്മകളുടെ	-10.9262
▁ജനലുകൾ	-10.9263
▁ജറാഡ്	-10.9263
▁പോയിരുന്നതു്	-10.9263
▁ഇല്ലെന്നോ	-10.9264
▁ലോകത്തിലെ	-10.9266
▁തുടങ്ങിയതാണു്	-10.9266
▁ശുഭ	-10.9267
▁സംസാരവും	-10.9268
▁കണക്കുകൾ	-10.9269
▁എന്തിന്റെ	-10.927
▁വ്യാപാര	-10.927
▁തലതാഴ്ത്തി	-10.9271
▁ദിനോസറ	-10.9271
▁വന്ദനയെ	-10.9271
▁കൊല്ലാൻ	-10.9271
▁ചെയ്യു	-10.9272
▁തനിയ്ക്കു്	-10.9273
▁എന്തുകൊണ്ടാണു്	-10.9273
▁ആൾക്കു	-10.9276
▁ശരിയാവും	-10.9277
▁ഉറ്റുനോക്കി	-10.9277
▁അറപ്പ	-10.9277
▁കൈകൾകൊണ്ടു്	-10.9278
▁പോകാത്ത	-10.9282
▁കൂട്ടരും	-10.9282
▁അശേഷം	-10.9282
▁തുടങ്ങിയിട്ടു്	-10.9284
▁എവിടെയായിരുന്നു	-10.9284
▁എങ്ങും	-10.9286
▁ജാനകിയുടെ	-10.9286
▁മകൾക്കു	-10.9286
▁കോപംകൊണ്ടു്	-10.9287
്യമ	-10.9288
▁താഴെയുള്ള	-10.9289
ിക്കുകയായിരുന്നു	-10.9291
ത്തേയ്ക്കു്	-10.9291
▁എവിടേയ്ക്ക	-10.9291
▁കൊറ	-10.9293
▁അബദ്ധത്തിൽ	-10.9293
▁കയ്യിലു്	-10.9293
▁ചെറിയമ്മയെ	-10.9294
വശം	-10.9297
▁എത്രയൊ	-10.9297
▁എന്നവർ	-10.9297
▁കാരണവും	-10.93
▁ജ്ഞാന	-10.93
▁ദിക്ക	-10.93
യെപ്പറ്റിയും	-10.9301
▁പുരുഷന്മാരും	-10.9304
▁നാളെത്തന്നെ	-10.9305
▁ജോസ്	-10.9306
▁കഴിഞ്ഞുപോയി	-10.9306
▁പാതിരാ	-10.9307
▁നായരും	-10.9307
▁സഹായത്തിന്നു്	-10.9307
▁ആരാണെന്നു്	-10.931
ജീവികള	-10.9312
▁ഒരുമ്പെട്ടു	-10.9313
യെന്നും	-10.9318
▁മുൻപ	-10.9319
▁ഭാവവും	-10.932
▁ഇരുന്നിരുന്നു	-10.932
ത്തിനിടയിൽ	-10.932
▁അങ്ങിനെയൊക്കെ	-10.9322
ഷ്ഠ	-10.9322
െങ്ങാനും	-10.9323
▁വേഗ	-10.9324
▁പിടിച്ചാൽ	-10.9324
▁താനാണു്	-10.9325
▁സുന്ദരിയും	-10.9326
▁ജനങ്ങള	-10.9327
▁അതിന്ന	-10.9327
െത്താൻ	-10.9328
▁ഒന്നല്ല	-10.9328
▁തോന്നിയപ്പോൾ	-10.9329
▁കുട്ട	-10.9329
▁അസൂയയും	-10.9329
ാനാവില്ല	-10.933
▁ആധി	-10.9332
▁ലൈബ്രറിയിൽ	-10.9333
▁ഉപായം	-10.9334
▁പിറ്റേന്നും	-10.9335
▁ചിന്താ	-10.9336
▁പ്രസ്സ	-10.9336
▁സന്ധ്യയ്ക്കു്	-10.9336
ക്കൊണ്ടാണു്	-10.9336
▁അനുവദിച്ച	-10.9341
▁പറയേണ്ടതു	-10.9343
▁ലോഹ്യം	-10.9343
▁നല്കിയ	-10.9344
▁കൊടുത്തില്ല	-10.9344
▁കമ്യൂണിസ്റ്റ്	-10.9345
▁അറിയാമ	-10.9345
▁പിടിത്ത	-10.9347
▁ഇഷ്ടപ്പെട്ടു	-10.9347
▁തുറന്നതു്	-10.9349
▁കളയുന്ന	-10.9354
▁എന്തെങ്കിലുമ	-10.9355
▁പറ്റിച്ച	-10.9357
▁ഒരമ്മ	-10.9357
▁പണത്തിനു	-10.9359
▁കഴിക്കുന്നതു	-10.9362
▁വീര	-10.9366
▁കാണിക്കുന്നതു്	-10.9367
▁ചിലവാക്കി	-10.9367
▁കർ	-10.9368
ണമെന്നും	-10.9368
▁ഒഴികഴിവു	-10.9369
ിട്ടില്ലെന്നു്	-10.937
▁മതിയാ	-10.9379
▁പറയണ്ട	-10.938
▁നാല്പതു	-10.938
▁പൂണ്ട	-10.938
▁ഉയരം	-10.9382
▁അമ്മാമന	-10.9383
▁അതവൾ	-10.9384
▁ക്ലാസ്	-10.9386
▁ചിരിക്കും	-10.9387
▁അവരു	-10.9388
▁കോടി	-10.939
▁വിട്ടില്ല	-10.9392
ങ്ങളുണ്ടു്	-10.9392
▁ഉദിച്ചു	-10.9393
▁മാത്രമുള്ള	-10.9395
▁ബോട്ടിൽ	-10.9396
▁തെരുവു	-10.9397
▁തറയിൽ	-10.94
▁മകളും	-10.94
യുട	-10.94
▁ചുണ	-10.94
▁വീണതു്	-10.9402
▁മകനു്	-10.9403
▁സംഗതിയാണു്	-10.9408
ക്കെട്ടി	-10.9408
യായിട്ടും	-10.9409
▁ഇനിയ	-10.941
▁രക്ഷിച്ചു	-10.9411
▁നീങ്ങിയ	-10.9411
ിട്ടായിരിക്കും	-10.9412
▁നോവലുകള	-10.9414
▁നടിച്ച	-10.9414
▁കാലത്തേ	-10.9415
▁ആട്ട	-10.9416
▁പ്ലാ	-10.9421
കുലുക്ക	-10.9429
്ണ്ട്	-10.9431
▁കണ്ണോടിച്ചു	-10.9431
▁ബുദ്ധിമുട്ടി	-10.9432
▁കഴിക്കാന	-10.9433
യിരുന്നെങ്കിൽ	-10.9434
ുയർന്നു	-10.9436
ിയാ	-10.9436
▁ഗോപുവും	-10.9438
▁തോട്ടം	-10.9439
ണാ	-10.9439
▁തൃപ്തിപ്പെട്ടു	-10.944
▁അടിയന	-10.9443
സൂക്ഷിച്ചുനോക്കി	-10.9444
ഘട്ടത്തിൽ	-10.9445
▁ചെറിയമ്മെ	-10.9451
▁യാ	-10.9452
ക്കറിയില്ല	-10.9453
▁സീമയെപ്പറ്റി	-10.9453
▁ഇതിനെ	-10.9453
▁കോമ	-10.9453
ുണ്ടായിരുന്നോ	-10.9459
▁എടുത്തിട്ടു	-10.9462
▁കേട്ടതു	-10.9469
▁വിട്ടുപോകുന്ന	-10.947
ുകയില്ലെന്നു്	-10.947
▁വിളിക്കും	-10.9474
▁കഴിക്കുക	-10.9477
പ്പിനു	-10.9482
▁ചതിച്ച	-10.9483
ചെല്ല	-10.9483
മുണ്ടെന്നു്	-10.9484
▁വെള	-10.9488
പ്പോഴേ	-10.9492
▁എന്നതിന്റെ	-10.9493
▁വാഹന	-10.9493
ുമ്പോഴേക്കു്	-10.9494
▁ശരിയാവ	-10.9495
ായതു	-10.9496
▁പാലും	-10.9502
▁ഇത്	-10.9504
▁വഴികൾ	-10.9506
പിച്ച	-10.9511
▁തിരിക്ക	-10.9517
▁ഉപേക്ഷിച്ചു്	-10.9521
ിരിക്കുമ്പോഴാണു്	-10.9527
▁പ്രസാദം	-10.9527
▁മൂക്കു്	-10.9533
▁മന്ത്രി	-10.9533
▁അവസരമ	-10.9534
ാറു്	-10.9534
▁അനുഗ്രഹ	-10.9535
ക്കിടന്നു്	-10.9538
ലായിരുന്നു	-10.9541
▁വില്ക്ക	-10.9546
ിന്നരികെ	-10.9546
▁കാലമ	-10.955
▁ഇറങ്ങുന്ന	-10.9551
യർത്തി	-10.9554
▁രോഗികൾ	-10.9555
കാട്ടി	-10.9557
▁ആൾക്കു്	-10.9559
മാക്കുന്ന	-10.9565
▁മാറുന്ന	-10.9566
▁തന്നിൽ	-10.9571
ങ്ങളിൽനിന്നും	-10.9573
▁വരുന്നതും	-10.9576
▁ജന്നിയുടെ	-10.9578
▁അത്രയ്ക്ക	-10.9585
▁അത്യാവശ്യ	-10.9586
▁പാന	-10.9587
▁മൃദുല	-10.9589
▁ഉപയോഗിച്ചു	-10.959
▁തത്വ	-10.9591
▁പറക്കുന്ന	-10.9594
▁സുരക്ഷിത	-10.9595
▁അഭിനയിക്കുന്ന	-10.9596
▁റോഡു	-10.9601
▁ഉപയോഗ	-10.9601
▁ബേ	-10.9603
▁കലാശിക്ക	-10.9606
▁എന്നെപ്പറ്റി	-10.9608
▁വലുതായി	-10.9609
▁മുറ്റ	-10.9611
▁മാർക്സ	-10.9615
വണ്ണം	-10.9615
▁ധരിച്ചു്	-10.9618
ാവശ്യം	-10.962
▁നേടിയ	-10.9622
▁മനസ്ഥിതി	-10.9622
▁പങ്കു്	-10.9623
▁പൊളിച്ച	-10.9624
▁പറഞ്ഞുതുടങ്ങി	-10.9628
▁അവ്യക്തമായ	-10.9629
▁വിയർപ്പ	-10.9631
▁ഉള്ളം	-10.9634
▁വിജയം	-10.9635
▁ഇള	-10.9638
▁അതുകൊണ്ടെന്താ	-10.9641
പ്പിച്ചു്	-10.9641
ക്കുറിച്ച	-10.9643
ടല	-10.9643
▁നിയമിച്ച	-10.9644
പോന്നിരുന്ന	-10.9645
▁കുളിച്ചു്	-10.9646
▁ഗുളിക	-10.9647
▁പപ്പട	-10.9647
ാർത്ഥ	-10.9648
▁വ്യത്യാസ	-10.9648
▁അരയിൽ	-10.9655
▁നേരമ്പോക്ക	-10.9656
▁പടിഞ്ഞാറു	-10.9656
▁അത്യാവശ്യമ	-10.9662
▁ഭാര്യയാണു്	-10.9664
▁അനുഭവങ്ങൾ	-10.9664
▁കൂട്ടിക്കൊണ്ടു്	-10.9665
▁പുതച്ചു	-10.9666
▁സൂക്ഷിക്കുന്ന	-10.967
▁വിധത്തില	-10.9674
യാക്കാൻ	-10.9676
ന്റേതാ	-10.9679
ഞ്ജ	-10.9681
▁തെറ്റിദ്ധരിച്ച	-10.9681
▁തൊടാൻ	-10.9684
▁വിരിഞ്ഞ	-10.9685
▁മുഖസ്തുതി	-10.9696
▁ദേഹത്ത	-10.97
▁കാവ്യ	-10.9703
അങ്ങിനെയാണെങ്കിൽ	-10.9704
ാനേ	-10.9705
▁രൂപങ്ങൾ	-10.9706
▁ഏട്ടന	-10.9709
▁നടന്നുപോകുന്ന	-10.9712
ക്കളെ	-10.9712
▁തെക്കോട്ടു	-10.9714
▁ചൂടി	-10.9715
▁ദൂരത്ത	-10.9716
▁അങ്ക	-10.9719
▁മേഞ്ഞ	-10.9721
▁നീയാ	-10.9723
▁ഊണും	-10.9724
ർത്തി	-10.9725
▁പോകുന്നതിനു	-10.9727
▁കക്ഷി	-10.9727
െന്നല്ല	-10.9731
പോയിട്ടു്	-10.9732
▁വര്വാ	-10.9733
▁തെങ്ങിൽ	-10.9734
▁കുറവില്ല	-10.9734
ച്ചിട്ടു്	-10.9735
ാളു	-10.9737
▁നിന്നോട	-10.974
▁നാട്ടുകാർ	-10.9745
ടഞ്ഞ	-10.9749
▁വെളിച്ചമ	-10.9749
▁മാരാർക്കു	-10.975
ക്കഴിഞ്ഞപ്പോൾ	-10.975
▁നോക്കണ്ട	-10.9752
▁വേണ്ടിവന്ന	-10.9756
ണമെന്നുണ്ടു്	-10.9757
▁ഇഴ	-10.9758
▁സ്ഥാപിച്ച	-10.9758
മുണ്ടായില്ല	-10.9766
▁ഊര	-10.9768
▁ആണെന്നു	-10.977
▁കാഴ്ച്ച	-10.9772
േടത്തു	-10.9774
▁ആറ്റിറമ്പ	-10.9779
കാമ	-10.978
ത്തിനൊന്നും	-10.978
▁എടുക്കുക	-10.9781
ിക്കഴി	-10.9784
▁പുലര	-10.9786
▁പറയുന്നതും	-10.9791
▁കൃത്യമായ	-10.9793
▁ഇഷ്ടമല്ല	-10.9795
▁കഷ്ടപ്പെട	-10.9798
▁തൊഴു	-10.98
▁ഉറക്കത്തില	-10.9801
വരട്ടെ	-10.9802
▁ചൈതന്യ	-10.9802
▁മദ്യപാന	-10.9804
▁നിങ്ങളോട	-10.9806
▁അറു	-10.9806
▁നാടു	-10.9807
▁പല്ലുകൾ	-10.9811
വാക്കു	-10.9812
▁പോയിട്ട	-10.9816
▁കിള	-10.9822
ീട്ടു	-10.9833
പ്പുറത്തു്	-10.9835
പ്പോകുന്നതു്	-10.9835
▁തെളിയിക്കുന്ന	-10.9837
▁വരുമ്പോഴേയ്ക്കു	-10.9839
▁പറയുകയുണ്ടായി	-10.9845
▁ചെരിപ്പ	-10.9847
്നു്	-10.985
▁രണ്ടര	-10.9858
ാണെന്നറിഞ്ഞ	-10.986
▁ഇവനെ	-10.9862
▁അപ്രത്യക്ഷമായി	-10.9864
▁ഭർത്താവിനു	-10.9864
ണത്	-10.9865
▁കുസ്നി	-10.9871
▁നിന്നെപ്പോലെ	-10.9872
▁കൊടി	-10.9874
▁നെൽ	-10.9876
▁പോയിക്കഴിഞ്ഞു	-10.9876
▁മധുവിധു	-10.9879
▁കണ്ടുകൊണ്ടു്	-10.988
▁ഇതെന്താ	-10.9881
▁ബാല്യ	-10.9882
കൊണ്ടിരിക്കേ	-10.9882
▁വരുക	-10.9883
െത്തും	-10.9886
▁പഠി	-10.9887
▁കെണി	-10.9887
▁സിഗരറ്റ	-10.9888
മ്പോൾ	-10.9888
▁എറണാകുളത്തു	-10.9891
▁പിടിച്ചുകൊണ്ടു	-10.9894
▁തീരുമാനിക്ക	-10.9898
▁കെടുത്തി	-10.9904
ുകയൊ	-10.9905
▁കേൾക്കാത്ത	-10.9905
▁എന്നിൽ	-10.9907
▁നിരന്തരമായ	-10.9909
▁യോജിപ്പ	-10.9913
ക്കെല്ലാം	-10.9913
വിധി	-10.992
ുമല്ലൊ	-10.9921
▁തൂമ്പ	-10.9922
▁വികസി	-10.9923
▁മടങ്ങിയ	-10.9928
▁ബാധിച്ചിരുന്ന	-10.993
ാമെന്നും	-10.9931
കുന്നു	-10.9932
▁തോന്നാത്ത	-10.9935
▁നിശ്ചയമുണ്ട	-10.9937
ലൈ	-10.9938
ുകയല്ല	-10.9938
▁അളവു	-10.994
▁വിരിച്ചു	-10.9942
▁നടക്കുക	-10.9945
▁പരിസരത്ത	-10.9947
▁ഉല്ലാസ	-10.9949
▁അവൾക്കിഷ്ടമ	-10.995
▁പൂക്കള	-10.9954
ുകകൂടി	-10.9957
ാലോചന	-10.9963
▁കഷ്ടിച്ചു	-10.9963
▁ശരാശരി	-10.9965
▁ചെയ്യാറുള്ള	-10.9969
▁ചുരുക്ക	-10.9971
▁മാപ്പു	-10.9972
▁കേസു	-10.9972
വന്നാൽ	-10.9973
പോകരുതു്	-10.9976
▁സ്വന്തമാ	-10.9978
രക്ഷ	-10.9978
▁ഭരണ	-10.998
കഥകൾ	-10.9981
▁പറഞ്ഞിരുന്ന	-10.9981
കന്റെ	-10.9982
▁കേസ്സ	-10.9986
▁ശബ്ദമുണ്ടാക്ക	-10.9986
▁വായിക്കുക	-10.9993
▁ചേർച്ച	-10.9997
▁വെളുപ്പ	-11.0004
▁മിനിട്ടു	-11.0004
▁ലളിതയും	-11.0005
െങ്ങാൻ	-11.0005
▁അനങ്ങ	-11.0008
▁ഘന	-11.0009
പോലത്തെ	-11.0009
ിര്ന്ന	-11.001
കാറ്റു	-11.0012
കുറഞ്ഞ	-11.0014
വ്യാപാര	-11.0015
▁അമ്പരപ്പ	-11.0015
വിരൽ	-11.0017
▁വാർത്തകൾ	-11.0017
പ്രകാരത്തിലും	-11.0017
സുന്ദര	-11.0018
മീതെ	-11.0018
മുഴുവനും	-11.0018
▁മാറ്റിവച്ച	-11.0021
ായിരിക്കണമെന്ന	-11.0022
ുകൾക്കും	-11.0022
സഞ്ചി	-11.0025
▁അദ്ഭുതപ്പെടുത്ത	-11.0027
▁ഉത്തമ	-11.0028
ല്പം	-11.0028
▁രോമ	-11.0029
▁പദ്ധതി	-11.0031
▁മൂർത്തി	-11.0032
▁കണ്ണുകളെ	-11.0033
നുസരിച്ചു്	-11.0035
പറഞ്ഞാൽ	-11.0035
ുള്ളതുകൊണ്ടു്	-11.0036
▁നൃത്ത	-11.0037
▁നിന്നുകൊണ്ടു്	-11.0038
▁മാവിൻ	-11.0039
യാൾക്കു	-11.004
▁ആഹാര	-11.004
▁ജീവിതത്തില	-11.0042
▁കഷായ	-11.0049
താമസ	-11.0051
▁വൈകുന്നേരമായ	-11.0052
▁മുരളീധരന	-11.0053
▁ധനിക	-11.0054
▁കഴിയുന്നു	-11.0058
▁തലയ്ക്കൽ	-11.0059
വെക്കുന്ന	-11.0059
യുണ്ടെങ്കിൽ	-11.0059
▁ദുഷ്	-11.0061
ത്തീർന്ന	-11.0062
യോടുള്ള	-11.0064
ാനെന്ന	-11.0066
മെടുക്ക	-11.0068
നിമിഷം	-11.0069
▁എലിപ്പൂച്ച	-11.007
▁ഭയപ്പെടേണ്ട	-11.0072
കഴിഞ്ഞിരുന്നു	-11.0073
▁തനിച്ചായി	-11.0076
▁അകത്ത	-11.0082
▁അനുജത്തി	-11.0082
▁കുന്നിൻ	-11.0083
ിരിക്കുന്നോ	-11.0083
▁തൊറക്ക	-11.0085
പ്രദ	-11.0087
▁മിന്നൽ	-11.0087
▁കണിശമായി	-11.0089
▁കിഴവ	-11.0089
▁പിള്ളേർ	-11.0089
േന്ദ്ര	-11.0092
▁പഠിപ്പിക്കുന്ന	-11.0093
▁മിനി	-11.0096
▁അവിടവിടെ	-11.0096
▁ന്യൂ	-11.0097
▁ശ്രുതി	-11.0097
മൃത	-11.0097
▁ജിജ്ഞാസ	-11.0098
▁വറുത്ത	-11.0098
▁കിതപ്പ	-11.0099
▁കാണണമെന്ന	-11.0099
▁നന്ദന	-11.0099
▁ചെസ്സ്	-11.01
▁കാണാനായി	-11.01
ൊരിക്കൽ	-11.01
▁ശേഷമ	-11.01
▁അനഘ	-11.01
▁ഘടികാര	-11.01
▁പരിണാമ	-11.01
▁ഫ്ളൈറ്റ	-11.01
▁മാന്ത്രിക	-11.01
▁മ്ലാന	-11.01
▁സെക്കന്റ	-11.01
പതുക്കെപ്പതുക്കെ	-11.01
ാലുടൻ	-11.01
▁ആവേശം	-11.01
▁ഇട്ടിരാമൻ	-11.01
▁ഏലസ്സ്	-11.01
▁കിലോമീറ്റർ	-11.01
▁കേശവസ്വാമി	-11.01
▁ജയരാമൻ	-11.01
▁തയ്യാറെടുപ്പ	-11.01
▁ദീർഘശ്വാസം	-11.01
▁ധ്യാനിച്ചു	-11.01
▁നിസ്സംശയം	-11.01
▁പഞ്ചുനായർ	-11.01
▁പിറകിൽ	-11.01
▁പ്രകൃത്യാ	-11.01
▁പ്രവേശനം	-11.01
▁ഭാസ്ക്കരമേനോന	-11.01
▁മുരളീധരൻ	-11.01
▁രചന	-11.01
▁രഞ്ജിനി	-11.01
▁വലിയിടത്തച്ചൻ	-11.01
▁വീഡിയോ	-11.01
▁സംഘം	-11.01
▁മദാമ്മ	-11.01
▁മറുവടി	-11.01
▁മിനുറ്റു	-11.01
▁ചിന്നൻ	-11.01
▁അംഗീകരിക്ക	-11.0101
▁പെൻസില	-11.0101
▁രാമുണ്ണിനായർ	-11.0101
▁വെള്ളിയാഴ്ച	-11.0101
▁ദിവസേന	-11.0101
▁കപട	-11.0101
▁സ്പൂൺ	-11.0101
▁അർദ്ധരാത്രി	-11.0101
▁കോളജിൽ	-11.0101
▁കുത്തനെ	-11.0101
▁അത്യധികം	-11.0101
▁എയർ	-11.0101
▁തടിയൻ	-11.0101
▁ആശ്വസിപ്പിച്ചു	-11.0101
▁മടുപ്പ	-11.0101
▁റേഷൻ	-11.0101
▁പഠിയ്ക്കാൻ	-11.0101
▁അയൽക്കാര	-11.0101
▁കോണകം	-11.0101
▁കണ്ണുകളടച്ചു	-11.0101
▁മാംസം	-11.0101
▁വിലാസം	-11.0101
▁ഇപ്രാവശ്യം	-11.0102
▁മനഃപൂർവ്വം	-11.0102
▁ഉദാര	-11.0102
▁സുഹൃത്തു്	-11.0102
▁മേന്മ	-11.0102
▁വാദം	-11.0102
▁ഇതിനകം	-11.0102
▁ഗണിച്ച	-11.0103
▁മാധവൻ	-11.0103
▁വ്രണ	-11.0103
▁ലഘുവായ	-11.0103
▁ഇരുട്ടത്തു്	-11.0103
▁ആർത്തിയോടെ	-11.0104
▁കൂട്ടുകാർ	-11.0104
▁ഭഗീരഥപ്രയത്നം	-11.0104
▁കർത്താവിനു്	-11.0104
▁നീയെന്താണു്	-11.0104
െന്നേ	-11.0104
▁ആപാദചൂഡം	-11.0104
▁മിസ്സിസ്സ്	-11.0105
▁കൊറവ	-11.0105
▁അപഹരിച്ച	-11.0105
▁പ്രാന്ത	-11.0105
▁ഏതെല്ലാം	-11.0105
▁ഡാൾമണ്ട്	-11.0105
▁പ്രാവശ്യവും	-11.0105
▁നാട്ടുകാരുടെ	-11.0105
ാർഹ	-11.0106
▁മനുവിനെ	-11.0106
▁സർവ്വസ്വവും	-11.0106
▁കോമള	-11.0106
▁ഉമാറിന്റെ	-11.0106
▁ശരിയായിരിക്കാം	-11.0106
▁വരുമ്പോ	-11.0107
▁തകര	-11.0107
▁ഹാസത്തിന്റെ	-11.0107
▁സ്റ്റാർട്ടാക്കി	-11.0107
▁മനുവിന്റെ	-11.0107
▁മധുവിന്റെ	-11.0107
▁പാമ്പിനെ	-11.0107
▁ന്ന്ട്ടു്	-11.0108
▁കാലത്തോളം	-11.0108
▁സെബാൻ	-11.011
ച്ഛൻ	-11.011
▁ഉള്ളാലെ	-11.011
▁നിവർന്നിരുന്നു	-11.011
▁മുഴുക്കെയും	-11.011
▁മാരി	-11.0111
▁കഴിയട്ടെ	-11.0111
▁പറയുകയാണെങ്കിൽ	-11.0111
▁അദ്ഭുതപ്പെട്ടു	-11.0111
▁പാകത്തിൽ	-11.0111
▁സമൃദ്ധമായ	-11.0113
▁അക്രമ	-11.0113
▁തമ്പുരാന	-11.0114
▁റോഡിന്റെ	-11.0114
▁അളവറ്റ	-11.0114
▁രസിച്ചു	-11.0115
▁അനങ്ങാൻ	-11.0116
▁ശ്രീകോവില	-11.0116
▁നാലാം	-11.0116
▁നഗ്നത	-11.0116
രാണു്	-11.0117
▁പട്ടികയിൽ	-11.0117
▁നമ്മളുടെ	-11.0117
ന്മാരാണു്	-11.0118
▁ബുക്കു	-11.0119
▁വന്നിരുന്നു്	-11.0119
▁ബ്ലൗസിന്റെ	-11.0119
▁ഹാസ്യ	-11.0119
▁പുൽ	-11.0119
▁വിചാരിക്കുക	-11.012
▁ആദ്യമേ	-11.012
▁ഇല്ല്യ	-11.012
▁എന്നിവയിൽ	-11.012
▁മനോരാജ്യത്തിൽ	-11.0121
▁അവയെല്ലാം	-11.0121
▁ജയിക്ക	-11.0121
▁കെട്ടഴിച്ചു	-11.0122
▁പക്ഷികള	-11.0123
▁ഉണ്ടൊ	-11.0123
▁ഗ്രേസിയെ	-11.0123
▁ക്ഷണിച്ച	-11.0124
▁കുഞ്ഞിനെ	-11.0124
▁ഡൽഹിയിൽ	-11.0125
▁മാസത്തെ	-11.0125
▁സാദ്ധ്യത	-11.0127
▁ഓർമ്മണ്ടോ	-11.0127
▁വസ്തുക്കള	-11.0127
▁വൈകിയാൽ	-11.0127
▁വേദനിപ്പിച്ചു	-11.0127
ീശ്വര	-11.0128
▁എന്നോർത്തു്	-11.0128
▁മോക്കു്	-11.0129
▁മട്ടിലാണു്	-11.0129
▁ശോഭ	-11.013
ിലേറെ	-11.0131
▁എഴുന്നേറ്റപ്പോൾ	-11.0131
▁പ്രയാസമായ	-11.0131
▁കഴുത	-11.0132
▁ഒഴി	-11.0132
▁ശരീരത്തിന്റെ	-11.0132
▁അതിൽപിന്നെ	-11.0133
▁യാതൊന്നുമില്ല	-11.0133
▁അരച്ച	-11.0134
▁സമീപത്തു്	-11.0134
▁കൊണ്ടിരിക്കുന്ന	-11.0135
▁പത്തര	-11.0136
▁പട്ടു	-11.0136
യെടുക്കാൻ	-11.0136
▁പ്രതികാര	-11.0136
▁തയ്യാറാണു്	-11.0137
▁രണ്ടുദിവസം	-11.0137
ിരി	-11.0137
▁മനോവികാര	-11.0137
നായർ	-11.0138
▁ബാക്കിയൊക്കെ	-11.014
▁ഹിന്ദി	-11.0141
▁മനസ്സിലാവാൻ	-11.0141
▁പോവ്വാണു്	-11.0142
▁പെൺകിടാവു്	-11.0142
▁മേലോട്ടു്	-11.0142
മെന്നും	-11.0142
▁അദ്ദേഹത്ത	-11.0143
▁എത്തിക്കഴിഞ്ഞ	-11.0143
യെന്നോണം	-11.0143
▁ഞാനിന്നു്	-11.0143
▁പകർത്ത	-11.0143
യ്ക്കാം	-11.0143
▁കയറിപ്പോയി	-11.0144
▁അത്രയൊന്നും	-11.0144
▁പൊറത്തു്	-11.0144
▁കിട്ടാനുള്ള	-11.0145
▁മതിയാക്കി	-11.0145
▁സഞ്ചരിക്ക	-11.0146
▁കുടഞ്ഞു	-11.0147
▁വിസ്മരിച്ചു	-11.0147
▁സംശയങ്ങൾ	-11.0148
▁ഇരിക്കൂ	-11.015
▁ഇവർക്കു്	-11.0151
▁ചിലതൊക്കെ	-11.0151
▁ജീവിക്കുന്നതു്	-11.0152
▁തയ്യാറായിരുന്നു	-11.0155
▁അടുപ്പിൽ	-11.0155
▁അവസാനമായി	-11.0156
▁ഉന്മേഷവും	-11.0156
▁ആയിട്ടില്ല	-11.0156
▁അനുവദിച്ചു	-11.0157
▁സ്ത്രീരത്ന	-11.0157
▁കുഞ്ഞുങ്ങളെ	-11.0159
▁ക്ഷോഭ	-11.016
▁കേൾക്കാതെ	-11.016
▁ഭവനം	-11.0161
▁നടന്നിരുന്നതു്	-11.0161
▁വേണ്ടത്ര	-11.0163
▁പ്രകടന	-11.0163
▁കിട്ടുമെന്നു്	-11.0164
▁ഒമ്പത	-11.0165
▁കമ്പനിയുടെ	-11.0165
▁മറഞ്ഞ	-11.0165
▁രാമാനുജൻരാജാവ	-11.0166
▁പോകേണ്ടതു്	-11.0167
▁പതിനേഴു	-11.0168
▁നിരാശനായി	-11.0169
▁മിണ്ടിയ	-11.0172
യായിട്ടാണു്	-11.0173
▁അമേരിക്ക	-11.0174
▁ലോകത്തിന്റെ	-11.0174
▁വേലിക്കപ്പുറത്ത	-11.0175
▁ഏട്ടനും	-11.0176
▁ജീവനുള്ള	-11.0176
പ്പഴ	-11.0176
വെച്ചതു്	-11.0178
യിരിക്കയാണു്	-11.0178
ിട്ടുള്ളൂ	-11.0181
▁ജന്മനാ	-11.0182
▁വിരിഞ്ഞു	-11.0182
▁കഴിച്ചിട്ടു്	-11.0182
▁വന്നുചേർന്നു	-11.0182
▁തീരുമാനം	-11.0184
ിയ്ക്കുന്ന	-11.0185
▁പെരുമാറുന്ന	-11.0186
▁നിഷ്കർഷ	-11.0189
▁പട്ടണം	-11.0191
▁പഴം	-11.0191
▁ആഴ	-11.0193
▁നിന്നോടു	-11.0194
▁മുക്കാലും	-11.0194
▁മധുരമായ	-11.0194
▁പ്രസവം	-11.0195
▁നളിനിയുടെ	-11.0195
▁മറുപടിയായി	-11.0198
▁പരിചയക്കാര	-11.0199
▁പതറി	-11.02
▁നെഞ്ചിടിപ്പ	-11.0203
▁മനോഹരനു്	-11.0203
രഹിതമായ	-11.0203
▁നിശ്ശബ്ദം	-11.0204
▁പതിനെട്ടു	-11.0204
പോന്ന	-11.0205
▁കണിശമായ	-11.0205
▁പൊൻ	-11.0206
▁പ്രകാരത്തിലും	-11.0206
▁ഒരെഴുത്തു	-11.0207
▁ഭൂമിയുടെ	-11.0209
▁ജാള	-11.0209
▁വെയ്ക്കുന്ന	-11.021
▁ചെമ്പ	-11.021
ുകയില്ലായിരുന്നു	-11.021
ാണെങ്കിലോ	-11.0211
▁പെട്ടെന്നുള്ള	-11.0212
▁ഭയന്നു്	-11.0213
▁കുറിപ്പു്	-11.0214
▁നിങ്ങളാണു്	-11.0215
▁തിരുമേനിയെ	-11.0215
▁സന്തോഷമാണു്	-11.0217
▁ഗെയ്റ്റ്	-11.022
▁അകലം	-11.0222
ച്ചെടികൾ	-11.0223
▁കാണേണ്ടതു്	-11.0223
▁എഴുതിയിരുന്നു	-11.0224
▁കൈത്തണ്ട	-11.0225
▁നമ്പൂതിരിയുടെ	-11.0225
▁വീടുകൾ	-11.0227
▁നീന്തി	-11.0229
▁തോന്നിത്തുടങ്ങി	-11.0229
▁വിവാഹത്തിന്നു്	-11.0231
▁കോഴിയുടെ	-11.0232
▁കൊമ്പു	-11.0233
▁പങ്കിട	-11.0234
▁പോകുക	-11.0234
▁അട്ടി	-11.0234
▁സഹായിക്കും	-11.0236
▁പത്രങ്ങൾ	-11.0236
ടഞ്ഞു	-11.0237
▁ഗംഭീരമായ	-11.0237
▁ബർനാഡ്	-11.0237
ക്കാലത്തു	-11.0239
രുള	-11.024
▁നിർബന്ധ	-11.024
▁ഉറങ്ങിക്കിടന്ന	-11.0241
▁വാങ്ങിക്കൊടുത്ത	-11.0241
ത്തിലെത്തി	-11.0243
▁ചെന്നുനിന്നു	-11.0244
▁ഈമാതിരി	-11.0244
▁വാർ	-11.0245
▁എഡോൾഫിയും	-11.0246
▁വിഷം	-11.0248
▁പറഞ്ഞതുപോലെ	-11.0251
▁പേരുടെ	-11.0251
▁കേറിവന്നു	-11.0252
▁വിപ്ലവ	-11.0256
ുന്നുണ്ടെന്ന	-11.0258
കൊല്ല	-11.0258
▁കേസ്സ്	-11.0259
▁പരമാർത്ഥ	-11.026
▁പാക	-11.0261
ിട്ടുമില്ല	-11.0262
▁ഇരിപ്പു	-11.0263
▁അനുകൂലമായി	-11.0264
കൊടുത്താൽ	-11.0264
ുന്നതായും	-11.0264
▁ഇന്ദിരയെ	-11.0265
▁തുടങ്ങുന്നതു്	-11.0266
▁തൂണ	-11.0267
ുന്നതായി	-11.0268
െഴുന്നേറ്റ	-11.0269
▁ഉള്ളപ്പോൾ	-11.0269
▁സങ്കല്പിച്ചു	-11.027
▁വീര്യം	-11.0271
▁മോളും	-11.0272
▁കൊട	-11.0273
▁ഉപായ	-11.0274
▁കുറ്റപ്പെടുത്ത	-11.0274
▁അതിയായ	-11.0275
▁ശാസിച്ചു	-11.0276
▁കൂടിയുണ്ടു്	-11.0278
▁പാറുകുട്ടിയുടെ	-11.0278
▁അനുരാഗവും	-11.028
ിറങ്ങുമ്പോൾ	-11.028
▁പ്രകാശിക്കുന്ന	-11.028
▁മതം	-11.0282
▁തുന്ന	-11.0282
ാറുണ്ടായിരുന്നു	-11.0284
▁എൽ	-11.0285
▁പോകാമെന്നു	-11.0286
▁താമസിക്കുന്നതു്	-11.0287
▁പ്രകടിപ്പിക്ക	-11.0287
ചെയ്വാൻ	-11.0288
▁ഇതില	-11.0291
▁കൂട്ടത്തില	-11.0292
ണമെന്നോ	-11.0293
▁പൂട്ടിയിട്ട	-11.0294
നോക്കിയാൽ	-11.0295
▁ഓട്ടം	-11.0297
▁ജീവിതവും	-11.0302
▁എന്നായി	-11.0306
▁പൊളി	-11.0307
▁നാലോ	-11.0308
ാകയില്ല	-11.031
▁ഇന്ദിരേ	-11.0313
സ്ക	-11.0313
▁ചേട്ട	-11.0313
▁കാട്ടാന	-11.0314
▁തട്ടിൻപുറത്തു്	-11.0316
▁അടുത്തേക്കു്	-11.0316
▁രാമാ	-11.0317
ുന്നതവൾ	-11.0319
▁ഉള്ളിലുള്ള	-11.0319
ിലി	-11.0321
▁ലോകത്തെ	-11.0322
▁ലോകത്തില	-11.0323
യിടത്തു	-11.0329
▁അടുത്തുചെന്നു്	-11.0331
▁ഗ്ലാസു	-11.0331
ന്നിരുന്നു	-11.0332
▁ബസ്സ	-11.0333
▁എന്തിന്നു	-11.0333
▁മുറിവ	-11.0333
▁കണ്ണി	-11.0335
▁വിട്ടുകളയ	-11.0336
▁ഒരേടത്ത	-11.034
▁ലയിച്ചു	-11.0343
▁വളച്ചു	-11.0345
▁നക്ഷത്ര	-11.0347
▁രൂപത്തിൽ	-11.0349
ദാര്യം	-11.0351
▁മധുരം	-11.0352
ഞ	-11.0355
▁പരിപൂർണ്ണമായ	-11.0358
▁ഓടുന്ന	-11.0362
▁ലക്ഷ്മിഅമ്മയുടെ	-11.0363
▁ദയാ	-11.0367
▁കടലിൽ	-11.0368
▁തണുപ്പു	-11.0368
▁പോക്കു്	-11.0368
▁ഭേദമായ	-11.0369
▁നിർബ്ബന്ധിക്ക	-11.0369
▁പുലർത്താൻ	-11.037
▁കുറച്ചുനേരത്തേ	-11.037
▁സാധിക്കുമ	-11.0371
▁നാടു്	-11.0371
നാട	-11.0373
▁അടുക്കി	-11.0374
▁എന്നെല്ലാം	-11.0374
യിരിക്കുകയാണു്	-11.0375
▁മരിച്ചതു്	-11.0376
▁കള്ളു	-11.038
▁താമസമ	-11.0381
▁ജപിച്ചു	-11.0384
ാരുമില്ല	-11.0384
▁വറ്റ	-11.0384
മായിത്തോന്നി	-11.0384
▁തോട്ടക്കാരന	-11.0385
▁ഒരുവളെ	-11.0387
ക്കൊടുത്ത	-11.039
▁ചെലവു	-11.0391
▁മുറിയിൽനിന്നു്	-11.0392
▁പടിക്കല	-11.0393
▁പകലും	-11.0394
▁പാർട്ടിയ	-11.0394
▁കൊണ്ടുവരും	-11.0395
ിരുന്നാൽ	-11.0401
▁പേരുകൾ	-11.0401
▁ഭാര്യക്കു	-11.0402
▁അപ്പുറത്തു	-11.0404
തിന്ന	-11.0405
▁ലഘു	-11.0406
▁നിന്ദ	-11.0409
▁പരിചിതമായ	-11.041
▁കൊഴ	-11.0411
ശാലയിൽ	-11.0412
▁കേൾക്കൂ	-11.0413
▁പ്രമാണി	-11.0413
▁വിചാരണയ്ക്കു	-11.0414
▁ശമിച്ചു	-11.0415
▁അപ്പച്ചന	-11.0417
കണ്ണ	-11.042
▁കിട്ടീ	-11.0421
പോയതാണു്	-11.0421
▁ചൂടും	-11.0425
▁പതുങ്ങി	-11.0426
▁ഇവനു	-11.0427
യാവാം	-11.0428
▁ആയിരുന്നില്ല	-11.0432
വിളക്കു	-11.0436
▁പാടെ	-11.0437
▁വായിക്കാന	-11.0438
▁ഗർഭം	-11.0443
ൻസി	-11.0444
ിനോടൊപ്പം	-11.0451
▁അനുഭവിക്കേണ്ടി	-11.0454
▁മിനുസ	-11.046
പദ	-11.0461
ലക	-11.0461
▁ചോദ്യങ്ങള	-11.0462
▁സുഖക്കേടു്	-11.0462
▁വേണമെന്ന	-11.0463
റോ	-11.0465
ുമ്പോഴേയ്ക്കും	-11.0467
ത്തേക്കു്	-11.0469
▁അപരിചിതമായ	-11.0472
നേരത്തോളം	-11.0475
▁പരവതാനി	-11.0477
▁ഇന്ന്	-11.0477
▁ശേഖര	-11.0478
▁കളവു്	-11.0481
ർഗ്ഗ	-11.0482
ക്കെന്താ	-11.0483
▁ഉടുപ്പുകള	-11.0485
▁ബോധവും	-11.0485
ങ്ങളെയും	-11.0486
▁പൈപ്പ	-11.0486
▁ടിക്കറ്റു	-11.0487
ില്ലായ്മ	-11.0487
▁ഷോപ്പ	-11.0488
▁ഏൽപ്പിച്ച	-11.0489
വെച്ചിട്ടുള്ള	-11.0492
▁കഥയാണു്	-11.0497
െല്ലാമ	-11.0499
വാനാണു്	-11.05
▁സൂക്ഷിക്ക	-11.0503
▁എറങ്ങ	-11.0503
ങ്ങട്ടു്	-11.0505
▁പറമ്പു	-11.0508
ിലുണ്ടു്	-11.0509
▁കാച്ച	-11.0511
▁ചോദ്യത്തിനു	-11.0512
▁തീക്ഷ്ണമായ	-11.0512
ബാക്കിയുള്ളവരുടെ	-11.0512
▁ഉദാഹരണമായി	-11.0512
▁നില്ക്കുകയ	-11.0515
▁ഏർപ്പെട്ട	-11.0517
▁നവീന	-11.0518
▁അറ്റത്ത	-11.0521
ക്കാണുന്ന	-11.0523
▁എടുക്കുന്ന	-11.0524
േക്കിറങ്ങി	-11.0524
▁മടങ്ങുന്ന	-11.0525
▁വെച്ചാണു്	-11.0528
▁പൊളിച്ചു്	-11.0529
ുകളിലെ	-11.0529
്യൂട്ട	-11.0534
▁കൂടു്	-11.0536
▁ചെയ്യണ	-11.0537
പൊളി	-11.0539
▁കരയുന്നതു	-11.0539
▁കള്ളം	-11.0539
▁പല്ലു്	-11.0542
▁കൊണ്ടെ	-11.0544
▁മറ്റുള്ളവർക്കു	-11.055
▁കാണുമെന്ന	-11.0551
ിട്ടുണ്ടാവുക	-11.0553
▁മുഖത്തുനിന്നു	-11.0555
▁ദുഃഖം	-11.0556
▁വേദനയുടെ	-11.0557
ട്ടുണ്ടു്	-11.0558
▁പണമുള്ള	-11.0559
▁അറിവാൻ	-11.0562
▁ഒട്ടി	-11.0564
ബലം	-11.0565
ൊഴിഞ്ഞ	-11.0565
▁നേരമ്പോക്കു	-11.0566
▁അഭിപ്രായത്തിൽ	-11.0569
▁കമ്പനിയിൽ	-11.0571
▁എവിടെയാണെന്ന	-11.0571
താണു	-11.0573
▁ക്ഷമിക്ക	-11.0579
▁കാറ്	-11.0579
▁തേങ്ങല	-11.058
കിട്ടാൻ	-11.0582
▁പറയാതിരിക്ക	-11.0584
ക്കല്ലെ	-11.0587
▁സംബന്ധിച്ച	-11.0591
▁സ്റ്റേഷന	-11.0591
റിയാമോ	-11.0597
▁അവകാശി	-11.06
▁കടലാസു	-11.0602
▁ഇല്ലയോ	-11.0604
▁നോക്കിയിരിക്ക	-11.0604
▁കുട്ടിക്കു	-11.0604
ണ്ടാന്നു്	-11.0607
▁എന്നാലൊ	-11.0615
▁പ്ല	-11.0619
▁നിലനില്ക്ക	-11.0622
വഹ	-11.0624
▁ഏറ്റെടുത്തു	-11.0627
ിനൊപ്പം	-11.0628
▁സ്വമേധയാ	-11.0629
▁ഇരുന്നേടത്ത	-11.0632
▁പറയണ	-11.0634
▁തന്നെപ്പോലെ	-11.0639
▁പ്രാണ	-11.0639
ിട്ടുണ്ടാവില്ല	-11.0639
▁മൂക്കിൽ	-11.064
േണ്ടിവരുന്ന	-11.0641
▁കരുതുന്ന	-11.0642
▁അതിന്നും	-11.0643
▁നാട്ടി	-11.0646
▁പിടികൂടി	-11.0647
യുണ്ടാവില്ല	-11.0648
▁കാണണ	-11.0654
ൊരാള	-11.0656
▁അച്ഛനോടു	-11.0661
തൃ	-11.0662
▁മീന	-11.0662
▁ഇഷ്ടപ്പെട്ടില്ല	-11.0664
▁കാംക്ഷിക്ക	-11.0667
▁പരിശോധിച്ച	-11.067
▁വീടുകളിൽ	-11.0671
▁പിള്ളേര	-11.0673
▁വലിച്ചുകൊണ്ടു	-11.0674
▁പിരിഞ്ഞ	-11.0678
▁തിരുവാതിര	-11.0684
▁വരുമ്പോഴ	-11.0686
സ്ഥാനത്തു	-11.0686
വയ്യാത്ത	-11.0686
▁കുട്ടിയായ	-11.0687
▁ചെയ്യില്ല	-11.0689
നടന്ന	-11.0689
പ്പെടേണ്ട	-11.069
പോകുമ്പോൾ	-11.0693
▁എഴുതുന്ന	-11.0695
വല്ലോ	-11.0695
▁മാറ്റിയ	-11.0697
▁ചരടു	-11.07
▁സാദൃശ്യ	-11.0703
▁നിലാവു	-11.0703
ാവുന്നതാണു്	-11.0704
▁നടക്കാന	-11.0705
▁പോയതാ	-11.0705
മാകുന്നതു്	-11.0707
ക്കേണ്ടതു്	-11.0708
▁അക്ഷമനായി	-11.0709
▁പിരിച്ച	-11.071
▁മുന്ന	-11.0711
▁വരുന്നുണ്ടെന്നു	-11.0716
▁സ്പ	-11.0718
▁പുത്രി	-11.0719
പോകുമായിരുന്നു	-11.072
▁കഴിവു	-11.0725
▁തന്നോട	-11.0725
▁പാത്രത്തിൽ	-11.0726
▁ഒട്ട	-11.0733
▁മുറികള	-11.0734
▁കുമ്പ	-11.0735
▁മറുപടിയും	-11.0736
▁വൈകുന്നേര	-11.0741
▁പ്രപഞ്ച	-11.0741
▁കഴുകിയ	-11.0742
ായിരുന്നില്ലെ	-11.0742
▁കാലുകള	-11.0743
▁എസ്സ	-11.0743
▁സമ്മാനിച്ചു	-11.0743
▁സൂക്ഷിച്ചു്	-11.0745
▁വരാമെന്നു	-11.075
ക്കാരനായിരുന്നു	-11.0754
▁ഒന്നുമല്ല	-11.0758
യിലൊരു	-11.0758
▁ചുമരു	-11.0767
▁കാര്യത്തിന	-11.0767
▁ചേച്ചിക്കു	-11.0768
▁വണ്ടിക്കു	-11.0769
▁കുനിഞ്ഞ	-11.077
▁കുറിച്ചു	-11.0772
▁മടിയ	-11.078
കൂ	-11.0784
ങ്ങളോടെ	-11.0788
▁ലാഭ	-11.0788
▁പത്തു്	-11.0804
▁കരുതിയിരുന്ന	-11.0805
പേക്ഷ	-11.0809
ക്കുന്നുണ്ടു്	-11.0812
ക്കെട	-11.0815
▁ആശ്രമത്തിലെ	-11.0816
▁താടിക്കാര	-11.0819
▁നോട്ട്	-11.0822
▁വണ്ടർലാൻഡ	-11.0823
വാദി	-11.0824
▁വന്നിട്ട	-11.0826
▁ചിറ	-11.0828
▁വെച്ചിരിക്കുന്ന	-11.0829
▁തന്നെത്തന്നെ	-11.0829
▁അടുത്താണു്	-11.0831
▁നിണക്ക	-11.0832
തിലുള്ള	-11.0836
▁തടാക	-11.0836
▁ചടങ്ങ	-11.0844
▁മുഴുവനായി	-11.085
മല്ലെ	-11.0851
▁കാലവും	-11.0853
ചുറ്റ	-11.0853
▁പതുങ്ങിയ	-11.0854
▁സ്ഥലത്തു	-11.0855
▁പരമാർത്ഥമ	-11.0856
▁സഹിച്ച	-11.0856
▁വഴുതി	-11.0862
▁കൊണ്ടുവെച്ചു	-11.0864
യ്ക്കണം	-11.0869
▁പിന്നിലായി	-11.0869
ാവുമ്പോ	-11.0874
തായിരിക്കുമോ	-11.0876
▁പറയുകയില്ല	-11.0877
▁ഭാവിച്ചു	-11.0882
▁ആനക്കു	-11.0885
ഭാവവും	-11.0885
വൃത്ത	-11.0885
ിയെപ്പോലെ	-11.0886
▁ജന്തു	-11.089
▁വെന്ത	-11.089
▁മേലാ	-11.089
ചിത്ര	-11.089
▁ചോദിക്കുക	-11.0895
വൾക്കു്	-11.0897
▁പൂന്തോട്ട	-11.0897
▁വീര്യ	-11.0898
▁അറിയാവുന്ന	-11.0902
▁ദൃഷ്ടിയിൽ	-11.0904
▁സംഗതിയ	-11.0904
രാൻ	-11.0908
▁അവളെപ്പറ്റി	-11.0909
▁ബസ്സില	-11.0909
ില്ലെങ്കിലോ	-11.0911
▁ബെഞ്ച	-11.0915
▁മുട്ടുന്ന	-11.0925
▁ഭവന	-11.0926
▁സൗകര്യം	-11.0928
▁പ്രസിദ്ധീകരിച്ച	-11.0928
▁മനസ്സിലാകും	-11.093
ുന്നുണ്ടാകും	-11.0933
മില്ലെങ്കിൽ	-11.0933
ാരാ	-11.0935
▁അറിയുക	-11.0935
▁മണിയെ	-11.0938
▁നാരായണ	-11.094
▁ഭയപ്പെടുന്ന	-11.0941
▁കൈകാര്യം	-11.0942
▁വിടു	-11.0942
▁അസ	-11.0943
ൂൺ	-11.0945
▁തോള	-11.0945
പള്ളി	-11.0946
▁വെറുപ്പു	-11.0946
തെന്തിനാ	-11.0948
േഴ്സ	-11.0949
ണർത്ത	-11.0949
▁എത്തിച്ചേർന്ന	-11.095
▁ബർനാഡ	-11.0952
▁ഉയർത്ത	-11.0954
▁അകത്തേക്ക	-11.0956
ുമ്പോഴോ	-11.0957
▁ഇടിവെട്ട	-11.0961
▁ആകാശത്തു	-11.0963
▁വഴിയെ	-11.0966
▁ബദ്ധപ്പെട്ടു	-11.0966
▁ജോലിയെടുത്ത	-11.0967
രഹിത	-11.0972
ക്കാലം	-11.0976
▁കാന്ത	-11.0976
▁ഉള്ളിലേയ്ക്കു	-11.0977
ന്തര	-11.0981
▁കൊള്ളാമെന്ന	-11.0982
▁ശി	-11.0983
▁മേനോന	-11.0984
▁പ്രദേശ	-11.0984
▁തുടരുന്ന	-11.0987
▁വ്യ	-11.0987
▁കൊള്ളരുതാത്ത	-11.099
മാണുള്ളതു്	-11.0994
ോപ	-11.0996
പിന്നെ	-11.0997
▁പത്തായപ്പുരയിൽ	-11.0998
▁വിശദമായി	-11.0999
▁നടന്നുതുടങ്ങി	-11.1002
▁കൃഷിക്കാരന	-11.1005
▁നിഗൂഢ	-11.1006
്രത്യക്ഷപ്പെട്ടു	-11.1006
▁സരളയ്ക്കു	-11.1007
▁എന്തുപറ്റി	-11.1007
▁സ്വരൂപ	-11.1009
ാത്തവണ്ണം	-11.1011
ുള്ളവർ	-11.1011
▁തന്നു്	-11.1012
▁വെക്കുന്ന	-11.1013
ക്ഷോഭ	-11.1015
ഭയം	-11.1016
▁ആദ്യമായിട്ട	-11.1018
ീട്ട്ണ്ടു്	-11.1018
▁നോട്ടീസ്	-11.102
▁എതിർപ്പു	-11.102
▁വഴങ്ങി	-11.1022
▁കാര	-11.1027
▁കവുങ്ങ	-11.1029
▁വാക്യ	-11.1032
▁ആപ്പീസിൽ	-11.1037
▁പക്ഷി	-11.1038
െനിക്കു	-11.104
▁ദാമോദര	-11.104
▁പരുക്ക	-11.104
ക്കുമോ	-11.1041
സൂചകമായി	-11.1042
▁വെറ്റില	-11.1043
▁സ്ത്രീകൾക്കു	-11.1044
▁ഉള്ളിലേക്കു	-11.1045
വഴിയായി	-11.1045
▁ഒരിക്കല	-11.1048
▁സമീപത്ത	-11.1048
യിടാൻ	-11.1048
▁വീഴ്ത്ത	-11.105
െറിഞ്ഞു	-11.1052
▁കൊച്ചമ്മ	-11.1056
ാനാവുന്നില്ല	-11.1056
▁ആശയക്കുഴപ്പ	-11.1058
ക്കാറ്റു്	-11.1058
▁ഗുരുനാഥ	-11.1059
▁കിടത്തിയ	-11.1059
▁എട്ടുകെട്ട	-11.1059
▁ആലോചിച്ചിട്ടു	-11.106
▁പലവിധ	-11.106
കളയും	-11.1062
▁എഴുതാന	-11.1065
ിക്കട്ടെ	-11.1066
▁കല്ലുവിന്റെ	-11.1066
ുമാറു്	-11.1068
▁ഡോക്ടറ	-11.1068
▁പരത്ത	-11.1068
പ്പാനും	-11.1072
▁നിർവ്വികാര	-11.1074
ുണ്ടാകുമെന്നു്	-11.1075
▁മരണത്തെ	-11.1077
▁നിശ്വാസ	-11.1077
▁നീങ്ങിപ്പോക	-11.1079
▁തോന്നിച്ച	-11.1085
▁മെഴുത്തിരി	-11.1086
▁രണ്ടാമത്തേ	-11.1087
▁ഗുരുവായൂര	-11.1088
തുകൊണ്ടാവാം	-11.1089
▁തകരാറ	-11.1089
▁റിക്ഷ	-11.109
▁അനിയന	-11.109
▁കൊണ്ടിരുന്ന	-11.109
▁എടുപ്പ	-11.1091
യുമെടുത്തു്	-11.1091
▁വിശദീകരി	-11.1091
▁ദുരിത	-11.1092
▁മിഴി	-11.1092
പ്രവേശ	-11.1095
കാണിച്ചു	-11.1095
▁കമിഴ്	-11.1097
ശരീരം	-11.1098
▁അകമ്പടി	-11.1098
▁ഏണി	-11.1098
▁മുത്തച്ഛന	-11.1098
▁മിനക്കെട	-11.11
▁മോട്ടോർ	-11.11
▁ഊന്നി	-11.11
▁തൊട്ടാവാടി	-11.11
തന്നെത്താനറിയാതെ	-11.11
ോട്ടുമിങ്ങോട്ടും	-11.11
▁അങ്കമാലി	-11.11
▁അദ്ദേഹവും	-11.11
▁അയ്യപ്പന്റെ	-11.11
▁അവലംബിക്ക	-11.11
▁ഊം	-11.11
▁എല്ലായ്പോഴും	-11.11
▁ഒൻപതു	-11.11
▁കുഞ്ഞൂട്ടൻ	-11.11
▁ക്ലോക്ക്	-11.11
▁ഗുണദോഷ	-11.11
▁ഘടിപ്പിച്ച	-11.11
▁ഘട്ടം	-11.11
▁ചേലനാടനെ	-11.11
▁ജ്യോതി	-11.11
▁താങ്ക്സ്	-11.11
▁തിരുവനന്തപുരം	-11.11
▁തീപ്പൊരി	-11.11
▁നിരഞ്ജന	-11.11
▁പല്ലുകടിച്ചു	-11.11
▁പഴഞ്ചൻ	-11.11
▁പുറകിൽ	-11.11
▁പുലർച്ചെ	-11.11
▁പ്രൗഢ	-11.11
▁ഫ്രിജ്ജ	-11.11
▁ബിക്നി	-11.11
▁ബിരുദാനന്തര	-11.11
▁ബ്രഹ്മദത്തൻ	-11.11
▁ഭാഗ്യവശാൽ	-11.11
▁മച്ചിനച്ചി	-11.11
▁മഹത്തായ	-11.11
▁മൽഹോത്ര	-11.11
▁യഥേഷ്ടം	-11.11
▁യദൃച്ഛയാ	-11.11
▁യൂജീനും	-11.11
▁രാംശരൺ	-11.11
▁വൈക്കോൽ	-11.11
▁സാമൂഹ്യ	-11.11
▁സെക്രട്ടറി	-11.11
▁സർട്ടിഫിക്കറ്റ	-11.11
▁ഹർജി	-11.11
▁ഉമ്മറപ്പടി	-11.11
▁ഒരുവിധേന	-11.11
▁ഒരർത്ഥത്തിൽ	-11.11
▁ദക്ഷിണ	-11.11
▁പരിതസ്ഥിതി	-11.11
▁പാണ്ഡിത്യ	-11.11
▁രാജധാനി	-11.11
▁ശിരസ്സ	-11.11
▁ഇടക്കിടക്കു്	-11.11
▁ഗേയ്റ്റ	-11.11
▁ഡസൻ	-11.11
▁പ്രകൃതം	-11.11
▁സ്വദേശം	-11.11
വിവരിക്കവയ്യാത്ത	-11.1101
▁അങ്ങനെയിരിക്കെ	-11.1101
▁കെട്ടുവള്ള	-11.1101
▁ജയിലിൽ	-11.1101
▁വിധേന	-11.1101
▁ആരൊക്കെയോ	-11.1101
▁ജയരാമന	-11.1101
▁വീർപ്പുമുട്ട	-11.1101
▁സോഫ്റ്റ്	-11.1101
▁ഇന്നലത്തെ	-11.1101
▁ഫസ്റ്റ്	-11.1101
▁അതുമല്ലെങ്കിൽ	-11.1101
▁മുക്കാൽ	-11.1101
▁വെയർ	-11.1101
▁ബന്ധുക്കള	-11.1101
▁കുന്നിൻപുറത്തു	-11.1101
▁എത്രയെത്ര	-11.1101
▁കൺമുന്നിൽ	-11.1101
▁ബ്രാണ്ടി	-11.1101
▁സമ്പാദിപ്പാൻ	-11.1101
▁മരവിച്ചു	-11.1101
▁ശ്രീകൃഷ്ണ	-11.1101
▁അവശേഷിച്ച	-11.1101
▁ആലുവാ	-11.1101
▁അളിയൻ	-11.1101
▁വ്യക്തം	-11.1101
▁അയ്യൊ	-11.1101
▁ശോക	-11.1101
▁ബാൽക്കണിയിൽ	-11.1101
▁സേർ	-11.1101
▁പ്രബലമായ	-11.1101
▁കമാന	-11.1101
▁നിർഭയം	-11.1101
▁ഗർഭിണി	-11.1101
പ്രവാഹ	-11.1101
▁ഡാഡി	-11.1101
▁പണ്ടൊരിക്കൽ	-11.1101
▁ശിന്നമണി	-11.1101
▁പിറുപിറുക്ക	-11.1101
▁തോമാൻ	-11.1101
▁രാജേഷിന്റെ	-11.1101
▁ആകർഷിക്കത്തക്ക	-11.1101
▁ഒഴിച്ചുകൂടാത്ത	-11.1101
▁ആരുമറിയാതെ	-11.1101
▁നഴ്സിങ്	-11.1101
▁ലക്ഷ്യമാക്കി	-11.1102
▁ഒറ്റയടിപ്പാത	-11.1102
▁സ്വത്തുക്കള	-11.1102
▁ആയിക്കോട്ടെ	-11.1102
▁ഷേ	-11.1102
▁മിന്നല	-11.1102
▁അനവധി	-11.1102
▁വിതറി	-11.1102
▁ഹെഡ്	-11.1102
▁കേഷ്	-11.1103
▁പങ്കുകൊള്ള	-11.1103
▁നിസ്സഹായനായി	-11.1103
▁രാക്ഷസി	-11.1103
▁സമാധാനിപ്പിച്ചു	-11.1103
▁ചോദിപ്പാൻ	-11.1103
▁ആശ്വസിച്ചു	-11.1103
▁അങ്ങിനത്തെ	-11.1104
▁ഹൃദയപൂർവ്വം	-11.1104
▁തെന്നി	-11.1104
▁എതൃ	-11.1104
▁ആന്റീ	-11.1104
▁മാർക്കറ്റിൽ	-11.1104
▁ഭഗവാനേ	-11.1104
േച്ഛ	-11.1104
▁സ്വൈര	-11.1104
▁സൊല്ല	-11.1105
▁അപ്പക്കാരൻ	-11.1105
▁മോളടെ	-11.1105
▁വൈകിപ്പോയി	-11.1106
▁ഗുരുവിന്റെ	-11.1106
▁പണ്ടെത്തെ	-11.1106
▁പോലീസിനെ	-11.1106
▁അവര്ടെ	-11.1106
▁വരീൻ	-11.1106
ആയുധ	-11.1106
▁കീശയിൽനിന്നു്	-11.1107
▁പാപ്പിച്ചേട്ടൻ	-11.1107
▁മാറിമാറി	-11.1107
▁പറയേണമെങ്കിൽ	-11.1107
▁ടീച്ചറുടെ	-11.1107
▁മഴത്തുള്ളികൾ	-11.1107
▁പേടിക്കേണ്ട	-11.1107
▁നന്ദൻമേനോൻ	-11.1107
▁തൊള്ളായിരത്തി	-11.1107
▁പെണ്ണിന്നു്	-11.1107
▁വാതിലിന്നു്	-11.1107
▁മാത്രെ	-11.1107
▁തന്നാലെ	-11.1108
▁കുടുക്കുകൾ	-11.1108
▁വൈകുന്നേരത്തെ	-11.1108
▁സ്വപ്നത്തിലും	-11.1108
▁നുള്ളി	-11.1108
▁പൂക്കളുടെ	-11.1108
▁വാതിലിന്മേൽ	-11.1109
▁മിണ്ടാതിരിക്കൂ	-11.1109
▁കുറ്റമല്ല	-11.1109
▁മുന്തിരിങ്ങ	-11.1109
▁അഞ്ചെട്ടു	-11.1109
▁പറയാറില്ല	-11.1109
▁ചുവടു	-11.1109
▁കിഴക്കേ	-11.1109
▁ചെന്നൈ	-11.1109
▁സ്പർശിച്ച	-11.1109
▁വങ്ക	-11.1109
▁ചെയ്ക	-11.111
▁നെടു	-11.111
▁വ്യസനിക്കുന്നു	-11.111
▁ബുദ്ധിശക്തി	-11.111
▁സംസാരിപ്പാൻ	-11.1111
▁ഹോട്ടല	-11.1111
▁വ്യവഹാരം	-11.1111
▁തെളിയിച്ചു	-11.1111
▁സെബാന്റെ	-11.1111
▁മണിക്കൂറുകൾ	-11.1111
▁പാവപ്പെട്ട	-11.1112
▁കാളി	-11.1112
▁വണ്ടിക്കാരൻ	-11.1112
▁റെസ്റ്റോറണ്ടിൽ	-11.1112
▁വണ്ടർലാൻഡിന്റെ	-11.1112
നിന്നപ്പോൾ	-11.1113
▁പെരുമാറിയ	-11.1113
▁ആശ്ചര്യത്തോടെ	-11.1113
▁ധന്യ	-11.1113
▁ദിവസത്തേക്കു്	-11.1113
▁ആശ്രമത്തിന്റെ	-11.1114
▁കൊഴിഞ്ഞു	-11.1114
തുറന്നു്	-11.1114
▁പറയുന്നതൊക്കെ	-11.1114
▁എന്നറിവാൻ	-11.1114
▁എവിട്യാണു്	-11.1114
▁മുറ്റത്തേക്ക	-11.1114
▁ദയവു	-11.1114
▁ബീഡി	-11.1114
▁തൊണ്ണൂറു	-11.1114
▁ഞങ്ങളോടു്	-11.1115
▁തന്റേടവും	-11.1117
▁വളരെക്കാലം	-11.1117
▁തുന്നാൻ	-11.1117
▁താഴ്ച	-11.1118
പ്പൊതി	-11.1118
▁കാലടികൾ	-11.1118
▁ബാക്കിയെല്ലാം	-11.1119
▁കുറച്ചൊരു	-11.1119
▁തോന്നാറുണ്ടു്	-11.1119
▁കിട്ടുമോ	-11.1119
▁അങ്ങനെയൊരു	-11.1119
▁ഭയംകൊണ്ടും	-11.1121
▁ചന്ദ്രനെ	-11.1121
▁അടുക്കൽ	-11.1121
▁മുത്തി	-11.1121
▁തുളുമ്പി	-11.1121
്യന്നെ	-11.1122
ക്കാണണം	-11.1122
▁മയത്തിൽ	-11.1122
▁മരിച്ചാലും	-11.1122
▁കഴിയുമോ	-11.1123
▁പറവാനുണ്ടു്	-11.1123
▁കുതിർന്ന	-11.1123
▁വല്ലാതായി	-11.1123
▁അയാളേയും	-11.1124
▁സ്വാഗതം	-11.1125
▁അവിടംവിട്ടു	-11.1125
▁എല്ലാത്തിനും	-11.1125
▁പോയിരിക്കയാണു്	-11.1125
▁ധരിച്ചിരുന്നതു്	-11.1126
▁സമ്മതിച്ചാൽ	-11.1126
▁വികാരങ്ങളും	-11.1128
▁രണ്ടുകൊല്ലം	-11.1128
വരല്ല	-11.1128
രവം	-11.1129
▁വിചാരിക്കുമ്പോൾ	-11.113
▁പൊടിയ	-11.113
▁ഒന്നിലും	-11.1131
▁അനുകൂലിച്ചു	-11.1131
▁ദീർഘമായ	-11.1132
▁ചെയ്യാത്ത	-11.1132
▁ഭവാനിയുടെ	-11.1132
▁എല്ലാവരുടെ	-11.1132
▁മട്ടിലായിരുന്നു	-11.1132
▁പെരുമാറാൻ	-11.1132
▁ശൈലി	-11.1132
▁വിൽക്കാൻ	-11.1133
▁സമ്മതിക്കുന്ന	-11.1133
▁അടുക്കാൻ	-11.1133
▁അയാം	-11.1133
▁ഏട്ടാ	-11.1134
▁രാജ്യത്തിന്റെ	-11.1135
▁ഒന്നിന്നും	-11.1136
▁ആകാശത്തിന്റെ	-11.1136
▁തേങ്ങൽ	-11.1136
▁കോണിപ്പടിയുടെ	-11.1136
▁ജന്തുക്കള	-11.1136
▁കാര്യസ്ഥന	-11.1137
▁വാങ്ങാനുള്ള	-11.1137
▁വാതിലിലൂടെ	-11.1137
▁സൂക്ഷിക്കണം	-11.1137
▁രാത്രിയിലെ	-11.1138
▁കാത്തിരിപ്പ	-11.1138
▁പ്രാധാന്യം	-11.1138
▁അറിയാമോ	-11.1138
▁പറയുന്നതിൽ	-11.1138
▁പണ്ടങ്ങൾ	-11.1138
▁നടുവിലെ	-11.1139
▁ആഗ്രഹിച്ചു	-11.1139
നിൽക്കുന്നതു്	-11.1139
▁വാടകയ്ക്കു്	-11.1139
▁വാങ്ങാം	-11.114
▁സുഖമുള്ള	-11.114
▁നാടൻ	-11.1141
▁പുറപ്പെട്ടപ്പോൾ	-11.1141
▁പറ്റില്ലല്ലോ	-11.1141
▁കീശയിൽ	-11.1142
▁വഴക്കു	-11.1142
▁മാസമായി	-11.1143
ാഴ്	-11.1143
▁ട്രേ	-11.1143
▁അപ്പഴാണു്	-11.1143
▁നിർമ്മാണ	-11.1143
▁പ്രവർത്തിക്കാൻ	-11.1143
▁ഓർമ്മപ്പെടുത്തി	-11.1144
മാവും	-11.1144
സർ	-11.1144
ൂല്യ	-11.1144
▁നിർത്താതെ	-11.1145
▁വിട്ടുകൊടുത്ത	-11.1145
▁മോളിലു്	-11.1145
▁ദേഷ്യവും	-11.1146
▁പശ്ചാത്താപം	-11.1146
▁മിണ്ടാൻ	-11.1146
▁കൂട്ടിലിട്ട	-11.1146
▁ചുളിച്ചു	-11.1147
▁കുഞ്ഞിന്റെ	-11.1147
▁വിളിച്ചപ്പോൾ	-11.1147
▁ഹാനി	-11.1148
▁നന്നേ	-11.1148
▁കഷണം	-11.1149
▁ഇതാണോ	-11.1149
▁പതിവാണു്	-11.115
▁ദീർഘമായി	-11.1151
▁ഇരമ്പ	-11.1152
▁തെങ്ങു	-11.1153
▁സമുദ്രം	-11.1153
▁കഴിക്കാതെ	-11.1153
▁ചുരുങ്ങിയതു്	-11.1154
▁വാക്കുകളിൽ	-11.1154
▁ഉദാസീനത	-11.1154
▁ശരിയാണെന്നു്	-11.1154
▁ശരിക്കുള്ള	-11.1155
▁രവിയെ	-11.1155
മുണ്ട്	-11.1155
▁അടക്കാൻ	-11.1157
▁തട്ടാൻ	-11.1157
▁ആചാര	-11.1157
▁അന്നൊക്കെ	-11.1157
▁പാറുവമ്മയ്ക്കു്	-11.1157
▁പള്ളിയുടെ	-11.1158
▁നിലയിലെ	-11.1158
▁സംസാരിക്കാതെ	-11.1158
▁കറന്റ്	-11.1158
ിരുന്നതും	-11.1158
▁അടിമയ	-11.1159
▁വിശേഷിച്ചു്	-11.1159
▁മനസ്സിന്നു്	-11.116
▁പോകുന്നതെന്നു്	-11.116
▁പണ്ടത്തെപ്പോലെ	-11.1161
▁മണ്ടി	-11.1161
▁ഇരിക്കണം	-11.1161
▁നിർമ്മിച്ച	-11.1161
▁പ്രാപിക്ക	-11.1162
▁പോകൂ	-11.1163
▁എളുപ്പമല്ല	-11.1166
▁മെയ്	-11.1167
▁സമയത്തിന്റെ	-11.1167
▁അതിനുള്ളിൽ	-11.1168
▁മുമ്പിലു്	-11.1168
▁സ്വീകാര്യമ	-11.1169
▁തീർക്കാൻ	-11.1172
▁അവാർഡ്	-11.1172
▁ദയവുചെയ്തു്	-11.1172
▁അധികവും	-11.1173
യുമുണ്ടായിരുന്നു	-11.1173
▁ആഹാരം	-11.1174
▁അറിവിൽ	-11.1175
▁നിറത്തിലുള്ള	-11.1175
▁കിടന്നിരുന്നതു്	-11.1175
▁നീളെ	-11.1176
നോക്കിയപ്പോഴാണു്	-11.1176
▁കൈക്കലാക്കി	-11.1177
▁തിരിച്ചറിയുന്ന	-11.1177
▁വരുത്താൻ	-11.1178
മിനു	-11.1179
▁ഭംഗിയിൽ	-11.1179
േഴ്സ്	-11.118
▁മുറുകി	-11.118
▁നിർദ്ദയം	-11.1181
▁തങ്ങളെ	-11.1181
കൊള്ളും	-11.1183
▁തരുണിയുടെ	-11.1184
പാദ	-11.1184
▁കക്ക	-11.1185
ുന്നതിലും	-11.1186
▁സൗരഭ്യം	-11.1186
്യാസ	-11.1186
▁അസത്യ	-11.1188
▁ഭംഗം	-11.1188
▁വാക്കിന്റെ	-11.1189
▁നിലയിലാണു്	-11.1189
ുംവണ്ണം	-11.119
▁മറന്നുപോയി	-11.1191
▁പുറത്തേയ്ക്കു്	-11.1191
▁എന്നുതോന്നി	-11.1191
▁ശിപായിയും	-11.1192
വനായ	-11.1192
▁മറ്റൊന്നു്	-11.1192
▁കാര്യങ്ങളാണു്	-11.1193
▁കണ്ണാടിയുടെ	-11.1194
▁കഥകളുടെ	-11.1196
▁രോമം	-11.1196
▁പടിഞ്ഞാറ്റയിൽ	-11.1198
ടച്ച	-11.1198
െന്നുണ്ടോ	-11.1199
▁കളിക്കും	-11.12
▁ഫോണെടുത്തു	-11.12
▁പേരിന്റെ	-11.1201
▁പറയുന്നതാണു്	-11.1203
▁അക്കാലത്തു്	-11.1204
▁വഴിയേ	-11.1205
▁ഉറുപ്പികയുടെ	-11.1206
▁മനസ്സുകൊണ്ടു്	-11.1206
▁വിശദ	-11.1207
ിളക	-11.1208
▁ഏട്ടനു്	-11.1208
▁കയറ്റം	-11.1209
▁അമ്മച്ചിക്കു്	-11.121
▁പിള്ളയുടെ	-11.121
▁എന്ത്	-11.1212
ണമോ	-11.1212
▁ആലോചനകൾ	-11.1214
▁അതായിരിക്കും	-11.1214
▁പെണ്ണെ	-11.1215
▁ശകാരം	-11.1217
▁തേക്കു	-11.1218
ണിഞ്ഞ	-11.1218
▁ഏർപ്പാടു	-11.122
പൊട്ടി	-11.1221
▁ഭാരവും	-11.1221
▁ജോസഫേട്ടനും	-11.1221
▁എത്താൻ	-11.1223
▁എത്രമാത്രം	-11.1225
▁കഴിക്കും	-11.1225
▁അബദ്ധമ	-11.1226
▁കഴിഞ്ഞുള്ളു	-11.1226
▁വിളികേട്ട	-11.1227
▁സാധിക്കുമെന്നു്	-11.1227
▁ഊരാളിക്കുന്നി	-11.1229
▁ചുളിഞ്ഞു	-11.123
െടുക്കും	-11.123
▁പിടിയ്ക്ക	-11.1232
ണ്ട്ന്നു്	-11.1233
▁മാതാപിതാക്കന്മാ	-11.1233
▁വാത്സല്യം	-11.1236
▁സ്കെച്ച്	-11.1238
▁നിന്നിരുന്നതു്	-11.1239
കൂട്ടം	-11.1239
▁ചുണ്ണാമ്പു	-11.124
▁വായിൽനിന്നു്	-11.1241
കരവും	-11.1246
ഡ്ജ	-11.1246
ിറങ്ങുന്ന	-11.1247
▁തടം	-11.1247
▁നോക്കിയിട്ടു്	-11.1248
▁ഉണ്ടാവും	-11.1249
▁ആജ്ഞ	-11.1252
▁പരിചയമുണ്ട	-11.1255
▁കെട്ടോ	-11.1256
▁ചഞ്ചല	-11.1256
▁ആകാശത്തു്	-11.1257
▁എന്തായി	-11.1258
▁വരാന	-11.1258
▁കല്പിക്ക	-11.1258
▁നേരു്	-11.1258
▁ഒരാളാണു്	-11.1259
▁കാർഡ്	-11.1259
▁വിശ്വസി	-11.126
▁ചൂല	-11.1262
യുമായിരുന്നു	-11.1262
കളയൂ	-11.1262
▁ആരോഗ്യം	-11.1264
▁ചാൽ	-11.1264
▁സന്തോഷംകൊണ്ടു്	-11.1265
▁കുടിയ്ക്ക	-11.1267
ണ്ടാക്കിയ	-11.1268
▁ചെറുപ്പം	-11.1269
▁ഭർത്താവിനോടു	-11.1269
▁പൊട്ടിച്ചിരിച്ച	-11.1269
ൂല്ല്യ	-11.1269
▁എത്തിയിരുന്നു	-11.1271
▁ആപ്പീസ	-11.1281
▁ദൂരെനിന്നു്	-11.1283
▁അറിഞ്ഞിട്ട	-11.1284
▁കാലമാണു്	-11.1284
▁കിട്ടീതു	-11.1284
▁നഴ്സ്	-11.1284
▁റിപ്പോർട്ട്	-11.1285
▁എവിടെനിന്നു	-11.1286
ഭി	-11.1286
വയ്യ	-11.1288
ിഷ്ഠ	-11.1288
▁പറക	-11.1289
▁പൊന്തിച്ചു്	-11.1289
▁അവനോടു	-11.1291
മാത്രമല്ല	-11.1292
▁ബോട്ട	-11.1294
▁വഴങ്ങുന്ന	-11.1295
▁ചുമരും	-11.1295
▁കടന്നുവരുന്ന	-11.1297
▁ഭർത്താവിനു്	-11.1298
▁ന്യായം	-11.13
▁കൈക്കോട്ട	-11.1302
▁ചോദ്യങ്ങൾക്കു	-11.1302
▁അപ്പേട്ടനെ	-11.1303
▁കൂട്ടുകാരി	-11.1305
▁അടയാളം	-11.1307
▁കുടിയേറി	-11.1309
▁പാരവശ്യം	-11.1311
▁കൊറച്ചു	-11.1313
▁അരമണിക്കൂറ	-11.1315
▁ചെത്തി	-11.1316
▁എഴുപത	-11.1316
▁നൊസ്സ	-11.1316
▁വേലിക്ക	-11.1317
▁തോന്നിയാൽ	-11.132
വരുന്നതു്	-11.1321
▁വിരോധമ	-11.1323
▁കാണി	-11.1323
▁പണിക്കു	-11.1324
▁ഓടിനടക്ക	-11.1327
▁അടുത്തുനിന്നു്	-11.1328
▁ജപ	-11.1328
▁കോപവും	-11.1329
▁കേട്ടുതുടങ്ങി	-11.1331
▁കെണിയിൽ	-11.1332
▁സമയത്തിനു	-11.1338
▁ഉറപ്പുള്ള	-11.1338
▁കയ്യിൽനിന്നു	-11.1343
▁മൂക്കും	-11.1343
▁കുറെയായി	-11.1344
▁നശിപ്പിച്ച	-11.1347
▁ജന്നിയെ	-11.1348
▁കെടക്ക്വ	-11.1351
മായിരിക്കാം	-11.1352
▁സഹായിക്കുന്ന	-11.1352
▁എഴുതിവെച്ച	-11.1354
▁ട്ടോ	-11.1357
▁അവളൊന്നു	-11.1357
▁കാണാതായ	-11.1359
▁ആലോചി	-11.1363
▁ചെടികൾ	-11.1365
നിൽക്കാൻ	-11.1368
▁മറിച്ച	-11.137
തയിൽ	-11.137
▁സമയമായി	-11.1371
▁രാധയുടെ	-11.1371
▁താഴേയ്ക്കു്	-11.1371
▁ചിത്രത്തിനു	-11.1373
ൊടി	-11.1376
▁അത്യാവശ്യമായ	-11.1376
▁തുടുത്തു	-11.138
ത്തുമ്പ	-11.1384
▁ഓഫീസില	-11.1385
▁അനുരാഗിക്കുന്നു	-11.1385
▁ധൈര്യമില്ല	-11.1387
▁ചാല	-11.1391
▁കൊത്തി	-11.1392
▁ധാരാള	-11.1393
പ്പെടാത്ത	-11.1395
▁പണ്ടും	-11.1396
▁സംശയിച്ചുനിന്നു	-11.1398
യിലായി	-11.1399
▁വാശിയും	-11.1399
▁ചെറിയമ്മേ	-11.1402
▁എന്നതിൽ	-11.1402
▁നിർണ്ണയിക്ക	-11.1406
യല്ലെന്നു്	-11.1409
▁തിരക്കും	-11.1409
▁ധിക്കാരം	-11.1411
▁ഒരാളും	-11.1412
▁വിയർത്തു	-11.1418
▁മഴയുടെ	-11.1419
▁തനിച്ചു്	-11.1422
▁വായിയ്ക്ക	-11.1424
▁സൂത്രം	-11.1424
▁ഒപ്പംതന്നെ	-11.1431
ിലുണ്ടായ	-11.1432
ിലെത്തിയപ്പോൾ	-11.1434
▁പൂവും	-11.1435
വലിയ	-11.1436
▁പറയാതിരുന്നതു	-11.1442
▁കണക്കാക്കിയ	-11.1442
▁എന്നീ	-11.1443
▁പൊള്ളുന്ന	-11.1444
▁കുടയും	-11.1445
▁എന്തുകൊണ്ടു	-11.1445
ിട്ടുണ്ടെങ്കിൽ	-11.1446
▁കഴുത്തു്	-11.1447
▁കണ്ടിട്ടും	-11.1448
യുമല്ല	-11.1448
തിന്നും	-11.1449
▁വർദ്ധിക്ക	-11.145
▁ജോലിക്കാരി	-11.1451
▁ഏല്പിച്ചു്	-11.1452
▁സകലവും	-11.1452
▁ചടച്ച	-11.1452
▁മരപ്പണിക്കാര	-11.1453
▁ഗൂഢ	-11.1454
▁പുറത്തിറക്കി	-11.1454
▁കളിയാക്ക	-11.1455
തന്നെയാണെന്നു്	-11.1456
ക്കാകട്ടെ	-11.1456
ിട്ടുണ്ടായിരുന്ന	-11.1456
▁റെഡിയായി	-11.1457
ാഞ്ഞതു	-11.1458
▁കണ്ടില്ലേ	-11.1458
▁ഉചിത	-11.1463
▁തെളിച്ച	-11.1468
ിങ്ങിനെ	-11.1469
▁വിരുന്നു	-11.147
ായിരുന്നതുകൊണ്ടു	-11.1472
ള്ളതാണു്	-11.1472
▁കായ	-11.1474
▁ആരുടേ	-11.1476
▁വീശുന്ന	-11.1476
ചെയ്തു്	-11.1477
▁പിടിപെടുന്ന	-11.1479
▁തുറന്നിട്ടു	-11.148
▁കുരങ്ങ	-11.148
യായിരിക്കുമോ	-11.1481
ിനോ	-11.1481
ുമ്പോഴെല്ലാം	-11.1485
▁ചില്ലു	-11.1487
ാനുഭവം	-11.1488
യിട്ടിരുന്ന	-11.149
ണംന്നു്	-11.1492
▁പ്ലാന	-11.1493
ായിട്ടും	-11.1493
▁ഒന്നാ	-11.1494
▁മനസ്സിലാക്കീട്ട	-11.1495
യിലുണ്ടായിരുന്ന	-11.1495
▁താനെ	-11.1498
▁കൊടുക്കൂ	-11.1499
▁കാംക്ഷിച്ച	-11.1505
▁വീശ	-11.1507
വരിൽ	-11.1507
ാക്കാം	-11.1511
▁ഓർമ്മയുണ്ട	-11.1512
▁പാഞ്ഞ	-11.1513
വെച്ചിരുന്ന	-11.1519
ിടാൻ	-11.1523
നാമ	-11.1524
▁നിർമ്മിക്ക	-11.1526
▁ലക്ഷം	-11.1528
▁ബോദ്ധ്യമ	-11.1529
▁ആവർത്തിച്ച	-11.1529
▁കേട്ടിരുന്ന	-11.153
▁മുറിഞ്ഞു	-11.153
▁ധൃതിയായി	-11.1531
▁ഉപേക്ഷ	-11.1531
▁ജഡ്ജിയുടെ	-11.1534
▁മുറയ്ക്കു	-11.1537
▁നിറച്ചു്	-11.1538
▁അസ്ഥി	-11.1538
▁ചെയ്യൂ	-11.1542
▁ചിത	-11.1544
▁വൃത്തിയായി	-11.1545
▁ഇതുകൊണ്ടു്	-11.1546
▁വേറിട്ട	-11.1547
▁നാണ	-11.1549
▁ബോധ്യ	-11.155
▁കണ്ടുമുട്ടി	-11.1551
▁പ്രശംസിച്ച	-11.1554
▁പുഴയിൽ	-11.1554
▁സങ്കടപ്പെടുത്ത	-11.1555
▁അവളെത്തന്നെ	-11.156
ിത്തുടങ്ങ	-11.156
▁ശവ	-11.1562
▁പേരിട്ട	-11.1563
▁മനോരാജ്യം	-11.1566
▁ചുണ്ടുകള	-11.1568
മുണ്ട	-11.157
▁യാതൊര	-11.157
▁മറന്നില്ല	-11.1573
▁കാരണവ	-11.1574
യിരിക്കാൻ	-11.1582
▁കഥയുടെ	-11.1586
▁വഞ്ചി	-11.1586
▁ചുംബിച്ച	-11.1591
▁സന്നദ്ധ	-11.1594
▁കഷ്ടപ്പാടു	-11.1595
▁സ്ത്രീയാണു്	-11.1601
▁തെറിച്ചു	-11.1602
▁പോകുമെന്ന	-11.1605
▁ആവശ്യപ്പെട	-11.1609
▁മുന	-11.161
▁മഞ്ഞു്	-11.161
▁ചെയ്യപ്പെട്ട	-11.1611
▁ശീത	-11.1612
▁പറ്റിക്കാൻ	-11.1612
കത്തേക്കു്	-11.1612
▁ഇല്ലെ	-11.1615
നാശ	-11.1616
▁കേൾക്കു	-11.1617
െന്നറിയില്ല	-11.1626
▁അമർത്തിപ്പിടി	-11.163
യിരിക്കണം	-11.1631
കൊടുക്കാൻ	-11.1632
▁കർണ്ണ	-11.1632
▁ചുഴി	-11.1634
▁പട്ടണത്തിൽ	-11.1634
െപ്പറ്റിയാണു്	-11.1635
ലുള്ള	-11.1639
സംബന്ധ	-11.1639
▁വെള്ളത്തില	-11.1642
▁കവിള	-11.1646
▁അദ്ദേഹത്തിന	-11.165
▁ഉണ്ടായിരുന്നതു്	-11.1653
ക്കൊണ്ടുവന്നു	-11.1653
▁കൈകള	-11.1659
▁മുറിച്ച	-11.1661
▁ഇരുപതു്	-11.1661
▁കഷ്ണ	-11.1662
▁വളഞ്ഞ	-11.1667
▁ധൈര്യമ	-11.1669
കാര്യങ്ങൾ	-11.1669
▁തെറ്റിദ്ധരിച്ചു	-11.167
▁വാഹനങ്ങള	-11.1672
മഴ	-11.1675
ല്ലായിരുന്നു	-11.1678
▁നടുക്കു	-11.168
▁അറ്റത്തു	-11.1689
തയെ	-11.169
ിലായിരിക്കും	-11.1694
▁അഭിനന്ദിക്ക	-11.1698
▁കണ്ടിട്ടുണ്ട	-11.1704
ിനെയും	-11.1707
▁വലി	-11.1708
▁ആർക്കു	-11.1708
▁ഭാസ്കരനോടു	-11.1709
▁എന്നുപറഞ്ഞു	-11.1713
▁കാലിന്റെ	-11.1715
▁തീവ്രമായ	-11.1716
▁ഒഴിച്ച	-11.1718
▁കാര്യമെന്ത	-11.1721
ത്തിൽനിന്നും	-11.1721
തിലെ	-11.1722
▁ഇയാൾ	-11.1723
ങ്ങളുമായ	-11.1724
▁വിടില്ല	-11.1725
▁കത്തുകള	-11.1727
▁തങ്ങൾക്കു	-11.1732
ിപ്പിച്ചതു്	-11.1733
വന്നപ്പോൾ	-11.1736
മാണല്ലോ	-11.1738
തേയുള്ളൂ	-11.1739
▁കോലാഹല	-11.174
ിട്ടാണോ	-11.1743
▁അടുത്തെത്തിയ	-11.1744
▁ഇടത്തേ	-11.1746
ൊഴിച്ചു്	-11.1748
യെന്നപോലെ	-11.1748
▁കവിതയെഴുത	-11.175
▁ഗാഢമായി	-11.1753
▁ഗ്രഹ	-11.1754
▁ഇംഗ്ലീഷ	-11.1756
▁എന്തൊര	-11.1757
▁നിശ്ശബ്ദമായ	-11.1763
െഴുതുന്ന	-11.1765
▁കാരണമായി	-11.1769
▁ചുവ	-11.1772
▁എന്നാലോചി	-11.1773
ങ്ങൾക്കിടയിൽ	-11.1776
കടന്നു്	-11.1778
▁കണ്ടുമുട്ടിയ	-11.1779
നായരുടെ	-11.178
വിവരം	-11.178
▁പ്രഭു	-11.1786
▁മരുന്നു്	-11.1793
▁വളവ	-11.1796
▁കൈകളില	-11.1797
▁പൊട്ടും	-11.1797
▁പോക്കു	-11.1798
▁പിശാചു	-11.1803
▁സംസാരിക്കാന	-11.1805
റിഞ്ഞാൽ	-11.1805
▁അറിയൂ	-11.1806
ുണ്ടാക്കുന്നു	-11.1806
▁സംസ്കാര	-11.181
ിരിക്കകൊണ്ടു	-11.1816
▁തോന്നിയത	-11.1816
ണമായിരുന്നു	-11.1828
▁പന്ത്രണ്ട	-11.1829
ുകാരുടെ	-11.1832
പ്പോയിരുന്നു	-11.1833
▁കിടന്നുറങ്ങി	-11.1834
ക്കൊടുക്കും	-11.1835
▁കോഴിയെ	-11.1837
▁അർഹത	-11.1837
▁മണ്ണാങ്കട്ട	-11.1837
▁കിടക്കുകയ	-11.1842
വുമല്ല	-11.1843
▁സഞ്ചരിച്ച	-11.1844
▁വേഗത്തില	-11.1844
ീട്ടുണ്ടു്	-11.1846
ുകയുംചെയ്തു	-11.1851
▁ചെറുപ്പക്കാരനായ	-11.1852
വേർ	-11.1853
മായിട്ടാണു്	-11.1854
▁കാർഡ	-11.1854
▁പ്രതിഭാസ	-11.1859
▁നന്നെ	-11.1861
▁അവളേ	-11.1863
▁വെളുത്തു്	-11.1865
▁അമ്മേം	-11.1868
▁പരിപൂർണ്ണ	-11.1869
▁പറഞ്ഞാണു്	-11.1871
ടുക്കളയിലേയ്ക്കു	-11.1871
▁യോജിക്ക	-11.1876
▁ഇഷ്ടമായി	-11.1877
▁കൂവ	-11.1877
▁ഹോമകുണ്ഡത്ത	-11.1877
വലി	-11.1878
▁പേരില	-11.1878
▁വിദഗ്ദ	-11.1879
▁ശ്	-11.1881
▁കഴിച്ചിട്ടില്ല	-11.1887
▁കള്ളന്മാര	-11.1888
▁തെറ്റാണെന്നു	-11.1889
ിരിക്കുന്നതെന്നു	-11.1896
▁കുഞ്ചു	-11.1906
▁സ്കെച്ച	-11.1907
▁പിന്നെയാണു്	-11.191
യശേഷം	-11.1912
▁വിലയും	-11.1912
െന്നയാൾ	-11.1913
▁അപർണ്ണയെ	-11.1914
▁കഴിയില്ലെന്നു	-11.1914
▁വളരുന്ന	-11.1919
ക്കാരനാണു്	-11.1922
വെക്കും	-11.1922
താന	-11.1924
▁പെൺകുട്ടികൾക്കു	-11.1938
▁പതിച്ചു	-11.1943
സ്സിൽ	-11.1947
▁വഴിപാടു	-11.1948
▁വിടർന്ന	-11.1948
▁പെട്ടിയും	-11.1952
▁മറയ	-11.1958
▁വിദേശ	-11.196
▁അയാളുമായി	-11.1961
▁വിൽക്കുന്ന	-11.1963
▁അവസാനിക്ക	-11.1963
▁അരികില	-11.1968
വുമുണ്ടോ	-11.1969
▁ശര	-11.1973
▁പരിമിത	-11.1973
▁തഴ	-11.1974
▁പറയണമെന്ന	-11.1974
ണമെന്നാണു്	-11.1975
▁അടിച്ചു്	-11.198
▁തരുന്നു	-11.1986
ിലേയ്ക്കുള്ള	-11.1989
▁വാരിയ	-11.199
▁ഞാനറിയ	-11.1995
▁ഓള	-11.1997
▁അച്ചായ	-11.1998
▁പെട്ടെന്നവൾക്കു	-11.2003
▁നോക്കിത്തുടങ്ങി	-11.2004
▁നിയോഗ	-11.2004
▁വിറയല	-11.2005
▁അങ്ങട്ടു	-11.2006
ങ്ങളിലേക്കു്	-11.2006
▁സമ്മാനമായി	-11.2007
▁ധൈര്യപ്പെട്ട	-11.2007
▁മദ്യ	-11.2009
▁ഷാപ്പ	-11.2013
▁പൂർണ്ണമായി	-11.2019
ക്കാരാണു്	-11.202
▁അളവ	-11.2022
▁കഴിഞ്ഞാണു്	-11.2025
പൊട്ട	-11.2029
▁അറ്റാക്ക	-11.2036
കർമ്മ	-11.2037
▁കാത്ത	-11.2037
ദാര്യ	-11.204
ഭരണ	-11.204
▁വഴങ്ങ	-11.2042
▁മുഖത്തും	-11.2045
നീര	-11.2045
▁ചൈനാനിയെ	-11.2046
▁വീട്ടിൽത്തന്നെ	-11.2047
▁ബാങ്ക	-11.2049
▁എവിടെയാണ	-11.2051
▁അന്തർ	-11.2054
▁പാർട്ട	-11.2055
നോക്കിയ	-11.2057
▁പൊട്ടിച്ചിരി	-11.206
▁ആശ്വസി	-11.2061
▁അമേരിക്കയില	-11.2065
ീല്	-11.2067
▁വിറക	-11.207
തന്നെയല്ലേ	-11.207
▁കാടിന	-11.2072
▁പൊരുത്ത	-11.2075
▁സാമാന	-11.2078
ാവശ	-11.2079
▁പറേണതു	-11.208
▁ജീവിതമ	-11.2083
▁ആലോചിക്കേണ്ടത	-11.2086
ാനുള്ളതു്	-11.2087
▁കൊടുങ്കാറ്റ	-11.2087
സ്പർശ	-11.2088
ാവസ്ഥയിൽ	-11.2088
▁പറിച്ചു	-11.2089
യപ്പോഴേക്കും	-11.209
െപ്പോഴോ	-11.209
▁അദ്ദേഹത്തിന്ന	-11.209
▁പണമില്ലാത്ത	-11.2091
വയസ്സു	-11.2092
▁വീടിനെ	-11.2094
▁അറുമുഖന	-11.2096
▁കയറ്റിയ	-11.21
ദ്ഭുത	-11.2104
▁പെൺകുട്ടികളെ	-11.2105
▁കൈകൊണ്ടു	-11.2105
▁അദ്ദേഹമ	-11.211
▁ഞാനെന്തു	-11.2116
▁അഞ്ചു്	-11.2117
▁ഉപയോഗിക്ക	-11.2118
▁തോന്നുക	-11.2123
▁ആയാസ	-11.2126
ജന്തു	-11.2126
കൃഷ്ണ	-11.2127
▁മാറിനിന്നു	-11.2128
▁മത്സ്യ	-11.2129
െന്നറിയാം	-11.2129
▁അവശ	-11.213
▁ആയാൾക്കു	-11.2133
▁അറ്റത്തെ	-11.2134
▁ഇരുപത	-11.2136
▁വാചക	-11.2138
▁തങ്ങി	-11.214
▁അനിശ്ചിത	-11.2141
ചിഹ്ന	-11.2142
▁ഹാസസാഹിത്യ	-11.2143
▁അഭിലാഷ	-11.2143
▁മറ്റൊര	-11.2143
▁നാളികേര	-11.2144
▁ചാപല്യ	-11.2145
പൂച്ചക്കുട്ടി	-11.2147
കൊണ്ടുവരാൻ	-11.2147
▁കല്ല്യാണ	-11.2148
▁ഒളിച്ചിരിക്ക	-11.2148
▁കടും	-11.2151
▁മയങ്ങ	-11.2153
▁തന്നെയോ	-11.2154
▁കെടന്ന	-11.2156
▁ആകർഷിച്ച	-11.2157
▁അവശത	-11.2158
▁അമ്മയാണു്	-11.2158
▁ചാട്ട	-11.2159
ദ്രോഹ	-11.216
▁ആദരവ	-11.2162
▁ദൂരെനിന്നു	-11.2163
▁പ്രോനോട്ട	-11.2164
▁ഹാളില	-11.2164
▁സന്ദർഭത്ത	-11.2165
▁കിട്ടിയതുകൊണ്ടു	-11.2166
ചെയ്യാൻ	-11.2168
മരങ്ങൾ	-11.217
▁അടുത്തുനിന്നു	-11.217
▁പോരാത്ത	-11.2171
▁സോഡ	-11.2171
▁ശപിച്ചു	-11.2171
ോൺ	-11.2172
▁ദി	-11.2173
▁ജീർണ്ണ	-11.2173
▁പെൺകുട്ടികള	-11.2175
വള്ളി	-11.2176
മാറ്റം	-11.2178
▁കഥയും	-11.2179
▁കടപ്പുറത്ത	-11.2183
▁സെബാ	-11.2184
▁ശൂന്യ	-11.2184
ാകട്ടേ	-11.2185
▁വിപരീതമായി	-11.2186
▁കൃഷ്ണമേനോന	-11.2187
ായിത്തീരും	-11.2188
യില്ലായ്മ	-11.2189
ീന്നാ	-11.2189
▁പള്ള്യാല	-11.2194
▁അക്കൗണ്ട	-11.2194
▁എലിപ്പെട്ടി	-11.2197
ിപ്പോവുക	-11.2198
▁എന്നാണ	-11.2198
നന്ദ	-11.2199
കടാക്ഷ	-11.2201
▁തളത്തില	-11.2202
കൗശല	-11.2202
▁അക്ഷമ	-11.2203
▁ഏട	-11.2204
▁പെര	-11.2205
▁വരുത്തുന്ന	-11.2206
ച്ചേർന്ന	-11.2206
ലേക്കുള്ള	-11.2207
▁താലോല	-11.2208
▁ചിറ്റപ്പന	-11.2209
▁മരുമകന	-11.2209
▁ആവേശത്ത	-11.221
വാർത്ത	-11.221
▁പ്രതിഭ	-11.221
▁ഏശ	-11.221
▁ഉജ്ജ്വല	-11.2211
▁ചൂരൽ	-11.2212
ാത്മക	-11.2212
▁ഇസ്താംബൂള	-11.2212
▁ഉഷാറ	-11.2212
▁ഉൽക്കണ്ഠ	-11.2212
▁കൃതജ്ഞത	-11.2212
▁കർത്തവ്യ	-11.2212
▁ഡിഗ്രി	-11.2212
▁തദീയത	-11.2212
▁തർജ്ജമ	-11.2212
▁ദേവൂട്ടി	-11.2212
▁ദൈവാധീനം	-11.2212
▁പുറപ്പെടുവിച്ചു	-11.2212
▁പ്രഥമ	-11.2212
▁പ്രാഥമിക	-11.2212
▁വീണ്ടുവിചാര	-11.2212
▁വേലപ്പസ്വാമികള	-11.2212
▁സ്മാരക	-11.2212
▁സൗജന്യ	-11.2212
▁ഹീറോ	-11.2212
▁ആംബുലൻസ	-11.2212
▁ആത്മഗതം	-11.2212
▁ഇട്ടിക്കോരസാർ	-11.2212
▁ഇയ്യിടെ	-11.2212
▁ഇരുവശത്തും	-11.2212
▁ഇലക്ട്രിക്	-11.2212
▁ഉരുട്ടി	-11.2212
▁ഉഴിഞ്ഞു	-11.2212
▁ഒറ്റക്കാളവണ്ടി	-11.2212
▁കാബൂളി	-11.2212
▁ഗവർമ്മേണ്ട	-11.2212
▁ഘാതകി	-11.2212
▁ചമ്രം	-11.2212
▁ചേലനാടന്റെ	-11.2212
▁ജബാവാല	-11.2212
▁നിബന്ധന	-11.2212
▁നിർഭാഗ്യവശാൽ	-11.2212
▁പണിക്കരമ്മാവൻ	-11.2212
▁പതുപതുത്ത	-11.2212
▁ബസ്സ്റ്റോപ്പ	-11.2212
▁ബെർനാഡ	-11.2212
▁മാതാവു്	-11.2212
▁മീറ്റിങ്ങ	-11.2212
▁മുനിസിപ്പൽ	-11.2212
▁വാഴത്തോട്ട	-11.2212
▁വെവ്വേറെ	-11.2212
▁വൈകാരിക	-11.2212
▁ശയനമുറി	-11.2212
▁സജീവമാ	-11.2212
▁സയൻസിൽ	-11.2212
▁സുമിത്ര	-11.2212
▁അക്ഷരങ്ങള	-11.2212
▁ഒരവസ്ഥ	-11.2212
▁കോഫി	-11.2212
▁ദൂഷ്യ	-11.2212
▁ഫിലിം	-11.2212
▁ഫോറസ്റ്റ്	-11.2212
▁മലമുകളിൽ	-11.2212
▁മാറോടടുപ്പിച്ചു	-11.2212
▁മിടുക്കി	-11.2212
▁അലസമായി	-11.2212
▁ഇഷ്ടത്തീ	-11.2212
▁കോംപ്ലക്സ	-11.2212
▁ജൂലി	-11.2212
▁തിണ്ണയിൽ	-11.2212
▁മലനിരകൾ	-11.2212
▁ലോലമായ	-11.2212
▁ഗോപുവിനെ	-11.2212
▁സൗഹാർദ്ദ	-11.2212
▁ഒഴികെ	-11.2212
▁ഞാനിതുവരെ	-11.2212
▁ഉരുവിട്ടു	-11.2212
▁രണ്ടാമതു്	-11.2212
▁വിട്ടൊഴിയ	-11.2212
▁ഹസിം	-11.2212
▁ഡയൽ	-11.2212
▁അവിടെയെങ്ങും	-11.2212
▁തപാൽ	-11.2212
▁ബിരുദവും	-11.2212
▁വെസ്റ്റ്	-11.2212
▁പൂച്ചക്കുട്ടികൾ	-11.2212
▁പ്രേരിപ്പിക്ക	-11.2212
▁ധരിപ്പിക്ക	-11.2212
▁കല്യാണിഅമ്മ	-11.2212
▁ശിവൻകുട്ടിയെ	-11.2212
▁വാച്ച്മാൻ	-11.2212
▁മുഖത്തോടുമുഖം	-11.2212
▁പ്രീതി	-11.2212
▁മറക്കില്ല	-11.2212
▁ഷാജി	-11.2212
▁അപർണ്ണാജി	-11.2212
▁സ്വീകരിപ്പാൻ	-11.2212
▁ഞാനെന്റെ	-11.2212
▁നാട്യത്തിന്മേൽ	-11.2212
▁അന്ധവിശ്വാസ	-11.2212
▁ഒരുവേള	-11.2212
▁ജോസഫേട്ടന്നു്	-11.2212
▁റോസാപ്പൂ	-11.2212
▁പക്ഷെ	-11.2212
▁മാറിടം	-11.2212
▁രാജേട്ടൻ	-11.2212
▁ശപിക്ക	-11.2212
▁ട്രെയിൻ	-11.2212
▁മറ്റൊരിക്കൽ	-11.2213
▁തോണ്ടി	-11.2213
▁പീഡന	-11.2213
▁ധർമ്മബുദ്ധി	-11.2213
▁നീളൻ	-11.2213
▁പ്രതിവിധി	-11.2213
▁കൗതുകകരമായ	-11.2213
▁തുപ്പൻ	-11.2213
▁മണ്ണെണ്ണ	-11.2213
▁വസ്തുക്കൾ	-11.2213
▁അതിനർത്ഥം	-11.2213
▁കാളവണ്ടി	-11.2213
ാണുണ്ടായതു്	-11.2213
▁കൊഴുത്ത	-11.2213
▁നിശ്ചയമായും	-11.2213
മെന്റ്	-11.2213
▁നേട്ട	-11.2213
▁വിസമ്മത	-11.2213
▁കിഴക്കോട്ടു	-11.2213
▁പത്മനാഭൻ	-11.2214
വിരാമ	-11.2214
▁ചാടിയിറങ്ങി	-11.2214
▁തത്സമയത്തു്	-11.2214
▁സാധിക്കയുള്ളു	-11.2214
▁ഒരായിരം	-11.2214
▁പ്രേമിക്കുന്നു	-11.2214
▁പുരോഹിതൻ	-11.2214
▁വാദി	-11.2214
▁സഹിക്കവയ്യാത്ത	-11.2214
▁നായകന	-11.2214
▁സേതുവിന്റെ	-11.2215
▁ഒരദ്ഭുത	-11.2215
▁ഏടത്തി	-11.2215
▁വിവരങ്ങളൊക്കെ	-11.2215
▁അശ്രദ്ധ	-11.2215
▁ചെല്ലുന്തോറും	-11.2215
▁ആറൻ	-11.2215
▁നിർമ്മല	-11.2215
▁ഏറെനേരം	-11.2215
▁കമിഴ്ത്തി	-11.2215
▁ദത്തമായ	-11.2215
▁പ്രജ്ഞ	-11.2215
▁കതക	-11.2215
ഹർഷ	-11.2215
▁നിൽക്കുക	-11.2215
▁ഇഷ്ടപ്രകാരം	-11.2216
▁ശക്തിയേറിയ	-11.2216
▁നിഷ്പ്രയാസം	-11.2216
▁ഇന്ത്യയിലെ	-11.2216
▁ഹൗ	-11.2216
▁നടപടി	-11.2216
▁തൂങ്ങുന്ന	-11.2216
▁കരുതിക്കൂട്ടി	-11.2216
▁കൃഷ്ണൻനായരോടു്	-11.2216
▁കടന്നുപോകുമ്പോൾ	-11.2216
▁കണ്ണുകളോടെ	-11.2217
▁മുമ്പോട്ടു	-11.2217
▁തന്നെത്താൻ	-11.2217
▁കുഴഞ്ഞു	-11.2217
ിട്ടൊന്നുമില്ല	-11.2217
▁പ്രത്യാശ	-11.2217
▁അന്തസ്സ	-11.2217
▁യൂണിവേഴ്സിറ്റി	-11.2217
▁വൈരുദ്ധ്യ	-11.2217
▁ഇവറ്റ	-11.2217
▁തോതിൽ	-11.2217
▁അടർന്നു	-11.2218
▁പേരെന്താ	-11.2218
▁ഇത്രവേഗം	-11.2218
▁വൃക്ഷങ്ങളുടെ	-11.2218
▁തൊടിയിൽ	-11.2218
▁മുകളിലൂടെ	-11.2218
▁ആയിട്ടുള്ളു	-11.2218
▁പതിനൊന്നര	-11.2218
▁കെമിസ്ട്രിയിൽ	-11.2218
▁സൂര്യനെ	-11.2219
▁അമ്മാമന്റെ	-11.2219
▁പന്ത്രണ്ടുമണി	-11.2219
▁ഡിപ്ലോമയും	-11.2219
▁ഭാര്യവീട്ടിൽ	-11.2219
▁കൂട്ടിച്ചേർത്തു	-11.2219
▁സർക്കാർ	-11.2219
▁പിടിച്ചുനിർത്ത	-11.222
▁ഇൻസ്പെക്ടർ	-11.222
▁വകുപ്പ	-11.222
▁വല്ലവർക്കും	-11.222
▁പിച്ചള	-11.222
▁പിടിപ്പാൻ	-11.222
▁ആൺകുട്ടികൾ	-11.2221
▁അച്ചനെ	-11.2221
▁തൊഴാൻ	-11.2221
▁അത്തരമൊരു	-11.2221
▁ഇതെന്തൊരു	-11.2221
▁കുതിരക്കാർ	-11.2221
▁വക്കീലിനെ	-11.2221
▁അത്ഭുതപ്പെട	-11.2222
▁ഏകനായി	-11.2222
▁പാത്രങ്ങളും	-11.2222
▁ഇതുകൊണ്ടൊന്നും	-11.2223
▁ശിന്ന	-11.2223
▁കോമാളികളുടെ	-11.2223
▁ഷാപ്പിന്റെ	-11.2223
▁ഉണ്ടാകുമോ	-11.2223
െപ്പോലുള്ള	-11.2224
▁സഹിച്ചുകൂടാത്ത	-11.2224
▁മേനി	-11.2224
▁അനുഗ്രഹിച്ചു	-11.2224
വരോടൊക്കെ	-11.2224
▁എട്ടുകെട്ടിന്റെ	-11.2224
▁ഹോട്ടലിന്റെ	-11.2225
▁പരുക്കൻ	-11.2225
▁വെള്ളമെടുത്തു്	-11.2225
▁ആവട്ടെ	-11.2225
▁ഉപദേശിയാരും	-11.2225
▁മുപ്പത	-11.2225
▁കമലിന്റെ	-11.2226
▁ഇതിനൊന്നും	-11.2226
▁സ്നേഹിതന്റെ	-11.2226
▁ആദരിക്ക	-11.2226
▁കുറുപ്പിനെ	-11.2226
▁ബോംബേ	-11.2226
▁വ്യസനത്തോടെ	-11.2226
▁നീക്കം	-11.2226
▁മിക്സി	-11.2226
▁കൃഷ്ണന്റെ	-11.2226
▁ദിനോസറിന്റെ	-11.2226
▁കലഹ	-11.2227
▁ഉയരമുള്ള	-11.2227
▁ആഴത്തിൽ	-11.2227
▁പകരമായി	-11.2227
▁അവരാരും	-11.2227
▁നിങ്ങക്കു്	-11.2227
▁യുവാവു്	-11.2227
▁ജോഡി	-11.2228
▁സീമയില്ലാത്ത	-11.2229
▁ഉത്സാഹത്തോടെ	-11.2229
▁പുറത്തുകടന്നു	-11.223
▁ഇടയിൽക്കൂടി	-11.223
▁ആയിരത്ത	-11.223
▁കാവിന്റെ	-11.223
▁കർക്കശമായി	-11.223
▁ശിഷ്യൻ	-11.2231
പ്രകാരമാണു്	-11.2231
▁ഇന്ത്യൻ	-11.2231
▁തൊറക്കാൻ	-11.2231
ിട്ടെന്നപോലെ	-11.2231
▁ഗണ്യമാക്ക	-11.2231
▁കടലാസുകൾ	-11.2232
▁സ്വന്തമാണു്	-11.2232
▁ഇരിക്കുക	-11.2232
▁കൊതിച്ച	-11.2233
▁കരുതേണ്ട	-11.2233
▁അഭിമാനക്ഷയ	-11.2233
നിസ്സ	-11.2233
▁കനി	-11.2234
തിരിഞ്ഞു	-11.2234
▁വ്യത്യാസപ്പെട്ട	-11.2234
യേക്കാളും	-11.2234
▁പലമാതിരി	-11.2234
▁ക്രമത്തിൽ	-11.2234
ദാര്യവും	-11.2235
▁ജോസ	-11.2236
▁മനസ്സിൽനിന്നു	-11.2236
▁ഭരിക്ക	-11.2236
▁പക്ഷികളുടെ	-11.2236
▁നിർവ്വാഹമില്ല	-11.2237
▁സിദ്ധാന്ത	-11.2237
▁പശ	-11.2237
▁സ്ക്കൂളിലെ	-11.2238
▁ഉറങ്ങുമ്പോൾ	-11.2239
▁കാണാറില്ല	-11.2239
▁വഴിയിലൂടെ	-11.2239
▁മുക്കിൽ	-11.2239
▁വീർത്ത	-11.224
റുകള	-11.224
▁കമ്പ്യൂട്ടറിൽ	-11.224
▁തനിക്കൊരു	-11.224
▁കുറച്ചൊക്കെ	-11.224
▁തേജസ്സു്	-11.2241
▁ജീവിതത്തിനു്	-11.2241
▁അറിയിക്കണം	-11.2242
▁അതാകട്ടെ	-11.2242
▁പാറുകുട്ടിയോടു്	-11.2242
▁സന്തതി	-11.2242
▁അവിടേക്കു്	-11.2242
▁വടിപോലെ	-11.2243
▁വരമ്പിലൂടെ	-11.2243
▁ജീവിതരീതി	-11.2244
▁ബോർഡിൽ	-11.2244
▁വർക്ക	-11.2244
▁അറിയേണ്ടതു്	-11.2244
▁വ്യാകുല	-11.2244
▁വിമർശന	-11.2245
ിരുന്നതെങ്കിൽ	-11.2245
▁യുവർ	-11.2245
▁പറയാനുണ്ടു്	-11.2246
▁ഭക്ഷണത്തിന്റെ	-11.2247
▁നമുക്കൊക്കെ	-11.2247
▁വിരുദ്ധ	-11.2248
▁എട്ടുകെട്ടു്	-11.2249
ക്കഴിഞ്ഞാൽ	-11.2249
▁കൊടുക്കാനുള്ള	-11.225
▁തുറക്കാതെ	-11.225
▁പറ്റാതെ	-11.225
▁അവധിക്കാല	-11.2251
▁ഇടവഴിയിൽ	-11.2251
▁ചെയ്യണമെന്നു്	-11.2251
▁പഴേ	-11.2251
▁അതിനകത്ത	-11.2251
▁നിൽപ്പുണ്ടു്	-11.2252
▁അതിനുവേണ്ടി	-11.2253
▁പറഞ്ഞതൊന്നും	-11.2253
▁അവനൊരു	-11.2253
▁മീനുവിന	-11.2254
▁നാവുകൊണ്ടു്	-11.2254
▁കണ്ടുമുട്ടാൻ	-11.2254
▁ശതമാനം	-11.2254
▁അല്ലേലും	-11.2255
▁കളയാൻ	-11.2255
▁പെൺകുട്ടികളുടെ	-11.2256
▁അമ്മാവനു്	-11.2256
▁ഹൊ	-11.2256
ക്കൂടാതെ	-11.2256
▁വേറേ	-11.2256
▁സംഭവിക്കാൻ	-11.2257
▁മേൽക്കൂര	-11.2257
▁ഗെയ്റ്റ	-11.2257
▁വേറേയും	-11.2258
▁ഒരടി	-11.2258
സ്റ്റർ	-11.2258
▁ഷർട്ടിന്റെ	-11.2259
▁ഓട്ടോറിക്ഷ	-11.226
▁മര്യാദയ്ക്കു്	-11.226
▁പഴയതുപോലെ	-11.226
ുമ്പോലെയുള്ള	-11.2261
▁കാര്യമൊക്കെ	-11.2261
▁കാൾ	-11.2261
▁ചോദിക്കുമ്പോൾ	-11.2261
▁നാസറ	-11.2262
▁അടയ്ക്കാൻ	-11.2262
ിരുണ്ട	-11.2262
▁ഉദ്യോഗം	-11.2262
▁ശരിയാണോ	-11.2262
▁കഴിഞ്ഞതൊക്കെ	-11.2263
▁ഉത്തരവാദിത്വം	-11.2264
▁നില്ക്കുകയാണു്	-11.2264
▁കൊടുക്കുവാൻ	-11.2265
▁അതെത്ര	-11.2266
▁അടുക്കേ	-11.2267
▁ഇതിന്നു	-11.2269
▁പൂവൻ	-11.2269
▁വെളുപ്പും	-11.2269
▁അസ്വസ്ഥനാക്കി	-11.2269
[...]
