<unk>	0
<s>	0
</s>	0
്	-4.08411
ം	-4.36175
▁ഒരു	-4.43799
ു	-4.60623
▁	-4.88477
യ	-4.9928
▁ആ	-5.08183
▁ഞാൻ	-5.121
▁അവൾ	-5.22891
ി	-5.25699
ും	-5.31596
യും	-5.34128
േ	-5.46849
ാ	-5.48317
വ	-5.50561
ു്	-5.52522
മ	-5.53689
ക്ക	-5.60222
െ	-5.61241
വും	-5.69084
ക	-5.69901
ത	-5.7099
ര	-5.73504
ാൻ	-5.75591
ോ	-5.75604
▁അയാൾ	-5.81837
യുടെ	-5.82908
തു്	-5.83484
▁പറഞ്ഞു	-5.84401
▁എന്റെ	-5.86888
▁അവളുടെ	-5.90547
▁ഈ	-5.91701
ത്ത	-5.94735
ാണു്	-5.99245
ില്ല	-6.00215
ന	-6.00226
ിൽ	-6.02008
യിൽ	-6.06805
▁എന്ന	-6.06998
ണ	-6.10883
ൻ	-6.11046
ത്തിൽ	-6.11333
പ	-6.15086
▁നീ	-6.17705
ുന്ന	-6.22614
മായ	-6.23654
▁അ	-6.24836
ർ	-6.25221
മായി	-6.27871
യാണു്	-6.282
ല	-6.31778
കൾ	-6.31906
തു	-6.34573
ങ്ങൾ	-6.35518
പ്പ	-6.3615
സ	-6.36275
ൂ	-6.36416
ള	-6.38654
ീ	-6.38874
▁നോക്കി	-6.41817
റ	-6.42009
▁അവർ	-6.43509
ച്ച	-6.44572
ക്കു	-6.44629
ിച്ചു	-6.45164
ിന്റെ	-6.45395
ത്തിന്റെ	-6.45635
യെ	-6.45641
ൽ	-6.45941
▁തന്റെ	-6.46735
ക്കു്	-6.48029
ുക	-6.5001
ാൽ	-6.5004
▁എന്നു	-6.54235
ട്ട	-6.5449
▁തന്നെ	-6.55659
മാണു്	-6.55704
തന്നെ	-6.55802
▁ക	-6.572
▁അതു്	-6.57586
ട	-6.57937
▁നാ	-6.5818
ിരുന്നു	-6.60527
▁അതു	-6.62604
ായി	-6.64431
ന്ന	-6.64904
ണം	-6.65295
▁എന്നു്	-6.6581
▁പിന്നെ	-6.6915
ാതെ	-6.69721
▁വളരെ	-6.70333
ാന	-6.70603
▁അവളെ	-6.70826
കൊണ്ടു്	-6.71926
▁എന്നെ	-6.73716
പ്പോൾ	-6.75472
ശ	-6.76514
ല്ല	-6.7817
▁കു	-6.79486
ിച്ച	-6.79774
▁എനിക്കു്	-6.79955
ൊ	-6.8052
പോലെ	-6.8132
ത്തെ	-6.84656
▁ഒന്നും	-6.85746
്യ	-6.87448
▁നല്ല	-6.88138
ന്റെ	-6.89003
ുള്ള	-6.89086
ായിരുന്നു	-6.89186
കള	-6.89281
▁വന്നു	-6.89483
ിയ	-6.8958
▁അവൾക്കു്	-6.8967
ഴ	-6.89682
യോ	-6.91862
▁അവിടെ	-6.91977
▁കൈ	-6.92229
ച	-6.92502
▁മ	-6.92586
യ്ക്ക	-6.93006
▁ഇല്ല	-6.93102
ുന്നതു്	-6.93406
മ്പ	-6.93516
▁നിങ്ങൾ	-6.95278
▁അയാളുടെ	-6.95637
▁രണ്ടു	-6.95643
▁പക്ഷേ	-6.96001
▁ത	-6.96496
▁അവൻ	-6.97189
▁അദ്ദേഹം	-6.97287
▁പോയി	-6.97598
യായി	-6.98625
▁തോന്നി	-6.98796
▁വര	-6.99104
ാം	-6.99214
▁ചോദിച്ചു	-7.00235
ണ്ട	-7.0073
▁വലിയ	-7.00745
ദ	-7.00776
റ്റ	-7.00859
ഹ	-7.01069
വര	-7.01371
▁എനിക്കു	-7.02214
▁കാര്യം	-7.02739
▁വി	-7.02849
▁വ	-7.0399
▁സ	-7.04326
▁അമ്മ	-7.04449
ള്ള	-7.04477
ായ	-7.05475
▁എന്നാൽ	-7.05776
▁ഇനി	-7.06237
സ്	-7.07566
ാത്ത	-7.07798
▁വന്ന	-7.08118
▁ന	-7.08712
ിക്ക	-7.08973
യ്ക്കു്	-7.09543
ുകൾ	-7.10476
▁നിന്നു	-7.10549
ുമ്പോൾ	-7.1118
കൂടി	-7.1142
ഷ	-7.11568
ിട്ട	-7.12572
▁കൂടി	-7.12654
▁തല	-7.12658
▁ഇപ്പോൾ	-7.12826
▁പറയ	-7.14029
ച്ചു	-7.14991
▁ഒന്നു	-7.15114
▁അങ്ങിനെ	-7.15906
▁ഞാന	-7.16836
താണു്	-7.17365
ിട്ടു്	-7.17587
▁ച	-7.17949
▁ഇവിടെ	-7.18893
ിരുന്ന	-7.19317
▁നടന്നു	-7.19318
ൊക്കെ	-7.20074
ത്തു	-7.20302
വി	-7.20736
ുന്നു	-7.21298
ത്തന്നെ	-7.223
രു	-7.22786
യ്ക്കു	-7.22807
▁പറഞ്ഞ	-7.2496
ങ്ങള	-7.2525
ുണ്ടു്	-7.25303
▁കണ്ടു	-7.25362
▁പ	-7.2554
മുള്ള	-7.26344
ില	-7.26403
ൊരു	-7.26409
ൊന്നും	-7.2672
നെ	-7.26782
▁എത്ര	-7.27012
▁എന്തു	-7.27139
▁പോയ	-7.27258
▁അത	-7.27334
▁കാണ	-7.28698
യുള്ള	-7.28765
▁വേണ്ട	-7.29344
▁ഇങ്ങിനെ	-7.2955
▁ഇ	-7.30748
▁ഇട	-7.31367
ഭ	-7.32251
▁ചില	-7.32424
▁അതിന്റെ	-7.32547
ാവ	-7.32886
ങ്ക	-7.33183
▁മതി	-7.3351
യാ	-7.34206
ജ	-7.34318
ിനെ	-7.34839
▁മാത്രം	-7.34962
ത്തി	-7.353
കൊണ്ടു	-7.3535
െങ്കിലും	-7.35765
ക്	-7.3588
ുകയും	-7.36051
▁കണ്ട	-7.36084
▁പൊന്നി	-7.37203
▁ചെയ്തു	-7.37243
ഗ	-7.37255
▁കഴിഞ്ഞ	-7.37274
▁കൃ	-7.37538
▁വഴി	-7.38178
▁ദിവസം	-7.38519
ഞ്ഞ	-7.38538
നിന്നു	-7.38805
ിട്ടു	-7.40081
ന്നു്	-7.40161
▁തുടങ്ങി	-7.40378
ിട്ടില്ല	-7.40873
ങ്ങളും	-7.41215
▁പോലെ	-7.41401
ിനു	-7.41511
▁താൻ	-7.41848
▁എ	-7.42393
ുകയാണു്	-7.42902
തി	-7.42926
മായിരുന്നു	-7.42945
▁രാത്രി	-7.42991
കളും	-7.43328
യായിരുന്നു	-7.43562
ടി	-7.43856
▁മുഖം	-7.43943
റി	-7.44845
▁അദ്ദേഹത്തിന്റെ	-7.45006
▁നിന്റെ	-7.45063
ത്തോടെ	-7.45366
പ്പെട്ട	-7.45927
ാനുള്ള	-7.46288
തും	-7.46516
ക്കും	-7.47443
നായ	-7.47494
യായ	-7.47715
പോയി	-7.4781
▁കുട്ടി	-7.48083
ിലെ	-7.48221
ാല	-7.48652
▁അവരുടെ	-7.48877
▁ഓരോ	-7.50178
ക്ഷ	-7.50432
▁കാല	-7.50458
▁അയാളെ	-7.50619
▁ജോലി	-7.51213
▁വീട്ടിൽ	-7.5201
▁ഒര	-7.52085
ങ്ങ	-7.52098
▁നിന്നു്	-7.52168
▁ഒന്നു്	-7.52393
▁പ്ര	-7.52634
▁അപ്പോൾ	-7.53205
ാര	-7.53414
കളുടെ	-7.53918
ിട്ടുണ്ടു്	-7.54157
യില	-7.54416
▁അച്ഛൻ	-7.546
ിക്കുന്ന	-7.55149
▁എല്ലാം	-7.55552
▁ഭാര്യ	-7.55667
ിരിക്കുന്നു	-7.56418
നി	-7.56433
യില്ല	-7.57201
▁മു	-7.57343
▁കട	-7.57951
▁ചെയ്യ	-7.5825
ണ്ടു്	-7.58339
ത്ര	-7.5887
ത്തു്	-7.5896
ക്കി	-7.59478
▁വിവാഹം	-7.59484
▁തിരിച്ചു	-7.59703
വർ	-7.60107
ുവാൻ	-7.60714
▁കുറെ	-7.61603
▁അടുത്ത	-7.61893
▁പോക	-7.62004
▁എന്താ	-7.62192
▁കൊണ്ടു	-7.62311
▁കുറച്ചു	-7.62834
ുകയായിരുന്നു	-7.62934
▁കയറി	-7.63021
▁ഉള്ള	-7.63135
▁എന്തോ	-7.6319
▁കിട്ട	-7.63617
▁മണി	-7.63669
ഞ്ഞു	-7.6382
മോ	-7.6384
▁വാ	-7.64173
മാ	-7.64254
▁ത്രേസ്യാമ്മ	-7.64535
▁മുറി	-7.64976
▁തര	-7.65427
ിന	-7.65803
▁ബ	-7.66553
▁അവന്റെ	-7.66682
▁ഓ	-7.66925
▁ഞങ്ങൾ	-7.67093
റിയ	-7.67176
▁നിന്ന	-7.67271
▁അവ	-7.6788
ന്നു	-7.67898
മില്ല	-7.69051
വാ	-7.69113
▁വിളിച്ചു	-7.69183
നിന്നു്	-7.69608
ത്	-7.70625
ധ	-7.70626
▁നിങ്ങളുടെ	-7.70823
ത്തിനു	-7.71597
▁വല്ല	-7.71661
▁തന്ന	-7.72013
ോടു്	-7.72242
ട്ടെ	-7.72596
വരെ	-7.72677
ന്ത	-7.73176
താ	-7.73309
ൈ	-7.73515
▁തു	-7.73658
▁ചെറിയ	-7.73871
▁ഓർമ്മ	-7.74058
ുടെ	-7.7422
▁എഡോൾഫി	-7.74281
േയും	-7.74463
▁വീണ്ടും	-7.74617
▁പണം	-7.74886
സ്സ	-7.75417
ബ	-7.75613
ടെ	-7.75615
▁ശരി	-7.75838
ോട	-7.75852
▁ചെയ്ത	-7.76428
▁സമയം	-7.76489
വെച്ച	-7.76505
▁കൊണ്ടു്	-7.76506
ഡ	-7.76746
ല്ലേ	-7.77293
▁സ്ത്രീ	-7.7736
ിനു്	-7.77388
▁പല	-7.77696
▁എല്ലാ	-7.7771
▁കൊടുക്ക	-7.77813
ൾ	-7.78043
മ്മ	-7.78278
▁അത്ര	-7.7836
▁അങ്ങനെ	-7.78415
▁എനിക്ക	-7.78463
പ്ര	-7.78604
▁ഇത്ര	-7.78789
▁അയാൾക്കു്	-7.78902
ാറ	-7.79582
▁പെട്ടെന്നു്	-7.797
▁ശബ്ദം	-7.7991
▁കടന്നു	-7.80093
ാനും	-7.80567
യിലെ	-7.80659
കളെ	-7.80665
ങ്ങളുടെ	-7.80751
▁ഒന്ന	-7.80822
േണ്ട	-7.80857
ലി	-7.81004
▁മുഴുവൻ	-7.81023
▁എന്താണു്	-7.81236
ത്തില	-7.81351
ങ്ങളിൽ	-7.81611
▁പറഞ്ഞതു്	-7.82031
രി	-7.82503
▁മുറിയിൽ	-7.82802
ിക	-7.82905
▁വേണ്ടി	-7.8302
▁അവൾക്കു	-7.83258
നാ	-7.83514
▁പിടിച്ചു	-7.83977
▁നിന്നെ	-7.84036
ിട	-7.84036
ാലും	-7.84115
നും	-7.84218
▁പി	-7.84463
▁നേരം	-7.84623
ിക്കാൻ	-7.84794
▁അറിയ	-7.85531
ാണ	-7.86028
▁ശ	-7.86258
മേ	-7.8639
▁കഥ	-7.86725
▁കഴിഞ്ഞു	-7.8683
ട്ടി	-7.8726
▁കേട്ട	-7.87949
▁ഇതു	-7.88142
▁മറ്റൊരു	-7.88151
െന്നു്	-7.8828
യോടെ	-7.88801
്യാ	-7.88899
▁പാട	-7.89307
▁അതെ	-7.89327
ക്കാൻ	-7.89821
▁ഇത	-7.90364
ല്ലോ	-7.90461
ാമ	-7.90642
ണ്ണ	-7.9082
▁ഉണ്ടായിരുന്ന	-7.90857
▁അവള	-7.91148
▁ഗ	-7.91676
▁ഭാസ്കരൻ	-7.92373
▁ഇതു്	-7.92427
▁നി	-7.92471
ല്ലെ	-7.92474
▁കാണാൻ	-7.92937
വന്നു	-7.93725
▁വാതിൽ	-7.93752
ായിരിക്കും	-7.93797
▁മുമ്പിൽ	-7.94055
ഞ്ച	-7.94299
▁സ്വന്തം	-7.94302
▁മാ	-7.94629
▁മുഖ	-7.94675
▁കാരണം	-7.94832
▁ഇന്ദിര	-7.95089
▁കൊടുത്ത	-7.95132
ുന്നതു	-7.95237
െന്ന	-7.95245
▁ചെന്നു	-7.9536
ടു	-7.95519
കളിൽ	-7.95672
പോയ	-7.95709
▁വെച്ച	-7.95753
ത്തിനു്	-7.95772
പ്പി	-7.96148
▁മര	-7.96466
നു	-7.96521
▁ഇരുന്നു	-7.9653
▁പുറത്തു	-7.96551
സ്റ്റ	-7.96839
▁ലളിത	-7.9685
െന്നു	-7.96972
▁ചായ	-7.97066
▁വില	-7.973
▁അല്ല	-7.9796
▁നില	-7.97981
▁കാര്യ	-7.98039
▁നല്ലവണ്ണം	-7.98272
▁കണ്ണുകൾ	-7.98319
ക്കൊണ്ടു്	-7.98443
▁രാവിലെ	-7.9895
▁ചിരിച്ചു	-7.9973
ിരുന്നില്ല	-7.9999
വന്ന	-8.00154
ുമോ	-8.00437
▁വെള്ള	-8.00488
നായി	-8.00796
റ്റി	-8.015
ാണെന്നു്	-8.01654
▁പുതിയ	-8.01854
▁ചോദിക്ക	-8.02274
▁ധനം	-8.02429
▁നടക്ക	-8.02518
▁കൊണ്ട	-8.02594
ത്തിലെ	-8.0319
യൊക്കെ	-8.03239
ർത്ത	-8.03293
▁ഒക്കെ	-8.03338
▁ചെ	-8.0389
▁കണ്ടപ്പോൾ	-8.03943
▁മനസ്സിൽ	-8.04021
▁എന്തെങ്കിലും	-8.04139
▁ആരും	-8.04539
ത്തിന്നു്	-8.0454
ില്ലേ	-8.04877
▁പൂ	-8.04934
ുണ്ടായിരുന്നു	-8.0515
▁കേട്ടു	-8.05205
▁അതിൽ	-8.05392
▁കേൾക്ക	-8.05796
ിരുന്നതു്	-8.06038
▁വേറെ	-8.06101
▁എന്നും	-8.06303
▁നേരെ	-8.06308
▁ജാ	-8.06557
ിച്ചു്	-8.06729
പ്പോ	-8.06839
ക്കുന്ന	-8.07209
സി	-8.07346
പ്പു	-8.07671
▁പോകുന്ന	-8.07705
▁പേര	-8.07742
ംകൊണ്ടു്	-8.08295
▁പഴയ	-8.08319
▁കൂടെ	-8.08405
▁പണി	-8.08617
മില്ലാത്ത	-8.08628
ോടെ	-8.08657
കര	-8.08744
▁വരുന്ന	-8.08775
▁പാ	-8.08913
▁തുറന്നു	-8.09007
മല്ല	-8.09175
ിട്ടും	-8.09573
പ്പോയി	-8.09601
▁നിങ്ങളെ	-8.09922
▁ജന്നി	-8.10314
▁എടുത്തു	-8.10347
▁കിട്ടിയ	-8.10365
▁പറഞ്ഞു്	-8.10596
ുമ	-8.10636
▁രൂപ	-8.10902
നം	-8.10983
▁പേടി	-8.11118
മുണ്ടു്	-8.11177
▁കളി	-8.11223
െല്ലാം	-8.11554
ദ്ധ	-8.11626
▁യാത്ര	-8.11649
▁ഉടനെ	-8.11816
▁നോക്ക	-8.11973
യോടു്	-8.12184
▁അടി	-8.12429
▁രാജാ	-8.12595
▁മറ	-8.12655
▁എത്തി	-8.13365
ങ്ങി	-8.13394
വെച്ചു	-8.13415
▁ചിരി	-8.13453
▁ഉണ്ടു്	-8.13719
▁അവരെ	-8.13721
യി	-8.13919
വിന്റെ	-8.13994
▁പറയാൻ	-8.14007
▁പിടിച്ച	-8.14137
വെ	-8.14299
▁പൊ	-8.14572
പ്പെട	-8.14781
കാര	-8.14785
▁വന്നു്	-8.15285
▁കിടന്നു	-8.15345
ന്	-8.15397
ിരിക്കുന്ന	-8.15501
തുകൊണ്ടു്	-8.15555
▁എഴുന്നേറ്റു	-8.15579
▁ഭയ	-8.15619
▁അല്ലെങ്കിൽ	-8.15708
▁കൂട്ട	-8.15726
ാണു	-8.15817
ിലും	-8.15829
▁പോ	-8.15887
▁അതിന	-8.15923
▁എങ്ങിനെ	-8.16004
▁ഞാനും	-8.16071
നു്	-8.16093
▁യാതൊരു	-8.16588
ൺ	-8.16629
ൗ	-8.16652
റു	-8.16717
▁ഇരിക്ക	-8.16921
▁നമ്മുടെ	-8.16935
ഡ്	-8.17116
▁അറിഞ്ഞ	-8.17251
ുന്നില്ല	-8.1729
്യം	-8.17348
▁ഒരിക്കലും	-8.17411
െങ്കിൽ	-8.17472
ോടു	-8.17593
നോക്കി	-8.17772
▁അവര	-8.18523
▁തോന്ന	-8.18579
▁കാ	-8.18585
▁ഇങ്ങനെ	-8.18699
▁നായർ	-8.18783
ത്തിന	-8.19137
ാത	-8.19227
▁വാങ്ങി	-8.19279
▁തോന്നുന്നു	-8.19368
ക്കൂടി	-8.19381
ുമായി	-8.19629
▁എവിടെ	-8.1968
ാണോ	-8.20519
▁കഴിക്ക	-8.2087
മു	-8.21024
യൊ	-8.21109
തിൽ	-8.21251
▁ഒപ്പം	-8.21637
▁കിടക്ക	-8.21675
െടുത്തു	-8.21714
ാർ	-8.21923
ാക്കി	-8.22204
▁ജോസഫേട്ടൻ	-8.22208
ക്കാര	-8.22215
▁ശക്തി	-8.22479
ങ്ങളെ	-8.22575
ലോ	-8.22644
ാറില്ല	-8.22839
▁ആയ	-8.23081
▁ഹ	-8.2319
പോക	-8.23202
▁മൂന്നു	-8.23292
▁ദ	-8.2351
ൃ	-8.23521
▁ജഡ്ജി	-8.23571
യിരുന്നു	-8.23635
ലും	-8.23784
▁വേ	-8.23851
ഗ്	-8.24007
ിന്മേൽ	-8.24097
▁പെ	-8.24281
▁പറഞ്ഞാൽ	-8.24438
▁താഴെ	-8.24544
ിൽനിന്നു്	-8.24668
പോലും	-8.25005
▁നിങ്ങള	-8.25164
ഷ്ട	-8.25218
▁അര	-8.25577
▁മഴ	-8.25639
▁വിട	-8.25669
പ്	-8.25824
▁അതും	-8.25897
▁നമുക്കു്	-8.25965
പ്പോയ	-8.2605
▁രസ	-8.26226
▁ഇന്നു്	-8.26252
▁എന്നാണു്	-8.26255
▁വാങ്ങ	-8.2642
രുതു്	-8.26505
▁അതിനു	-8.26627
നോ	-8.26675
ോട്ട	-8.26685
ക്കൊണ്ടു	-8.2673
▁അതേ	-8.26969
തര	-8.27007
ഫ	-8.27012
വു	-8.2702
▁ആള	-8.27315
▁ഓടി	-8.27563
▁എന്ത	-8.27651
▁നട	-8.27733
▁ദിവസ	-8.27857
ിരിക്ക	-8.28052
▁പറയുന്ന	-8.28302
▁ബാക്കി	-8.28335
▁നാളെ	-8.28383
ാള	-8.28417
ാസ	-8.2855
▁സ്നേഹ	-8.28558
▁രതി	-8.28766
▁ആലോചിച്ചു	-8.2894
ളി	-8.29552
▁അച്ഛന്റെ	-8.29724
▁മറ്റു	-8.29784
വേ	-8.29795
▁സുഖ	-8.302
യ്ക്കും	-8.30214
▁രാ	-8.30736
▁അതുകൊണ്ടു്	-8.30869
▁കൊടുത്തു	-8.30951
നിന്ന	-8.30976
ിലേക്കു്	-8.31164
▁തിരിഞ്ഞു	-8.31185
▁പദ്മിനി	-8.31585
▁വെള്ളം	-8.31603
▁മാറി	-8.31666
▁അങ്ങ	-8.31761
▁നടന്ന	-8.31879
കു	-8.31889
▁പറയുന്നതു്	-8.3219
▁ഭ	-8.32191
വൻ	-8.32283
▁ഉള്ളിൽ	-8.32347
▁വേദന	-8.32392
ിയിൽ	-8.32545
▁കണ്ണു	-8.32593
്റെ	-8.32604
▁മറുപടി	-8.32668
▁തുടർന്നു	-8.3267
▁അന്നു	-8.32717
▁ഇറങ്ങി	-8.33087
▁അടുത്തു	-8.33169
കാല	-8.33208
▁നാലു	-8.33246
ഷ്	-8.33438
▁അല്പം	-8.33446
ർത്തി	-8.33626
▁ശേഷം	-8.33782
▁ഇതൊക്കെ	-8.3384
യല്ല	-8.33872
ിട്ടുള്ള	-8.33926
▁വീണു	-8.3401
▁കഴിഞ്ഞു്	-8.34056
▁തുടങ്ങിയ	-8.34091
മാത്രം	-8.34242
ിത	-8.34282
▁ചെറിയമ്മ	-8.34918
▁മനസ്സിലായി	-8.34932
തിന്റെ	-8.34942
ന്റ	-8.35018
ൊന്നു	-8.35367
▁കഴിയ	-8.35553
▁സന്തോഷ	-8.35656
▁പറ്റ	-8.35964
▁വെച്ചു	-8.36003
രാ	-8.36124
ാവുന്ന	-8.36135
▁നിണക്കു്	-8.36266
▁ഡ	-8.36275
▁മോശ	-8.36338
ലാ	-8.36347
ിന്നു്	-8.36534
▁ആയിരുന്നു	-8.36637
▁പറഞ്ഞില്ല	-8.36723
▁ഒരിക്കൽ	-8.36733
നീ	-8.36792
ുണ്ടായിരുന്ന	-8.36817
▁വന്നതു്	-8.3682
▁യൂജീൻ	-8.37284
▁അതി	-8.37405
▁ഹാ	-8.37444
▁നിൽക്ക	-8.37541
കൊടുക്ക	-8.37562
ിലൂടെ	-8.37601
വൾ	-8.37607
▁അവനെ	-8.37618
ാക്ക	-8.37636
▁എന്നിട്ടു്	-8.37695
▁മേ	-8.37772
▁വെറും	-8.3782
▁ആലോചിക്ക	-8.37841
▁ഞങ്ങളുടെ	-8.37851
▁വല്ലതും	-8.3793
▁വിഷമ	-8.38055
▁ഉണ്ടായിരുന്നു	-8.38254
▁പണ	-8.38259
യേ	-8.38912
▁ഫ	-8.39092
▁കുറേ	-8.39111
ല്ല്യ	-8.39173
▁വണ്ടി	-8.39532
▁വേണം	-8.39739
▁ആശ	-8.39757
▁കൊ	-8.39797
▁ല	-8.39803
▁സകല	-8.39994
വള	-8.40065
ഥ	-8.40127
െന്താ	-8.40208
▁നിർത്തി	-8.40224
▁തീ	-8.40322
▁വരും	-8.40844
▁കൂട	-8.40937
ില്ലാത്ത	-8.4094
▁അന്നു്	-8.41013
▁വെറുതെ	-8.41028
▁ഒരാൾ	-8.41097
ത്തിന്നു	-8.41171
▁പര	-8.41258
▁വെ	-8.4129
▁അയാൾക്കു	-8.41293
▁വിചാരിച്ചു	-8.4144
▁സാധാരണ	-8.41575
യുണ്ടു്	-8.41992
ല്ലൊ	-8.4209
ന്നാ	-8.42244
യാൽ	-8.4241
യിലും	-8.42422
ട്ടു	-8.42442
▁ചാ	-8.42704
▁സം	-8.42742
ാകട്ടെ	-8.42901
ുണ്ടായിരുന്നില്ല	-8.43029
പോ	-8.43136
▁വിട്ടു	-8.4319
▁സി	-8.43199
▁കാര്യങ്ങൾ	-8.43247
െടുത്ത	-8.43308
ാതിരിക്ക	-8.43443
യ്യ	-8.43443
▁നേര	-8.43466
▁നിങ്ങൾക്കു്	-8.43487
▁കൂട്ടി	-8.43519
ാലോ	-8.43796
▁പിന്നേയും	-8.43893
▁അതൊക്കെ	-8.44185
▁സംസാരിക്ക	-8.44347
തായി	-8.44415
റ്റ്	-8.44555
ാറുണ്ടു്	-8.44981
ക്കാർ	-8.45103
▁മാത്രമേ	-8.45236
▁ഇന്ന	-8.45238
▁അകത്തു	-8.45425
യു	-8.45472
▁നമ്മൾ	-8.45491
ുകയില്ല	-8.45564
▁കൂ	-8.45592
വരുന്ന	-8.45607
വെച്ചു്	-8.45611
▁വാതില	-8.45881
▁രണ്ടു്	-8.45976
ുന്നുണ്ടു്	-8.46035
െടുക്ക	-8.46129
▁കാലം	-8.46197
ുള്ളു	-8.46616
▁പോവ	-8.46743
ാണെങ്കിൽ	-8.46895
▁ജീവിതം	-8.46968
തായിരുന്നു	-8.47008
▁മാതിരി	-8.47081
▁വയ്യ	-8.47097
േണ്ടതു്	-8.4713
▁ഒറ്റ	-8.47146
കൊണ്ടും	-8.47176
ാണെന്നു	-8.47264
ച്ചു്	-8.47361
▁കിടക്കുന്ന	-8.47375
ാനാണു്	-8.47429
ിപ്പാൻ	-8.4743
പ്പെട്ടു	-8.47732
നേ	-8.47893
ത്തെപ്പറ്റി	-8.47988
▁ഓട	-8.48063
▁മുഖത്തു്	-8.48094
ിയുടെ	-8.48129
മര	-8.48184
പ്പൊ	-8.48263
▁ജീവിത	-8.48278
പ്പെടുത്ത	-8.48327
▁ചിന്ത	-8.48486
ട്ട്	-8.487
െപ്പോലെ	-8.48846
▁പറ	-8.49191
▁പത്തു	-8.49256
▁പു	-8.49381
▁പാടില്ല	-8.49387
▁സംഗതി	-8.49567
▁എല്ലാവരും	-8.49599
▁വിവാഹ	-8.49709
കൊണ്ട	-8.49716
ത്തേ	-8.49757
മണി	-8.49794
വന	-8.49815
▁സഹായ	-8.49878
▁കൊച്ചു	-8.49916
ുമായിരുന്നു	-8.49972
കൂടെ	-8.50004
ടുത്ത	-8.50078
▁പറ്റിയ	-8.50103
യൊന്നും	-8.50173
▁മന്ദാരം	-8.50515
▁കൃഷ്ണൻനായർ	-8.50591
▁ആര	-8.507
മി	-8.50742
▁കഴിച്ച	-8.50886
▁കാർ	-8.51045
വരും	-8.51103
▁തോ	-8.51191
▁ആൾ	-8.5123
▁ചെയ്യുന്ന	-8.51277
▁ആദ്യം	-8.51683
▁കരുതി	-8.51804
▁ജന	-8.51879
▁സരള	-8.51961
▁കല	-8.52026
റിഞ്ഞ	-8.52062
ിന്ന	-8.52091
േറ്റ	-8.5229
▁വെളുത്ത	-8.52568
▁ഇതുവരെ	-8.52654
▁പരി	-8.52685
▁ഏതു	-8.52882
ിനി	-8.52948
കൂട	-8.53055
▁കള്ള	-8.53137
▁കോണി	-8.53151
ിയും	-8.53221
▁സു	-8.53236
ിൻ	-8.53244
▁ഹേമാംഗൻ	-8.53258
യിൽനിന്നു്	-8.53298
▁ജ	-8.53445
ാനായി	-8.53567
▁ചെല്ല	-8.53686
ുമെന്നു്	-8.53686
▁ഒരേ	-8.53708
▁ഇഷ്ട	-8.53833
▁കയ്യിൽ	-8.53927
▁കാരണ	-8.54078
▁മുമ്പു്	-8.54147
ംഗ	-8.54519
▁ഗോ	-8.54585
▁ഇന്നു	-8.54597
നാണു്	-8.54612
ക്കാ	-8.54685
▁അമ്മയുടെ	-8.54733
▁അന	-8.54778
▁മാറ്റി	-8.54781
▁മാറ	-8.54805
മാർ	-8.54888
ല്ലാതെ	-8.54902
▁എത്ത	-8.5496
▁ശബ്ദ	-8.5504
▁ചേച്ചി	-8.55049
ിറങ്ങി	-8.55236
▁സംശയ	-8.55265
▁ദേഹ	-8.55675
ാണെന്ന	-8.55708
െടുത്തു്	-8.55857
ശേഷം	-8.56036
മൊന്നും	-8.56078
▁കണ്ണ	-8.56183
▁മോ	-8.56273
▁മനസ്സ	-8.56398
ിട്ടാണു്	-8.56454
▁പണ്ട	-8.56634
പ്രകാരം	-8.56763
▁വരാൻ	-8.56805
▁പറയും	-8.56944
മാര	-8.56976
േണ്ടുന്ന	-8.57154
▁കോ	-8.5723
വേണ്ടി	-8.57291
▁പടി	-8.5731
▁അച്ഛന	-8.5738
▁ഓർത്തു	-8.57395
▁ധൈര്യ	-8.57495
ിപ്പിച്ചു	-8.575
▁കൂടുതൽ	-8.57585
▁എങ്കിലും	-8.57585
▁കൃഷ്ണൻ	-8.57652
▁ചെയ്യും	-8.57761
▁മടങ്ങി	-8.57836
▁വിചാരം	-8.57948
▁പെൺകുട്ടി	-8.57953
▁പതുക്കെ	-8.5823
ന്മാര	-8.58231
▁അടുക്കെ	-8.58392
▁കേറി	-8.5845
ുകളും	-8.58907
▁അല	-8.59099
▁റ	-8.59188
▁അനുരാഗ	-8.59321
തോ	-8.59369
▁കണ്ടാൽ	-8.59399
▁കാണിച്ചു	-8.594
ണ്ടു	-8.59484
ികൾ	-8.59523
▁ലക്ഷ്മിഅമ്മ	-8.59533
▁ചിത്ര	-8.59703
ുകളിൽ	-8.59721
▁സീമ	-8.59809
▁സ്റ്റ	-8.5986
▁അയാള	-8.60038
▁മൂ	-8.6024
ണമെന്ന	-8.60401
മേൽ	-8.60405
▁മുന്നിൽ	-8.60524
യുമായി	-8.60527
സ്ഥ	-8.60861
▁വന്ദന	-8.60886
സ്ത	-8.60994
▁സങ്കട	-8.61093
▁നില്ക്ക	-8.61112
ത്തിലും	-8.61301
ഴി	-8.61452
തുപോലെ	-8.61502
▁ഇന്നലെ	-8.61537
▁എപ്പോഴും	-8.61545
▁വിശേഷ	-8.61555
ില്ലെന്നു	-8.61635
▁കവിത	-8.61656
▁പെട്ടി	-8.61824
▁മുട്ട	-8.61943
▁നിറഞ്ഞ	-8.61944
മൊക്കെ	-8.61967
▁കര	-8.61991
▁പെണ്ണ	-8.6201
▁പത	-8.62033
▁അപർണ്ണ	-8.62191
▁ഊർമ്മിള	-8.62191
▁കേ	-8.62271
രെ	-8.62275
▁ഒന്നിച്ചു	-8.62278
▁നടക്കുന്ന	-8.62306
▁വീട്ടില	-8.62635
▁നില്ക്കുന്ന	-8.62805
▁വിവരം	-8.62872
ിര	-8.62913
▁ചുറ്റും	-8.63001
▁പോര	-8.63017
▁പേർ	-8.63244
▁അവന	-8.63318
പ്പോഴാണു്	-8.63326
▁മേൽ	-8.63347
▁നീട്ടി	-8.63351
▁സ്വ	-8.63526
▁എങ്ങനെ	-8.63611
▁അന്ന	-8.63723
▁വിചാര	-8.6383
▁വേഗം	-8.63966
▁കാര്യത്തിൽ	-8.63972
മില്ലാതെ	-8.64342
▁കാണുന്ന	-8.64681
▁കുട	-8.64734
▁നോട്ട	-8.6474
▁നടത്ത	-8.64765
െത്തിയ	-8.64766
▁വക	-8.64801
▁കെട്ടി	-8.64855
▁ഇനിയും	-8.65217
▁അല്ലേ	-8.65489
▁അവർക്കു്	-8.65572
▁തട്ടി	-8.65702
▁ക്ഷണം	-8.65738
▁മറ്റ	-8.65749
▁മറന്നു	-8.65872
▁ആരോ	-8.6594
▁ചെന്ന	-8.6594
▁രണ്ട	-8.66128
യാണെന്നു്	-8.66165
▁പുസ്തക	-8.66377
▁എന്നോടു്	-8.66534
▁1	-8.66556
▁പച്ച	-8.66608
▁അധികം	-8.66731
▁അദ്ദേഹത്തെ	-8.66905
▁ഡോക്ടർ	-8.6702
▁കേവലം	-8.6702
പറ	-8.67285
▁ബന്ധ	-8.6732
▁തെറ്റ	-8.67345
▁ബുദ്ധി	-8.67377
▁പിടി	-8.67499
▁വൈകുന്നേരം	-8.67547
▁പ്രത്യേക	-8.67665
യെപ്പറ്റി	-8.67691
▁സിനിമ	-8.67732
▁ചോദ്യ	-8.67764
▁അറിവ	-8.67793
▁തനിക്കു്	-8.6789
▁തിര	-8.6791
▁പ്രതി	-8.67969
▁ചൈനാനി	-8.68113
▁മാത്രമാണു്	-8.68138
▁ഉണ്ടായി	-8.68172
▁വിവര	-8.68338
മാവ	-8.68414
▁പിന്നെയും	-8.68418
▁രക്ഷ	-8.68432
▁യുവതി	-8.68483
▁മറ്റും	-8.6849
▁തോന്നിയ	-8.68531
▁സ്	-8.68612
▁എന്തു്	-8.68841
▁ഇരു	-8.68844
തൊക്കെ	-8.68849
▁നിമിഷം	-8.68911
ല്യ	-8.69073
▁കണ്ടതു്	-8.69343
▁അനുഭവ	-8.6938
▁ചാടി	-8.69404
▁ഉട	-8.69458
ട്ടു്	-8.69527
രം	-8.6974
▁നാൻസി	-8.69888
▁നിര	-8.69891
ന്മാർ	-8.70165
▁ദാവീദ്	-8.7031
പോകുന്ന	-8.70337
ുമെന്ന	-8.70471
▁പിന്നാലെ	-8.70622
▁നിറ	-8.70781
ക്കണ്ട	-8.70845
▁കഷ്ട	-8.70899
▁കൊല്ല	-8.70912
▁കഴിച്ചു	-8.70959
പ്പാ	-8.70993
▁മുകളിൽ	-8.71077
ാണി	-8.71188
ുന്നതും	-8.71266
േര	-8.71329
വശ	-8.71354
▁പാറുകുട്ടി	-8.71354
▁ഏതായാലും	-8.71359
▁പിന്നിൽ	-8.7138
▁മാറ്റ	-8.71413
▁മണ്ണ	-8.71665
തെന്നു്	-8.71673
ുത	-8.71756
ുപോയ	-8.71871
▁ചുറ്റി	-8.71982
▁കാഴ്ച	-8.72155
ാറുള്ള	-8.72197
▁ഹൃദയ	-8.72222
▁പട	-8.72255
▁കുട്ടികൾ	-8.72264
▁സമയത്തു്	-8.72322
▁മനസ്സിലാക്കി	-8.72429
▁തിരുമേനി	-8.72495
▁പെണ്ണു്	-8.72558
ഖ	-8.72632
▁ചോദിച്ച	-8.72784
യതു്	-8.72823
▁ആയി	-8.7284
▁വീണ	-8.72892
ുമ്പോലെ	-8.73012
ക്കാരൻ	-8.73076
ിച്ചതു്	-8.7308
▁എത്രയോ	-8.73277
▁എന്നാലും	-8.73327
വിൽ	-8.7337
▁ഏറ്റവും	-8.73683
▁കുതിര	-8.73716
▁മാത്രമ	-8.73828
ിക്കുന്നു	-8.7389
▁സത്യ	-8.73922
റിഞ്ഞു	-8.73953
ാന്ത	-8.74116
രുടെ	-8.7412
▁പോലും	-8.74127
▁കുട്ടിയെ	-8.74197
▁ഊണു	-8.74349
▁നോക്കിയ	-8.74421
▁ഉറക്ക	-8.74444
ക്കൂടെ	-8.74472
▁കണ്ണിൽ	-8.74588
ീര	-8.74711
ിലേയ്ക്കു	-8.74722
▁കറ	-8.74756
▁എഴുത	-8.74767
േണ്ടി	-8.74786
▁വള	-8.748
ാഞ്ഞ	-8.74865
▁കാത്തു	-8.75082
വച്ച	-8.75084
ില്ലെങ്കിൽ	-8.75156
രൂപ	-8.75345
▁മനസ്സിലാവ	-8.75407
ിലേക്കു	-8.75432
യെങ്കിലും	-8.75482
ത്തിൽനിന്നു്	-8.75514
▁പെട്ടെന്നു	-8.75707
▁നിങ്ങൾക്കു	-8.75771
ദ്	-8.75804
▁പിടിച്ചു്	-8.75844
ക്കോ	-8.75958
▁വാക്കുകൾ	-8.76169
ർക്ക	-8.76204
ായിരുന്ന	-8.76312
▁മരിച്ച	-8.76384
▁മോളെ	-8.76613
▁തമ്മിൽ	-8.76657
▁എണ്ണ	-8.76673
▁മുഖത്തു	-8.76823
യോടു	-8.76985
▁ചിലപ്പോൾ	-8.77153
▁കല്യാണം	-8.77297
▁നിർ	-8.77358
▁മാത്രമല്ല	-8.77381
▁കോഴി	-8.77483
ബ്	-8.77755
ിച്ചിരുന്നു	-8.77816
യപ്പോൾ	-8.78107
ീം	-8.78174
▁നെ	-8.7825
▁അതിനു്	-8.78259
▁വിളി	-8.78502
▁ശ്രദ്ധ	-8.78651
▁ആവശ്യ	-8.78926
▁ഉച്ച	-8.79018
▁ഭ്രാന്ത	-8.79019
▁ദേവകി	-8.79026
ദേശ	-8.79147
▁ആവ	-8.79277
▁കണ്ടില്ല	-8.79335
▁വികാര	-8.79448
ത്യ	-8.79453
▁സമ	-8.79576
▁അനുരാഗം	-8.79607
▁കാണിക്ക	-8.79764
▁ആലോചന	-8.79819
ക്കാണ	-8.79995
▁ദൂരെ	-8.80015
▁നന്നായി	-8.80016
▁ആകാശ	-8.80086
ന്തി	-8.8013
▁കേട്ടപ്പോൾ	-8.80196
▁അയ	-8.803
▁ശാന്ത	-8.80431
ുണ്ടോ	-8.8045
▁കഴിഞ്ഞാൽ	-8.80602
▁പരീക്ഷ	-8.80626
▁വീടു്	-8.80744
ിന്നു	-8.80749
▁മേനോൻ	-8.8085
▁നിനക്കു്	-8.80915
ത്വ	-8.80995
▁ഇതാ	-8.8106
േയ്ക്കു	-8.81206
▁ഇരിക്കുന്ന	-8.8135
ർമ്മ	-8.81355
▁പാറ	-8.81414
▁എഴുതി	-8.81431
▁കരയ	-8.8147
▁കറുത്ത	-8.81546
▁വിളിക്ക	-8.81634
യാണോ	-8.81664
▁വിളിച്ച	-8.81668
▁നിൽക്കുന്ന	-8.81847
പ്പോഴ	-8.81888
ാട	-8.81952
▁ലോ	-8.82029
▁താന	-8.82042
▁വിനോദ	-8.82042
▁വായ	-8.82174
▁ഫല	-8.82182
▁വ്യസന	-8.82259
▁കിട്ടി	-8.82275
▁പതിവ	-8.82317
ാണ്	-8.82771
പിടിച്ച	-8.82967
▁വെച്ചു്	-8.8299
ായിരിക്കണം	-8.82992
▁സുനിൽ	-8.83096
▁ആദ്യ	-8.83136
▁വല	-8.83335
▁നിലയിൽ	-8.83377
ൊന്നു്	-8.83389
ുണ്ടായ	-8.83548
▁പറയാം	-8.83615
യേയും	-8.83616
▁ആന	-8.83707
ിലാണു്	-8.83751
▁വന്നപ്പോൾ	-8.83762
ക്കര	-8.83796
കേ	-8.83868
▁സ്വയം	-8.83929
▁നാല	-8.83938
▁ധന	-8.84034
▁പ്രേമ	-8.84056
▁അമ്മേ	-8.84067
ാണെങ്കിലും	-8.84083
പ്പറ്റി	-8.84194
യിട	-8.8435
▁ഇത്രയും	-8.84472
ടേ	-8.84645
്വാ	-8.84646
▁മാന	-8.84674
ണ്	-8.84678
ിരിയ്ക്ക	-8.8472
▁അറുമുഖൻ	-8.84758
▁ഹൃദയം	-8.84759
▁കുളി	-8.84769
▁കിടന്ന	-8.84809
▁ദൈവ	-8.84825
െയ്	-8.84926
നട	-8.84959
▁രാജാവു്	-8.84974
ിക്കും	-8.85062
▁ആണു്	-8.85122
▁ഉണ്ടായ	-8.85228
ക്ര	-8.85297
ണതു്	-8.85349
തിനു	-8.85468
▁മാസ	-8.85526
▁കുട്ടേട്ടൻ	-8.85606
യിട്ട	-8.85636
▁എത്തിയ	-8.85672
▁ആർക്കും	-8.85679
സം	-8.8577
ുന്നതിനു	-8.85832
തല്ല	-8.85933
▁അധിക	-8.86198
▁തുട	-8.86232
ംപോലെ	-8.86232
▁പിടിക്ക	-8.86256
ുവാ	-8.86282
▁ചേ	-8.86305
▁വിചാരിക്ക	-8.8634
▁ചെയ്യാൻ	-8.86408
▁മല	-8.86459
▁ആർ	-8.86519
ിലേയ്ക്കു്	-8.86553
▁ചെയ്വാൻ	-8.86581
ക്കൂട്ട	-8.86739
ിങ്	-8.8676
ൊര	-8.8707
▁അല്ലെ	-8.87085
ത്തിന്നും	-8.87104
ലു	-8.87135
▁അതിനെ	-8.87168
▁സുധ	-8.87389
ര്യ	-8.87396
െണ്ണ	-8.87471
▁ശങ്ക	-8.87494
▁ഒരാള	-8.87563
▁പത്ര	-8.876
▁ഉറപ്പ	-8.87702
െന്നും	-8.87799
▁ഗുണ	-8.8784
▁തുറന്നു്	-8.87991
ുണ്ടെന്നു്	-8.87996
▁സമ്മതിക്ക	-8.88149
വഴി	-8.88219
▁എടുത്ത	-8.88322
▁എഴുതിയ	-8.88379
▁വിജയൻ	-8.88402
തേ	-8.88432
▁ഇരുട്ട	-8.8844
▁വിട്ട	-8.88556
▁പറ്റി	-8.88556
▁ചുമ	-8.88772
▁സ്ഥലം	-8.8904
▁ഇല്ലാത്ത	-8.89116
▁ഇട്ട	-8.89137
▁പറവാൻ	-8.89214
▁അനു	-8.89383
ോളം	-8.89514
▁വച്ച	-8.89516
സ്ത്ര	-8.89592
▁വരുമ്പോൾ	-8.89622
യില്ലാത്ത	-8.89674
ൊന്നുമല്ല	-8.89744
ച്ഛ	-8.89775
ിക്കുന്നതു്	-8.89803
ക്ക്	-8.89829
യല്ലേ	-8.89833
▁കുറ	-8.89939
▁മുറ	-8.89964
▁തുറന്ന	-8.90018
െന്ത	-8.90128
▁സഹിക്ക	-8.90178
വാദ	-8.90242
ഡി	-8.9029
ിയ്ക്ക	-8.90339
▁പൊന്നിയുടെ	-8.9043
െന്തു	-8.9047
▁ചെറു	-8.9062
യിലൂടെ	-8.90673
▁തന്നെയാണു്	-8.90841
▁പരിഭ്രമ	-8.90847
▁അമ്മച്ചി	-8.90867
▁അടുപ്പ	-8.90873
▁സഹ	-8.90986
▁ഒട്ടും	-8.91032
കരമായ	-8.91036
രിയ	-8.91036
▁ഉറങ്ങ	-8.9113
▁കരുത	-8.91209
▁പഴ	-8.91259
തായ	-8.91432
▁കുടിക്ക	-8.91523
▁ഇരുന്ന	-8.9157
▁കൊള്ള	-8.91632
▁മിസ്റ്റർ	-8.91748
▁കയറിയ	-8.91815
പാ	-8.91909
▁കെട്ട	-8.92086
▁തീരെ	-8.92123
▁വീട	-8.9216
▁വരെ	-8.92246
▁മുടി	-8.92284
ണ്ടോ	-8.92323
▁അതാണു്	-8.92367
▁എടുക്ക	-8.92446
▁ഭക്ഷണം	-8.92519
▁അദ്ഭുത	-8.92638
▁ഭയങ്കര	-8.92658
വുമായി	-8.92743
▁ആനന്ദ	-8.92801
▁ഭേദ	-8.92837
ില്ലെന്നു്	-8.92869
▁ഉണ്ടാക	-8.92886
▁എളുപ്പ	-8.92912
രിക്ക	-8.92929
ക്കാരന	-8.93009
ലെ	-8.93062
▁റി	-8.93212
സ്വ	-8.93222
കളില	-8.93362
▁പെട്ടെന്ന	-8.93475
തുടങ്ങി	-8.93509
▁വിധി	-8.93533
▁ചങ്ങാതി	-8.93574
▁തൃപ്തി	-8.93574
▁മനസ്സിലാക്ക	-8.93606
▁മനസ്സിലായ	-8.93671
▁തിന്ന	-8.93845
▁സമാധാന	-8.93925
▁സ്വപ്ന	-8.9394
▁വായിച്ചു	-8.94009
▁വിജയ	-8.94285
▁ഏത	-8.94318
▁നമുക്കു	-8.94382
▁മരിച്ചു	-8.94398
▁സാ	-8.94449
▁നിർബ്ബന്ധ	-8.945
ട്	-8.94589
▁ചോദ്യം	-8.94768
ള്ളു	-8.94954
▁എടുത്തു്	-8.95179
▁വരാം	-8.952
▁അപ്പ	-8.95238
▁ഡി	-8.95238
▁പറയാതെ	-8.95255
▁മി	-8.95273
▁ഉറക്കം	-8.95277
മുഖ	-8.95321
ീകര	-8.95385
▁തണുത്ത	-8.95437
▁മകൻ	-8.95441
▁മുഴുവനും	-8.95511
▁ആദ്യത്തെ	-8.95557
ിപ്പിച്ച	-8.95746
ർച്ച	-8.95777
െന്താണു്	-8.95805
▁സ്ഥിതി	-8.95899
മൊന്നുമില്ല	-8.95979
▁കാണും	-8.96012
▁കി	-8.96024
മുണ്ടായിരുന്നു	-8.96115
ക്കട	-8.96233
ഫ്	-8.96236
▁സാരി	-8.96287
▁വൈ	-8.96363
യുന്ന	-8.96377
▁മഹാ	-8.96449
▁പരിചയ	-8.96474
മാർഗ്ഗ	-8.96538
▁വലിച്ചു	-8.96542
▁പറയുന്നതു	-8.96644
▁ബി	-8.967
▁തൊട	-8.96858
ാമായിരുന്നു	-8.96875
ത്തും	-8.96933
▁തനിക്കു	-8.96941
▁ഞങ്ങള	-8.96954
▁തെ	-8.96974
യിരിക്ക	-8.97005
ന്ന്	-8.97044
മാണെന്നു്	-8.97106
▁പാല	-8.97128
▁ബോധ	-8.97278
യുമ	-8.9734
▁ഭാസ്കരന്റെ	-8.97343
പ്പിച്ചു	-8.97362
▁കഞ്ഞി	-8.97391
▁പുറത്തു്	-8.97392
▁മനസ്സു	-8.97413
▁സമയമ	-8.97414
റ്റു	-8.97483
പ്പെടുത്തി	-8.9749
ബോധ	-8.97522
▁എന്തിനാണു്	-8.97536
▁കൊണ്ടുവര	-8.97553
▁കാമ	-8.97638
തിര	-8.97665
▁മടി	-8.9769
പ്പാട	-8.97779
വിട	-8.97829
ക്കാന	-8.97832
▁മട്ടിൽ	-8.97833
▁കാലത്തു്	-8.97882
▁കൊണ്ടുവന്ന	-8.97924
▁അവളോടു്	-8.97938
▁കൂടാതെ	-8.97955
▁താ	-8.98032
വല	-8.98162
▁മനോഹര	-8.98271
തിന	-8.98289
▁വക്കീൽ	-8.98292
റക്ക	-8.98317
▁അവസാന	-8.9839
▁ആരെങ്കിലും	-8.98406
ന്നെ	-8.98423
▁ധാരാളം	-8.98554
ോര	-8.98574
▁ശ്രമിച്ചു	-8.98594
▁വിഷയ	-8.98883
തിന്നു	-8.98888
▁തീര	-8.98901
പാട	-8.99076
ുമെന്നു	-8.9909
കൃത	-8.99122
▁ഒരാളെ	-8.9925
▁ഫോൺ	-8.99263
▁സർവ്വ	-8.99276
▁അതൊന്നും	-8.99278
ാടി	-8.99424
▁രാജ	-8.99425
▁കഴിയുന്ന	-8.99447
യെപ്പോലെ	-8.9945
▁പൊടി	-8.99531
▁മുതൽ	-8.99547
▁മുറിയുടെ	-8.99641
▁പോയാൽ	-8.99645
▁അടുക്കള	-8.99684
▁എന്താണ	-8.99829
യിലേക്കു	-9.00036
▁പാവം	-9.00088
▁ഇറങ്ങ	-9.00215
▁അത്ഭുത	-9.00271
▁കുറച്ചുനേരം	-9.00286
▁വായിക്ക	-9.0029
▁ബല	-9.00346
▁മുമ്പില	-9.00413
▁പുഴ	-9.00419
▁അവർക്കു	-9.00431
യാണെന്നു	-9.00464
▁ചൂട	-9.00519
▁കാണാം	-9.00789
▁കാണിച്ച	-9.00883
▁വൃദ്ധ	-9.00907
ഭാഗ	-9.0093
ുംകൂടി	-9.00971
▁നിർത്ത	-9.01019
▁ഉള്ളു	-9.01037
വീ	-9.01149
▁സുന്ദരി	-9.01154
▁ചെന്നു്	-9.01155
▁പോകാൻ	-9.01157
▁രഘു	-9.01234
▁മെല്ലെ	-9.01235
ുകളുടെ	-9.01274
▁മരണ	-9.01309
മതി	-9.01372
ുണ്ടെന്ന	-9.01548
▁കാൽ	-9.01561
▁ദേവ	-9.01596
െപ്പറ്റി	-9.01653
▁ശരിയായ	-9.01678
▁പിന്ന	-9.01685
▁ഭാവ	-9.01685
▁മോഹ	-9.01704
ാമെന്നു	-9.01754
▁അവസര	-9.01819
▁വീടു	-9.01936
തുകൊണ്ടു	-9.01938
കല	-9.0194
▁പറ്റില്ല	-9.01978
ല്	-9.01981
ോടും	-9.02029
▁ശങ്കരൻനായർ	-9.02234
ലിന്റെ	-9.02234
▁എങ്കിൽ	-9.02234
▁സംസാര	-9.02249
ലിൽ	-9.02445
കൊടുത്തു	-9.02449
▁ദയ	-9.02462
▁പിന്നീടു്	-9.02536
▁പകരം	-9.02583
▁ശ്രദ്ധിക്ക	-9.0262
▁കാര്യങ്ങള	-9.02672
▁തുടങ്ങ	-9.02673
നില	-9.0274
▁നല്ലതു്	-9.02768
▁വെക്ക	-9.02878
ങ്ങിയ	-9.02884
▁വീ	-9.02922
▁ആഗ്രഹ	-9.02975
▁അവളും	-9.03195
▁ഒടുവിൽ	-9.03244
യ്ക്കാൻ	-9.0327
▁നീങ്ങി	-9.03326
കൊള്ള	-9.03368
ദിവസം	-9.03384
തന്നെയാണു്	-9.03419
ക്കൾ	-9.03497
▁അവസാനം	-9.03572
ുകയോ	-9.03641
▁പഠിച്ച	-9.03683
▁ഭാഷ	-9.03827
ിരിക്കുന്നതു്	-9.03946
ന്നി	-9.04113
ജ്ഞ	-9.04149
▁അറിഞ്ഞു	-9.04209
കളിലും	-9.04269
രിപ്പ	-9.04307
▁ചെയ്തതു്	-9.04311
പ്പെടുന്ന	-9.04312
ിലേക്ക	-9.04313
▁ആകെ	-9.04329
▁വയസ്സു	-9.04388
▁എഴുത്തു	-9.04452
▁നടത്തി	-9.04459
പ്പിടിച്ചു	-9.04465
▁കാപ്പി	-9.04486
▁തല്ക്കാലം	-9.04552
ക്കഴിഞ്ഞ	-9.04767
ണമെന്നു്	-9.04822
▁തട	-9.04841
▁തുറക്ക	-9.04883
▁ഉര	-9.04978
▁നിന്നും	-9.0502
ഷി	-9.05049
ാർത്ഥ	-9.05111
▁കൂടിയ	-9.05161
▁നീണ്ട	-9.05171
▁ശ്രമിക്ക	-9.05277
▁പൊട്ടി	-9.05277
▁ഉണ്ടാവ	-9.05295
▁നന്ദി	-9.05298
യിലേക്കു്	-9.05341
▁പത്ത	-9.05395
▁കുറച്ചു്	-9.05494
▁മാസം	-9.05499
െന്നോ	-9.05522
വണ്ണം	-9.05547
▁മകൾ	-9.05592
▁അതോ	-9.0561
▁തോന്നും	-9.05618
ക്കിട	-9.05625
വുമായ	-9.05727
ാളി	-9.05734
രും	-9.05753
▁സാധു	-9.06116
▁മേശ	-9.06142
മാതിരി	-9.06148
ീസ	-9.06177
▁കൊണ്ടുപോയി	-9.06217
▁അമ്മയെ	-9.06306
▁തിരക്ക	-9.06324
▁ആനന്ദവല്ലി	-9.06337
▁കാട്ടി	-9.06351
▁കണക്കു	-9.0636
▁നീയ	-9.06401
▁നീല	-9.06414
▁മിണ്ടാതെ	-9.06456
ില്ലല്ലോ	-9.06478
ത്തുടങ്ങി	-9.06581
▁രണ്ടുപേരും	-9.06625
▁ഉണ്ടാക്കി	-9.06724
▁പേ	-9.06774
▁ശരീര	-9.06809
യിട്ടു	-9.06813
ജന	-9.06874
െത്തി	-9.06962
▁വെടി	-9.06982
ാവും	-9.06988
▁തൊട്ടു	-9.07279
▁തുണി	-9.07353
▁പുസ്തകം	-9.07369
▁ഗൗരവ	-9.07389
▁ഗുരു	-9.07392
ൊന്നുമില്ല	-9.07417
▁തലമുടി	-9.07425
പ്പു്	-9.0756
▁ഭൂമി	-9.07574
▁സാഹിത്യ	-9.07581
▁എന്തൊരു	-9.07593
റിയില്ല	-9.07611
▁കത്തി	-9.077
▁വേലി	-9.07706
ഗ്രഹ	-9.07714
▁വിചാരിച്ച	-9.07716
▁മനസ്സു്	-9.07839
▁ഉണ്ടാക്ക	-9.07843
▁തയ്യാറ	-9.07939
▁കൊണ്ടുവന്നു	-9.08007
▁അറ	-9.08095
▁ഭയം	-9.08247
▁അദ്ദേഹത്ത	-9.08291
ോടി	-9.08377
▁താമസിക്ക	-9.08386
വരുടെ	-9.0839
▁എന്തായാലും	-9.08474
▁പ്രവൃത്തി	-9.08491
ാതായി	-9.08602
▁മണ	-9.08651
▁അവൾക്ക	-9.08652
േക്കു	-9.08679
▁ഗോപു	-9.08834
ക്കുട്ടി	-9.0887
▁വിശ്വാസ	-9.08903
ത്തിലാണു്	-9.09031
▁സത്യം	-9.09196
കളഞ്ഞ	-9.09208
▁നേരത്തെ	-9.09217
▁കാട്ട	-9.09221
ണമെന്നു	-9.09298
▁തോട്ട	-9.0932
▁ഇട്ടു	-9.09341
▁കയ്യ	-9.09429
▁ഭംഗി	-9.09519
▁ഒച്ച	-9.09528
▁ഭാഗ	-9.09604
▁കുറവ	-9.09791
▁ശുദ്ധ	-9.10038
▁ജാനു	-9.10085
▁തോന്നുന്നില്ല	-9.10197
▁വിളക്കു	-9.10399
▁സർ	-9.10402
ദി	-9.10505
▁പാഞ്ഞു	-9.10585
വെയ്ക്ക	-9.10589
കളാണു്	-9.106
▁മനു	-9.10638
▁മുന്നോട്ടു	-9.10668
▁വന്നാൽ	-9.10676
ിട്ടുണ്ട	-9.10684
ത്വം	-9.10694
▁മിണ്ട	-9.10717
▁മനുഷ്യൻ	-9.10874
▁പാട്ട	-9.10907
▁പേരു്	-9.10917
▁തനിക്ക	-9.11059
▁സമയ	-9.11102
▁കുറച്ച	-9.11129
▁സതി	-9.1116
പ്പറ	-9.11275
ടാ	-9.11334
ിക്കുക	-9.11407
ങ്ങളായ	-9.11473
ാൾ	-9.11477
▁ഏക	-9.11643
▁വരൂ	-9.11715
ശ്ശ	-9.11733
ക്കാം	-9.11782
▁ചിത്രം	-9.11854
്ടെ	-9.11861
▁ഉണ്ട	-9.11998
▁എഴുന്നേറ്റു്	-9.12015
ഭാവം	-9.12044
േക്കു്	-9.12113
▁മധു	-9.12167
▁അപ്പോഴാണു്	-9.12212
ങ്ങളൊക്കെ	-9.12266
▁പറയുന്നു	-9.12356
ുമ്പോഴാണു്	-9.12409
കിട	-9.12429
▁നീണ്ടു	-9.12513
യാണു	-9.12669
▁ആണ	-9.1269
ിരുന്നു്	-9.12706
മൂ	-9.12781
മയ	-9.12791
ണ്ടാവ	-9.12807
ശക്തി	-9.12857
മായും	-9.12898
▁വീട്ടിന്റെ	-9.12983
▁പ്രകാശ	-9.12989
▁മാത്രമായിരുന്നു	-9.13137
▁പ്രായ	-9.13171
▁ഇപ്പോഴും	-9.13184
▁പാട്ടു	-9.13187
ാരം	-9.13277
▁മലയാള	-9.13304
▁കരഞ്ഞു	-9.13354
▁ഒറ്റയ്ക്ക	-9.13486
യാൾ	-9.1359
പരി	-9.13604
▁പോകുന്നതു്	-9.13627
▁മുട്ടി	-9.13751
പ്പാൻ	-9.13813
▁ഉത്സാഹ	-9.13949
കൾക്കു	-9.13982
▁വിനോദ്	-9.14018
ങ്ങും	-9.14022
കൊണ്ടിരുന്നു	-9.14055
▁അഞ്ച	-9.14068
▁വശ	-9.14098
ങ്ങുന്ന	-9.14167
▁പോകും	-9.14221
വുമില്ല	-9.14252
▁വീട്ട	-9.14253
▁പുര	-9.14306
▁ഏതോ	-9.14337
▁സംസാരിച്ചു	-9.14352
ണ്ടി	-9.14458
▁കൊല്ലം	-9.14489
▁വയസ്സ	-9.14565
▁വല്ലാതെ	-9.1463
▁കഴിഞ്ഞപ്പോൾ	-9.14637
ക്കുള്ള	-9.14639
ത്തിനും	-9.14641
▁ശരിയാണു്	-9.14709
ടുത്തു	-9.14711
ംബ	-9.14805
▁ഏർപ്പാട	-9.14863
തോടെ	-9.14895
▁ധ	-9.14937
ക്കേ	-9.14957
നേരം	-9.15095
▁വച്ചു	-9.15129
▁കരി	-9.15137
ീയ	-9.15294
ശാല	-9.1537
▁വല്ലാത്ത	-9.15376
▁വലിച്ച	-9.15378
▁കാറ	-9.15442
ടങ്ങ	-9.15455
▁മൊ	-9.1549
വ്വ	-9.15634
▁കെ	-9.15638
▁ഉറക്കെ	-9.15643
സ്ഥാന	-9.15653
▁ഇള	-9.15761
ണോ	-9.1579
▁കുഴ	-9.15934
മുണ്ടോ	-9.15948
▁വെയ്ക്ക	-9.15949
യെല്ലാം	-9.15962
▁അച്ഛനെ	-9.15963
▁കുള	-9.15963
▁ഇതിന	-9.16068
▁ട്ര	-9.16093
െങ്കിലു	-9.1615
▁ക്ഷമ	-9.16174
ിലു്	-9.162
▁അസാരം	-9.16243
ജി	-9.16269
▁കണ്ണു്	-9.16283
▁ടി	-9.16284
▁കുറഞ്ഞ	-9.16289
▁അമ്മച്ചീ	-9.16295
മൊ	-9.16321
മുറി	-9.16342
▁അതില	-9.16445
യിരുന്ന	-9.16465
ുമ്പോഴ	-9.16495
ക്കൂട	-9.16532
ില്ലാതെ	-9.16567
ാവസ്ഥ	-9.16615
ണ്ടാവും	-9.16674
▁മുമ്പ	-9.16691
▁വെളിച്ചം	-9.1673
▁ചുമര	-9.16764
▁പാത്ര	-9.16788
▁അന്ത	-9.16792
▁പഠിക്ക	-9.16796
െത്ത	-9.16827
ദ്യ	-9.16846
പ്പോലെ	-9.16901
▁വരിക	-9.16958
▁എന്നോടു	-9.1697
കിടക്കുന്ന	-9.16971
നെപ്പോലെ	-9.17035
ുകൊണ്ടു്	-9.17094
▁സംസാരിച്ച	-9.17144
▁പറയേണ്ട	-9.17238
ിച്ചിരുന്ന	-9.17325
ധാര	-9.17333
ത്തിലുള്ള	-9.17341
ക്കാലം	-9.17348
▁തേങ്ങ	-9.17359
▁പോലീസ	-9.17396
▁അർത്ഥ	-9.17416
▁സ്ത്രീകൾ	-9.17431
▁സുന്ദര	-9.17449
▁തൊട്ട	-9.17467
വായ	-9.17616
▁ചീ	-9.17639
രിച്ചു	-9.17643
▁തലയിൽ	-9.17784
▁നഷ്ടപ്പെട്ട	-9.17826
▁നമുക്ക	-9.18029
തിനു്	-9.18155
▁അങ്ങോട്ടു	-9.18171
വന്നു്	-9.18221
ാശ	-9.18224
▁ഹോ	-9.18237
▁എന്തിന	-9.18274
▁ലോക	-9.18331
▁നിറഞ്ഞു	-9.18383
ലുകൾ	-9.18398
യായിരിക്കും	-9.18458
▁അവിട	-9.1847
▁ഫോട്ടോ	-9.18574
▁പകുതി	-9.18575
▁കുട്ടൻ	-9.18578
ിയായി	-9.18628
▁ആശ്ചര്യ	-9.18638
▁അറിയില്ല	-9.18648
▁കുഴപ്പ	-9.18754
ൂല	-9.18829
ന്മ	-9.18851
മന	-9.18907
ക്കൊണ്ട	-9.18961
കൂട്ട	-9.18999
▁അധികാര	-9.19006
കിട്ട	-9.19063
▁കൊച്ച	-9.19137
▁സംഭവിച്ച	-9.19205
▁മധുര	-9.19281
▁തള	-9.19288
ത്തിലേക്കു	-9.19332
▁നിനക്ക	-9.19437
▁കുടിച്ചു	-9.19461
രസ	-9.19461
▁ജനല	-9.19493
▁യഥാർത്ഥ	-9.1954
ൽപ്പ	-9.19572
ഭാവ	-9.19662
▁പറഞ്ഞത	-9.19676
കൊണ്ടാണു്	-9.19743
▁നമ്പൂതിരി	-9.19752
▁പാറുവമ്മ	-9.19765
▁ഭാട്ടിയാ	-9.19765
▁മടക്കി	-9.1981
ലേ	-9.19835
▁എന്നപോലെ	-9.19895
▁പള്ളി	-9.19896
ായിരുന്നില്ല	-9.19929
പ്പോകുന്ന	-9.1998
ബന്ധ	-9.20101
തോന്നി	-9.20159
ണതു	-9.20175
▁ചോര	-9.20184
▁മനസ്സിലാക്കിയ	-9.202
കഴിഞ്ഞ	-9.20227
▁വരുന്നതു്	-9.2025
യിട്ടു്	-9.20311
▁ചി	-9.20319
▁അറിയാതെ	-9.20399
▁എനിയ്ക്കു്	-9.20425
▁നോക്കിയപ്പോൾ	-9.20433
▁എന്തിനാ	-9.20536
▁ചാരി	-9.20555
▁ഞെട്ടി	-9.20565
യുള്ളു	-9.20634
ചെയ്യ	-9.20698
▁ജന്മ	-9.20713
▁കൈകൾ	-9.20786
▁അവകാശ	-9.2099
യെന്ന	-9.21063
▁എന്തൊക്കെ	-9.21066
ത്രെ	-9.21159
▁കൈയിൽ	-9.21175
നില്ക്കുന്ന	-9.21196
▁പറഞ്ഞതു	-9.21304
▁വരുത്ത	-9.21317
മാക്കി	-9.2138
▁വീഴ	-9.21511
▁അപ്പൊ	-9.21522
മായിരിക്കും	-9.21528
▁ഭാഗ്യ	-9.21588
▁ബാ	-9.21639
പൂർവ്വം	-9.2185
മ്പോ	-9.21875
▁കാള	-9.2192
▁മനസ്സിലായില്ല	-9.21958
▁ജീവിക്ക	-9.21986
▁ഒരുപക്ഷേ	-9.22192
▁പുറപ്പെട	-9.22196
▁തലയാട്ടി	-9.22197
▁കൃഷ്ണൻനായരുടെ	-9.22217
▁നെറ്റി	-9.22235
▁ജീവ	-9.22241
▁മിണ്ടിയില്ല	-9.22244
▁യൂ	-9.22321
▁നിശ്ചയ	-9.22332
▁അന്യോന്യം	-9.22356
▁ശ്രദ്ധിച്ചു	-9.22413
രീതി	-9.2243
▁കയറ	-9.22507
വാൻ	-9.22538
ന്റ്	-9.22569
▁മട്ട	-9.22591
▁വിറ	-9.22611
▁പോണ	-9.22626
▁നിമിഷ	-9.22626
▁ചോ	-9.22669
▁അതൊരു	-9.22691
▁കാണുമ്പോൾ	-9.22758
വുമ	-9.22764
▁നേരിട	-9.22836
▁കിട്ടുന്ന	-9.22889
യിലാണു്	-9.22894
ിയെ	-9.22898
ിനും	-9.22908
▁കർത്താവ	-9.22999
▁ഉണ്ണി	-9.23036
ച്ചാ	-9.23044
▁ഭൂ	-9.23155
പോകും	-9.23159
▁ആശ്വാസ	-9.23164
മ്പി	-9.2335
▁ഇഷ്ടമ	-9.23353
▁വസുമതി	-9.23423
▁ഫ്ര	-9.23502
ണമെങ്കിൽ	-9.23505
▁അവസ്ഥ	-9.23512
ിക്കുകയും	-9.23542
▁ഏറെ	-9.23606
▁നഷ്ട	-9.23651
▁നിലത്തു	-9.23676
▁വൃദ്ധൻ	-9.23703
ാധി	-9.23729
ോടുള്ള	-9.23755
ുണ്ടാവും	-9.2379
▁അവസരം	-9.23942
പ്പിടി	-9.23957
▁എനിയ്ക്കു	-9.23977
പിടിച്ചു	-9.24007
▁മനുഷ്യ	-9.24028
ടുക്ക	-9.24048
പ്പിച്ച	-9.24072
ക്ഷി	-9.24079
ുണ്ടാക്കിയ	-9.24098
ഞ്ചു	-9.24287
തിരി	-9.24334
തല	-9.24341
▁തെങ്ങ	-9.24353
▁തെറ്റി	-9.24362
ോളു	-9.24497
▁ആറു	-9.245
ിക്കേണ്ട	-9.24567
▁ഒരൊറ്റ	-9.24674
▁തള്ള	-9.24688
▁തി	-9.24697
▁വന്നില്ല	-9.24704
▁അത്യാവശ്യ	-9.24711
▁കുത്തി	-9.24726
ങ്ങളില	-9.24729
▁ചേട്ടൻ	-9.24734
▁ഒഴി	-9.24762
സ്ക	-9.24814
െന്നാണു്	-9.24851
ണ്ട്	-9.24853
▁താടി	-9.24892
▁ഏതു്	-9.24938
▁കടന്നു്	-9.25064
▁അതുകൊണ്ടു	-9.25145
ാണല്ലോ	-9.25226
▁അള	-9.25288
ണ്ടേ	-9.25326
പുര	-9.25393
▁അഞ്ചു	-9.25435
യല്ലെ	-9.25454
▁കണ്ടു്	-9.25534
െത്തിയപ്പോൾ	-9.25554
▁എന്നതു്	-9.25557
▁കണ്ണുകള	-9.25565
ാണതു്	-9.25645
▁കാറ്റ	-9.25672
ുമില്ല	-9.25772
▁പ്രതീക്ഷിച്ച	-9.25914
▁ഏട്ടൻ	-9.25939
▁ഇടയിൽ	-9.2599
▁കുടുംബ	-9.26023
▁ഏതെങ്കിലും	-9.26027
▁പറയൂ	-9.261
ക്കൊ	-9.26142
▁ആലോചിച്ച	-9.26199
▁കടം	-9.26293
ാമെന്നു്	-9.26305
കണ്ട	-9.26322
▁നാം	-9.26336
ിലുള്ള	-9.2635
ംകൊണ്ടു	-9.26364
മാണെന്നു	-9.26369
പറഞ്ഞു	-9.26417
ില്ലായിരുന്നു	-9.26521
ടിച്ചു	-9.26531
▁വെളിച്ച	-9.26731
▁പ്രണയ	-9.26849
േയ്	-9.2688
▁അന്വേഷിച്ചു	-9.2689
യെടുത്തു്	-9.26994
ാത്തതു്	-9.27021
വിട്ടു	-9.27049
ിട്ടുണ്ടോ	-9.27075
നിൽക്കുന്ന	-9.27124
▁വാക്ക	-9.27193
▁കാണുന്നതു്	-9.27213
▁ശാരദ	-9.27222
▁ചിലർ	-9.2725
ോടൊപ്പം	-9.27252
▁ഭർത്താവു്	-9.27273
ണിയ	-9.27331
▁ഓർക്ക	-9.27415
▁ചീത്ത	-9.27515
▁നടക്കുമ്പോൾ	-9.27528
ണു	-9.27764
▁വാരി	-9.27808
ൊഴി	-9.27829
▁മര്യാദ	-9.2785
▁കടന്ന	-9.27867
▁രൂപം	-9.27872
ല്ലാ	-9.27883
സ്യ	-9.27922
▁തീർച്ച	-9.27924
രിക	-9.27993
കൊടുത്ത	-9.28037
▁ഭാഗത്ത	-9.28091
▁പറഞ്ഞപ്പോൾ	-9.28113
ാഹ	-9.28122
▁മുൻ	-9.28125
▁പെട്ട	-9.28137
▁കാക്ക	-9.2833
▁ഉദ	-9.28462
▁കിഴക്ക	-9.28525
▁അഭിപ്രായ	-9.28545
ിയതു്	-9.28556
▁കണ്ണാടി	-9.28564
ഗതി	-9.28574
▁അപേക്ഷ	-9.2858
▁ശ്രദ്ധിച്ച	-9.28602
▁എന്നോ	-9.28604
ചെന്നു	-9.2864
▁പുറത്തേയ്ക്കു	-9.28659
▁പ്രയാസ	-9.2876
▁തള്ളി	-9.28768
▁അമ്മു	-9.28786
േണ്ടിവന്ന	-9.28925
തെന്നു	-9.29018
▁ചെയ്യാം	-9.2906
രിഞ്ഞു	-9.29067
ിരിക്കയാണു്	-9.29087
▁നിശ്ശബ്ദ	-9.29087
▁കുട്ടികള	-9.29105
▁കല്ലു	-9.29221
▁ഉണ്ടായിരിക്ക	-9.2923
കെട്ട	-9.29263
ുടേയും	-9.29291
യിലേയ്ക്കു	-9.29441
േക്കാൾ	-9.29584
▁സാരമില്ല	-9.29654
▁ജാനകി	-9.29828
▁കോമാളി	-9.29836
▁റോഡ	-9.29838
ണ്ടായ	-9.29846
▁പോയതു്	-9.29894
▁സ്ഥല	-9.30004
ക്കറിയാം	-9.30061
ിട്ടുണ്ടാവും	-9.30129
▁പിള്ള	-9.30164
▁ആത്മാവ	-9.30192
▁പോകുന്നു	-9.30221
▁യുവ	-9.30235
െന്നപോലെ	-9.30248
▁പൊങ്ങി	-9.30287
ില്ലെ	-9.30393
ില്ലെന്ന	-9.30545
▁ഭാവി	-9.30546
ുമുണ്ടു്	-9.30551
▁കൃത്യ	-9.30706
▁കയ്യില	-9.30778
▁നാട്ടില	-9.3079
▁ആളെ	-9.3089
ീസ്	-9.30892
വച്ചു്	-9.30934
ൂറ	-9.30969
▁എട്ടു	-9.3102
▁പുറത്തിറങ്ങി	-9.31055
▁പ്രിയ	-9.31072
▁മുള	-9.31083
▁അപ	-9.311
ിയായ	-9.31124
▁ബോ	-9.31126
▁കസേല	-9.31151
▁ദീർഘ	-9.31166
▁സ്വീകരിക്ക	-9.31171
▁കീഴ	-9.31172
ഷ്ഠ	-9.31188
▁കുറ്റ	-9.31253
ങ്ങനെ	-9.3126
▁വിശ്വസിക്ക	-9.31284
ിക്കണം	-9.31406
▁ജോ	-9.31502
റിൽ	-9.31621
കട	-9.31627
▁കോല	-9.31698
ിൽനിന്നു	-9.31809
യാണെന്ന	-9.3181
▁ഭാഗം	-9.31912
ശേഷ	-9.31915
▁അദ്ദേഹത്തിന്നു്	-9.32066
ാതിരുന്ന	-9.32173
ിച്ചിട്ടു്	-9.32184
ുന്നതാണു്	-9.32226
തെന്ന	-9.32228
ാമെന്ന	-9.3224
തൃ	-9.32329
▁മകന	-9.32427
▁ശി	-9.32457
▁ഏകദേശം	-9.32521
▁സ്ഥിര	-9.32521
▁സീലി	-9.3253
▁പ്രാവശ്യം	-9.32536
▁തട്ട	-9.3254
യെടുക്ക	-9.32551
ക്കാരി	-9.32583
പുറ	-9.32605
▁സഞ്ചി	-9.32692
▁തവണ	-9.32735
▁നേരിയ	-9.32775
▁ലോകത്ത	-9.32803
▁ഉണ്ടോ	-9.32845
▁മറ്റെ	-9.32922
▁പറയാന	-9.3293
രായ	-9.32993
▁നോക്കാൻ	-9.33021
▁കുട്ടിയുടെ	-9.3304
ക്കണം	-9.33063
▁ധൈര്യം	-9.33072
▁അറിയാം	-9.3311
▁തെളി	-9.33115
ുണ്ടെങ്കിൽ	-9.33158
▁വായിച്ച	-9.33185
ാക്കിയ	-9.33213
▁കെട്ടു	-9.33248
ക്കെ	-9.33285
▁സന്ധ്യ	-9.33298
▁രാജ്യ	-9.33347
യുടെയും	-9.33416
▁കവി	-9.33437
ഠ	-9.33469
പ്രകാര	-9.3363
▁ചെറുപ്പ	-9.33633
▁ശരിക്കും	-9.33738
▁നടക്കാൻ	-9.33813
▁ഉയര	-9.3389
▁രക്ത	-9.33891
ായാലും	-9.33902
▁നിയമ	-9.3393
▁മാത്രമെ	-9.33944
▁ഞ	-9.33951
▁ചുവന്ന	-9.33954
ജ്ജ	-9.33956
വിടെ	-9.33965
▁എതിര	-9.33994
ക്കൂ	-9.34015
ാറ്	-9.34018
▁തെളിഞ്ഞു	-9.34053
▁ചെയ്യുന്നു	-9.3409
കൾക്കു്	-9.34106
▁ദേഹം	-9.34141
▁ധനത്തിന്റെ	-9.34153
▁അച്ഛനും	-9.34267
ൂർ	-9.34289
ന്ത്ര	-9.34348
▁ചാത്ത	-9.34363
▁പിന്നീട	-9.34467
▁മന	-9.34468
▁വേണ്ടതു്	-9.34503
ിപ്പോക	-9.34519
ിരിക്കണം	-9.34545
ത്തേക്കു്	-9.34615
േലു്	-9.34652
▁കണ്ടിട്ടില്ല	-9.34656
▁ധരിച്ച	-9.34677
▁സാധിക്ക	-9.34812
▁എട	-9.35003
▁കാര്യമ	-9.35006
▁മനോ	-9.35048
▁വരുന്നു	-9.35063
▁ഇപ്പോ	-9.35079
▁ചെറുപ്പക്കാര	-9.35144
▁ചെയ്യുന്നതു്	-9.35159
▁രാമ	-9.35177
ക്കൊണ്ടിരുന്നു	-9.35243
▁അഭിനയ	-9.3528
ന്നും	-9.35413
▁അച്ചൻ	-9.35452
ുന്നതിൽ	-9.35468
ിപ്പിക്കുന്ന	-9.35508
▁കൂട്ടുകാര	-9.35561
റപ്പ	-9.35571
യെടുത്തു	-9.35617
▁പാത	-9.35665
▁പേരു	-9.35822
▁കത്ത	-9.35849
റെ	-9.35873
▁പിൻ	-9.35889
കാര്യ	-9.35937
▁മാറിയ	-9.36035
▁ന്റെ	-9.36108
▁കുഞ്ഞ	-9.3617
പടി	-9.36209
▁തീർച്ചയാക്കി	-9.36243
▁മടങ്ങ	-9.3626
▁ദിവസവും	-9.36282
▁പൊട്ട	-9.36298
ീട്ടു്	-9.36326
ിറങ്ങ	-9.36527
▁മറന്ന	-9.36579
രാജ	-9.36601
▁കണക്ക	-9.36643
▁അമ്മായി	-9.36646
മാത്ര	-9.36688
▁ബഹുമാന	-9.36688
▁തണുപ്പ	-9.3669
▁അങ്ങുന്നേ	-9.36691
▁വാക്കു	-9.36695
▁ജീവന	-9.36721
▁പൊന്നീ	-9.36782
▁പറവാന	-9.36807
▁എന്നിട്ട	-9.36913
ുമൊക്കെ	-9.36975
േയുള്ളു	-9.3701
ിനോടു്	-9.37084
▁സ്ഥലത്ത	-9.37095
▁വർണ്ണ	-9.37111
▁ആഴ്ച	-9.37141
▁സിദ്ധിച്ച	-9.37142
▁നാടക	-9.37166
കളിലൂടെ	-9.37272
▁അപ്പോഴും	-9.37331
രേ	-9.37332
▁കടിച്ചു	-9.37368
ഭാഷ	-9.37391
▁കടക്ക	-9.37447
▁വൈക	-9.37453
ടിച്ച	-9.37459
യിരിക്കുന്നു	-9.3753
▁വായന	-9.37737
നോടു	-9.37769
▁ആത്മ	-9.37871
ിൽനിന്നും	-9.37929
▁നനഞ്ഞ	-9.37971
▁വിരോധ	-9.38033
▁കുഴി	-9.38048
▁നേരിട്ട	-9.38084
▁പായ	-9.38106
▁മനുഷ്യന	-9.38111
▁മെലിഞ്ഞ	-9.38116
▁സൈക്കിൾ	-9.38116
▁സമീപ	-9.38117
▁തക്കവണ്ണം	-9.38124
▁ഭക്തി	-9.38129
മാണോ	-9.38129
▁ഇങ്ങോട്ടു	-9.3815
▁നിരാശ	-9.38151
▁അകത്തേയ്ക്കു	-9.38181
▁ലോകം	-9.38247
▁ഞങ്ങളെ	-9.38278
▁വിശ	-9.38396
▁പലതും	-9.38425
▁നിറയെ	-9.38434
▁നോക്കുന്ന	-9.38443
▁സമയത്ത	-9.38475
▁വന്നിരുന്നു	-9.38532
▁ശ്വാസം	-9.38535
▁കോപ	-9.38582
മുണ്ടായ	-9.38634
നിറ	-9.38862
▁നിവൃത്തിയില്ല	-9.38925
▁പുറപ്പെട്ട	-9.39041
പ്പൂ	-9.39049
ണ്ടാക്ക	-9.391
ീന്നു്	-9.39105
▁സ്വപ്നം	-9.39148
മുട്ട	-9.39156
തെന്ത	-9.39159
തന്ന	-9.39212
ക്കളയ	-9.39221
▁ആദ്യമായി	-9.39302
▁പൊന്നിക്കു്	-9.39307
േണ്ടിവരും	-9.39378
ാണെന്നും	-9.39432
▁കുറിച്ച	-9.39433
ിനെപ്പറ്റി	-9.39456
▁കുട്ടികളെ	-9.39469
▁പുറത്തേക്കു	-9.39561
▁ഉം	-9.39566
▁നളിനി	-9.39566
▁ലജ്ജ	-9.39591
▁അച്ഛാ	-9.39695
▁എങ്ങ	-9.39731
▁ഇരിപ്പ	-9.39733
നിൽക്ക	-9.39748
▁ചില്ലറ	-9.39757
▁ഇല	-9.39799
▁ഇൻ	-9.39909
േണ്ടിവന്നു	-9.40007
▁ചിരിച്ചുകൊണ്ടു്	-9.40093
▁പൊന്നിയെ	-9.40204
ബുദ്ധി	-9.40272
▁വാഴ	-9.4031
▁നോട്ടം	-9.40365
തെ	-9.40403
കഴിഞ്ഞു	-9.40458
ാതിരിക്കില്ല	-9.40718
▁ഗതി	-9.40722
വന്റെ	-9.4079
▁മുറിയില	-9.40819
▁അടുക്ക	-9.40836
▁ചെക്ക	-9.40918
▁രഹസ്യ	-9.40925
▁ഒളി	-9.4093
ിച്ചാൽ	-9.40954
▁മണിക്കൂർ	-9.41036
▁അന്വേഷിക്ക	-9.41042
▁തീവണ്ടി	-9.41052
▁അനുകൂല	-9.41081
റും	-9.41139
▁മേലാൽ	-9.41189
▁വെട്ടി	-9.41206
▁ബോദ്ധ്യ	-9.41214
േപ്പോലെ	-9.41222
▁ഭർത്താവിന്റെ	-9.41223
▁ഹരി	-9.41294
▁മേല	-9.4131
▁നോക്കുമ്പോൾ	-9.41335
ങ്ങളെല്ലാം	-9.41354
▁ചേർന്നു	-9.41356
ുമ്പോഴും	-9.41367
വർക്കു്	-9.41421
▁ഇങ്ങട്ടു	-9.41443
▁താമസ	-9.41451
മെങ്കിലും	-9.41491
നിയ	-9.41535
▁തിരു	-9.41545
▁ബോധം	-9.41557
▁സ്നേഹം	-9.41652
▁എന്നൊക്കെ	-9.4168
▁ഉണ്ടാക്കിയ	-9.41687
▁നിവൃത്തി	-9.41691
▁പാതി	-9.417
▁വർത്തമാനം	-9.41722
▁നാട	-9.41725
യാക്കി	-9.41733
സൂ	-9.41742
മെന്ന	-9.41768
ബി	-9.4177
ങ്ങൾക്കു	-9.41788
▁ബാല	-9.41818
വിട്ട	-9.41873
മാകുന്ന	-9.41967
▁പട്ടണ	-9.42204
▁വേറ	-9.42247
▁അറിയിക്ക	-9.42332
▁അറിയുന്ന	-9.42356
▁കഴിയും	-9.42423
▁യേശു	-9.42492
▁ഏട്ടന	-9.42504
െവിടെ	-9.42523
▁ഉറുപ്പിക	-9.42529
▁കഠിന	-9.42529
▁ആശ്രമ	-9.42531
▁രവി	-9.42554
ിരിക്കാൻ	-9.42556
േഴ്സ	-9.4256
▁പരസ്യ	-9.42563
▁വാതിൽക്കൽ	-9.42567
▁ഉയർന്നു	-9.42612
▁ലാ	-9.4265
▁ഒരാഴ്ച	-9.4272
▁ഭക്ഷണ	-9.42758
മുണ്ടായി	-9.42764
▁അല്ലാതെ	-9.42825
▁ദൂര	-9.4284
▁കുടി	-9.42857
കളായി	-9.42929
ിക്കുന്നതു	-9.43114
വച്ചു	-9.43151
▁മനസ്സില	-9.43226
വിധം	-9.43281
▁അകത്ത	-9.43362
▁പറയുക	-9.43391
▁ചെവി	-9.43397
ാൻവേണ്ടി	-9.4342
▁ഭാഗ്യം	-9.43455
▁കാണാന	-9.43538
▁മനസ്സിലാക്കാൻ	-9.43676
യില്ലാതെ	-9.43695
ജീവിത	-9.43781
ിട്ടുള്ളതു്	-9.43888
ക്രമ	-9.43892
ളും	-9.43939
▁അസൂയ	-9.44057
▁സാക്ഷി	-9.44064
▁അയ്യോ	-9.44066
▁ഒന്നുരണ്ടു	-9.4407
▁രാധ	-9.44186
▁ജയ	-9.44293
▁രാജാവിന്റെ	-9.44302
▁പൊതി	-9.44319
റിയാതെ	-9.44363
▁ശീല	-9.4438
▁ചേർത്തു	-9.44581
ക്കൽ	-9.44635
▁കോടതി	-9.44808
▁കടലാസ	-9.44859
്വോ	-9.44883
▁അതുപോലെ	-9.44893
ന്മാരുടെ	-9.44903
ശ്ര	-9.44913
▁നീലി	-9.44952
▁സംസാരിക്കാൻ	-9.44975
▁കന	-9.45021
നിർത്തി	-9.45087
▁അപ്പോഴ	-9.45093
ത്തിന്മേൽ	-9.45094
ിങ്ങ	-9.45201
▁അവനു്	-9.45202
▁മോള	-9.45208
ിനുള്ളിൽ	-9.45234
ത്രേ	-9.45337
▁വല്ല്യമ്മ	-9.45337
▁സാധിച്ച	-9.45339
ാരും	-9.45345
▁ചിരിക്ക	-9.45354
സ്ഥിതി	-9.45372
വില	-9.45385
▁മരിക്ക	-9.45452
▁പറന്നു	-9.45486
തെല്ലാം	-9.45561
▁ചികിത്സ	-9.45569
▁പുറമെ	-9.45582
▁അനുകമ്പ	-9.45583
▁ഗ്രാമ	-9.45619
ക്കുക	-9.45642
▁ഒഴിഞ്ഞു	-9.45669
▁കൊടുക്കാൻ	-9.4575
▁മക്കൾ	-9.45753
▁അകലെ	-9.45793
▁പാവ	-9.45862
വളെ	-9.45879
▁താഴ്ത്തി	-9.45931
▁അപ്പൻ	-9.45963
▁കല്യാണ	-9.46103
ങ്ങു	-9.46137
ിരിക്കും	-9.46181
▁ഭാര്യയുടെ	-9.46184
▁ഞാനൊരു	-9.46282
്യോ	-9.46375
ണ്ടാ	-9.46397
▁ചുണ്ടുകൾ	-9.46424
▁ആരാണു്	-9.4647
▁മറ്റേ	-9.46533
▁സൂര്യ	-9.46552
ോർത്തു	-9.46584
▁തിരിച്ചറിയ	-9.46679
▁കഴിക്കാൻ	-9.46702
വുംകൂടി	-9.46752
▁പാപ	-9.46782
▁തിരിയ	-9.46827
▁കുപ്പി	-9.46872
▁സഹായിക്ക	-9.46884
ഭ്ര	-9.4694
▁ബുദ്ധിമുട്ട	-9.46953
▁എഴുന്നേറ്റ	-9.47019
ട്ടാ	-9.47063
▁നമ്മള	-9.47098
▁അഭിപ്രായം	-9.47115
▁കച്ചവട	-9.47145
▁ക്ഷീരം	-9.47145
▁മൃഗ	-9.47145
▁കമ്പനി	-9.47146
▁അരികെ	-9.47147
▁ചുകന്ന	-9.47173
▁പുള്ളി	-9.47178
▁ഉള്ളൂ	-9.47219
▁പോവാൻ	-9.47233
ാവാം	-9.47246
▁ഞെ	-9.4727
യ്ക്കുന്ന	-9.47276
ുമൊ	-9.47286
▁മൂത്ത	-9.47292
▁തനിച്ച	-9.4731
▁നേർത്ത	-9.47312
▁അടുത്തു്	-9.47406
▁സ്വഭാവ	-9.47428
▁അന്നത്തെ	-9.47433
പാഠ	-9.47463
ളെ	-9.47491
▁കണ്ടിട്ടു്	-9.47518
▁എലി	-9.47533
▁ചോറു	-9.47548
▁സാമാന	-9.47565
▁എവിട	-9.47658
തിനെപ്പറ്റി	-9.47658
▁അതിനെപ്പറ്റി	-9.47723
വനെ	-9.47735
യെന്നു്	-9.47791
കഥ	-9.47801
▁ഇവിട	-9.4786
▁പനി	-9.48026
ങ്ങൾക്കു്	-9.48045
കൊണ്ടിരുന്ന	-9.48121
ുണ്ടാകും	-9.48243
▁ഭർത്താവ	-9.4826
▁മഞ്ഞ	-9.48387
▁ധൃതി	-9.48496
▁മുറ്റത്ത	-9.48546
▁ഒന്നുമില്ല	-9.4869
▁ഉമ്മ	-9.48709
▁കൃഷ്ണക്കുറുപ്പ	-9.48732
▁അഥവാ	-9.48732
ശൂന്യ	-9.48734
▁യന്ത്ര	-9.48738
▁ഉറങ്ങി	-9.48757
▁കണ്ടുപിടിക്ക	-9.48776
▁കോളേജ	-9.48879
▁ബ്ര	-9.48909
▁കാറ്റു	-9.48926
▁സാറ	-9.48927
▁അരി	-9.48958
▁മുഴ	-9.48961
▁വാക്കു്	-9.48992
പെട്ട	-9.48998
▁ചാര	-9.49002
▁കൊട്ട	-9.49008
▁ഒരാ	-9.49077
▁മനോഹരൻ	-9.49103
▁ചോടെ	-9.49108
▁നാള	-9.49123
▁കൊണ്ടുപോക	-9.49157
▁പെണ്ണിന്റെ	-9.49172
▁സംശയം	-9.49186
ുള്ളൂ	-9.492
▁ഒന്നാം	-9.4926
▁ഉറങ്ങാൻ	-9.49302
മെടുത്തു്	-9.49317
പ്പോഴും	-9.49317
റുത്ത	-9.49372
▁പോകാം	-9.49373
മാറി	-9.49623
▁സംഭവ	-9.49656
▁ഇതൊന്നും	-9.49663
▁അടച്ചു	-9.49694
▁ഇതിന്റെ	-9.49765
ിന്നും	-9.49794
▁മന്ദ	-9.4982
▁ജോസഫേട്ടന	-9.49897
ക്കൊണ്ടിരിക്ക	-9.501
▁വീട്ടിലെ	-9.50252
ിനേയും	-9.50272
സർ	-9.50279
▁കൗതുക	-9.50286
▁വീട്ടിലേക്കു	-9.50319
▁പ്രതീക്ഷ	-9.50321
▁മനുഷ്യര	-9.50325
▁സുനന്ദ	-9.50332
ംകൊണ്ടും	-9.50343
▁ചുംബന	-9.50345
േട്ടൻ	-9.50348
▁കപ്പ	-9.50352
ടഞ്ഞ	-9.50362
കൊണ്ടിരിക്ക	-9.50422
പ്പെടുത്തിയ	-9.50605
▁പൂട്ടി	-9.50781
▁വാങ്ങാൻ	-9.50786
▁നിലവിളിച്ചു	-9.50794
▁നോക്കു	-9.50806
പ്പുറത്ത	-9.50823
▁അതെല്ലാം	-9.50835
ങ്ങളാണു്	-9.50838
യാള	-9.50905
പിടി	-9.50912
▁എന്നൊരു	-9.50915
▁വാർത്ത	-9.51053
നിൽ	-9.51066
▁അടുക്കളയിൽ	-9.51121
ൊടി	-9.51233
▁ഉപ	-9.51234
പോയാൽ	-9.51265
▁വാങ്ങിയ	-9.51409
താണെന്നു	-9.51418
▁ലക്ഷ	-9.51532
▁അതാ	-9.51603
▁പുക	-9.51611
മാണെന്ന	-9.51723
റിയാം	-9.51775
ളിച്ച	-9.51896
▁നിർത്തിയ	-9.51918
▁യാതൊന്നും	-9.51985
▁തൊണ്ട	-9.5199
▁ഭ്രമ	-9.5199
▁അപകട	-9.51997
▁സ്വർണ്ണ	-9.51997
▁പലപ്പോഴും	-9.52028
ട്ര	-9.52038
ിക്കാതെ	-9.52056
മ്പ്രാ	-9.52087
▁മോൾ	-9.52098
▁കളയ	-9.5214
ക്കുന്നു	-9.52166
▁എന്നാലുംകൂടി	-9.52166
ാനോ	-9.52171
▁ഇവൾ	-9.52198
▁യഥാർത്ഥത്തിൽ	-9.52294
്യേ	-9.52302
ക്കുമ്പോൾ	-9.52346
▁എന്നിട്ടും	-9.52421
▁ആട്ടെ	-9.5249
കളൊക്കെ	-9.52491
▁അവനു	-9.52537
▁സംസാരം	-9.52544
▁മോള്	-9.52604
വോ	-9.52672
ാഴ്ച	-9.52685
▁തൂ	-9.52748
▁രാജാവ	-9.52818
▁അമ്പല	-9.52841
▁ഒന്നുകൂടി	-9.52871
▁ബാധിച്ച	-9.52876
▁കഴുകി	-9.52877
▁പുരുഷന്മാര	-9.52886
കുട്ടി	-9.52951
▁ചൊ	-9.53025
▁കഴിയാത്ത	-9.5303
രുതെന്ന	-9.53045
▁കോട്ട	-9.53054
ങ്ങളൊന്നും	-9.53058
▁ആവശ്യമ	-9.53074
▁കാറിൽ	-9.5325
▁പല്ലു	-9.53307
▁ശ്രമ	-9.53314
യിൽനിന്നു	-9.53403
▁കെട്ടിപ്പിടിച്ച	-9.53486
▁തമ്പ്രാ	-9.53526
▁വരില്ല	-9.53535
ങ്ങളിലും	-9.53581
ബല	-9.53602
▁നിനക്കു	-9.53605
▁കാലത്ത	-9.53631
▁ഒഴുകി	-9.53651
▁രണ്ടാളും	-9.5366
▁ഉമ്മറത്തു	-9.53709
മാല	-9.53732
▁ഇരുപത്ത	-9.53732
▁പാതിരി	-9.5375
▁ലക്ഷ്മി	-9.53776
▁പിരി	-9.53804
▁തുടച്ചു	-9.53819
▁രോഗ	-9.53823
കൊല്ലം	-9.53846
▁പിന്നില	-9.53865
▁ഞാ	-9.53881
▁മുന്ന	-9.53914
▁അർത്ഥം	-9.53949
▁അതിന്നു	-9.53951
▁പുരുഷ	-9.53972
▁ഇതാണു്	-9.53995
▁ഉത്തര	-9.54053
കളെപ്പോലെ	-9.54174
▁പങ്കു	-9.54205
▁കഴിഞ്ഞില്ല	-9.54207
▁വെട്ട	-9.54261
▁പേരും	-9.54292
േണ്ടതു	-9.54296
ഞ്ഞുപോയ	-9.54329
പാത	-9.54339
ത്തിന്ന	-9.54348
▁ഇര	-9.5436
യമ്മ	-9.54371
ാകെ	-9.54372
▁പ്രശ്ന	-9.54388
▁ചാട	-9.54449
▁മൂല	-9.54532
ത്തോ	-9.54591
▁നോക്കിനിന്നു	-9.5463
▁അപ്പോ	-9.54715
ത്തിനെ	-9.54844
ചെയ്തു	-9.54866
ർത്ഥ	-9.54869
തൊന്നും	-9.54893
▁വീട്ടിലേയ്ക്കു	-9.54895
ച്ചില	-9.54909
▁നിലവിളി	-9.54915
ത്തേക്ക	-9.54915
▁കാണണം	-9.54921
▁തുടര	-9.54953
ുപോലെ	-9.55022
▁വിശ്വാസം	-9.55174
ഫല	-9.5527
▁കത്തു	-9.55306
ഛ	-9.55339
▁മനഃ	-9.55345
▁വ്യത്യാസ	-9.55346
▁ശുശ്രൂഷ	-9.55346
▁സ്വാതന്ത്ര്യ	-9.55346
▁സൈക്കിള	-9.55346
▁കഴിവ	-9.55364
▁ന്യായ	-9.55368
▁പുറം	-9.55395
▁അഭിമാന	-9.55409
▁രണ്ടാ	-9.55424
▁അപ്പന്റെ	-9.55555
▁സമ്മതിച്ചു	-9.55558
ക്കുകയും	-9.55649
▁കാത്തിരിക്ക	-9.55657
ദ്ദ	-9.55691
▁വെളി	-9.55714
ിട്ട്ണ്ടു്	-9.5572
▁കുഞ്ഞു	-9.5575
▁വൈകുന്നേര	-9.55784
ിവിടെ	-9.55814
▁കിട്ടും	-9.55859
ാന്തി	-9.55874
▁തങ്ങളുടെ	-9.55906
റുപ്പിക	-9.5594
▁കൊടുക്കുന്ന	-9.55958
▁പുറപ്പെട്ടു	-9.55972
▁പിടിത്ത	-9.55987
▁കാറ്റു്	-9.56018
▁പൊതു	-9.56088
▁നോക്കിക്കൊണ്ടു്	-9.56155
ായിരിക്കാം	-9.56168
ീല	-9.56211
▁പതിവു്	-9.56216
മാസ	-9.56287
രായി	-9.56337
▁തോന്നിയതു്	-9.56341
▁അമ്മയ്ക്കു്	-9.564
▁വർഷ	-9.56479
ദിവസ	-9.56504
▁ഓട്ട	-9.56513
▁ദൈവം	-9.56592
▁പാർക്ക	-9.56599
▁ഉത്തരം	-9.56655
▁വട്ടം	-9.56657
▁അസ	-9.56672
▁ഒപ്പ	-9.56715
▁എന്തൊ	-9.56729
▁തോന്നുന്ന	-9.56741
▁എം	-9.57013
▁അവരു്	-9.57032
▁താനും	-9.57067
▁അദ്ധ്വാന	-9.5707
▁ഞായറാഴ്ച	-9.5707
▁താല്പര്യ	-9.5707
▁രാഘവൻ	-9.5707
▁ബ്ലൗസ	-9.5707
▁ഗർഭ	-9.57071
▁ഓഫീസിൽ	-9.57073
▁ഇല്ലെന്നു	-9.57123
ന്മാർക്കു	-9.5713
▁കുടിച്ച	-9.57143
▁ആന്റി	-9.57164
▁പ്രധാന	-9.57166
▁ഹൃദയത്തിൽ	-9.5719
▁വീതി	-9.57207
▁നേരിട്ടു	-9.57214
▁ഭാവം	-9.57374
ാറായി	-9.5744
▁മുറ്റത്തു്	-9.57473
▁നിണക്കു	-9.5752
▁നെഞ്ച	-9.5755
▁പോകുമ്പോൾ	-9.57653
▁അനുരാഗിക്കുന്ന	-9.57699
▁സ്വരത്തിൽ	-9.57707
ുണ്ടാക്കി	-9.57713
ടീ	-9.57724
ിണി	-9.57734
തിൽപ്പിന്നെ	-9.57772
വരാണു്	-9.57789
▁പ്ല	-9.57834
▁മുറ്റത്തു	-9.57837
▁നിറം	-9.5795
ിച്ചില്ല	-9.5799
▁ടാ	-9.58041
▁വരവു	-9.58057
ക്കാനുള്ള	-9.58093
▁ഇങ്ങ	-9.58127
▁സന്തോഷം	-9.58134
▁കലാ	-9.58143
ത്തക്ക	-9.58192
യിലേയ്ക്കു്	-9.58197
ുംപോലെ	-9.58243
ർത്തു	-9.58254
▁പേരിൽ	-9.58254
▁ഷർട്ട	-9.5831
▁വച്ചു്	-9.58323
ങ്ങളെപ്പറ്റി	-9.58346
▁പൂച്ച	-9.58461
നായിരുന്നു	-9.58515
▁അടക്ക	-9.58537
▁പകല	-9.58566
ോല	-9.58575
▁തീരുമാന	-9.5859
▁താമസിച്ച	-9.586
▁എന്തേ	-9.58625
ധന	-9.58632
▁അടിച്ചു	-9.58688
ായിരിക്കുമോ	-9.58691
▁ലളിതയുടെ	-9.58703
▁പണ്ടു്	-9.58764
ദർശന	-9.58825
തൊ	-9.58831
▁വിമാന	-9.58838
▁ഇപ്പൊ	-9.58892
▁കണ്ടുമുട്ട	-9.58918
ച്ചെന്നു	-9.58932
▁ദാ	-9.58952
▁നാട്ടിൽ	-9.58955
▁പ്രേമം	-9.59012
▁ചരിത്ര	-9.59037
▁വാസന	-9.59069
▁എനിക്കും	-9.59119
▁കർമ്മ	-9.59138
ക്കുവേണ്ടി	-9.59168
▁പുല്ലു	-9.59212
▁കോപം	-9.59216
യാണെങ്കിൽ	-9.59228
▁പഠി	-9.59242
▁വിദ്യ	-9.5927
ാകും	-9.59287
ക്കുന്നതു്	-9.59414
▁വരട്ടെ	-9.59436
▁സൗന്ദര്യ	-9.59487
▁ഭാരം	-9.59563
ത്തോടും	-9.59568
▁മദ	-9.59602
ുകയാണെങ്കിൽ	-9.59612
▁അമ്മയും	-9.59728
▁കെട്ടിയ	-9.59794
ിട്ടില്ലാത്ത	-9.59798
വിചാര	-9.59876
▁ജീവിതത്തിൽ	-9.59919
ുവെന്ന	-9.59949
▁ഒരുതരം	-9.59964
▁അധ	-9.59991
▁അട	-9.60025
▁നഗര	-9.60031
ിയിരുന്നു	-9.60049
ുന്നുണ്ടോ	-9.60127
▁എഴുത്ത	-9.60133
▁ഹേമാംഗ	-9.60284
ണ്ടാക	-9.60325
▁പിട	-9.60329
▁മൂക്ക	-9.60369
ാട്ടി	-9.6042
ശീല	-9.60423
ിന്റെയും	-9.60478
പ്പിക്കാൻ	-9.60602
▁ജ്ഞാനാനന്ദൻ	-9.6061
▁നിശ്ചയമായിട്ടും	-9.6061
▁വിഷാദ	-9.60633
▁പുച്ഛ	-9.60656
▁കൂടക്കൂടെ	-9.60664
ക്കെട്ട	-9.60717
ാലെ	-9.60728
▁കൃഷി	-9.60744
▁നന്മ	-9.60756
മ്മേ	-9.60759
▁എന്തൊക്കെയോ	-9.60762
ടോ	-9.60801
▁നിൽക്കുകയാണു്	-9.60817
▁ഒഴിഞ്ഞ	-9.60846
ണേ	-9.60878
▁കൊട	-9.60897
▁കെട്ടിട	-9.60899
▁നിധി	-9.60902
വീണു	-9.61033
േയുള്ളൂ	-9.61097
▁അതിന്നു്	-9.61101
ഭരണ	-9.6114
▁സ്വന്ത	-9.6128
ോദ	-9.61291
കൂടാതെ	-9.61332
▁ഈശ്വര	-9.61343
▁നിൽക്കുന്നു	-9.61469
▁കോള	-9.61471
ഫീസ	-9.61479
ള്ളൂ	-9.61631
▁കള്ളി	-9.61641
▁സാധനം	-9.61641
▁മേശപ്പുറത്തു	-9.6165
▁കെട	-9.61683
ുണ്ടാക്ക	-9.61702
▁വെയില	-9.61739
ട്ടോ	-9.61814
കാരി	-9.61824
ഴിഞ്ഞു	-9.61829
▁നായര	-9.61862
▁കാണാതെ	-9.61886
▁അല്ലാ	-9.61897
ഭാവത്തോടെ	-9.61913
കളഞ്ഞു	-9.61939
▁ഇപ്പോഴ	-9.62048
▁സൂക്ഷിച്ചു	-9.62079
▁കടല	-9.62108
ഭി	-9.62216
▁കാണുന്നില്ല	-9.62234
▁വക്കീല	-9.62268
▁കാര്യവും	-9.62291
കൂട്ടി	-9.62354
▁ചേര	-9.62418
ിരിക്കുമ്പോൾ	-9.62426
▁കൊച്ചമ്പ്രാട്ടി	-9.62428
▁ജ്യേഷ്ഠ	-9.62428
▁മുത്തശ്ശി	-9.62428
തിൽപിന്നെ	-9.62429
▁പുഞ്ചിരി	-9.62431
▁പ്രകൃതി	-9.62431
▁സംഗീത	-9.62437
▁നമ്മടെ	-9.62445
▁വൈദ്യ	-9.6245
േഷൻ	-9.62453
േല്	-9.62468
▁അനുഭവിക്ക	-9.62475
▁സിദ്ധിക്ക	-9.62496
▁ഞങ്ങൾക്കു്	-9.62538
▁മകളെ	-9.62572
▁ഉണ്ടാകയില്ല	-9.62587
▁മാർത്ത	-9.62626
▁പൂർണ്ണ	-9.62634
▁കന്യക	-9.62677
▁ഇതെല്ലാം	-9.62679
▁വളർത്ത	-9.62709
▁തിരിച്ച	-9.62727
▁കാലു	-9.62741
വെള്ളം	-9.62796
ാത്തതു	-9.62807
▁ബന്ധം	-9.62813
▁ആളുകൾ	-9.62816
യുണ്ടായിരുന്നു	-9.62874
▁സാര	-9.62888
▁എന്തിനു	-9.62903
▁പന്ത	-9.62906
▁സമ്മതിച്ച	-9.62911
ുണ്ടായി	-9.62924
മുണ്ടെന്നു	-9.62944
െക്കാൾ	-9.62951
ാകുന്ന	-9.63009
▁വരു	-9.63071
ുമായിരിക്കും	-9.63133
ർക്കു	-9.63151
▁പറ്റീ	-9.63166
ടർന്ന	-9.63267
▁ഭാവന	-9.63277
തിലും	-9.63278
▁ചൈനാനിയുടെ	-9.63278
▁ഉയർത്തി	-9.63281
നോടു്	-9.6335
▁അത്യ	-9.63527
▁സമ്മത	-9.63583
▁ഭാര	-9.63625
▁പൂവ	-9.63677
പ്പുറം	-9.63702
▁വേണ്ടുന്ന	-9.63706
▁മറ്റോ	-9.63789
▁ചില്ല	-9.63795
▁ചെയ്യുക	-9.6388
▁പണമ	-9.63934
▁വരച്ച	-9.63955
▁ദിവസങ്ങൾ	-9.63993
▁രണ്ടും	-9.63993
▁മതിയാ	-9.63997
്ന്നു്	-9.64085
▁തെറ്റു	-9.64177
ാതിരിക്കാൻ	-9.6425
▁കലശലായ	-9.6428
▁അഴി	-9.64281
▁കേരള	-9.64283
▁പരാതി	-9.64285
▁തേടി	-9.64293
▁ഇന്നും	-9.64298
▁ലീല	-9.64309
ദ്ദേശ	-9.64328
▁കാശ	-9.64337
▁മത	-9.64371
▁പാമ്പ	-9.64382
▁മിന്നി	-9.64386
▁പകൽ	-9.64395
യുട	-9.64401
▁ദുഃഖ	-9.64403
▁ചന്ദ്രൻ	-9.64436
▁ഇവിടുന്നു	-9.64437
മെന്	-9.64447
ീട്ടു	-9.64459
▁നേർ	-9.6449
ുന്നതുവരെ	-9.64493
▁ഗ്ര	-9.64537
▁ധൃതിയിൽ	-9.64557
▁പ്രായം	-9.64563
ച്ചാൽ	-9.64608
▁വീടിന്റെ	-9.64609
▁ഉടുപ്പ	-9.64683
▁പുറത്ത	-9.64707
▁പോരാഞ്ഞിട്ടു്	-9.64717
▁കൃഷ്ണൻനായർക്കു്	-9.64777
▁ഉച്ചത്തിൽ	-9.64807
▁ഉണ്ണ	-9.64866
പ്പുറ	-9.64878
▁മനസ്സിലായതു്	-9.64889
▁തറ	-9.65017
കൂടാ	-9.65058
▁തടിച്ച	-9.65088
▁എസ്	-9.65125
▁മകളുടെ	-9.6516
▁സ്ത്രീകള	-9.65255
വാര	-9.65303
ത്തോളം	-9.65326
▁സോ	-9.65333
ന്മാരെ	-9.65352
▁ഭാസ്കരന	-9.65434
▁മരണം	-9.65554
പക്ഷ	-9.65573
▁പോയപ്പോൾ	-9.65624
▁ശരീരം	-9.65627
ിരിക്കുകയാണു്	-9.65636
▁അച്ച	-9.65747
പ്പെട്ടി	-9.65802
വന്നതു്	-9.65861
▁ദു	-9.65871
തീർ	-9.65875
▁കണ്ണുകളിൽ	-9.65896
▁വിഡ്ഢി	-9.65902
▁പട്ടി	-9.65991
ുണ്ട്	-9.66019
ക്കാണു്	-9.66057
ദ്രോഹ	-9.66086
▁ശരിക്കു	-9.66102
വൃത്ത	-9.66146
▁അപ്രത്യക്ഷ	-9.66167
▁ആകപ്പാടെ	-9.66167
▁ഇടയ്ക്കിടെ	-9.66167
▁വാടക	-9.66172
ക്കാതെ	-9.66205
സ്ഥല	-9.66214
▁പെരു	-9.66235
മ്മാ	-9.66245
യുണ്ടായ	-9.66247
▁വിശ്വസിച്ചു	-9.66261
▁അവസാനത്തെ	-9.66397
യൊരു	-9.66489
▁സാധനങ്ങള	-9.66531
▁കൃഷ്ണ	-9.66571
▁ഷാപ്പ	-9.66607
▁വരുന്നതു	-9.66639
▁വിധത്തിൽ	-9.66667
▁കരുതിയ	-9.66756
▁എന്തിനു്	-9.66871
▁പരമാർത്ഥം	-9.66876
കാലം	-9.66934
▁എന്താണു	-9.6695
ിട്ടേ	-9.66966
▁പെരുമാറ	-9.66975
▁ചൂടു	-9.66981
▁സംശയിച്ചു	-9.66987
▁വെയിൽ	-9.67014
കിട്ടിയ	-9.67044
▁വിധം	-9.67143
▁കാര്യമാണു്	-9.67297
▁ഹി	-9.67439
▁ഉണർന്ന	-9.67573
ുള്ളതു	-9.67657
യുമില്ല	-9.67683
ചെയ്ത	-9.67736
▁താഴ്	-9.67745
▁നാവു	-9.67783
▁പതിനഞ്ചു	-9.67839
ത്തിലൂടെ	-9.67895
മാരുടെ	-9.67903
ഷൻ	-9.67909
▁ഇഷ്ടപ്പെട്ട	-9.6798
കാലത്തു്	-9.68036
▁വണ്ടർലാൻഡ	-9.6809
▁അസ്വസ്ഥ	-9.6809
▁പ്രസംഗ	-9.6809
▁ക്രമേണ	-9.68091
▁ടീച്ചറ	-9.68091
▁മൗന	-9.68098
▁സ്നേഹിത	-9.68124
▁നീക്കി	-9.68125
വെന്നു്	-9.68125
▁കണ്ണട	-9.68129
▁ഖ	-9.68138
▁സൗകര്യ	-9.68233
▁ക്ഷണ	-9.68256
▁എൻ	-9.68288
▁കുല	-9.68359
ുണ്ടല്ലോ	-9.68366
▁ധർമ്മ	-9.68394
ക്കുകയാണു്	-9.68403
▁ബസ്സ	-9.68407
▁ഉള്ളില	-9.68415
ുകയാണോ	-9.68506
ധി	-9.68587
ുന്നതിന്റെ	-9.68588
▁കൃഷ്ണൻനായര	-9.68611
▁തപ്പി	-9.6866
ായപ്പോൾ	-9.68662
▁കണ്ണും	-9.68815
▁നന	-9.68827
▁മറ്റൊന്ന	-9.68873
▁മുറുക്ക	-9.68883
▁സാർ	-9.68895
▁ജനിക്ക	-9.68901
▁തൊട്ടടുത്ത	-9.68928
വ്യക്ത	-9.68999
▁രീതി	-9.69067
▁കട്ടിലിൽ	-9.6908
വുമാണു്	-9.69091
ധികം	-9.69114
ിരിക്കാം	-9.69211
ശ്വ	-9.69236
രാത്രി	-9.69293
▁സങ്കടം	-9.69341
ൂരി	-9.69396
ാന്നു്	-9.69429
ടുത്തു്	-9.69466
▁കൊണ്ടുപോയ	-9.69593
▁ഭർത്താവിനെ	-9.69598
▁അന്യ	-9.69614
▁കഥകൾ	-9.69634
▁കേട്ടു്	-9.69662
▁പോവ്വ	-9.69695
▁ജീവി	-9.69746
▁ദൂരം	-9.69766
▁ഓണ	-9.69818
▁ക്ഷീണ	-9.69847
▁വല്യ	-9.69856
▁അമ്പ	-9.69904
▁ഒരാൾക്കു	-9.69951
▁ഇപ്പ	-9.69977
▁പറേ	-9.69987
ച്ചിരി	-9.70009
▁ബിജു	-9.70046
▁തരുണി	-9.70052
▁തമാശ	-9.70053
ോട്ടെ	-9.70072
▁യുദ്ധ	-9.70077
▁ഇത്രത്തോളം	-9.70095
▁കൂട്ടത്തിൽ	-9.70114
▁അയാള്	-9.70142
തരം	-9.7019
▁കുമാരൻ	-9.7019
▁നോക്കു്	-9.70192
ിന്മേല	-9.70248
▁രേഖ	-9.70273
▁ചുണ്ട	-9.70356
▁കിടന്നിരുന്ന	-9.70382
▁വയല	-9.70386
▁പദ	-9.70395
▁നായ	-9.70396
പിടിച്ചു്	-9.70457
മെന്നു	-9.70509
യോടും	-9.70574
▁പൈ	-9.70591
▁ആരാ	-9.70599
▁പറമ്പിൽ	-9.70621
തിനെ	-9.70622
▁പണ്ടത്തെ	-9.70682
ഴിച്ച	-9.70683
ൂടെ	-9.70716
റിയാൻ	-9.70741
▁സമ്മാന	-9.70753
ക്കഴിഞ്ഞു	-9.70795
▁തരാം	-9.70823
▁മുമ്പു	-9.7083
കൊണ്ടിരിക്കുന്ന	-9.70841
▁കേൾക്കുന്ന	-9.7097
▁വലിയൊരു	-9.71105
▁കാമുക	-9.71119
സാന	-9.71138
▁മരുന്നു	-9.71219
ക്കേണ്ട	-9.7122
ക്കാര്യ	-9.71224
▁രക്ഷിക്ക	-9.71256
ച്ചുകൊണ്ടു്	-9.71329
പറഞ്ഞ	-9.71365
ണ്ടായിരുന്നു	-9.71382
ായിട്ടു്	-9.71403
ന്മാരും	-9.71444
പ്പണി	-9.71493
ലാണു്	-9.71528
▁ചിത്രങ്ങൾ	-9.71638
▁അറ്റ	-9.71641
ങ്ങളായി	-9.71762
ക്കുറിച്ചു്	-9.71817
▁പയ്യന	-9.71848
െടുക്കാൻ	-9.71887
ാറായ	-9.71904
ിരുന്നെങ്കിൽ	-9.71945
▁ചേർന്ന	-9.72051
▁ജാസ്തി	-9.72051
▁അത്യന്തം	-9.72051
▁നഗ്ന	-9.72052
▁എന്നുവെച്ചാൽ	-9.72052
▁വഞ്ചന	-9.72054
▁അതിശയ	-9.7206
▁അതല്ല	-9.72088
▁മകന്റെ	-9.72093
▁പെണ്ണുങ്ങൾ	-9.72115
▁സ്ത്രീയുടെ	-9.72116
▁കുറെനേരം	-9.72139
▁നരച്ച	-9.7216
▁പങ്ക	-9.7218
▁വേഗത്തിൽ	-9.7218
പ്പിന്റെ	-9.72205
▁സ്വകാര്യ	-9.72213
ാണവൾ	-9.72248
▁മിക്ക	-9.72289
▁വരുത്തി	-9.72297
▁നിശ്ചയിച്ചു	-9.72404
▁നോക്കാം	-9.7254
▁കുറ്റം	-9.72542
ട്ടേ	-9.72554
▁മൂടി	-9.72588
▁പെണ്ണിനെ	-9.72603
▁കട്ടി	-9.72606
▁ചെയ്തു്	-9.72622
ക്കറ്റ	-9.72647
ത്തീര	-9.72656
ൊപ്പം	-9.72667
▁വൈകി	-9.72688
മ്മി	-9.72732
തോറും	-9.72737
▁നാട്ടു	-9.7283
ിലധികം	-9.7292
▁പാർട്ടി	-9.72938
▁നേരത്തേ	-9.72963
▁ഒന്നാമതു്	-9.72982
ിളക്ക	-9.7308
▁മൂപ്പ	-9.73121
ായിരം	-9.73156
േയ്ക്കു്	-9.73218
▁അവിടെത്തന്നെ	-9.73276
മുണ്ടാ	-9.73344
▁ദുർ	-9.73362
കളിലെ	-9.73467
▁വിശ്വസിക്കുന്ന	-9.73497
കളായ	-9.73498
▁തെര	-9.73546
▁തടി	-9.73669
▁പ്രഭ	-9.73712
▁ശ്രമിച്ച	-9.73785
▁മകനെ	-9.73794
▁വേണ്ടെന്നു	-9.73795
ിങ്ങനെ	-9.73829
▁നടത്തിയ	-9.73987
പോലെയുള്ള	-9.73993
▁ഉല	-9.74092
▁ഉൾ	-9.74092
▁പ്രധാനമന്ത്രി	-9.74092
▁സാവധാനത്തിൽ	-9.74092
▁സാവിത്രി	-9.74092
▁ചുംബിക്ക	-9.74092
▁ചേച്ചീ	-9.74097
▁കുറുപ്പു	-9.74102
▁മറ്റൊരാള	-9.74103
▁വാശി	-9.74113
ണ്ടെ	-9.74121
▁ജോസഫേട്ടന്റെ	-9.74123
▁രാജീവ	-9.74129
▁യോഗ	-9.74158
▁നായരുടെ	-9.74163
▁ആരു	-9.74219
▁ഭംഗിയുള്ള	-9.74225
▁പുതു	-9.7428
▁തീർക്ക	-9.74306
▁തുള്ളി	-9.74343
റങ്ങ	-9.74344
▁വീടും	-9.74358
▁തമ്പ്രാൻ	-9.74367
മൃത	-9.74384
▁തനി	-9.74444
▁എത്തിയപ്പോൾ	-9.74459
▁ചെയ്യാന	-9.74476
വർക്കു	-9.74482
ക്കാലത്തു	-9.74494
▁ഉണർന്നു	-9.74644
മുറിയിൽ	-9.74732
▁അനങ്ങ	-9.74794
കൂടാത്ത	-9.74834
താണോ	-9.74879
ത്തിര	-9.74962
▁എങ്ങിനെയാണു്	-9.75024
▁നടന്നു്	-9.75156
▁പറമ്പ	-9.7518
▁മൂന്നാ	-9.75197
▁കഴിച്ചുകൂട്ട	-9.75236
ത്തിരി	-9.75252
▁ക്ലാസ്സ	-9.75399
▁പറഞ്ഞിട്ട	-9.75415
▁അച്ഛനു്	-9.75447
▁വളർന്നു	-9.75572
▁ദുര	-9.75573
ടച്ചു	-9.75621
മായിട്ടു്	-9.75622
ുകാർ	-9.75654
ുന്നുണ്ടെന്നു	-9.75658
ത്തിനുള്ളിൽ	-9.75699
തല്ലെ	-9.75733
▁പിറ്റേന്നു്	-9.75757
ിലായിരുന്നു	-9.75789
ായിരിക്കുന്നു	-9.75836
▁മുഴു	-9.75918
മെല്ലാം	-9.75955
▁കൂട്ടിക്കൊണ്ടു	-9.75979
കൾക്കും	-9.76043
▁ഇവര	-9.7614
ക്കൊള്ള	-9.76141
മല്ലേ	-9.76154
ണ്ടായി	-9.76156
ഃ	-9.76166
▁ചതുരംഗപ്പലക	-9.76175
▁യൂജീനിന്റെ	-9.76175
▁വാസ്തവം	-9.76175
▁തിരികെ	-9.76176
▁സൂത്ര	-9.76177
▁കുലുക്കി	-9.76185
▁വിധു	-9.76193
▁എല്ലാവർക്കും	-9.76214
▁ആരോടും	-9.76228
▁മാലതി	-9.7623
ഭാവത്തിൽ	-9.76248
▁കോണ	-9.76255
▁വേറൊരു	-9.76275
▁പോക്ക	-9.76345
▁തുറിച്ചു	-9.76484
▁ഇടയ്ക്കു്	-9.76523
▁ത്രേസ്യാമ്മയുടെ	-9.76542
▁തിരിഞ്ഞുനോക്കി	-9.76544
▁മൂളി	-9.76554
▁ഇന്നത്തെ	-9.76653
▁ജല	-9.76832
▁അതോടെ	-9.7701
▁മന്ദാര	-9.7709
ക്കാരുടെ	-9.771
തായിരിക്കും	-9.77149
▁മദ്യ	-9.77275
▁വിട്ടുപോയ	-9.77306
▁മുമ്പെ	-9.77317
▁തൂങ്ങി	-9.77329
▁പുല്ല	-9.77335
ായിരുന്നോ	-9.77348
ിലിരുന്നു്	-9.77453
വണ്ടി	-9.77486
▁സുഖം	-9.77517
▁മുതലായ	-9.77542
▁ഇറക്കി	-9.77558
▁മുഖത്ത	-9.776
മായിരുന്നില്ല	-9.77626
നടന്നു	-9.77688
▁ഉണ്ടായില്ല	-9.77717
പ്പെട്ടു്	-9.77718
▁ഭാ	-9.77721
▁കേറ	-9.77733
മുണ്ടാക	-9.77757
യെന്നു	-9.77766
ക്കൊക്കെ	-9.77812
യ്ക്കുള്ള	-9.77904
▁നിലത്ത	-9.77995
▁പറയണം	-9.78018
▁താമസിക്കുന്ന	-9.78032
▁പുല	-9.78067
▁ഇവർ	-9.78078
▁കല്ല	-9.78107
▁ഒട	-9.78197
▁നൂറു	-9.782
▁ചവിട്ടി	-9.78261
പ്പാട്ട	-9.78266
▁ഇഷ്ടം	-9.78278
▁ഭൂമിയിൽ	-9.78292
▁കമ്പ്യൂട്ടറ	-9.78303
▁ദിവ്യ	-9.78303
▁മിക്കവാറും	-9.78303
ുന്തോറും	-9.78305
▁സേതു	-9.78314
▁തികഞ്ഞ	-9.78319
▁നിന്നിരുന്ന	-9.78325
ൊരിക്കൽ	-9.78327
കാര്യം	-9.78333
▁ഇരുവരും	-9.78365
▁സേവ	-9.78399
▁ഏതാനും	-9.784
▁മനഃസ്ഥിതി	-9.78421
▁കാണിക്കുന്ന	-9.78427
▁കാണ്മാൻ	-9.78433
▁വഴക്ക	-9.78454
▁മീതെ	-9.78478
ാക്കാൻ	-9.78559
ിക്കുവാൻ	-9.78594
▁അവിടുന്നു	-9.78598
ഭാഗം	-9.78618
▁തറവാട്ട	-9.78628
▁മാഷ	-9.78645
▁എനിയ്ക്ക	-9.78686
മുമ്പു്	-9.787
▁ആയിരിക്കും	-9.78704
കൊള്ളാം	-9.78776
സ്വഭാവ	-9.78828
ക്കുറവ	-9.78836
▁പോയിരുന്നു	-9.78837
▁പിറ്റേന്നു	-9.78884
▁മൂലയിൽ	-9.78886
▁എന്നായിരുന്നു	-9.78889
▁മകള	-9.78917
▁ബെ	-9.78976
ത്തുടങ്ങിയ	-9.78978
▁കൺ	-9.79027
▁വ്യ	-9.79055
ല്ലെന്നു്	-9.79056
▁മാത്രമായി	-9.7908
▁ഉപദേശ	-9.79098
▁ഭർത്താവു	-9.79168
▁പീ	-9.79222
രിഞ്ഞ	-9.79335
▁അതുവരെ	-9.79374
▁തുടങ്ങുന്ന	-9.7944
▁പുലർത്ത	-9.7944
▁പതിഞ്ഞ	-9.79482
ക്കാനും	-9.79512
കൾക്കിടയിൽ	-9.79542
വരാൻ	-9.79579
▁ആയാൾ	-9.79626
▁സ്ഥാന	-9.7984
മായിരിക്കുന്നു	-9.79853
▁കേട്ടോ	-9.79853
▁മറഞ്ഞു	-9.7988
▁വിഷ	-9.79887
▁മുമ്പേ	-9.79969
▁അതിലും	-9.79971
▁റെ	-9.79974
▁വിളിക്കുന്ന	-9.80006
യിരുന്നില്ല	-9.80086
ലീ	-9.80144
▁പോവുക	-9.80149
▁കിടത്തി	-9.80184
▁രണ്ടാം	-9.80232
മാരും	-9.803
▁അതെന്ത	-9.80359
ക്കട്ടെ	-9.80392
▁കട്ട	-9.80452
▁സ്വന്തമായി	-9.80457
▁ജോമോൻ	-9.80477
▁സൂക്ഷിക്ക	-9.80477
▁ശമ്പള	-9.80478
ാലോചന	-9.80479
എന്തുകൊണ്ടെന്നാൽ	-9.80482
▁പരിശോധിക്ക	-9.80489
ോർത്തു്	-9.80504
ോളാം	-9.80521
▁നുണ	-9.80523
▁മൂന്നു്	-9.80565
ത്തിലേയ്ക്കു്	-9.80593
െഴുത്തു	-9.80652
▁പക്ഷി	-9.80682
▁വരച്ചു	-9.80748
▁വേഷ	-9.80864
കളെല്ലാം	-9.80889
▁അകത്തേക്കു	-9.8089
▁എടുത്തുകൊണ്ടു	-9.80935
ുവാനും	-9.80965
കെട്ടി	-9.80977
▁വിരിച്ച	-9.81041
▁പിരിഞ്ഞു	-9.81086
▁കുട്ടികളുടെ	-9.81103
▁പ്രണയം	-9.81137
▁വിറ്റ	-9.81147
▁അതുതന്നെ	-9.81189
▁ജനിച്ച	-9.81199
▁വടി	-9.81274
▁വിൽക്ക	-9.81276
വേണ്ട	-9.81279
ീലു്	-9.81313
▁ആരുമില്ല	-9.81378
നില്ക്ക	-9.81405
▁പണ്ടേ	-9.8146
▁പരന്ന	-9.81568
ച്ഛാ	-9.816
ാലു്	-9.81611
▁കേസ	-9.81616
▁ഒറ്റയ്ക്കു്	-9.81628
▁പറയുമ്പോൾ	-9.81662
ുകയേ	-9.81733
▁വിട്ടു്	-9.81758
▁വിചാരിക്കുന്ന	-9.81786
▁ചിലവ	-9.81826
▁സംബന്ധ	-9.81842
▁ക്ലാസ്സിൽ	-9.81859
▁ഓർമ്മകൾ	-9.81913
1	-9.81934
▁ഒന്നിച്ച	-9.81993
▁നിലത്തു്	-9.8206
▁വെച്ചിരുന്ന	-9.82291
▁കാര്യമില്ല	-9.82367
ിംഗ്	-9.82381
▁ഉണങ്ങി	-9.8241
▁ഉമ്മറത്ത	-9.82577
ാവണം	-9.82623
വളുടെ	-9.82627
യൊന്നു	-9.82687
▁എന്നുകൂടി	-9.8269
▁മുകളില	-9.82694
▁ഉന്മേഷ	-9.82699
▁എഴുന്നേൽക്ക	-9.82699
▁പാപ്പിഅമ്മ	-9.82699
▁ഗന്ധ	-9.82699
▁നക്ഷത്ര	-9.82699
▁നിലയില	-9.82702
▁സവാരി	-9.82703
▁രണ്ടുമൂന്നു	-9.82704
▁കുഞ്ഞിയമ്മ	-9.8271
▁വെറുക്ക	-9.8271
▁മുൻകൂട്ടി	-9.82726
▁പശു	-9.82726
▁ഉപകാര	-9.82743
▁ഒന്നിനും	-9.82783
▁എവിടെയെങ്കിലും	-9.82783
▁ഭവന	-9.8281
▁വേണമെങ്കിൽ	-9.8283
▁കട്ടില	-9.82869
▁നമ്മള്	-9.82882
▁ഇവരുടെ	-9.8289
▁ഉറ	-9.82895
▁തലോടി	-9.82902
▁സാധന	-9.82974
▁പുരുഷൻ	-9.82998
▁വിഡ്ഢിത്ത	-9.83012
▁സാധിച്ചില്ല	-9.83064
▁സമയത്തു	-9.83151
▁അഴിച്ചു	-9.83195
▁കണ്ണടച്ചു	-9.83201
േണമെന്ന	-9.83253
▁ആശ്വസിപ്പിക്ക	-9.83284
പ്പിക്കുന്ന	-9.83361
▁വിറച്ചു	-9.83397
▁കൊണ്ടോ	-9.83418
▁കർത്താവേ	-9.83473
▁കൊതി	-9.83486
▁എടാ	-9.83523
▁മൈ	-9.83529
▁കുനിഞ്ഞു	-9.83537
ത്തിലേക്കു്	-9.83546
▁സമാധാനം	-9.83583
▁മനസ്സിലാക	-9.83641
▁നന്ന	-9.83645
▁ബാഗ	-9.83736
▁കൈപിടിച്ചു	-9.83769
▁പഠിപ്പ	-9.83777
പ്പോഴേക്കും	-9.8379
▁കൂട്ടര	-9.83796
▁ഇതിനു	-9.83823
▁പാഴ	-9.83839
▁കയറ്റി	-9.83889
▁മാധവി	-9.83937
▁ഏഴു	-9.83943
▁സ്നേഹിക്കുന്ന	-9.83983
▁തോന്നല	-9.84049
▁ഇതില	-9.84057
▁നിക്ക	-9.84144
▁പറമ്പില	-9.84265
▁ജനിച്ചു	-9.84427
പ്പാന	-9.84432
▁പഠിപ്പിച്ച	-9.84486
യാത്ര	-9.84542
▁ഇല്ലായിരുന്നു	-9.84587
യിലുള്ള	-9.84611
പ്പും	-9.84699
▁നടു	-9.84738
▁അവിടെനിന്നു	-9.8476
▁ഹോട്ടല	-9.84784
ുപോയിരുന്നു	-9.84791
▁ആരുടെ	-9.84815
ക്കാരെ	-9.84828
യാളുടെ	-9.84844
ിങ്ങ്	-9.84907
ാന്തര	-9.84937
▁കൊച്ചച്ഛൻ	-9.84972
▁വാത്സല്യ	-9.84972
▁നിസ്സാര	-9.84972
▁ബോർഡ	-9.84973
▁പുത്തൻ	-9.84974
▁നിന്ദ	-9.84974
▁നമ്പർ	-9.84975
▁അപ്പേട്ടൻ	-9.84991
▁നാലഞ്ചു	-9.85005
െന്തിനാണു്	-9.8505
തിനാൽ	-9.85121
വരിക	-9.8518
▁കൊറച്ചു്	-9.8521
▁കണക്കാക്ക	-9.85221
▁സാധനങ്ങൾ	-9.85261
ജ്ഞാന	-9.85261
▁പോട്ടെ	-9.85307
▁പിഴ	-9.85312
▁ബഹള	-9.85339
▁പദ്മിനിയ്ക്കു്	-9.85369
▁കുടുക്ക	-9.854
▁എണ്ണി	-9.85402
▁കുഞ്ഞി	-9.85439
▁അങ്ങിനെയാണു്	-9.85493
▁താങ്ങി	-9.85566
▁ഉദ്ദേശ	-9.85577
ത്തന്ന	-9.85629
▁ഉട്ടൂപ്പ്	-9.85631
▁ഉടൻ	-9.85686
യാവും	-9.85697
യ്ക്കോ	-9.85725
പറ്റി	-9.8575
▁വർദ്ധിച്ചു	-9.85822
▁കഴിയില്ല	-9.85824
ിറങ്ങിയ	-9.85887
▁മൂന്ന	-9.85896
▁അടുക്കളയിലേ	-9.85977
▁കുടിക്കാൻ	-9.85989
▁അവസാനിക്ക	-9.86077
ിടത്തു്	-9.86144
▁നോക്കിയാൽ	-9.86168
▁തങ്ക	-9.86191
ക്കുള്ളിൽ	-9.86202
ിരുത്തി	-9.86259
▁തീർന്ന	-9.8633
▁സൃഷ്ടി	-9.86346
▁ക്ല	-9.86363
▁നല്ലൊരു	-9.86366
▁തിരിഞ്ഞു്	-9.86383
▁മണിക്കൂറ	-9.86415
▁സ്വഭാവം	-9.86461
ശബ്ദ	-9.86495
യായിരുന്ന	-9.86522
കൃഷ്ണ	-9.86525
ക്കിടക്കുന്ന	-9.86527
▁പാമ്പു	-9.86532
▁കൊടുത്തു്	-9.86602
▁ഉടുപ്പു	-9.86644
▁വൈകിയ	-9.86668
▁കിടക്കുന്നതു്	-9.86692
േറ്റു	-9.86712
▁ഒതുക്കി	-9.86858
▁പട്ട	-9.86869
ൊട്ട	-9.86892
ുമെന്നും	-9.8696
▁സ്ഥാനം	-9.86989
ിതമായ	-9.87007
വർക്കും	-9.87124
പ്പിച്ചു്	-9.87148
യുമാണു്	-9.87188
▁മറച്ചു	-9.87202
▁കോപ്പ	-9.87214
വേണം	-9.87217
സ്പർശ	-9.87263
▁സ്ക്കൂൾ	-9.87297
▁ഊഹിച്ച	-9.87297
▁രാമൻനായർ	-9.87297
▁മാനസിക	-9.87299
▁വരാന്തയിൽ	-9.87302
ാതിരിപ്പാൻ	-9.87312
▁കിടപ്പ	-9.87344
▁ചുളി	-9.87346
▁വള്ളി	-9.87364
▁കിടക്കയിൽ	-9.87372
ക്കാരനായ	-9.8738
▁ധനത്തിന്നു്	-9.8739
▁തലേന്നു	-9.874
▁അന്യായ	-9.87411
▁പെൺ	-9.87438
▁പുരുഷന്റെ	-9.87465
▁സുഖക്കേട	-9.87465
▁കഥാ	-9.87476
വിളി	-9.8752
▁ചന്ത	-9.87557
ള്ളതു്	-9.87604
▁ഉപയോഗിച്ച	-9.8764
▁വെല	-9.87708
▁നിമിഷത്തിൽ	-9.87728
▁പുരുഷന്മാർ	-9.87741
പരമായ	-9.87782
▁നിങ്ങള്	-9.87783
പ്പുറത്തു്	-9.87875
കേട്ടു	-9.87931
▁പെണ്ണമ്മ	-9.87951
ിട്ടുണ്ടെന്നു	-9.8802
▁മണം	-9.88041
▁നോക്കുക	-9.88158
▁കാട	-9.88214
▁സൃഷ്ടിച്ച	-9.88258
▁തൂക്ക	-9.88269
▁തീർന്നു	-9.88284
▁പ്രസിദ്ധ	-9.88292
▁നോക്കൂ	-9.88307
▁വിഷമം	-9.88314
▁ഇരുന്നു്	-9.88315
▁കാട്ടു	-9.88318
▁ദിക്ക	-9.88358
▁തീർച്ചപ്പെടുത്ത	-9.88405
▁പോന്ന	-9.88407
▁വിളക്ക	-9.88435
വിട്ടു്	-9.88438
▁തോള	-9.88503
ർഗ്ഗ	-9.88538
ുവോ	-9.8854
ിപ്പോൾ	-9.88552
▁ചെയ്യണം	-9.88626
▁അറിയും	-9.88636
▁കാടു	-9.88655
▁ആവശ്യം	-9.8875
▁ഉപദേശി	-9.88804
▁നെഞ്ഞ	-9.88831
▁അറ്റത്ത	-9.88839
വിശ്വാസ	-9.88903
▁യു	-9.88974
▁അയച്ചു	-9.88981
▁റോ	-9.88995
▁മറിച്ചു	-9.88999
ത്തിൽനിന്നു	-9.89014
മാത്രമേ	-9.89021
▁ചെമ്പ	-9.89023
ിക്കാത്ത	-9.89075
െങ്കിലോ	-9.8911
ുണ്ടാക്കുന്ന	-9.89176
▁ശകാര	-9.8921
ക്കൊടുത്ത	-9.89281
▁ചെലവ	-9.89365
▁ഇരുപതു	-9.89478
മുടി	-9.8949
മാണെങ്കിൽ	-9.89501
▁മക്കള	-9.89515
ുംമുമ്പെ	-9.89571
യുണ്ടോ	-9.89608
▁കുട്ടേട്ടന	-9.89653
▁എഴുന്ന	-9.89663
ാനൊന്നും	-9.89665
▁ഗുപ്തൻ	-9.89678
▁ബിസിനസ്സ	-9.89678
▁ശൈലജ	-9.89678
▁ആക്ഷേപ	-9.89678
▁ജാതക	-9.89686
▁ഇന്ത്യ	-9.89689
▁പെയ്ത	-9.89702
െടുക്കുന്ന	-9.89718
▁പ്രമാണ	-9.89723
▁കുറേനേരം	-9.89727
▁അധികാരി	-9.89747
▁ഉപയോഗിക്ക	-9.89757
▁കുറ്റി	-9.89758
▁ആശ്വാസം	-9.89773
▁ലാഭ	-9.8979
▁തമ്മിലുള്ള	-9.89793
▁ഒരിക്കൽക്കൂടി	-9.89808
കളൊന്നും	-9.89824
ഭക്ത	-9.89842
▁ഇടവഴി	-9.89866
▁അതുകൊണ്ട	-9.89914
▁മനുഷ്യന്റെ	-9.89919
▁മനുഷ്യനെ	-9.89962
▁മേടിച്ചു	-9.89972
▁ഇരിയ്ക്ക	-9.89976
▁സംഭവം	-9.89996
▁അഭി	-9.90067
ിക്കുമ്പോൾ	-9.90075
ാണെ	-9.90108
▁യോഗി	-9.90139
▁എഡോൾഫിയുടെ	-9.90155
▁സംഭവിക്ക	-9.90173
▁കടൽ	-9.90178
▁എട്ട	-9.90194
ങ്ങൾക്കും	-9.90241
▁രക്ഷപ്പെട	-9.9029
ക്കളി	-9.90291
▁നിന്നോടു്	-9.90292
▁പുരുഷന	-9.90298
▁സാറേ	-9.90324
▁തൊട്ടു്	-9.90342
▁കാരണമ	-9.90346
▁ആഗ്രഹം	-9.90352
▁എന്നുമാത്രം	-9.90385
▁ഈശ്വരാ	-9.90439
▁നിന്നിരുന്നു	-9.90455
▁തോൽ	-9.90648
▁മുതല	-9.90686
▁ദേഷ്യ	-9.90814
തല്ലേ	-9.90831
▁ജാനുവ	-9.9087
▁കുളിച്ചു	-9.90941
▁ആളാണു്	-9.91026
തയോടെ	-9.91054
ത്തോടു	-9.9112
ുമായുള്ള	-9.91148
▁കാലത്തു	-9.91308
▁സൗന്ദര്യം	-9.9136
▁ബാക്കിയുള്ളവർ	-9.91545
ിര്ന്ന	-9.91594
▁ഒട്ട	-9.91709
ിട്ടുള്ളു	-9.91714
ികളായ	-9.91715
▁വൃത്തി	-9.91727
▁ചോദിക്കാൻ	-9.91794
േണമെങ്കിൽ	-9.91816
▁എന്തുകൊണ്ടു്	-9.91834
▁വെള്ളി	-9.91915
▁കത്തു്	-9.91957
▁വ്യക്തമാ	-9.91998
▁കണ്ടതു	-9.92086
▁അയ്യപ്പൻ	-9.92117
▁തട്ടിൻപുറത്ത	-9.92117
▁വാസ്തവത്തിൽ	-9.92117
▁സ്കൂൾ	-9.92117
▁ദൃഢ	-9.92117
▁മനോരാജ്യ	-9.92117
▁നല്ക	-9.92118
▁കടലാസ്സു	-9.92118
▁സ്വാമി	-9.92124
▁ടൈ	-9.92127
▁പിടിപെട്ട	-9.92144
▁കെടക്ക	-9.92159
▁കരച്ചില	-9.92159
ിനിടയിൽ	-9.92175
▁കിട്ടിയില്ല	-9.92228
▁മരിച്ചുപോയ	-9.9226
▁എന്നിട്ടുകൂടി	-9.92282
▁ടിവി	-9.92311
▁കിടക്കുന്നു	-9.92314
▁മന്ത്രിച്ചു	-9.92321
▁നോക്കട്ടെ	-9.92392
മദ്ധ്യ	-9.92402
▁മുന്നില	-9.92421
▁ഇടി	-9.92493
▁തൂക്കിയ	-9.92511
▁ചെറുപ്പക്കാരൻ	-9.92539
യൊന്നു്	-9.92648
ർത്ഥം	-9.9269
▁എങ്ങോട്ട	-9.92696
▁എനിക്കൊരു	-9.92721
▁പൊന്തി	-9.92847
കൊണ്ടൊന്നും	-9.92865
വെള്ള	-9.92866
▁സ്ക്കൂള	-9.92892
മാറ്റ	-9.92992
പെട	-9.92993
▁അട്ത്ത	-9.93025
▁കാവി	-9.93104
റിയാത്ത	-9.93172
▁കേട്ടാൽ	-9.933
ിന്റ	-9.93322
▁അയാളോടു്	-9.93337
താണെന്നു്	-9.93338
▁എവിടെയാണു്	-9.93353
▁നടക്കും	-9.93394
▁ഹേ	-9.93405
▁ഇളക്കി	-9.93451
▁പുസ്തകങ്ങൾ	-9.93488
▁വിചാരിച്ചു്	-9.93511
▁അദ്ദേഹത്തിനു്	-9.9367
▁ഓർമ്മയിൽ	-9.93702
▁സ്പ	-9.93769
▁സ്ക്കൂളിൽ	-9.93829
ങ്ങിനെ	-9.93833
സ്വരത്തിൽ	-9.93847
▁താണു	-9.9385
▁ഏറ	-9.93854
മുണ്ടായിരുന്ന	-9.93862
▁കരഞ്ഞ	-9.93889
ദൂര	-9.93896
▁അടയ്ക്ക	-9.94034
▁വരമ്പ	-9.94036
ക്കുവാൻ	-9.94046
▁മങ്ങിയ	-9.94058
െഴുതി	-9.94071
മിട	-9.94144
▁സഹോദരി	-9.94209
കൈ	-9.9423
▁ഇതിൽ	-9.94261
കണ്ടു	-9.94304
▁കവിഞ്ഞ	-9.9434
▁ഗ്ലാസ്	-9.94364
ുകയാണെന്ന	-9.94374
▁തുറ	-9.94484
▁പഠിപ്പിക്ക	-9.94509
▁കൃഷ്ണൻനായരെ	-9.9453
▁മുറിച്ചു	-9.94534
ചിത	-9.94541
▁രോഗി	-9.94546
▁നായിക	-9.94591
▁മന്ത്ര	-9.94598
▁സബ്ബ്	-9.94617
▁വെളുപ്പ	-9.94617
▁പ്രവർത്തിക്ക	-9.94618
▁തക്ക	-9.94636
▁അന്ധകാര	-9.9464
▁കിടന്നുറങ്ങ	-9.94679
▁മേനോന	-9.94706
▁ആവശ്യമില്ല	-9.94731
▁ജനനം	-9.94756
▁ഒളിച്ചു	-9.94759
▁കൊണ്ടിരുന്നു	-9.94761
▁സാധിക്കയില്ല	-9.94798
▁തിരഞ്ഞു	-9.94811
▁ഉച്ചയ്ക്കു്	-9.9489
▁വീശി	-9.94894
▁ഇല്ലാതെ	-9.94916
▁സ്വത്ത	-9.94927
പ്പോലും	-9.94968
▁വിരൽ	-9.94971
▁കണ്ടിട്ട	-9.94972
▁രാമൻ	-9.95017
▁ആണെന്ന	-9.95023
▁ചക്ര	-9.95029
കിടന്നു	-9.95053
ോണ്ടു്	-9.95074
▁സംഭവങ്ങൾ	-9.95075
െങ്ങിനെ	-9.95104
▁ചവിട്ട	-9.95164
▁പൊള്ള	-9.95171
▁വട്ട	-9.95174
▁പൊളിച്ചു	-9.95174
കളുള്ള	-9.95239
▁അണ	-9.95283
ുകയാണെന്നു്	-9.95304
തൊട്ടു്	-9.95363
▁ഉദ്ദേശിച്ച	-9.95369
▁ഭാര്യയെ	-9.95391
▁കൊമ്പ	-9.95419
▁കഴുത്ത	-9.95423
▁ശാന്തി	-9.95454
▁കോളേജിൽ	-9.95477
▁മണീ	-9.95489
▁ഓർത്ത	-9.95495
വലി	-9.95532
ിടുന്ന	-9.95576
െഴുതിയ	-9.95596
▁വാടി	-9.95605
▁ഒരേടത്തു്	-9.9561
▁ചോദിച്ചതു്	-9.95641
▁തോന്നുന്നതു്	-9.95643
▁കിട്ടിയാൽ	-9.95663
ത്തോടുകൂടി	-9.95702
▁പരിശോധിച്ചു	-9.95731
▁വിചാരിച്ചിരുന്ന	-9.95734
മാകും	-9.9574
▁വേല	-9.95786
▁രണ്ടോ	-9.95791
▁പാൽ	-9.95857
്യാസ	-9.95862
▁ശരിയ്ക്കു	-9.95906
▁ബാക്കിയുള്ള	-9.95914
▁കിട്ടാൻ	-9.95917
▁അപ്പന	-9.96003
സിന്റെ	-9.96053
▁അസുഖ	-9.96074
▁കേൾക്കാൻ	-9.96075
▁തിരിഞ്ഞ	-9.96127
▁അമർത്തി	-9.96199
▁നോവല	-9.96222
ണ്ണി	-9.96283
ിത്ര	-9.96286
സുഖ	-9.96294
▁നൽക	-9.96319
▁അല്പ	-9.96347
▁കണ്ടിട്ടു	-9.96353
▁വരണ്ട	-9.96354
സമയം	-9.96431
▁മാല	-9.96451
വർണ്ണ	-9.96459
തന്നെയായിരുന്നു	-9.96479
▁വിവരവും	-9.96546
▁പാക	-9.96637
▁വീഴുന്ന	-9.96644
▁പ്രത്യേകം	-9.96693
▁നിഷേധ	-9.96758
▁താമസം	-9.96838
▁കിടപ്പു	-9.96844
▁വാക്കുകള	-9.96916
▁കസേര	-9.96943
▁സംശയമില്ല	-9.97032
ത്തിലേയ്ക്കു	-9.97087
▁പണവും	-9.97093
പ്പോലെയുള്ള	-9.97143
▁പൈസ	-9.97156
▁ടാക്സി	-9.97181
▁ങാ	-9.97181
▁രാവുണ്ണി	-9.97181
▁പരിഹാസ	-9.97181
▁നഴ്സ	-9.97182
▁അനിയത്തി	-9.97182
▁ക്ലേശ	-9.97182
▁പ്രാർത്ഥന	-9.97182
▁ശിപായി	-9.97182
▁ലഹള	-9.97182
▁മാസ്റ്റർ	-9.97182
▁മീശ	-9.97185
▁ആരോഗ്യ	-9.97186
▁പച്ചക്കറി	-9.97187
▁ചപ്രു	-9.97189
▁കുപ്പായ	-9.97191
▁പെരുമാറ്റ	-9.97192
▁ഒഴിവാക്ക	-9.97207
ുന്നതിനുമുമ്പു്	-9.97212
▁പതിവുപോലെ	-9.97214
▁മേശമേൽ	-9.97228
▁നാലുകെട്ട	-9.97238
▁എനിക്കറിയാം	-9.97248
▁സോഫ	-9.97275
▁നിത്യ	-9.97334
കയറി	-9.97336
▁വൃക്ഷ	-9.97373
ിപ്പാനും	-9.97381
ദേവ	-9.97392
യുടേയും	-9.97401
▁മന്ദഹസിച്ചു	-9.97414
▁നടുക്ക	-9.97418
▁കൂലി	-9.97429
▁നടത്തുന്ന	-9.97447
ക്കൊന്നും	-9.97451
ുവാനുള്ള	-9.97468
▁ഈശ്വരൻ	-9.97503
മുണ്ടെങ്കിൽ	-9.97524
ത്തിലേ	-9.97532
▁പൂമുഖത്തു	-9.97565
െത്തുന്ന	-9.97625
▁പൂജ	-9.97655
▁കുറി	-9.97665
▁ചോദിച്ചാൽ	-9.97713
▁പ്രത്യേകത	-9.97768
▁മനസ്സിന്റെ	-9.97837
▁കാലുകൾ	-9.97895
▁അനേകം	-9.97913
▁ഉറച്ച	-9.98047
▁കുറച്ചുകൂടി	-9.98048
▁വന്നിരുന്ന	-9.98087
മാംസ	-9.98219
▁ചെയ്യേണ്ടത	-9.98229
▁തുടങ്ങിയിരുന്നു	-9.98277
കളുമായി	-9.98333
▁വിളിക്കാൻ	-9.98338
ത്തോടു്	-9.98353
▁കോടതിയിൽ	-9.98493
▁സംഭാഷണ	-9.9851
▁ചാക്ക	-9.9853
▁ചുംബിച്ചു	-9.98635
ോടുകൂടി	-9.98684
▁അദ്ദേഹത്തിന്നു	-9.9872
▁നോക്കിയിരുന്നു	-9.98757
▁പോയിട്ടു്	-9.98801
▁വയസ്സായ	-9.98819
▁വന്നതു	-9.98823
ത്തേക്കാൾ	-9.98912
▁തോന്നിയില്ല	-9.98921
മില്ലായ്മ	-9.98926
▁ചോദ്യങ്ങൾ	-9.98944
▁നന്നായ	-9.99
ചിന്ത	-9.99045
നിമിഷ	-9.99046
മുതൽ	-9.99054
ായിത്തീർന്നു	-9.99101
പ്പുറത്തു	-9.99121
▁മനോഹരമായ	-9.99257
▁മറിച്ചു്	-9.99276
▁പൊയ്	-9.99298
▁താഴത്ത	-9.99336
▁കൈയ്യ	-9.99356
▁രോമ	-9.9938
▁ഷാപ്പിൽ	-9.99416
ിലാക്കി	-9.99437
▁അവധി	-9.99475
▁ബസ്സ്	-9.99517
▁ഫോണ	-9.99567
യല്ലാതെ	-9.99656
നിര	-9.99658
▁അച്ചായ	-9.99728
▁പഠിച്ചു	-9.99781
▁ദേവി	-9.99788
▁കത്തിച്ചു	-9.99791
▁ഗോപാലക്കുറുപ്പ	-9.99813
▁ഒത്തു	-9.99813
▁വിപരീത	-9.99813
▁സ്ഫുരിച്ച	-9.99813
സൂചകമായ	-9.99813
▁മുന്തിരി	-9.99813
▁പുഷ്പ	-9.99813
▁കഴിപ്പാൻ	-9.99814
▁സങ്കല്പ	-9.99815
്ണ്ണ്ടു്	-9.99816
▁ധാരണ	-9.99817
▁അമ്മാവൻ	-9.99818
▁ഉപ്പ	-9.99819
▁എതിർ	-9.99822
▁ആരെയും	-9.99833
▁കൈകൊണ്ടു്	-9.99834
▁കുതിച്ചു	-9.99843
▁പ്രഭാത	-9.99851
ക്കാത്ത	-9.99852
▁പതിയെ	-9.99858
വളും	-9.99864
▁ഉണ്ടെങ്കിൽ	-9.99881
▁മറിയ	-9.99934
▁ഒരാളുടെ	-9.9995
▁തടഞ്ഞു	-9.99955
▁ഉപദ്രവ	-10.0001
▁സൂക്ഷിച്ച	-10.0002
ോളൂ	-10.0005
േടത്തു	-10.0012
എങ്ങിനെയെങ്കിലും	-10.0013
▁നെന്റെ	-10.0018
▁നാഡി	-10.0027
▁ഫലം	-10.0033
▁നിമിത്തം	-10.0034
ക്കുന്നതു	-10.0035
കൊണ്ടിരിക്കെ	-10.0037
▁ജോസ	-10.0043
െന്തെങ്കിലും	-10.0044
ച്ചിൽ	-10.0051
▁അമർ	-10.0054
പ്പഴ	-10.0061
ടിച്ചു്	-10.0064
▁കണ്ടിട്ടുണ്ടു്	-10.007
▁പറഞ്ഞിട്ടില്ല	-10.0074
▁ഉടനെതന്നെ	-10.0076
മുണ്ടാക്കി	-10.0077
▁തോന്നൽ	-10.0079
ക്കിടന്നു	-10.0098
▁ചന്ദ്ര	-10.01
▁ഇരുത്തി	-10.0108
▁ശരിയായി	-10.0113
ത്തിലായിരുന്നു	-10.0121
▁ലക്ഷ്യ	-10.0123
▁കടന്നുവന്ന	-10.0128
▁കോരി	-10.0134
പോയതു്	-10.0145
▁കാര്യമായ	-10.0145
▁രതിയുടെ	-10.0148
▁ജനങ്ങൾ	-10.0149
തുതന്നെ	-10.015
▁മണിക്കു്	-10.0153
െത്ര	-10.0164
ടക്കി	-10.0167
യാണെങ്കിലും	-10.0169
▁പക	-10.0173
കളെപ്പറ്റി	-10.0174
വളാണു്	-10.0176
▁സാമാന്യ	-10.0179
▁പ്രശ്നം	-10.0187
മാരെ	-10.0188
▁കീറ	-10.0199
▁തൊടങ്ങ	-10.0207
യേറിയ	-10.0215
▁ചെയ്തിരുന്നു	-10.0216
▁മുങ്ങി	-10.0217
ാംഗ	-10.0221
ാവശ	-10.0225
▁കേട്ടതു്	-10.0235
▁ലോകത്തിൽ	-10.0249
▁മറ്റൊ	-10.025
▁യൂജീനിനെ	-10.0252
▁ഇച്ഛാഭംഗ	-10.0252
▁അമേരിക്ക	-10.0252
▁ഒന്നാന്തരം	-10.0252
െഴുന്നേറ്റ	-10.0252
▁രണ്ടാമത്തെ	-10.0252
▁സെബാ	-10.0252
▁കൂടുതല	-10.0252
▁കുന്നിൻ	-10.0252
▁ഉപദേശിയാർ	-10.0252
▁ദീപ	-10.0252
▁കരച്ചിൽ	-10.0254
▁സ്പഷ്ട	-10.0254
ൊഴിച്ചു	-10.0258
▁പിള്ളേര	-10.0262
▁അനാവശ്യമായി	-10.0264
▁ദൈവമേ	-10.0265
▁ഉടുത്ത	-10.0265
▁ശ്രമം	-10.0267
▁വീട്ടു	-10.0268
▁ശല്യ	-10.0269
▁അകല	-10.0274
▁അച്ചായൻ	-10.0275
ത്തിന്റേയും	-10.0276
▁അവിടത്തെ	-10.0277
▁കഴുത്തിൽ	-10.0278
▁ഇരിക്കട്ടെ	-10.0281
മേനോൻ	-10.0286
▁ഇളം	-10.0288
വുമില്ലാതെ	-10.0297
▁വരികയാണു്	-10.0297
▁അതിനുള്ള	-10.0299
െനിക്കു	-10.0305
▁പ്രകാരം	-10.0311
▁ഇതൊരു	-10.0312
▁ഒഴിച്ചു	-10.0314
കളവാൻ	-10.0315
▁രാജൻ	-10.0315
▁കിടക്കുകയാണു്	-10.032
▁തരാൻ	-10.0323
രഹിത	-10.0326
▁വശത്തു	-10.0336
▁സൈ	-10.034
▁തുറക്കാൻ	-10.0342
▁സ്കൂള	-10.035
▁ശബ്ദത്തിൽ	-10.0351
വിലാസ	-10.0373
▁എന്തുകൊണ്ട	-10.0378
ക്കാരനെ	-10.0384
ധികാര	-10.0391
▁ചുറ്റ	-10.0404
കാശ	-10.0413
▁ബാധിക്ക	-10.0414
▁വേണ്ടതു	-10.0429
▁ഞാനാണു്	-10.0429
▁വർത്തമാന	-10.0429
▁സമ്മാനം	-10.043
ക്കിടന്ന	-10.0432
▁മുൻപ	-10.0433
▁മോന	-10.0434
▁ഉണ്ടെന്നു്	-10.0436
ഞ്ഞി	-10.0437
▁വലുത	-10.0437
▁സമ്മതം	-10.0444
പോവാൻ	-10.0447
ുമായിരുന്ന	-10.045
ൊന്നുംല്ല്യ	-10.0453
ക്കുറിച്ച	-10.0454
▁പല്ല	-10.0457
▁വസ്തു	-10.046
ുമെല്ലാം	-10.0462
▁മുഴുകി	-10.047
ിക്കാനും	-10.0473
ായിരിക്കുമെന്ന	-10.0474
▁തയ്യാറായി	-10.0478
കളേയും	-10.0481
▁കാത്തുനിൽക്ക	-10.0497
▁മുകളിലെ	-10.051
▁കൂട്ടർ	-10.0512
▁അത്ഭുതം	-10.0515
ബന്ധിച്ചേടത്തോളം	-10.0517
▁കുടിയ	-10.0526
▁മൃദു	-10.0526
▁വിരല	-10.0526
▁ഏർപ്പെട	-10.0527
ഘട്ടത്തിൽ	-10.0529
▁ആശുപത്രി	-10.0529
▁ഇദ്ദേഹം	-10.0529
▁യാഥാർത്ഥ്യ	-10.0529
▁ശനിയാഴ്ച	-10.0529
▁ആവലാതി	-10.0529
▁നിർദ്ദയ	-10.0529
▁മുട്ടുകുത്തി	-10.0529
▁ശിശുവ	-10.0529
▁നിഴൽ	-10.0529
▁നടവടി	-10.0529
▁ജെസ്സി	-10.0529
▁ദോശ	-10.053
▁രുചി	-10.053
▁പതിനൊന്ന	-10.053
▁മീൻ	-10.053
▁വാഹന	-10.053
▁ജാനകിയമ്മ	-10.0531
▁വാതിലടച്ചു	-10.0533
▁അനുഗ്രഹ	-10.0533
▁പിറ്റെ	-10.0539
▁പരിചയം	-10.0539
▁കളവു	-10.0543
▁പുരിക	-10.0545
▁എല്ലാരും	-10.0545
ക്കാരത്തി	-10.0545
ാത്തവിധത്തിൽ	-10.0548
▁കിടപ്പറ	-10.0549
▁പ്രാണ	-10.0551
തുമില്ല	-10.0556
മുഖം	-10.0557
▁നദി	-10.0558
▁അങ്ങേ	-10.0563
▁ഏറ്റ	-10.0565
ശ്വസിച്ച	-10.0573
▁മിനിറ്റ	-10.0575
▁കൈകളിൽ	-10.0577
▁തളർന്നു	-10.0578
▁പോവാം	-10.0578
▁ബോധ്യ	-10.0583
▁കാറ്റിൽ	-10.0585
▁പൂർവ്വ	-10.0597
▁വലിക്ക	-10.0599
▁വസ്ത്ര	-10.06
ുമ്പോഴേയ്ക്കു്	-10.0604
▁വളർന്ന	-10.0611
▁മറ്റുള്ളവര	-10.0617
യാണ്	-10.0623
പ്പാനുള്ള	-10.0627
▁മറ്റുള്ളവർ	-10.0627
▁മങ്ങി	-10.0629
ത്തരം	-10.064
▁താള	-10.0642
▁ആവോ	-10.0648
വിടുന്ന	-10.0654
▁പിടിക്കാൻ	-10.0658
ത്തന്നെയാണു്	-10.0667
▁കുറഞ്ഞു	-10.067
▁മനുഷ്യർ	-10.0671
കുലുക്ക	-10.0678
യുള്ളൂ	-10.0698
▁അമ്പലത്തിൽ	-10.0706
▁കാശു	-10.0711
▁പ്ലാ	-10.0712
▁ജി	-10.0713
▁അയച്ച	-10.0713
▁അടക്കി	-10.0713
▁ഉപേക്ഷിക്ക	-10.0714
▁പറഞ്ഞിട്ടു്	-10.0719
▁അപ്പാ	-10.0727
▁മുറുക്കി	-10.0732
▁കഴിക്കുന്ന	-10.0733
▁കിടക്കാൻ	-10.0733
പ്പെണ്ണ	-10.0737
സ്നേഹ	-10.074
വിഷയ	-10.074
നുഭവ	-10.0745
▁ക്ലാസ	-10.0748
നേരെ	-10.0749
ണ്ടാവില്ല	-10.0752
▁ദേ	-10.0758
ുണ്ടാവുക	-10.0759
▁ഉറച്ചു	-10.076
ൊന്നുമ	-10.0761
▁വരുന്നില്ല	-10.0772
▁വർഷം	-10.0772
ിരിക്കുക	-10.0772
▁അതിലെ	-10.0773
ുയർത്തി	-10.0779
ത്തേയും	-10.0793
്വാണു്	-10.0804
▁നൂറ	-10.081
▁ഉണര	-10.0815
▁തിളങ്ങുന്ന	-10.0815
▁പ്രശംസ	-10.0815
▁ക്രൂര	-10.0815
▁ഗ്രേസി	-10.0815
▁നിഷ്കളങ്ക	-10.0815
▁പുറമേ	-10.0815
▁കുരിശ	-10.0815
▁നിരന്തര	-10.0815
▁സമ്പാദിക്ക	-10.0817
▁വ്യക്തി	-10.0818
▁കസേലമേൽ	-10.0819
▁ഇത്തരം	-10.0822
കുല	-10.0829
▁ഒരോ	-10.0832
▁കുട്ടിയേയും	-10.0836
▁കഥകളി	-10.0837
നാക്കി	-10.0842
വെക്കാൻ	-10.0843
▁വാഗ്ദത്തം	-10.0844
ിട്ടുണ്ടെന്നു്	-10.0844
ോടുകൂടെ	-10.0854
▁കാറിന്റെ	-10.0856
ാണൊ	-10.0858
▁ദാവീദ	-10.086
ാനുഭവ	-10.0862
▁ക്ഷണിച്ചു	-10.0871
▁കണ്ടെത്ത	-10.0883
▁മയക്ക	-10.0885
കാരൻ	-10.0886
▁വിശപ്പു	-10.089
▁അദ്ദേഹത്തിനു	-10.0899
▁രമ	-10.0899
▁പറയട്ടെ	-10.0901
▁നിശ്ചയിച്ച	-10.0907
▁നിരത്തി	-10.0912
▁പൊക്കി	-10.0912
ിട്ടിരുന്ന	-10.0916
േണ്ടതാണു്	-10.0919
▁സഹിച്ചു	-10.0919
▁നരക	-10.0925
▁പൊറ	-10.0928
കൊണ്ടുള്ള	-10.0939
വിധത്തിൽ	-10.0939
▁കണ്ടോ	-10.0943
▁എന്നവൾ	-10.0946
▁കാരണവര	-10.0947
▁ചട്ട	-10.0961
▁ഭയപ്പെട	-10.0963
ുകയായിരുന്ന	-10.0965
▁കുന്നു	-10.0966
▁ഇട്ടിരുന്ന	-10.0969
ക്കോളു	-10.0973
▁പോകണം	-10.0974
മാക്കിയ	-10.0975
▁അനുഭവം	-10.0976
മല്ലാത്ത	-10.0979
മാറ്റി	-10.0982
▁ആലോചിച്ചിട്ട	-10.0985
▁നടിച്ചു	-10.0987
▁ഭാവത്തിൽ	-10.0988
െല്ലാമ	-10.0994
▁പറ്റാത്ത	-10.1002
ിക്കപ്പെട്ട	-10.1015
▁പറഞ്ഞുകൊടുത്ത	-10.1019
▁ഇടനാഴിക	-10.1032
മുമ്പേ	-10.1032
▁ഈശ്വരനെ	-10.1035
യുമായ	-10.1039
പൂച്ചക്കുട്ടി	-10.1048
▁അച്ചടി	-10.1048
▁സുഖമില്ല	-10.1049
വൈ	-10.1058
▁വീടിനു	-10.1059
▁അടുത്തെത്തി	-10.1062
വനാണു്	-10.1063
▁പറഞ്ഞിരുന്നു	-10.1066
ടക്കം	-10.107
▁ഉപേക്ഷിച്ചു	-10.108
▁മുറിയിലേയ്ക്കു	-10.108
▁ശര്യാ	-10.1091
▁അവരോടു	-10.1095
▁കാര്യമായി	-10.11
▁തറവാട	-10.1108
▁അപരിചിത	-10.1109
▁പെൺകിടാവ	-10.1109
▁ഓർഡർ	-10.1109
▁ജ്ഞാനാനന്ദന	-10.1109
▁പോരാത്തതിനു്	-10.1109
▁യുക്തി	-10.1109
▁ചാർലി	-10.1109
▁മുഷിഞ്ഞ	-10.1109
▁നിവർത്തി	-10.1109
▁ക്ഷീണം	-10.1109
▁അതിഥി	-10.111
▁രജി	-10.111
▁നശിപ്പിക്ക	-10.111
ദാര്യ	-10.111
▁ലക്ഷ്മിക്കുട്ടി	-10.1111
▁തോമസ്	-10.1112
▁മാരാർ	-10.1113
▁ഇടയ്ക്ക	-10.1113
▁തെക്കേ	-10.1113
▁പെണ്ണുങ്ങളുടെ	-10.1113
▁രാജാവിന്നു്	-10.1114
▁കഷ്ണ	-10.1114
▁വരാന്തയില	-10.112
ണ്ടായിരുന്ന	-10.1121
▁കോപത്തോടെ	-10.1121
▁താണ	-10.1128
ന്മാരായ	-10.1129
▁കാത	-10.1131
▁മീനു	-10.1131
▁രഹസ്യം	-10.1132
▁ആരേയും	-10.1135
▁അമ്മയോടു	-10.1137
ത്തക്കവണ്ണം	-10.1139
കഴിഞ്ഞു്	-10.1139
കൊൾക	-10.114
▁കെണി	-10.1142
▁മേരി	-10.1143
▁അതിന്മേൽ	-10.1156
പേർ	-10.1157
▁പറഞ്ഞയച്ച	-10.1158
▁നിവർന്നു	-10.1158
▁കനത്ത	-10.116
▁വൃത്തിയാക്ക	-10.1162
യ്ക	-10.1171
▁മന്ദഹാസ	-10.1176
▁വേണ്ടേ	-10.1176
തിനേക്കാൾ	-10.1177
▁എവിടെയോ	-10.1179
▁പോയിക്കഴിഞ്ഞ	-10.118
▁മൺ	-10.1181
▁പറമ്പും	-10.1183
▁പറഞ്ഞപോലെ	-10.1185
▁ഉരുണ്ടു	-10.1185
▁വിട്ടുപോക	-10.1188
▁ശബ്ദമുണ്ടാക്ക	-10.1189
▁പാറു	-10.1195
പ്പറഞ്ഞ	-10.12
▁ഒരുപാടു	-10.12
▁ചിരിച്ച	-10.1204
▁ആയിരുന്ന	-10.1208
▁പോന്നു	-10.1217
▁പന്ത്രണ്ടു	-10.1219
▁പെൺകുട്ടിയെ	-10.1219
▁സാധിക്കും	-10.1219
▁പോണം	-10.122
▁ഇതേ	-10.1225
സിദ്ധി	-10.1231
▁പുസ്തകങ്ങള	-10.1232
▁സ്ത്രീയെ	-10.1232
▁ഇംഗ്ലീഷ്	-10.1248
▁കളിയാക്ക	-10.125
▁നവ	-10.1274
▁നിറച്ച	-10.128
▁ഞാനിത	-10.1287
▁വിചാരിക്കുന്നു	-10.1289
▁രാജാവിനെ	-10.1291
▁പ്രത്യക്ഷപ്പെട	-10.1291
പ്പിന്നെ	-10.1301
ൗണ്ട	-10.1304
നേരത്തോളം	-10.1307
▁അറിയിച്ചു	-10.1307
▁അവസാനിച്ച	-10.1308
▁വേണ്ടില്ല	-10.1309
▁മുറിയിലേക്കു	-10.1314
▁അടുത്തേയ്ക്കു	-10.1316
വേദന	-10.1327
▁തീർത്തു	-10.1329
▁അയയ്ക്ക	-10.133
ച്ചെടി	-10.1333
▁അടയാള	-10.1334
വേഗം	-10.1336
▁അയാളും	-10.1344
▁നാൾ	-10.1345
▁കാത്തുനിന്നു	-10.1347
വയ്യാത്ത	-10.1349
യിലായിരുന്നു	-10.1349
▁പ്രസവ	-10.1359
ീടെ	-10.1371
ാമല്ലോ	-10.1372
വാർഡ	-10.1375
▁ഇടയ്ക്കു	-10.1379
ാർക്കും	-10.138
▁മുഖവും	-10.1385
മാസം	-10.1386
യാകുന്ന	-10.1387
കോണ	-10.1395
▁നിഴല	-10.1404
▁ആനന്ദഗുരു	-10.1412
▁പത്തായപ്പുര	-10.1412
▁ഉന്തി	-10.1412
▁രാഷ്ട്രീയ	-10.1412
▁അനുവദിച്ച	-10.1412
▁പെറുക്കി	-10.1412
▁ഹരിതാഭ	-10.1412
▁മാപ്പിള	-10.1412
▁പരാജയ	-10.1412
▁പരിപാടി	-10.1412
▁സാഹസ	-10.1412
ാനിടയുള്ള	-10.1412
▁പടർന്നു	-10.1413
▁ചലന	-10.1413
▁നമ്മളെ	-10.1413
▁പാറുക്കുട്ടി	-10.1413
▁നടുവിൽ	-10.1415
▁മുപ്പതു	-10.1418
▁സ്വാർത്ഥ	-10.1418
▁വിചിത്ര	-10.142
ത്തിന്നുവേണ്ടി	-10.1423
ൂന്നു്	-10.1427
▁പലരും	-10.1428
▁രക്ഷിച്ച	-10.1429
▁നടുവില	-10.1429
▁എന്തെല്ലാം	-10.1432
▁അത്തരം	-10.1434
▁ദിവസങ്ങളിൽ	-10.1439
▁ഹൈ	-10.1443
▁ഉണ്ടായിട്ടില്ല	-10.1443
▁ഇരട്ട	-10.1446
ിട്ടുണ്ടാകും	-10.1446
▁വീട്ടുകാര	-10.1448
ുണ്ടെന്നും	-10.1451
▁ദിന	-10.1456
▁ചെന്നപ്പോൾ	-10.1465
▁ദേവിക	-10.1465
▁മാപ്പു	-10.1467
▁ഇരുണ്ട	-10.1468
▁ഇരിക്കുമ്പോൾ	-10.1473
▁വലിപ്പ	-10.1476
ാണുപോലും	-10.1485
▁എന്താണെന്നു്	-10.1485
▁ഇണ	-10.1487
പിടിക്ക	-10.1488
▁വിശ്വസിക്കാൻ	-10.1488
ിറക്കി	-10.1491
▁ചിലവാക്ക	-10.1496
▁ഇപ്പഴ	-10.1497
▁വരുമോ	-10.1502
▁സർപ്പ	-10.1513
▁ചെയ്തിരുന്ന	-10.1514
▁ജപ	-10.1524
യേക്കാൾ	-10.1527
▁പുത്ര	-10.1536
▁ഈശ്വരന	-10.1539
▁തർക്ക	-10.1545
▁പോകുന്നതു	-10.1545
കടന്നു	-10.1549
െന്തിനാ	-10.1554
▁ടീ	-10.1555
▁മാധവ	-10.1555
▁പോകേണ്ട	-10.1557
▁കയ്യും	-10.156
▁കയറ്റ	-10.1576
▁കുത്തിയ	-10.1586
▁ക്ഷീണിച്ച	-10.1588
▁ശരിയാവ	-10.1595
▁നമ്മെ	-10.1603
ിട്ടില്ലെന്നു	-10.1617
▁ഓടിയ	-10.1623
ത്തിനുവേണ്ടി	-10.163
▁പഞ്ച	-10.1633
▁ഇരുട്ടു	-10.1639
▁നോക്കീട്ടു	-10.1643
ഹൃദയ	-10.1648
അ	-10.1649
▁നന്നാ	-10.1651
മനസ്	-10.1657
മുമ്പെ	-10.1662
വട്ടം	-10.1667
ല്ലല്ലോ	-10.167
വിധി	-10.1674
▁കല്യാണി	-10.1675
▁ഒന്നര	-10.1675
മാത്രമാണു്	-10.1681
▁ഇവളെ	-10.1682
▁എവിടെനിന്ന	-10.1684
▁അറിഞ്ഞുകൂട	-10.1689
ത്തേയ്ക്കു്	-10.1696
▁മരുന്ന	-10.1702
വികാര	-10.1708
▁ഓല	-10.1709
യൊന്നുമില്ല	-10.1714
▁ഒതുങ്ങി	-10.1725
▁ഏയ്	-10.1725
▁ഐസ്ക്രീം	-10.1725
▁ദുർഗ്ഗമ്മ	-10.1725
▁സന്യാസി	-10.1725
▁സ്വതന്ത്ര	-10.1725
വ്യാപാര	-10.1725
▁തരക്കേട	-10.1725
▁വാസ്തവമ	-10.1725
▁ചുരുട്ട	-10.1725
▁പരിഭവ	-10.1725
▁തൊഴില	-10.1725
▁സ്റ്റൂള	-10.1725
▁അപമാന	-10.1725
▁സഹജമായ	-10.1725
▁പരിസര	-10.1725
▁കോലായിൽ	-10.1726
▁ഡയറി	-10.1726
▁അക്ഷമ	-10.1726
▁അടിച്ചുവാര	-10.1726
▁ബഹു	-10.173
▁പ്രതിമ	-10.1731
▁വല്ലപ്പോഴും	-10.1734
ിനുള്ളില	-10.1734
▁തോറ്റു	-10.1735
▁ദൃഷ്ടി	-10.1735
▁കിളി	-10.1735
▁ഇത്തിരി	-10.1735
▁ഉമ്മറത്തേയ്ക്കു	-10.1735
▁രണ്ടാഴ്ച	-10.1736
ക്കിടയിൽ	-10.174
▁ഏകാന്തത	-10.174
▁തിളക്ക	-10.1741
പ്പോകും	-10.1741
▁പ്രയോഗ	-10.1742
▁ആരംഭ	-10.1744
▁പെൺകുട്ടികൾ	-10.1746
ഭാഗത്തു്	-10.1747
▁താഴ	-10.1753
▁രാജമ്മ	-10.1754
▁തിരക്കു	-10.1756
▁പറമ്പിന്റെ	-10.1756
പോലുമില്ല	-10.1757
▁പാടില്ലാത്ത	-10.1757
▁സന്തോഷത്തോടെ	-10.1761
▁കുമാര	-10.1762
▁കഴുക	-10.1768
▁സുന്ദരിയായ	-10.1772
▁മുൻപു്	-10.1773
കാംക്ഷ	-10.1773
▁ചോദിച്ചപ്പോൾ	-10.1775
▁ചെറുത	-10.1775
▁അവയുടെ	-10.1776
ാദി	-10.178
▁മുക്കി	-10.1783
▁കിടക്കുമ്പോൾ	-10.1783
▁അകറ്റ	-10.1786
▁ചുരുങ്ങിയ	-10.1787
▁വയസ്സിൽ	-10.1794
▁പോരാ	-10.1794
▁സ്റ്റേഷന	-10.1795
▁കമ്പി	-10.1796
▁വിവരങ്ങൾ	-10.1804
▁വിറ്റു	-10.1806
കൊണ്ടോ	-10.181
▁പറ്റും	-10.1811
▁വാതിലിന്റെ	-10.1814
ാവുമോ	-10.1818
▁ഷർട്ടും	-10.1818
പൂർവ്വ	-10.1824
▁പ്രതീക്ഷിക്ക	-10.1826
ാലൊ	-10.1843
▁ഉറക്കമ	-10.1843
ിക്കുകയാണു്	-10.1859
▁വന്നിട്ടില്ല	-10.1861
▁സീമയുടെ	-10.187
▁കാത്തുനില്ക്ക	-10.1872
ാവട്ടെ	-10.1874
▁ചതി	-10.1881
മുണ്ടാവില്ല	-10.1881
▁പ്രശ്നങ്ങള	-10.1882
ില്ലായ്മ	-10.1895
▁ചിരിക്കുന്ന	-10.1896
▁ആശ്വസി	-10.1905
▁ബോട്ട	-10.1907
▁വിശ്രമ	-10.1908
▁വേഷം	-10.1913
്യൂട്ട	-10.192
▁തലയില	-10.1931
▁കണ്ടുപിടിച്ചു	-10.1932
▁നിരത്തു	-10.1941
▁മടിച്ചു	-10.1941
▁അനുഭവിച്ച	-10.1941
▁മിഴി	-10.1943
▁ഓർമ്മയില്ല	-10.1951
േണ്ടിയിരുന്ന	-10.1952
പൊളി	-10.1958
▁ഉദ്ദേശം	-10.1958
പാദ	-10.1975
െടാ	-10.1975
ിടത്തു	-10.1982
▁കിട്ടിയതു്	-10.1987
▁ഭയവും	-10.1989
▁ഇവള	-10.1991
▁പിച്ച	-10.1991
▁സംസാരിക്കുന്ന	-10.1994
▁ഉണ്ടെന്നു	-10.2007
▁ജയിച്ച	-10.2008
ാകുമ്പോൾ	-10.2025
▁ഇറങ്ങിയ	-10.2026
▁മണ്ട	-10.2029
▁ഭംഗിയായി	-10.203
▁ഓരോരുത്തര	-10.2034
▁തെളിഞ്ഞ	-10.2036
ുണ്ടൊ	-10.2038
▁കണ്ടുപിടിച്ച	-10.2038
യുമൊക്കെ	-10.204
▁ഡോക്ടറ	-10.2043
▁അന്ധ	-10.2045
▁ലൈബ്രറി	-10.2047
▁അദൃശ്യ	-10.2047
▁അന്വേഷണ	-10.2047
▁ആകർഷണ	-10.2047
▁ആഹ്ലാദ	-10.2047
▁ഡോക്ടര	-10.2047
▁ത്രേസ്യേ	-10.2047
▁മുതിർന്ന	-10.2047
▁ലോനപ്പൻ	-10.2047
▁സംസ്കൃത	-10.2047
▁സൂചന	-10.2047
▁അനുവദിക്ക	-10.2047
▁ഒടുക്കം	-10.2047
▁പരമാനന്ദ	-10.2047
▁പിന്നോക്കം	-10.2047
▁ഭട്ടതിരി	-10.2047
▁താക്കീതു	-10.2047
▁ഗെയ്റ്റ	-10.2047
▁അമ്മൂമ്മ	-10.2047
▁വിശാലമായ	-10.2048
▁വലുപ്പ	-10.2048
▁നട്ട	-10.2048
▁ചുവര	-10.2049
▁ഒന്നുകിൽ	-10.2049
സംഖ്യ	-10.205
▁വിറയ്ക്കുന്ന	-10.2051
▁മറ്റുള്ളവരുടെ	-10.2053
▁വഴങ്ങ	-10.2055
▁വരണം	-10.2055
▁സ്ഥലമ	-10.2055
ഭംഗം	-10.2056
ക്കൂട്ടി	-10.2056
▁വിചാരിച്ചിട്ട	-10.2058
▁നെല്ലു	-10.2058
▁പൊതിഞ്ഞു	-10.2059
▁ചേർക്ക	-10.2061
▁മുകളിലേയ്ക്കു	-10.2061
▁കോൺ	-10.2062
▁ധനിക	-10.2064
ൊരാള	-10.2073
▁ഉണ്ടാക്കിക്കൊടു	-10.2079
▁വൃദ്ധന്റെ	-10.2082
▁ഉറങ്ങിയ	-10.2083
▁ക്ഷണത്തിൽ	-10.2085
▁ചുവട്ടിൽ	-10.2086
▁പരവശ	-10.2087
▁നാഴിക	-10.2087
▁രീതിയിൽ	-10.2087
▁മൂക്കു	-10.2093
▁മുകളിലേക്കു	-10.2097
▁മഞ്ഞു	-10.2097
▁വിനോദിന്റെ	-10.2112
▁എക്സ	-10.2125
▁ജാതി	-10.2125
ഴുത്ത	-10.2129
▁കേൾക്കാം	-10.2132
▁പഠിക്കാൻ	-10.2146
െങ്ങനെ	-10.2147
▁വിചാരിച്ചതു്	-10.2149
▁തോർത്തു	-10.2153
▁പോയിരിക്കുന്നു	-10.2155
▁വിചാരണ	-10.2156
▁മതിയായിരുന്നു	-10.2161
▁ചെന്നിരുന്നു	-10.2163
▁ഉണ്ടായതു്	-10.2165
▁അവന്നു	-10.2167
▁വില്ക്ക	-10.2178
▁മടിയിൽ	-10.2186
▁റോസ	-10.2187
▁മടങ്ങിവര	-10.2189
▁ആവശ്യപ്പെട	-10.2199
▁കളവ	-10.2199
▁കൊല	-10.2206
ങ്ങളിലെ	-10.2211
യിലെത്തി	-10.2214
▁ചെയ്യാതെ	-10.2222
▁ചെയ്താൽ	-10.2225
ിരിക്കട്ടെ	-10.2225
▁സ്വരം	-10.2231
▁ഉണ്ടാകും	-10.2235
ജീവി	-10.2237
▁നില്പ	-10.2239
ുമല്ലോ	-10.2245
ദാഹ	-10.2247
▁വലുതായ	-10.2249
▁ജെ	-10.2252
നുസരിച്ചു്	-10.2256
▁പൊക്ക	-10.2257
▁കുട്ടിക്കാലത്തു	-10.2259
▁സ്കൂളിൽ	-10.226
▁പെണ്ണുങ്ങള	-10.226
േക്കും	-10.2261
▁ചന്ദ്രന	-10.2262
▁തുന്ന	-10.2263
▁സമ്പാദിച്ചു	-10.2264
▁പേടിച്ചു	-10.2267
▁അടിച്ച	-10.2272
▁അവനും	-10.2278
ിയ്ക്കാൻ	-10.2281
ഞ്ജ	-10.2286
▁തിരിച്ചുവന്നു	-10.2291
▁ശാപ	-10.2291
▁നടക്കുന്നതു്	-10.2291
▁മൂട	-10.2296
▁കൈയ്യിൽ	-10.2299
▁ബാധ	-10.2301
ങ്ങോട്ടു	-10.2308
ബാധ	-10.2314
യായാലും	-10.2316
▁ഒരിട	-10.2322
▁അറിയിച്ച	-10.2328
കുത്തി	-10.2329
▁ചേർത്ത	-10.2332
ക്കൊടുത്തു	-10.2339
▁അറുമുഖന	-10.2341
പ്പെടുത്താൻ	-10.2352
ാത്തതുകൊണ്ടു്	-10.2353
▁പുറത്തേയ്ക്ക	-10.2358
▁അടച്ച	-10.2362
▁വയറ	-10.2368
▁അനാവശ്യ	-10.2369
▁കഴുത്തു	-10.2375
▁ആത്മഹത്യ	-10.2381
▁കമ്പ്യൂട്ടർ	-10.2381
▁തികച്ചും	-10.2381
▁ദൃശ്യ	-10.2381
▁പടിഞ്ഞാറെ	-10.2381
▁സമുദ്ര	-10.2381
▁സിഗരറ്റ	-10.2381
▁അന്തരീക്ഷ	-10.2381
▁വില്പന	-10.2381
▁സഞ്ചരിക്ക	-10.2381
▁ഇടയ്ക്കിടയ്ക്കു	-10.2381
ശ്ശേരി	-10.2381
▁പ്രസന്ന	-10.2381
▁കല്ല്യാണ	-10.2381
▁ധനത്തെ	-10.2382
▁പരിപൂർണ്ണ	-10.2382
▁കണ്ണീർ	-10.2382
▁ആൾക്കാര	-10.2382
▁ചൊല്ലി	-10.2383
▁ടിക്കറ്റ	-10.2383
▁നടക്കുകയ	-10.2384
ുപോയിരിക്കുന്നു	-10.2385
▁ഉറ്റ	-10.2386
▁ലീവ	-10.2386
▁ജനലിലൂടെ	-10.2387
▁അത്രത്തോളം	-10.2388
▁മാതൃ	-10.239
▁കൗതുകത്തോടെ	-10.2393
▁വിവാഹിത	-10.2396
▁വിരലുകൾ	-10.2397
▁കുറേക്കൂടി	-10.2399
▁വിശദ	-10.2399
▁വേണമെന്ന	-10.2399
▁ഹേമാംഗന്റെ	-10.24
▁വിരോധമില്ല	-10.24
▁തകർ	-10.2405
▁അച്ഛനോടു്	-10.2405
▁കവിളിൽ	-10.2405
▁ഹോട്ടലിൽ	-10.241
▁അവരും	-10.2414
▁കുട്ടാ	-10.2415
▁തോളിൽ	-10.2416
▁താങ്ങ	-10.2418
▁കുടില	-10.2418
▁വസ്ത്രങ്ങൾ	-10.2421
▁പരസ്പരം	-10.2423
▁ശിക്ഷ	-10.2426
▁തുണ	-10.2427
▁എന്തുകൊണ്ടോ	-10.2428
▁തുടങ്ങും	-10.2429
▁എന്താണെന്ന	-10.2429
▁വിചാരിച്ചാൽ	-10.2434
▁കമ്മ	-10.2434
ക്കാരന്റെ	-10.2435
െന്നോണം	-10.2437
▁തന്നോടു്	-10.2437
▁ഒതുക്ക	-10.2444
▁ജനൽ	-10.2448
▁വിചാരിച്ചിട്ടു്	-10.2454
▁ആളുകളെ	-10.2455
▁അവളോടു	-10.2456
കൾക്കിടയില	-10.2457
ാനാവില്ല	-10.2458
ുമ്പോഴേക്കും	-10.2458
▁ശേഷമ	-10.2459
▁പറഞ്ഞാലും	-10.2461
▁ജോസഫേട്ടനു്	-10.2469
▁മുറ്റത്തേയ്ക്ക	-10.2471
രികിൽ	-10.2481
▁നാടു	-10.2484
▁ചെറുപ്പക്കാരന	-10.2485
▁ചുമല	-10.2487
▁അംഗ	-10.2492
ാണ്ന്നു്	-10.2494
▁തൈ	-10.2501
▁വന്നിരിക്കുന്നു	-10.2507
▁സ്കെച്ച	-10.2509
വസ്തുക്കള	-10.2514
▁തിരുമേനിയുടെ	-10.2518
▁അന്ത്യ	-10.2521
മുണ്ടു	-10.2524
▁നഗരത്തിലെ	-10.2525
▁കവിള	-10.2526
▁നേർക്കു്	-10.2531
▁വശം	-10.2533
▁ചുമലിൽ	-10.2534
▁ഏഴ	-10.2534
▁ധരിച്ചു	-10.2534
▁കൊടുക്കണം	-10.254
▁എന്റേ	-10.254
▁തരുന്ന	-10.2547
▁സംഭാഷണം	-10.2549
▁അസുഖം	-10.2553
േക്കാം	-10.2554
തെങ്കിൽ	-10.2556
▁അടഞ്ഞു	-10.2558
▁മുണ്ടു	-10.2562
▁ക്ഷീണിച്ചു	-10.2564
▁വന്നിട്ടു്	-10.2569
▁സംബന്ധം	-10.258
കുട	-10.2583
▁സ്നേഹിക്ക	-10.2585
പോസ്റ്റ	-10.2588
▁നെല	-10.259
വാങ്ങി	-10.259
▁തടവി	-10.2591
ാതിരുന്നതു്	-10.2592
▁പരമാർത്ഥ	-10.2596
▁കാത്തിരുന്നു	-10.2597
▁ത്രേസ്യാമ്മയെ	-10.26
കയറ	-10.26
▁ബാക്കിയുള്ളവര	-10.2602
▁എന്നിവ	-10.2605
▁നിലാവ	-10.2605
തോടുകൂടി	-10.2607
▁പള്ളിയിൽ	-10.2607
യുണ്ടെന്നു	-10.2608
▁ജീവിതകാല	-10.2626
കേറി	-10.2627
▁അസ്വാസ്ഥ്യ	-10.2628
▁രണ്ടുപേര	-10.263
▁ചെയ്തില്ല	-10.2632
സമയത്തു്	-10.2635
▁മുടക്ക	-10.2645
▁ഇരിക്കാൻ	-10.2648
▁ഓരോന്നു്	-10.2648
▁അങ്ങേര	-10.2649
▁കണ്ടിരുന്നു	-10.2651
മട്ടിൽ	-10.2654
പൊട്ട	-10.2662
▁നടത്താൻ	-10.2663
ുമുണ്ടായിരുന്നു	-10.2664
പാത്രം	-10.2673
മൂർത്തി	-10.2677
▁ചെടി	-10.2688
െത്താൻ	-10.2693
▁പലക	-10.2694
▁ഓരോന്നു	-10.2694
തുടങ്ങിയ	-10.2709
▁ആവശ്യപ്പെട്ട	-10.271
▁അതായിരുന്നു	-10.271
നിശ്വാസ	-10.2725
േന്ദ്ര	-10.2725
▁അസാധാരണ	-10.2725
▁ആനന്ദകൃഷ്ണൻ	-10.2725
▁നൈരാശ്യ	-10.2725
▁ഭാർഗ്ഗവിഅമ്മ	-10.2725
▁യൂജീനിന്നു	-10.2725
▁യോഗിയാരുടെ	-10.2725
▁ബോംബെ	-10.2725
▁യമുന	-10.2725
▁ചുരുക്ക	-10.2725
▁രാജേഷ്	-10.2725
▁അപ്പൂട്ടി	-10.2725
▁തലയുയർത്തി	-10.2725
▁അധീന	-10.2726
▁തലമുറ	-10.2726
▁വിയർപ്പ	-10.2726
▁തന്നോടുതന്നെ	-10.2726
▁വഴുതി	-10.2726
▁കമ്യൂണിസ്റ്റ	-10.2726
▁നിറവേറ്റ	-10.2726
▁മുറുകെ	-10.2726
▁മിനുസ	-10.2726
▁ഓഹോ	-10.2726
▁ദീന	-10.2726
▁രംഗ	-10.2727
േക്കാളും	-10.2727
▁കൊറേ	-10.2728
▁സ്വർഗ്ഗ	-10.2728
▁തുക	-10.2729
▁ലഭിക്ക	-10.273
▁പുതുതായി	-10.273
▁ഏകാന്ത	-10.2731
▁നെറ്റിമേൽ	-10.2731
▁സദാ	-10.2731
▁ആശ്ചര്യപ്പെട്ടു	-10.2732
▁ഗ്ലാസ്സു	-10.2732
ലേഖ	-10.2733
▁മയങ്ങി	-10.2734
▁സാദ്ധ്യമ	-10.2736
▁പൂക്കൾ	-10.2737
▁വിളറി	-10.2737
ങ്കൊണ്ട	-10.2741
പ്പോഴേയ്ക്കും	-10.2746
▁ആപത്ത	-10.2748
▁പരിചയമുള്ള	-10.2752
▁വല്ലവരും	-10.2753
▁കട്ടിലിന്റെ	-10.2753
▁മോനെ	-10.2753
▁തോന്നിപ്പോകുന്ന	-10.2754
ത്ന്നു്	-10.2757
യാൾക്കു	-10.2759
▁വെറുപ്പു	-10.2761
▁പുറത്തെടുത്തു	-10.2766
നിന്നിരുന്ന	-10.2769
▁ബസ്സിൽ	-10.277
▁കൊത്തി	-10.2775
ീട്ടില്ല	-10.2775
▁ദൈവത്തെ	-10.2778
▁സഹോദര	-10.2782
▁കേൾക്കുമ്പോൾ	-10.2802
▁നെൽ	-10.2802
ിരിക്കുന്നതു	-10.2807
▁കൊളുത്തി	-10.2808
▁കൂട്ടിൽ	-10.2808
▁വയസ്സായി	-10.2808
▁വേഗ	-10.2817
▁ആണുങ്ങള	-10.282
ാതിരുന്നില്ല	-10.2821
▁വിടാതെ	-10.2821
▁പിന്നേ	-10.2822
▁നടന്നിരുന്ന	-10.2829
▁ചുണ്ടു	-10.2829
▁സ്ഥാനത്തു്	-10.2835
▁തുടങ്ങിയപ്പോൾ	-10.2837
ക്കൊണ്ടിരുന്ന	-10.2837
ുണ്ടാവില്ല	-10.2845
▁ഇതിലും	-10.285
▁എടുക്കാൻ	-10.2851
▁നിറച്ചു	-10.2856
▁നിലവിളക്ക	-10.286
▁ഇളക്ക	-10.2862
▁നായരെ	-10.2867
▁ശങ്കിച്ചു	-10.2868
യോടുകൂടി	-10.287
▁നിശ്ചയമുണ്ട	-10.288
▁നാരായണ	-10.2882
കളിൽനിന്നു്	-10.2893
▁ഇപ്പോൾത്തന്നെ	-10.29
▁ക്രമ	-10.2906
ുണ്ടാകുമെന്ന	-10.2909
▁നിസ്സഹായ	-10.291
▁ദേഷ്യം	-10.2914
ാണാവോ	-10.2935
▁വ്യക്തമായി	-10.2935
നാൾ	-10.2935
ിന്റേയും	-10.2953
ുകയുള്ളു	-10.2955
ിനുവേണ്ടി	-10.2958
▁മകനും	-10.2959
▁ഒന്നോ	-10.296
▁വയ്യാത്ത	-10.2964
ിട്ടുകൂടി	-10.2982
▁പ്രേമിക്കുന്ന	-10.2992
▁ക്ലാസ്സു	-10.2995
ചേർന്ന	-10.2995
ചിത്ര	-10.3009
▁ശരിയാവില്ല	-10.3013
▁ശ്രദ്ധിച്ചില്ല	-10.3022
▁വെള്ളത്തിൽ	-10.3022
▁സ്വീകരിച്ചു	-10.3024
▁ബഹളം	-10.3025
▁പൂമുഖത്ത	-10.3034
▁പിടിപ്പിച്ച	-10.3041
കളയുന്ന	-10.3053
▁തിരിച്ചുവര	-10.3059
▁സ്വാഭാവിക	-10.3063
▁വരുമെന്ന	-10.3065
പ്രദ	-10.3067
▁മൃദുവായ	-10.3068
▁സുഹൃ	-10.3069
ുണ്ടാക്കാൻ	-10.307
▁കൊണ്ടുവരാൻ	-10.3073
ുന്നതുപോലെ	-10.3079
സ്ഥാപന	-10.3083
▁എലിപ്പൂച്ച	-10.3083
▁നാണിഅമ്മ	-10.3083
▁റിപ്പോർട്ട	-10.3083
▁ശാഠ്യ	-10.3083
▁ഘന	-10.3083
▁ചുറ്റുവട്ട	-10.3083
▁ദുസ്സഹ	-10.3083
▁സമ്പൂർണ്ണ	-10.3083
▁നമ്ക്കു്	-10.3083
▁നിങ്ങടെ	-10.3083
▁കോണിപ്പടി	-10.3083
▁ശിഷ്യ	-10.3083
▁ലഹരി	-10.3083
▁പയ്യൻ	-10.3083
▁തിളങ്ങി	-10.3083
▁ചോദിയ്ക്ക	-10.3083
▁മലർന്നു	-10.3083
പ്രവർത്തന	-10.3083
▁പൊട്ടിത്തെറി	-10.3083
▁കഷായ	-10.3083
▁പലഹാര	-10.3083
▁സ്വൈര	-10.3083
▁ലഭിച്ച	-10.3084
▁തെല്ലു	-10.3084
▁ആശ്രയ	-10.3084
▁ശത്രു	-10.3084
ച്ചേർന്ന	-10.3085
▁രമണി	-10.3085
▁എട്ടുകെട്ട	-10.3086
▁പ്രവേശിക്ക	-10.3086
▁രണ്ടായിരം	-10.3086
▁മിശ്ര	-10.3086
▁ഇരുമ്പു	-10.3086
ൊരാൾ	-10.3087
▁നിർബന്ധ	-10.3087
▁പടിക്കൽ	-10.3088
▁അതായതു്	-10.3088
▁തെങ്ങിൻ	-10.3089
ച്ചെല്ല	-10.3095
▁കരയുന്ന	-10.3096
▁കാണാത്ത	-10.3099
▁ഞെട്ട	-10.3101
▁ശേഖര	-10.3101
▁മുഖത്തെ	-10.3102
▁തനിയെ	-10.3112
▁പ്രതിഭ	-10.3118
പ്പെട്ടിരുന്നു	-10.3118
▁പൂക്കള	-10.3118
▁നിശ്ചയമില്ല	-10.3126
▁സീമയെ	-10.3132
മുണ്ടായില്ല	-10.3133
▁മാന്യ	-10.3134
▁പറയാറുണ്ടു്	-10.3134
▁മലയാളി	-10.3143
കിടന്ന	-10.3148
▁അപ്പഴ	-10.315
▁ക്ഷമിക്ക	-10.3152
▁സ്ത്രീകളുടെ	-10.316
▁മിണ്ടാതിരിക്ക	-10.316
▁സമാധാനമായി	-10.3164
▁കടലാസു	-10.3167
▁വീര്യ	-10.3172
തുകൊണ്ടാണു്	-10.3182
▁ജീവിതത്തിന്റെ	-10.3183
▁കുളിമുറി	-10.3202
ചെയ്യുന്ന	-10.3205
▁എന്നെക്കൊണ്ടു്	-10.321
ുകാരൻ	-10.321
▁വാർ	-10.3212
▁ഭാസ്കരനെ	-10.3219
ത്തിന്നുള്ളിൽ	-10.3221
▁പുറത്തെ	-10.3222
▁മുണ്ടും	-10.3222
▁പുറത്തിറങ്ങ	-10.3224
▁നോക്കാന	-10.3224
▁ഇഷ്ടമുള്ള	-10.3228
ക്കിടക്ക	-10.3244
▁പൊന്നു	-10.3245
വെട്ട	-10.3245
▁പതിഞ്ഞു	-10.3252
വിരി	-10.3253
▁അടങ്ങ	-10.3262
▁മനസ്സിലാകുന്ന	-10.3266
▁ഇടപെട	-10.3276
▁ഇംഗ്ലീഷ	-10.3281
▁ഒന്നാമതു	-10.3282
▁വന്നതാണു്	-10.3284
▁മേലെ	-10.3285
▁കണ്ണുകളും	-10.3287
പോലുള്ള	-10.33
പ്പോഴേയ്ക്കു്	-10.331
▁കാമുകന	-10.3314
▁പെണ്ണേ	-10.3317
▁കൊച്ചമ്മ	-10.3325
ക്കാനാണു്	-10.3336
▁വീട്ടിലെത്തിയ	-10.3342
വീണ	-10.3348
▁വെളിപ്പെടുത്ത	-10.3355
▁ഇളകി	-10.3376
▁തറവാട്ടിൽ	-10.338
▁ഉണ്ടാക്കുന്ന	-10.338
▁വെറുപ്പ	-10.3416
ുണ്ടെങ്കിലും	-10.3419
▁ഇദ്ദേഹത്ത	-10.3437
▁ശിവ	-10.3437
തിനുശേഷം	-10.3437
▁പ്രവേശിച്ചു	-10.3438
▁കടന്നുപോയി	-10.3441
▁വായിക്കാൻ	-10.345
ാശ്വാസ	-10.3453
▁കഴികയില്ല	-10.3453
▁പൊടുന്നനെ	-10.3453
▁സാവധാനം	-10.3453
▁സ്ഥാപിക്ക	-10.3453
▁ഉദാസീന	-10.3453
▁ഒന്നാമതായി	-10.3453
▁ഓരോരുത്തർ	-10.3453
▁പശ്ചാത്തല	-10.3453
▁പ്രത്യക്ഷമായ	-10.3453
▁ഭഗവതി	-10.3453
▁ഹോസ്റ്റലിൽ	-10.3453
▁രണ്ടാൾക്കും	-10.3453
▁പ്രസാദ	-10.3453
▁ഒന്നാമത്തെ	-10.3453
▁പടിപ്പുര	-10.3453
▁വടക്കെ	-10.3453
▁കർക്കശ	-10.3453
▁മൂന്നാമത്തെ	-10.3453
▁അതിനിടയ്ക്കു്	-10.3453
▁ദോഷ	-10.3453
▁സ്തുതി	-10.3453
▁മാർട്ടി	-10.3453
പൂർവം	-10.3454
▁കവുങ്ങ	-10.3454
▁സഖി	-10.3454
ിരിക്കുണു	-10.3454
▁കലർന്ന	-10.3454
▁നേരംപോക്ക	-10.3455
▁നിശ്ചല	-10.3455
▁ചേട്ടാ	-10.3457
പ്രതി	-10.3457
▁കട്ടിലിന്മേൽ	-10.3457
▁സിദ്ധി	-10.3459
▁അടുത്തുചെന്നു	-10.3461
▁അതിനിടയിൽ	-10.3464
ശാലയിൽ	-10.3465
▁എത്രത്തോളം	-10.3467
സന്ധ	-10.347
▁ദുഷ്ട	-10.3472
▁താഴേയ്ക്കു	-10.3472
▁പട്ടിണി	-10.3478
തേയില്ല	-10.3479
െതിരെ	-10.3482
▁നാട്ടുകാര	-10.3482
▁ചൂല	-10.3483
ുവാൻവേണ്ടി	-10.3483
ായുധ	-10.3484
▁വക്കീലിന്റെ	-10.3486
▁കൈവച്ചു	-10.3487
രുതേ	-10.349
▁നശിച്ചു	-10.3492
ലേയ്ക്കു	-10.3492
▁അറുമുഖനെ	-10.3495
▁നോട്ടുകൾ	-10.35
▁തീരുമാനിച്ചു	-10.3502
ാതിരുന്നതു	-10.3503
ക്കെട്ടു	-10.3504
▁നൃത്തം	-10.3505
▁സൂര്യൻ	-10.3508
▁പുറത്തിറക്ക	-10.3509
▁ഭാവിച്ച	-10.351
▁ചെവിയിൽ	-10.3513
▁തെക്കു	-10.3514
▁പകര	-10.3517
ുറുക്ക	-10.3518
▁ഒന്നുനോക്കി	-10.3523
▁വയസ്സൻ	-10.3528
▁ഏറ്റു	-10.3531
▁ഓട്ടോ	-10.3534
▁മുഴുകിയ	-10.3534
▁ശേഷി	-10.3544
▁സാറെ	-10.3545
▁സ്വര	-10.3546
▁നേട	-10.3547
▁മൂപ്പർ	-10.3548
▁ജന്മി	-10.3551
▁തല്ലി	-10.3561
തുകണ്ടു	-10.3565
▁ഊരി	-10.3569
▁നോക്കാതെ	-10.357
▁മിനിട്ട	-10.358
▁വണ്ടിയിൽ	-10.3584
▁അത്രയേ	-10.3586
▁ഏല്പിച്ചു	-10.3586
കടാക്ഷ	-10.3587
▁അമ്മാവന	-10.3588
ിരിക്കുമോ	-10.3591
ുന്നിടത്ത	-10.3599
▁ഞങ്ങൾക്കു	-10.3612
▁ഉപായ	-10.3614
▁മാറ്റാൻ	-10.362
▁അങ്ങിനെയുള്ള	-10.3625
▁വേഗത	-10.3627
▁നോക്കുന്നതു്	-10.3627
▁ഒപ്പമ	-10.3632
▁ബാല്യ	-10.3634
▁മൂടിയ	-10.3641
▁അത്രതന്നെ	-10.3643
▁കിട്ടാതെ	-10.3645
▁വെടിപ്പ	-10.3646
വിളക്കു	-10.3648
▁മടുത്തു	-10.3652
▁തരണം	-10.3654
ബന്ധിച്ചിടത്തോളം	-10.3695
ുന്നതിന്നു്	-10.3699
▁മറ്റുള്ള	-10.3705
▁തുറന്നിട്ട	-10.3712
▁കയറുന്ന	-10.372
▁ഇരുട്ടിൽ	-10.3723
യിരിക്കും	-10.3728
ാണയാൾ	-10.3733
ക്കളഞ്ഞു	-10.3738
▁കൈയിലെ	-10.3744
▁വേണ്ടാത്ത	-10.3745
▁വേലക്കാര	-10.3748
▁സ്റ്റേഷനിൽ	-10.3751
▁അളവു	-10.3752
നിമിത്തം	-10.3761
സിദ്ധ	-10.3762
മൂലം	-10.3765
ഭേദ	-10.3765
▁എഞ്ചിൻ	-10.3768
▁ഉണ്ടെന്ന	-10.3771
നോക്കുന്ന	-10.3775
▁വഴിപ്പെട	-10.3778
▁അമ്മാമന	-10.378
▁സുഖമായി	-10.3781
▁പൂട്ട	-10.3803
▁ആറ്റിറമ്പ	-10.3805
▁ശബ്ദവും	-10.3807
▁ചങ്ങമ്പുഴ	-10.3807
▁സുഖക്കേടു	-10.381
▁പുറത്താക്ക	-10.3823
ല്പം	-10.3824
ുണ്ടാകയില്ല	-10.3831
ന്വേഷി	-10.3836
▁അപ്പേട്ടന്റെ	-10.3838
▁ഏല്പിക്ക	-10.3838
▁ഒറങ്ങ	-10.3838
▁തിങ്കളാഴ്ച	-10.3838
▁ദിനോസറ	-10.3838
▁രാരിച്ചൻ	-10.3838
▁ലഘു	-10.3838
▁സാധ്യത	-10.3838
▁അവലംബിച്ച	-10.3838
▁യൂജിൻ	-10.3838
▁റബ്ബർ	-10.3838
▁ലേശം	-10.3838
▁ചക്രവാള	-10.3838
▁ഭവാനി	-10.3838
▁രണ്ടാമതും	-10.3838
▁ടീച്ചർ	-10.3838
▁തമിഴ	-10.3838
▁ഗോപാല	-10.3838
▁ഭാസ്കരന്നു്	-10.3838
▁ഖേദ	-10.3838
▁കല്പിച്ചുകൂട്ടി	-10.3838
▁തടാക	-10.3838
▁ധിക്കാര	-10.3838
▁പണിക്കർ	-10.3838
▁പലിശ	-10.3839
മെന്റ്	-10.3839
▁അമ്പരപ്പ	-10.3839
▁പ്രത്യേകിച്ചും	-10.3839
▁പുണ്യ	-10.3839
▁ഓരോരോ	-10.3839
▁ശീത	-10.3841
▁ഹാളിൽ	-10.3841
▁വെളിച്ചപ്പാട	-10.3842
▁ഒരേയൊരു	-10.3842
▁വെഷമ	-10.3843
▁ധീര	-10.3844
▁ശാരി	-10.3844
▁സ്വാദ	-10.3846
ുന്നതിനിടയിൽ	-10.3848
▁തുടക്കം	-10.3848
▁വന്നുചേർന്ന	-10.3849
▁ഭാഗ്യത്തിനു്	-10.3849
ത്തിലായി	-10.3849
പ്രകടന	-10.3851
▁കാരണവരുടെ	-10.3851
▁ഏറ്റുവാങ്ങ	-10.3851
▁സാധിക്കുന്ന	-10.3851
▁മാസിക	-10.3857
ാറുണ്ടോ	-10.3859
ാണുള്ളതു്	-10.3862
▁തെളിയിക്ക	-10.3864
▁പറ്റുമോ	-10.3864
▁പന്തല	-10.3865
▁ഡ്രൈവറ	-10.3867
▁അപായ	-10.3867
▁നാമം	-10.3871
ാലെന്താ	-10.3872
ിനകം	-10.3873
▁വിശ്വസിച്ച	-10.3876
▁കാണണമെന്നു	-10.3876
▁റോഡിൽ	-10.388
▁ഇത്രയൊക്കെ	-10.3883
▁ഓർമ്മവന്നു	-10.389
▁ആരാണ	-10.3901
നന്ദ	-10.3903
▁ഇവിടെത്തന്നെ	-10.3904
▁പറയരുതു്	-10.3905
▁വാചകം	-10.3907
ിയ്ക്കുന്ന	-10.3914
കൊണ്ടല്ല	-10.3926
ഗ്ഗ	-10.3936
▁മൊട്ട	-10.3937
ിട്ടുണ്ടെന്ന	-10.3939
▁നിശ്ശബ്ദത	-10.3939
▁അന്വേഷിച്ച	-10.3939
രാക്ഷസ	-10.3944
▁ചിറ	-10.3947
▁ജപിക്ക	-10.3952
▁ശുഭ	-10.396
▁കാലടി	-10.396
▁ഉണ്ടാവാൻ	-10.3961
▁നോക്കണം	-10.3968
▁തയ്യാറായ	-10.3969
▁പഠിക്കുന്ന	-10.3975
▁കൊടുക്കേണ്ട	-10.3977
▁തീർത്ത	-10.3979
▁ഇതൊന്നു	-10.3979
▁കുളത്തിൽ	-10.3982
▁വരുന്നുണ്ടു്	-10.3991
▁ആവശ്യപ്പെട്ടു	-10.3992
▁നിന്നുപോയി	-10.3994
▁നിമിഷങ്ങൾ	-10.4004
▁വിധിച്ച	-10.4006
െങ്ങാൻ	-10.4011
▁ചൂണ്ടി	-10.4012
▁അനുഭവിച്ചു	-10.4019
ഹിത	-10.4036
പീഡ	-10.4036
▁പോകാതെ	-10.404
പണി	-10.4047
▁നരി	-10.4048
▁തുന്നി	-10.4051
▁പിന്നിലെ	-10.4053
പ്പിക്കും	-10.4054
▁ഇല്ലാതായി	-10.4057
▁നിൽക്കുന്നതു്	-10.4061
▁ഒമ്പതു	-10.4063
▁അസ്തമിച്ചു	-10.4072
ക്കയറി	-10.4077
▁തുടുത്ത	-10.4078
▁സ്കെച്ചു	-10.4085
▁സംസാരിക്കുന്നതു	-10.4086
▁കാലത്തെ	-10.4095
▁ചുണ്ടുകള	-10.41
▁പറഞ്ഞതാണു്	-10.4106
▁അപൂർവ്വ	-10.4128
▁അയാളോടു	-10.4132
▁മാറിൽ	-10.4136
▁അടുക്കളയില	-10.4146
ുണ്ടായിരിക്കും	-10.4147
▁പ്രയാസപ്പെട്ട	-10.4164
താഴ്ത്തി	-10.4165
സംബന്ധ	-10.4182
▁ഉത്തരവാദി	-10.4186
പ്പറ്റിയുള്ള	-10.4186
▁കൊറച്ച	-10.4199
▁മന്ദഹസി	-10.4202
▁വന്നുനിന്നു	-10.4208
കഴിഞ്ഞാൽ	-10.423
▁വീര	-10.4235
▁മുഖത്തേക്കു	-10.4235
ക്കാർക്കു്	-10.4237
▁റസ്റ്റോറണ്ട	-10.4238
ാനുരാഗ	-10.4238
▁ഉത്തമ	-10.4238
▁ക്യൂബ	-10.4238
▁ചൂണ്ടിക്കാട്ടി	-10.4238
▁വേവലാതി	-10.4238
▁വൈശാഖൻ	-10.4238
▁അഗാധ	-10.4238
▁ഉഷ്ണ	-10.4238
▁ദരിദ്ര	-10.4238
▁പശ്ചാത്താപ	-10.4238
▁ബാദ്ധ്യത	-10.4238
▁അടിയന്തിര	-10.4238
▁പ്രയോജന	-10.4238
▁സാക്ഷാൽ	-10.4238
▁തൊഴിൽ	-10.4238
▁നിർഭാഗ്യ	-10.4238
▁ശാലിനി	-10.4238
▁ഷോപ്പ	-10.4238
▁ആംഗ്യം	-10.4238
▁യോഗിയാർ	-10.4238
▁ഛായ	-10.4238
▁ഓഫീസ്	-10.4238
▁ഓരോന്നായി	-10.4238
▁മാളിക	-10.4238
▁കോളനി	-10.4238
ക്ഷോഭ	-10.4238
▁ലൈറ്റ	-10.4238
▁ചെയ്വാന	-10.4238
▁പപ്പട	-10.4239
▁കൈക്കോട്ട	-10.4239
▁ആദരവ	-10.4239
▁രാമൻകുട്ടി	-10.4239
▁ശ്രീ	-10.424
▁മുതലാളി	-10.424
▁ഒരുമ്പെട്ട	-10.424
▁അറുമുഖന്റെ	-10.4241
▁സ്റ്റേഷൻ	-10.4242
▁വിധത്തില	-10.4242
ഉടമസ്ഥ	-10.4243
▁വഴിപാടു	-10.4244
▁ആളുകള	-10.4244
ഹീന	-10.4245
▁മൂർച്ച	-10.4246
▁ദുരന്ത	-10.4246
▁വേണോ	-10.4248
▁അകന്നു	-10.425
യാവാൻ	-10.4253
▁പ്രവേശിച്ച	-10.4254
▁പ്രിയപ്പെട്ട	-10.4256
▁നിൽപ്പ	-10.4257
▁വിനയ	-10.4259
നിലയിൽ	-10.4259
▁പൊളിക്ക	-10.4262
▁ഇപ്പോഴത്തെ	-10.4262
▁ശവം	-10.4264
▁കയറുമ്പോൾ	-10.4265
▁പ്രദേശ	-10.4266
▁മേലോട്ട	-10.4267
▁ദാവീദിന്റെ	-10.4268
▁വെപ്പ	-10.4268
▁ജനാല	-10.4276
യായിട്ടു്	-10.4277
▁കയ്യിൽനിന്നു്	-10.4279
▁മക്കളെ	-10.428
▁ചിത്രങ്ങള	-10.428
▁പണിക്കര	-10.4281
▁എല്ലു	-10.4284
▁ഓർത്തതു്	-10.4286
ിക്കത്തക്ക	-10.4292
▁വേണമെന്നു്	-10.43
▁നിൽക്കുമ്പോൾ	-10.4303
▁ഓർമ്മയുണ്ടു്	-10.4303
ത്തരാം	-10.4306
▁ജീവിച്ചു	-10.4309
ന്റേതാ	-10.431
ാനിടയില്ല	-10.4311
▁കാർഡ	-10.4311
▁കരുതിയതു്	-10.4319
▁പുതുമ	-10.4329
▁മകൾക്കു്	-10.4333
▁കൊള്ളില്ല	-10.4334
▁ചെറിയൊരു	-10.4343
▁കയറാൻ	-10.4346
▁അടച്ചിട്ട	-10.4349
▁അതിൽനിന്നു്	-10.4353
▁മേശയുടെ	-10.4356
▁അത്രയ്ക്കു	-10.4368
▁ബോദ്ധ്യമായി	-10.4372
▁രതിക്കു്	-10.4375
ാമല്ലൊ	-10.4382
▁കൂട്ടാക്ക	-10.4386
▁എണീറ്റു	-10.44
▁വല്ല്യ	-10.4401
▁തൊഴു	-10.4402
▁സരസ	-10.4404
▁കഴിഞ്ഞിട്ടു്	-10.4407
വേല	-10.4408
െക്കുറിച്ചു	-10.4412
▁പെണ്ണുങ്ങളെ	-10.4418
▁ഓടിപ്പോയി	-10.4442
▁സഹായിച്ചു	-10.4448
▁കാണാനില്ല	-10.4452
▁ആഗ്രഹമുണ്ട	-10.4475
നോക്കിയപ്പോൾ	-10.4476
പോന്നിരുന്ന	-10.4478
▁മാഞ്ഞു	-10.4481
പുരുഷന	-10.4482
▁ചുരുണ്ടു	-10.4485
▁കരുതിയിരുന്ന	-10.4498
ായിരുന്നെങ്കിൽ	-10.4499
▁മറ്റെല്ലാ	-10.4499
ഡ്രസ്സ	-10.4502
▁ഏല്പിച്ച	-10.4506
▁പുറത്തേക്ക	-10.4511
▁വിളമ്പി	-10.4519
▁ഊര	-10.4524
ൊരിക്കലും	-10.4528
▁പള്ള	-10.4538
▁താഴത്തെ	-10.4542
ശക്ത	-10.4558
▁കരിങ്ക	-10.4568
▁ഇലകൾ	-10.4571
പ്പെടുകയും	-10.4575
▁ഒരിടത്തു	-10.4576
സാഹിത്യ	-10.4578
▁അഴക	-10.458
റിയാമോ	-10.4582
▁വായനക്കാര	-10.4597
▁നഗരത്തിൽ	-10.4612
▁സ്ത്രീകളെ	-10.4621
▁പിറ്റേ	-10.4625
▁പേന	-10.4627
ുകയല്ലാതെ	-10.4628
▁ആരംഭിച്ച	-10.463
പേക്ഷ	-10.4638
▁ഇഷ്ടത്തി	-10.4641
▁മറുവശത്ത	-10.4647
▁കിട്ടുമെന്ന	-10.4651
ാകുമോ	-10.4653
▁കണ്ണുനീർ	-10.4654
▁തമ്പുരാന	-10.4654
▁താൽപര്യ	-10.4654
▁പടിഞ്ഞാറ്റ	-10.4654
▁ആകർഷിക്ക	-10.4654
▁ഉണക്ക	-10.4654
▁ഉന്നത	-10.4654
▁കുസൃതി	-10.4654
▁ചന്ദന	-10.4654
▁ടെലിഫോൺ	-10.4654
▁ദാരിദ്ര്യ	-10.4654
▁പുരോഹിത	-10.4654
▁ബാൽക്കണ	-10.4654
▁ശാസ്ത്ര	-10.4654
▁ഏതാണ്ടു്	-10.4654
▁വിവിധ	-10.4654
▁പ്രപഞ്ച	-10.4654
ചിഹ്ന	-10.4654
▁പ്ലാസ്റ്റിക്	-10.4654
▁മിന്നൽ	-10.4654
▁അർദ്ധ	-10.4655
▁പറങ്കി	-10.4655
▁ഏട്ടത്തിയമ്മ	-10.4655
▁ഫോർ	-10.4655
▁സഞ്ചരിച്ച	-10.4655
▁കണക്കിലേറെ	-10.4655
ുകയാണുണ്ടായതു്	-10.4656
▁നല്ലോണം	-10.4656
▁ദ്രോഹം	-10.4656
▁ഇതുകേട്ടപ്പോൾ	-10.4656
▁കുറുപ്പിന്റെ	-10.4657
▁ഭീമ	-10.4657
▁ഒളിപ്പിച്ചു	-10.4658
▁പരിചിത	-10.4658
▁പട്ടാള	-10.4659
▁സാരല്ല്യ	-10.466
▁ബീച്ച	-10.466
▁ചുറ്റുമുള്ള	-10.4661
▁വളർച്ച	-10.4662
▁വടക്കു	-10.4662
▁തെക്കെ	-10.4665
ായിരിക്കുമെന്നു്	-10.4666
▁ആയിരം	-10.4667
▁ഡ്ര	-10.467
▁തിരുകി	-10.4671
▁കൂടെക്കൂടെ	-10.4672
▁കുട്ടീ	-10.4673
▁മൃദുവായി	-10.4676
▁ലക്ഷണമ	-10.4676
▁വീഴ്ത്ത	-10.4682
ാനൊരുങ്ങ	-10.4682
▁കേടു	-10.4684
▁സോപ്പു	-10.4685
▁വരുത്തിയ	-10.4686
▁ഇഷ്ടംപോലെ	-10.4687
▁എന്തായിരിക്കും	-10.4693
▁കുട്ട്യ	-10.4695
▁ആളുടെ	-10.4696
▁ലയിച്ച	-10.4697
▁പെട്ടെന്നവൾ	-10.4706
▁പരതി	-10.4712
▁കൊടുപ്പാൻ	-10.4713
▁ജനലിന്റെ	-10.4721
▁ഓഫീസില	-10.4726
▁കാമറ	-10.4729
▁വെളിച്ചത്തിൽ	-10.473
▁വയസ്സുള്ള	-10.4731
▁കണ്ടെത്തി	-10.4731
▁ജീവൻ	-10.4734
▁ചളി	-10.4736
▁തൂണ	-10.4739
ണ്ടാകുന്ന	-10.4741
▁കൃഷ്ണൻകുട്ടി	-10.4745
▁ഒന്നിനെ	-10.4749
▁കുനിച്ച	-10.475
▁വലതു	-10.4754
▁അനുരാഗത്തിന്റെ	-10.4759
▁ഇല്ലെങ്കിൽ	-10.476
▁ഇഷ്ടപ്പെടുന്ന	-10.4761
പ്പെടേണ്ട	-10.4763
▁അകത്തെ	-10.4774
ത്തോടുകൂടെ	-10.4777
▁തല്ലു	-10.4778
ക്കെട്ടി	-10.478
▁രക്ഷപ്പെട്ടു	-10.4796
▁ഇതുതന്നെ	-10.4797
▁തയ്യാറാക്കി	-10.4797
▁എന്തായിരുന്നു	-10.4797
▁പൊന്ത	-10.4802
▁തിന്നാൻ	-10.4805
കളുടേയും	-10.4808
▁സന്തോഷമായി	-10.481
ായിത്തീർന്ന	-10.4823
▁പരിചയപ്പെട്ട	-10.4825
▁ഓടിവന്നു	-10.4829
ല്ലെങ്കിൽ	-10.4837
▁പതിവായി	-10.4837
▁ഒമ്പത	-10.4839
▁മറന്നുപോയ	-10.4846
ാനന്ദ	-10.4855
ിലേയ്ക്കുള്ള	-10.487
▁മുന്നിലെ	-10.4873
▁അനിയന	-10.4877
▁പൊറത്ത	-10.4882
▁ഉണർത്ത	-10.4898
▁വാങ്ങിക്കൊണ്ടു	-10.4899
▁കഷ്ടിച്ചു	-10.4926
▁ഒരേടത്തു	-10.4926
▁വേണ്ടിവന്ന	-10.4959
▁ശ്വാസ	-10.496
▁ഭാവമില്ല	-10.4967
▁കുളിച്ച	-10.4982
▁പുരുഷനെ	-10.5001
▁നിഷ്ക	-10.5002
▁എവിടുന്ന	-10.5006
▁ഇവരെ	-10.5011
ചന്ദ്ര	-10.5012
േണ്ടതുണ്ടു്	-10.5016
▁വീട്ടീ	-10.504
▁ചുമരിൽ	-10.5043
ൊഴിഞ്ഞു	-10.5045
ണിഞ്ഞു	-10.5051
ുണർന്ന	-10.5069
ദ്ഭുത	-10.507
ദൃഷ്ട	-10.5075
▁മിസ്സിസ്	-10.5089
▁അങ്ക്ൾ	-10.5089
▁കബീറ	-10.5089
▁ഡയറക്ടർ	-10.5089
▁തേജസ്സ	-10.5089
▁ത്രേസ്സ്യാമ്മ	-10.5089
▁പാടുള്ളേടത്തോളം	-10.5089
▁പിറുപിറുത്തു	-10.5089
▁ശുണ്ഠി	-10.5089
▁സഞ്ജയൻ	-10.5089
▁ഉദാഹരണ	-10.5089
▁കല്ക്കട്ട	-10.5089
▁ജോസുകുട്ടി	-10.5089
▁തന്റേട	-10.5089
▁തീക്ഷ്ണ	-10.5089
▁ദെവസ	-10.5089
▁സുബ്ബു	-10.5089
▁വലിച്ചെറിഞ്ഞു	-10.5089
▁പ്രാർത്ഥിച്ചു	-10.5089
▁പീടിക	-10.5089
▁ഇറച്ചി	-10.5089
▁മത്സ്യ	-10.5089
▁ശപഥ	-10.5089
▁ബദ്ധപ്പെട്ടു	-10.5089
▁പേപ്പർ	-10.5089
▁കഷണ്ടി	-10.5089
▁പരിഹാര	-10.5089
▁നിതിൻ	-10.5089
▁പ്രാർത്ഥിക്ക	-10.5092
▁ആവർത്തിച്ച	-10.5092
▁പറേണതു്	-10.5093
▁മേനോന്റെ	-10.5093
▁പ്രതിഫല	-10.5094
▁മാർഗ്ഗം	-10.5094
▁അലമാറി	-10.5094
▁വിജനമായ	-10.5095
▁കുമ്പിട്ടു	-10.5095
▁ആകൃതി	-10.5097
▁വിയർത്ത	-10.5097
▁ജോൺ	-10.5099
▁കുലുങ്ങ	-10.5099
▁വഞ്ചിക്ക	-10.5099
▁ദാവീദിനെ	-10.5099
▁സ്വരൂപ	-10.51
▁ജീവിച്ചിരിക്ക	-10.51
▁തോന്നിപ്പോകും	-10.5102
▁ഉദ്യോഗസ്ഥ	-10.5102
▁പാർപ്പ	-10.5104
▁തൃഷ്ണ	-10.5106
▁ഇങ്ങിനെയൊരു	-10.5106
▁പക്കൽ	-10.5112
▁സ്വാഭാവികമായി	-10.5113
▁ബാങ്ക	-10.5114
▁വല്ലാത്തൊരു	-10.5117
▁പൊട്ടിച്ച	-10.5117
▁മുക്കാല	-10.5121
▁ചങ്ങമ്പുഴയുടെ	-10.5123
▁ഗ്ലാസ്സ്	-10.5126
▁ചുട്ട	-10.5127
▁ശക്തിയോടെ	-10.5127
▁കെട്ടിടത്തിന്റെ	-10.5129
▁കസേരയിൽ	-10.513
▁ഫോണിൽ	-10.5131
▁ജാനുവിന്റെ	-10.5131
ാണല്ലൊ	-10.5132
▁കൊള്ളാത്ത	-10.5132
▁നിറമുള്ള	-10.5133
▁ദിവസമായി	-10.5143
▁കാന്തി	-10.5147
▁സമ്മതമ	-10.5153
▁സ്വപ്നങ്ങൾ	-10.5155
▁അറീ	-10.5164
▁അവരൊക്കെ	-10.5168
▁ചെയ്തിട്ടുണ്ടു്	-10.5174
▁പറമ്പു്	-10.518
▁തിരിച്ചറിഞ്ഞ	-10.5181
ാഞ്ഞാൽ	-10.5184
▁അളിയന	-10.5186
▁അടുത്തേക്കു	-10.5214
▁ജോലിക്കാര	-10.5219
▁അല്ലെങ്കിലും	-10.5221
ച്ചെടികൾ	-10.5225
▁കിടത്ത	-10.5229
▁അപ്പനെ	-10.5238
▁നിന്നിറങ്ങി	-10.5238
▁വരുമ്പോഴ	-10.5263
മാവാം	-10.5265
▁ദിക്കിൽ	-10.5268
▁കളിക്കുന്ന	-10.528
▁വിശ്രമിക്ക	-10.5281
സമയത്തു	-10.5282
▁പതിച്ച	-10.5286
പോലത്തെ	-10.5291
▁ലഞ്ച	-10.5293
▁ജീവിതത്തെ	-10.5302
▁അടുത്തുതന്നെ	-10.5331
▁പച്ചപ്പയ്യ	-10.5335
▁ഏറ്റെടുത്ത	-10.5336
▁നനയ്ക്ക	-10.5336
▁ജോണിക്കുട്ടാട്ട	-10.5338
▁പെണ്ണിന	-10.5343
▁കൂന	-10.5366
▁വളഞ്ഞു	-10.5369
പെണ്ണു	-10.537
▁തിരിച്ചെത്തിയ	-10.5374
▁പന്ത്രണ്ട	-10.5376
▁നിഷ	-10.5377
▁അപ്പുറത്തു	-10.5382
▁അമ്മമ്മ	-10.5382
▁കിണറ	-10.54
നിറഞ്ഞ	-10.5402
▁പാർക്കുന്ന	-10.5403
▁പൊളിയ	-10.5405
ിനിടയ്ക്കു	-10.5411
▁ഭീഷണി	-10.5412
▁തല്ക്കാല	-10.5415
ചാരി	-10.5415
ാതിരുന്നാൽ	-10.5417
▁അനേക	-10.5417
▁പെരുമാറിയ	-10.542
ന്റേയും	-10.5421
▁അകത്തുനിന്നു	-10.5421
▁മോളില	-10.5434
▁രക്ഷപ്പെട്ട	-10.545
മാക്കാൻ	-10.5455
▁ചെടികള	-10.5456
ഗ്ലാസ	-10.5461
ുണ്ടായില്ല	-10.5466
ശരീര	-10.5467
വരുത്തി	-10.5471
വീട്ടിൽ	-10.5471
▁സംഭവിക്കുന്ന	-10.5475
▁സൂചി	-10.5493
മൂടി	-10.5498
▁സാധിക്കാത്ത	-10.5504
വിദ്യ	-10.5506
▁മൂഡ	-10.5514
▁ഉയർന്ന	-10.5518
▁മെന	-10.5518
ഞ	-10.5534
▁കാണിച്ചുകൊടുത്ത	-10.5537
▁ഉപദേശിയാര	-10.5541
▁പോവാന	-10.5541
▁കൊച്ചച്ഛന	-10.5542
▁ലിസിപ്പെണ്ണ	-10.5544
ോച്ചിയപ്പാപ്പൻ	-10.5544
▁ഊഹം	-10.5544
▁കണിശമായ	-10.5544
▁പാരവശ്യ	-10.5544
▁യൗവന	-10.5544
▁സങ്കോച	-10.5544
▁സന്തുഷ്ട	-10.5544
▁സമുദായ	-10.5544
▁സാന്ത്വന	-10.5544
▁സൂക്ഷ്മ	-10.5544
▁താക്കോൽ	-10.5544
▁മമ്മാലി	-10.5544
ബിന്ദു	-10.5544
▁നിഷ്കർഷ	-10.5544
▁ബാലഗോപാലൻ	-10.5544
▁പ്രസരിപ്പ	-10.5544
▁റദ്ദാക്ക	-10.5544
▁വന്നുചേര	-10.5544
▁എന്തുചെയ്യും	-10.5544
▁പകർന്നു	-10.5544
▁വസന്ത	-10.5544
▁പൊത്തിപ്പിടിച്ച	-10.5544
▁ഗുഡ്	-10.5544
▁സൂചിപ്പിക്കുന്ന	-10.5544
▁ഈയിടെ	-10.5544
▁നേരമ്പോക്ക	-10.5545
▁മുൻവശത്ത	-10.5545
▁മനോവികാര	-10.5545
▁കുന്നിന്റെ	-10.5546
▁നമ്പറ	-10.5547
▁കലാശിച്ച	-10.5547
▁സീറ്റ	-10.5547
▁തിടുക്ക	-10.5548
▁ഉരുള	-10.5548
▁വിശദീകരി	-10.5549
▁പിൻവലി	-10.5549
▁നിരത്തിന്മേൽ	-10.5549
▁സുനന്ദിനി	-10.555
▁തെണ്ടി	-10.555
പ്രകാരത്തിലും	-10.5551
▁എട്ടുമണി	-10.5551
▁ഏട്ടന്റെ	-10.5551
ുവോളം	-10.5552
▁ഇത്രേം	-10.5553
▁ക്ലാര	-10.5555
▁ചെരിഞ്ഞു	-10.5556
▁നിഴലുകൾ	-10.5558
▁കൊച്ചുത്രേസ്യേ	-10.5559
▁ഭീകര	-10.5559
ായിരിയ്ക്കും	-10.556
▁നീളം	-10.5561
▁വർഗ്ഗ	-10.5561
▁ഓരോരുത്തരായി	-10.5563
ുകയുണ്ടായില്ല	-10.5563
▁കുറുപ്പിന	-10.5563
ാണത്രെ	-10.5563
▁ഇവളുടെ	-10.5564
▁ചാരിത്ര	-10.5565
▁കഷണ	-10.5565
▁നെനക്കു്	-10.5567
▁കിടപ്പുണ്ടു്	-10.5568
▁വർഷങ്ങൾക്കു	-10.5568
▁നാളുകൾ	-10.5569
▁അനങ്ങാതെ	-10.5572
▁തകർന്നു	-10.5573
ത്തിനുശേഷം	-10.5585
ാവശ്യം	-10.5586
▁കേസ്സ	-10.5587
▁അതിനുശേഷം	-10.5588
▁നടുങ്ങി	-10.5588
▁മുഴങ്ങി	-10.5591
▁സൂചിപ്പിച്ച	-10.5594
ാദ്ധ്യ	-10.5598
▁സ്വകാര്യമായി	-10.5604
▁ഉദ്ദേശിക്കുന്ന	-10.5604
▁മനസ്സിലായപ്പോൾ	-10.5606
▁അവളേയും	-10.5609
▁മൂന്നോ	-10.5609
ങ്ങൾക്കിടയിൽ	-10.561
▁തികയ	-10.5613
▁തേവ	-10.5622
▁ആശ്വാസമായി	-10.5623
▁നനച്ചു	-10.5626
▁വെണ്ട	-10.5626
പ്രിയ	-10.5635
ിഷ്ടമായ	-10.564
▁പാസ്സാ	-10.5644
▁കാണുന്നുണ്ടു്	-10.565
▁വരുമെന്നു്	-10.5671
▁അതുകൊണ്ടാണു്	-10.5672
▁അല്ലെങ്കില	-10.568
▁ഇറങ്ങിവന്നു	-10.5683
കൊല്ല	-10.571
▁ധാരാള	-10.5712
തുറന്നു	-10.5734
ശബ്ദമുണ്ടാക്കാതെ	-10.5735
ജന്തു	-10.5754
ലൈ	-10.5758
ക്കാമെന്നു	-10.5762
െപ്പോഴോ	-10.5763
▁ഇറക്ക	-10.5763
▁സമ്പ്രദായ	-10.5763
▁പൊന്തിച്ചു	-10.5781
▁വർഷങ്ങള	-10.58
▁നാരായണി	-10.5806
▁ഉദ്ദേശ്യ	-10.582
▁അങ്ങോട്ട	-10.5827
▁എണീറ്റ	-10.5829
▁തൊഴുതു	-10.5829
▁കൈയ്യില	-10.5868
▁കുളിമുറിയിൽ	-10.5871
▁എവിടെയാണെന്ന	-10.5885
▁നേർക്കു	-10.589
▁താഴേക്ക	-10.5907
▁ചൈതന്യ	-10.5911
▁ഭർത്താവിനു	-10.5935
ിറങ്ങുമ്പോൾ	-10.5937
ുകയുണ്ടായി	-10.5938
▁നിശ്ച	-10.594
▁ശരിയല്ല	-10.5947
കുറഞ്ഞ	-10.5948
ചെല്ല	-10.5948
ിരിപ്പാൻ	-10.5951
ലേക്കു	-10.5951
▁നേർസ	-10.5952
▁ഒരിക്കല	-10.5965
▁ഏങ്ങി	-10.602
▁പാപ്പിച്ചേട്ടന	-10.602
▁അരമണിക്കൂർ	-10.602
▁കബീർ	-10.602
▁ഗ്ലോറിയാന്റി	-10.602
▁നാളികേര	-10.602
▁നൂറ്റാണ്ട	-10.602
▁ബർനാഡ	-10.602
▁സിസീലി	-10.602
▁സുനിൽകുമാർ	-10.602
▁സ്വാധീന	-10.602
▁കല്പന	-10.602
▁പിശാച	-10.602
▁എന്നുമാത്രമല്ല	-10.602
▁ഒടുവില	-10.602
▁നിരവധി	-10.602
▁പഞ്ചസാര	-10.602
▁ചുവപ്പു	-10.602
▁തെറ്റിദ്ധരിച്ച	-10.602
▁ആൺകുട്ടി	-10.602
ൊഴുകുന്ന	-10.602
▁തൽക്കാലം	-10.602
▁വടക്കേ	-10.602
▁ഹിന്ദ	-10.602
▁താക്കോല	-10.602
▁സന്നദ്ധ	-10.602
▁സ്വീകരണ	-10.602
▁കുസ്നി	-10.602
▁നവീന	-10.602
▁മികച്ച	-10.602
▁വെറുത്തു	-10.602
▁കിടയ്ക്ക	-10.602
▁ശൂന്യത	-10.6021
▁ചാണക	-10.6021
ിന്നിടയിൽ	-10.6021
▁ഗുഹ	-10.6021
▁കുഞ്ഞൂസ	-10.6021
▁കലാശിക്ക	-10.6022
▁പ്രേത	-10.6023
▁അമ്മാവന്റെ	-10.6023
ശ്ശീല	-10.6024
▁പിണക്ക	-10.6024
▁ഉപദേശിയാരുടെ	-10.6024
▁ആർക്കാണു്	-10.6025
▁വികസി	-10.6026
▁പ്രതിഷ്ഠ	-10.6026
▁പൊളിഞ്ഞ	-10.6026
▁പതുങ്ങി	-10.6027
▁അനുവാദ	-10.6028
▁പണയം	-10.6028
▁രാരിച്ചന	-10.6028
▁ആഹാര	-10.603
▁അവരവരുടെ	-10.6033
▁ആപ്പീസ	-10.6034
ാണത്രേ	-10.6037
▁ധരിക്ക	-10.6038
▁വികസിച്ചു	-10.604
▁ഇതെന്തു	-10.6043
▁കോഴിക്കോട്ട	-10.6043
▁പദവി	-10.6043
▁സ്നേഹിതന	-10.6044
▁പ്രത്യേകിച്ചു്	-10.6044
▁ഓഫ്	-10.6045
നിർമ്മാണ	-10.6047
▁അറിയാമായിരുന്നു	-10.6051
▁മുമ്പുതന്നെ	-10.6056
കൊണ്ടായിരിക്കും	-10.6057
▁നന്നായിരുന്നു	-10.6058
▁സദ്യ	-10.6059
▁എറിഞ്ഞു	-10.606
▁ഇവിടത്തെ	-10.6061
▁പരിചയപ്പെടുത്തി	-10.6066
▁ചാഞ്ഞു	-10.607
▁തുടങ്ങുക	-10.608
▁ചിന്തിക്ക	-10.6087
▁കരാറ	-10.6093
▁അതിനകത്ത	-10.6095
▁മേറി	-10.6098
▁സ്വീകരിച്ച	-10.6099
▁റൂമ	-10.6099
▁മറിഞ്ഞു	-10.6105
▁പിൻവാങ്ങ	-10.6106
▁ചെലവാക്ക	-10.6107
▁ഇഷ്ടമായിരുന്നു	-10.611
▁ശകാരിക്ക	-10.6112
▁പിന്നിട്ട	-10.6121
ആയുധ	-10.6123
▁ഫലമില്ല	-10.6144
▁ജീവിതത്തില	-10.6149
▁സംതൃപ്തി	-10.6156
▁നിശ്ശബ്ദനായി	-10.6173
▁വിളമ്പ	-10.6178
▁നമ്മ	-10.6184
േക്കോടി	-10.6186
▁ഇഷ്ടപ്പെട	-10.6187
▁ഷൂട്ടിങ്	-10.6189
▁വിടർന്നു	-10.6202
▁വിചാരിക്കുന്നതു	-10.6209
▁മറയ്ക്ക	-10.6225
▁പ്രശ്നങ്ങൾ	-10.6231
െത്തുമ്പോൾ	-10.6233
▁ഉണർത്തി	-10.6234
ുണ്ടായിട്ടില്ല	-10.6235
േണ്ടതാണെന്ന	-10.6235
▁ക്ഷണിക്ക	-10.6238
ണിഞ്ഞ	-10.6245
▁വളർത്തിയ	-10.6246
▁മനസ	-10.6255
▁നിസ്സഹായത	-10.6256
▁ഇരുന്നിരുന്ന	-10.6266
▁മടങ്ങിയെത്ത	-10.6269
▁വീണുപോയ	-10.6292
മുമ്പു	-10.6293
▁മുഖത്തുനോക്കി	-10.6302
▁സംഭവങ്ങള	-10.6312
പൂട്ടി	-10.6319
▁അറിയാമ	-10.6333
▁നഷ്ടപ്പെട	-10.6335
▁കാരണവർ	-10.6346
▁പിടിപ്പിക്ക	-10.6351
▁മണല	-10.6372
▁നിണക്ക	-10.6374
ുയർന്നു	-10.6374
▁പ്രസവിച്ച	-10.6383
▁സ്വപ്നങ്ങള	-10.6388
പോന്നു	-10.6412
▁യാതൊര	-10.642
▁മിനി	-10.6434
▁നിവർന്ന	-10.6437
ദേഹം	-10.6447
നിറത്തിലുള്ള	-10.6459
▁നശിച്ച	-10.6469
സമ്മത	-10.6472
▁മീന	-10.6495
▁പോണ്ട	-10.6498
▁യോഗ്യ	-10.6515
▁കുമ്പസാര	-10.652
▁പൊറ്റക്കാട്ട	-10.652
▁ആസ്വദിച്ചു	-10.652
▁ഊതി	-10.652
▁ക്യാമറ	-10.652
▁യജമാനന	-10.652
▁സ്റ്റുഡിയോ	-10.652
▁ചിത്രീകരണം	-10.652
▁മാർക്സ	-10.652
▁വല്ലായ്മ	-10.652
▁വിപ്ലവ	-10.652
▁അറുപതു	-10.652
▁ദണ്ഡ	-10.652
▁പുറപ്പാട	-10.652
▁അടിയന്തര	-10.652
▁പ്രവർത്തിച്ച	-10.652
▁സംസ്കാര	-10.652
▁വിഴുങ്ങ	-10.652
▁ത്യാഗ	-10.652
▁ഉദ്യാന	-10.652
▁തോന്നുണു	-10.652
ൊഴുകി	-10.652
▁ഉദ്യമ	-10.652
▁തൊറക്ക	-10.652
ഗുളിക	-10.652
▁കീശയിൽ	-10.652
▁തലയിണ	-10.652
▁മോഹനൻ	-10.652
▁വിവേക	-10.652
▁പതിനെട്ടു	-10.652
▁മിസ്സ്	-10.652
▁വഷള	-10.652
▁ഇടിവെട്ട	-10.6521
▁പൊയ്ക്കോളു	-10.6521
▁വഞ്ചക	-10.6521
▁ബൈക്ക	-10.6521
▁ബെല്ലടി	-10.6521
▁കൂസല	-10.6522
▁ചെറുതായി	-10.6522
▁റെഡിയ	-10.6522
▁മറ്റൊരാൾ	-10.6522
▁ഏത്ത	-10.6523
▁കരുണ	-10.6524
▁കുട്ടേട്ടന്റെ	-10.6525
▁നമ്പൂതിരിപ്പാട	-10.6525
▁പാവാട	-10.6525
▁എന്നറിഞ്ഞില്ല	-10.6526
▁ബിംബ	-10.6526
▁ആറ്റിറമ്പിലെ	-10.6527
▁അങ്കിളിന	-10.6529
▁സൂപ്പ	-10.6531
▁വേലക്കാരത്തി	-10.6531
ുമ്പോഴൊക്കെ	-10.6533
▁അമ്മുവിന്റെ	-10.6533
▁തലവേദന	-10.6534
▁ചാരിയിരുന്നു	-10.6535
▁കണ്ണീര	-10.6536
▁നശിക്ക	-10.6536
▁ചേഷ്ട	-10.6536
▁പ്രധാനപ്പെട്ട	-10.6537
▁ചെരിപ്പ	-10.6537
▁തോന്നണതു്	-10.6538
▁തെരുവു	-10.654
▁ചായക്കട	-10.6541
▁അടങ്ങിയ	-10.6541
തവണ	-10.6542
▁ഉദാര	-10.6542
▁ഇദ്ദേഹത്തിന്റെ	-10.6542
▁അതെങ്ങിനെ	-10.6542
▁കാര്യമല്ല	-10.6542
▁ബെഞ്ച	-10.6543
▁പാടുണ്ടോ	-10.6545
▁ഓമന	-10.6545
▁ആരാന്റെ	-10.6548
ായിരിക്കകൊണ്ടു്	-10.6548
▁അച്ചന്റെ	-10.6549
വളാണെന്നു്	-10.6553
▁യോഗ്യത	-10.6554
▁പരുക്ക	-10.6555
▁അകം	-10.6556
▁പൊരുത്ത	-10.6558
െന്നറിയാതെ	-10.6559
▁ഇതിന്നു്	-10.6559
▁മടങ്ങിപ്പോക	-10.656
പിടുത്ത	-10.656
▁അലഞ്ഞു	-10.6561
ുമ്പൊ	-10.6562
ിത്തുടങ്ങ	-10.6566
ിലെവിടെയോ	-10.6566
▁അവനോടു്	-10.6569
▁ഞാനെന്തു	-10.657
▁നേരത്തു്	-10.657
▁ചർച്ച	-10.657
▁കളിക്കാൻ	-10.6572
▁കാര്യങ്ങളൊക്കെ	-10.6575
▁ശകാരിച്ചു	-10.6576
▁കാണുകയില്ല	-10.6583
▁ബുദ്ധിമുട്ടിക്ക	-10.6589
തെരുവ	-10.6596
▁തെളിവു	-10.6599
▁എടീ	-10.6602
▁സാധിക്കുമ	-10.6614
▁സംസാരിയ്ക്ക	-10.6647
▁ഇയാൾ	-10.6648
▁കരിങ്കല്ല	-10.6656
▁ക്ഷേത്ര	-10.6664
ിട്ടുമുണ്ടു്	-10.6665
ൊതുങ്ങ	-10.6671
ഗീത	-10.6685
▁ആൾക്കാർ	-10.6685
▁കുഴങ്ങി	-10.6691
▁അമ്പതു	-10.6703
തെന്തിനു്	-10.6718
▁സന്ധ്യയ്ക്കു	-10.6745
▁പ്രസവിക്ക	-10.675
▁അടുത്തുവന്നു	-10.6755
▁പൊങ്ങ	-10.6774
▁അസഹ്യമായ	-10.6807
▁ചൂണ്ട	-10.6815
▁ചുമ്മാ	-10.6825
ങ്ങളിലൊന്ന	-10.6871
േണ്ടിവരുന്ന	-10.6886
▁നിന്നോട	-10.6892
▁ജനിപ്പിക്ക	-10.6896
▁ആലോചി	-10.6904
▁കുറിപ്പു	-10.6924
പറവാൻ	-10.6958
▁വിശ്വസി	-10.6961
ധർമ്മ	-10.6966
ഭൂമി	-10.6969
മാത്രമെ	-10.697
വിളിച്ചു	-10.6986
മാത്രമായിരുന്നു	-10.6993
േയ്ക്കാണു്	-10.6998
ായിരിക്കില്ല	-10.7005
▁പ്രയോഗിച്ച	-10.7016
▁തമ്മില	-10.7025
▁പോകുന്നതെന്ന	-10.7026
ഭിമാന	-10.7027
▁മുന്നോട്ട	-10.703
▁പെയിന്റ	-10.7034
▁അനുരാഗിക്ക	-10.7037
▁ഒരുമ്പെട	-10.7043
▁രോഗാന്തകയോഗി	-10.7046
▁അങ്കിൾ	-10.7046
▁അനിശ്ചിത	-10.7046
▁ആർദ്രത	-10.7046
▁എല്ലായിടത്തും	-10.7046
▁കമിഴ്	-10.7046
▁ഗണപതി	-10.7046
▁തട്ടിൻപൊറ	-10.7046
▁പ്രിൻസിപ്പ	-10.7046
▁മുത്തച്ഛൻ	-10.7046
▁മെക്കാനിക്ക	-10.7046
▁രാമാനുജൻരാജാവ	-10.7046
▁വേദവതി	-10.7046
▁സാമർത്ഥ്യ	-10.7046
▁തുടർച്ചയായി	-10.7046
▁ഹോമകുണ്ഡ	-10.7046
▁അനുജത്തി	-10.7046
▁മത്സര	-10.7046
▁തുളുമ്പ	-10.7046
▁മോട്ടോർ	-10.7046
▁അമ്പരന്നു	-10.7046
▁ടോർച്ച	-10.7046
▁വിസ്മയ	-10.7046
▁എല്ലാവരേയും	-10.7046
▁ദയനീയ	-10.7046
▁കൂട്ടാക്കിയില്ല	-10.7046
▁പ്രേരണ	-10.7046
▁കുമാരൻനായർ	-10.7046
▁വെറ്റില	-10.7046
▁മദ്യപാന	-10.7046
▁തത്ത്വ	-10.7046
▁കല്പിക്ക	-10.7046
▁ഗണ്യമ	-10.7046
▁തീയതി	-10.7047
▁അച്ഛന്നു്	-10.7047
▁ഇയ്യാള	-10.7047
▁രാജേഷിന	-10.7047
▁ന്യൂ	-10.7047
▁പിറന്നാൾ	-10.7047
▁രാമൻനായര	-10.7047
▁പ്രതികരണ	-10.7047
▁ധ്വനി	-10.7047
▁പിടുത്തം	-10.7048
▁കരുക്കള	-10.7048
▁ആരാധന	-10.7048
ിരിക്കണതു	-10.7049
▁കണ്ണുതുറന്നു	-10.7049
ഗർജ്ജ	-10.7049
▁ചതുര	-10.705
▁കറുപ്പു	-10.705
ൊതുക്കി	-10.705
▁പോക്കറ്റിൽ	-10.705
▁വയൽ	-10.705
െക്കാളും	-10.7051
▁നിമിഷനേരം	-10.7051
▁കമ്പിളി	-10.7051
▁സാധിക്കുകയില്ല	-10.7055
▁അഞ്ചുമണി	-10.7055
▁ഡ്രൈവർ	-10.7056
▁കൊറെ	-10.7056
▁അരുവി	-10.7058
▁ആൾക്കൂട്ട	-10.7059
▁അഴകുള്ള	-10.706
ാണുണ്ടായതു്	-10.706
▁ചിറകു	-10.7061
▁നന്നല്ല	-10.7063
▁പടിക്കല	-10.7066
▁ദ്രോഹിക്ക	-10.7066
പരമ്പര	-10.7066
▁എനിക്കറിയില്ല	-10.7068
▁ഉരുണ്ട	-10.7069
▁കൊടുത്തയച്ച	-10.707
▁അങ്ങിനെയൊരു	-10.7071
▁നേടിയ	-10.7071
▁വിറകു	-10.708
▁അദ്ഭുതത്തോടെ	-10.7081
ിലേറെ	-10.7092
▁പകച്ചു	-10.7092
ക്കൊള്ളാം	-10.7092
▁ചെളി	-10.7095
▁കവിതയെഴുത	-10.7104
▁പാറക്കെട്ട	-10.7107
ചെയ്വാൻ	-10.7109
▁വേണ്ടിവരും	-10.7118
ാഴ്	-10.7135
െന്നയാൾ	-10.714
നിധി	-10.7152
▁ദിവസത്തേയ്ക്ക	-10.7172
▁താമസിച്ചിരുന്ന	-10.7193
▁ഇടനാഴി	-10.7193
▁പോണതു	-10.7194
▁ബ്ല	-10.7197
▁ലോകത്തില	-10.7206
▁നൽകിയ	-10.723
▁ഓർമ്മയുണ്ട	-10.723
▁ഉണ്ടാക്കിത്തീർ	-10.7232
ാഗത	-10.7233
▁അവസാനിപ്പിക്ക	-10.7233
▁നനവു	-10.7248
▁കഷ്ടപ്പെട	-10.7252
പോലുമ	-10.7314
ായിരുന്നുവെന്നു	-10.7366
▁തിരിഞ്ഞുനോക്ക	-10.7388
▁മിണ്ടിയ	-10.7391
▁പണക്കാര	-10.7394
▁മനസ്സിലാകാത്ത	-10.7399
േക്കിറങ്ങി	-10.7412
▁പിന്നിൽനിന്നു	-10.7467
വുമുണ്ടോ	-10.7471
▁കാണേണ്ടതു	-10.7481
ജനകമായ	-10.7484
കാറ്റു	-10.7493
▁ജോമോന	-10.7497
കൊടുപ്പാൻ	-10.7518
ചോദിച്ച	-10.7525
കന്യക	-10.7525
ജോലി	-10.7526
വിരൽ	-10.7527
വാക്കുകൾ	-10.753
വാസന	-10.7533
▁ആകാശത്തു	-10.7541
മാക്കുന്ന	-10.7545
ുണ്ടാവുമെന്ന	-10.7552
▁ഉദ്യോഗ	-10.7584
ുമ്പോളൊക്കെ	-10.7602
▁ഉമാർ	-10.7602
▁ഉല്ലാസ	-10.7602
▁എറണാകുളത്ത	-10.7602
▁കലിഗ്രഫി	-10.7602
▁കൊച്ചമ്പ്രാട്ടീ	-10.7602
▁തമ്പുരാൻ	-10.7602
▁താന്താങ്ങളുടെ	-10.7602
▁പ്രതീതി	-10.7602
▁പ്രാധാന്യ	-10.7602
▁ലൂയിസ്	-10.7602
▁ലൗകിക	-10.7602
▁ഘോഷ	-10.7602
▁ജറാഡ	-10.7602
▁തെമ്മാടി	-10.7602
▁തെറ്റിദ്ധാരണ	-10.7602
▁ദ്വേഷ്യം	-10.7602
▁പ്രതിബിംബ	-10.7602
▁അസ്തമയ	-10.7602
▁സ്പന്ദ	-10.7602
▁സ്വമേധയാ	-10.7602
ാത്മക	-10.7602
▁മഴത്തുള്ളി	-10.7602
▁ഉച്ചതിരിഞ്ഞ	-10.7602
▁വർദ്ധിപ്പ	-10.7602
▁വേണ്ടതിലധികം	-10.7602
▁തകരാറ	-10.7602
▁പരിഷ്ക്കാര	-10.7602
▁ഇത്തവണ	-10.7602
▁ഇത്രയധികം	-10.7602
▁വിദഗ്ദ്ധ	-10.7602
▁ഭീതി	-10.7602
▁വറീത	-10.7602
▁ചൂണ്ടിക്കാണിച്ച	-10.7602
▁തീർച്ചയായും	-10.7602
▁താത്പര്യം	-10.7602
▁പരിശോധന	-10.7602
▁ചെട്ടിച്ച	-10.7602
▁മാതൃഭൂമി	-10.7602
▁അന്നേരം	-10.7602
▁വമ്പിച്ച	-10.7602
▁ബേങ്ക	-10.7602
▁തിരഞ്ഞെടുത്ത	-10.7602
▁പിള്ളേർ	-10.7603
▁അങ്ങട്ടും	-10.7603
▁പരിമിത	-10.7604
▁കൊണ്ടുനടക്ക	-10.7605
▁മണിയൻ	-10.7605
▁നാലപ്പാട്ടി	-10.7605
▁മറുഭാഗത്ത	-10.7606
▁ആധാരം	-10.7606
ീശ്വര	-10.7606
▁അവിടവിടെ	-10.7606
▁കാൽക്കൽ	-10.7607
▁വാസു	-10.7607
▁തലയണ	-10.7607
▁ചുമതല	-10.7609
▁വിശുദ്ധ	-10.7609
▁പറ്റ്വോ	-10.7611
▁രണ്ടുപേർ	-10.7614
▁സുഖകരമായ	-10.7614
▁ദാസി	-10.7616
▁അനുഭവപ്പെട്ടു	-10.7619
▁മാത്രമേയുള്ളു	-10.762
▁ശരിയാക്കി	-10.7621
▁കിലോ	-10.7621
ിനേക്കാൾ	-10.7622
▁തടസ്സ	-10.7627
▁പിതാവ	-10.7628
▁കാര്യത്തിലും	-10.7632
▁തിരുമേനിടെ	-10.7636
▁ഏൽപ്പിച്ചു	-10.7641
▁തേങ്ങല	-10.7644
▁കുളിക്കാൻ	-10.7649
▁അങ്ങോര	-10.7651
സമ്പന്ന	-10.7656
കഴിച്ചു	-10.7663
▁കാര്യമെന്ത	-10.7668
▁ഏറ്റെടുക്ക	-10.7671
▁അവൾക്കിഷ്ടമ	-10.7676
കൊള്ളട്ടെ	-10.7676
വീക്ഷണ	-10.7679
▁്യാര	-10.7682
▁ഭയപ്പെട്ടു	-10.7686
▁ശീലിച്ച	-10.7735
▁മുറ്റത്തേക്ക	-10.7753
നാരങ്ങ	-10.7757
▁കീറിയ	-10.7759
▁ഒരുമിച്ചു	-10.7761
▁സമ്പാദിച്ച	-10.7803
▁മോന്ത	-10.7804
ായിട്ടാണു	-10.7825
▁മലയാളത്തില	-10.7843
വസ്തു	-10.7853
ിപ്പിക്കുക	-10.7853
▁ഞെട്ടിപ്പോയി	-10.7874
▁ഉപേക്ഷിച്ച	-10.7893
ിട്ടുണ്ടാവില്ല	-10.7896
ാലോചിച്ചു	-10.7948
▁ശങ്കരമേന	-10.7957
▁ചടച്ച	-10.7977
▁പൊട്ടിച്ചിരി	-10.801
ിത്തീർത്ത	-10.8011
▁ഉട്ടൂപ്പ	-10.8018
▁സാധിക്കുമെന്നു	-10.8042
▁സ്ഥാനത്തു	-10.8057
പോയ്ക്കള	-10.8066
▁സാദൃശ്യ	-10.807
▁തളർന്ന	-10.8086
▁കുറ്റപ്പെടുത്ത	-10.8093
ജീവികള	-10.81
ാഞ്ഞിട്ടാണു്	-10.8101
▁ശങ്കരൻ	-10.8118
പ്രകാശ	-10.8123
▁എഴുത്തുകാര	-10.8125
▁നായകന	-10.8142
▁ഉപദ്രവിക്ക	-10.8146
നൂറ്റി	-10.8151
രുകി	-10.8165
▁സ്നേഹിതന്മാര	-10.8183
▁വിദഗ്ദ	-10.819
▁ഇന്ദ്ര	-10.819
▁ഉത്സവ	-10.819
▁ഏണി	-10.819
▁ഇൻസ്പെക്ട	-10.819
▁ഉണ്ണിക്കുട്ടൻ	-10.819
▁ഒഴികഴിവ	-10.819
▁ഗാഢമായ	-10.819
▁തിരുമനസ്സ	-10.819
▁പത്മിനി	-10.819
▁പ്ലാറ്റുഫോമി	-10.819
▁റെസ്റ്റോറണ്ട	-10.819
▁ശരാശരി	-10.819
▁അത്താഴ	-10.819
▁അപ്പേട്ടനു	-10.819
▁ഞങ്ങടെ	-10.819
▁തിയ്യതി	-10.819
▁നന്ദേട്ടൻ	-10.819
▁മാർദ്ദവ	-10.819
▁സ്ഥാപിച്ച	-10.819
▁നോവൽ	-10.819
▁സുനിലിന്റെ	-10.819
▁അനുസരിക്ക	-10.819
▁കൃഷ്ണമേനോന	-10.819
▁ജഗദീശ	-10.819
▁കുറേശ്ശെ	-10.819
▁കൈനീട്ടി	-10.819
▁ഭീരുവ	-10.819
▁കോഴിക്കുഞ്ഞു	-10.819
▁അഭിനന്ദിക്ക	-10.819
▁വിളങ്ങുന്ന	-10.819
▁എണീക്ക	-10.819
▁പ്രാതൽ	-10.819
▁മുത്തച്ഛന	-10.819
▁മഹാകവി	-10.819
▁ഇഴഞ്ഞു	-10.819
▁അനങ്ങിയില്ല	-10.819
▁കൂറ്റൻ	-10.819
▁പ്രാപിച്ച	-10.819
▁വേദാന്ത	-10.819
▁വളരെയധികം	-10.819
▁പിറന്ന	-10.819
▁തൊലി	-10.819
▁കണ്ടുപിടിയ്ക്ക	-10.819
▁ആർക്കെങ്കിലും	-10.819
▁പുനർ	-10.819
▁സമ്പാദ്യ	-10.8191
▁ആയുസ്സ	-10.8191
▁അസാദ്ധ്യ	-10.8191
▁പഠിത്തം	-10.8191
▁ആവേശത്ത	-10.8191
▁ദീർഘനിശ്വാസ	-10.8191
▁കാവൽ	-10.8192
▁ആദരിക്ക	-10.8192
▁പരിശുദ്ധ	-10.8192
▁ചതുരംഗ	-10.8192
▁റജിസ്	-10.8192
▁കൈത്തണ്ട	-10.8192
▁വിളങ്ങി	-10.8193
യ്ക്കിടയിൽ	-10.8193
▁നശിപ്പിച്ച	-10.8193
▁കഞ്ഞികുടി	-10.8193
▁കൊച്ചച്ഛന്റെ	-10.8193
ക്ടർ	-10.8193
▁പ്ലീസ്	-10.8193
▁ജീവകാലം	-10.8193
▁പിറന്നാള	-10.8194
▁പിന്നോട്ടു	-10.8194
ാരംഭിച്ച	-10.8195
▁കുറ്റബോധ	-10.8196
▁ജന്തുവ	-10.8196
▁സാരല്യ	-10.8196
▁കിഴവ	-10.8197
▁ആശംസ	-10.8197
▁സെറ്റ	-10.8199
▁പരിധി	-10.8199
▁ചരട	-10.8201
▁കിതപ്പ	-10.8201
▁എനിക്കിപ്പോൾ	-10.8202
▁പെയിന്റിംഗ	-10.8203
▁അതിലൊന്ന	-10.8204
▁അടിസ്ഥാന	-10.8206
▁യുഗ	-10.8207
ുന്നതിനേക്കാൾ	-10.8208
▁കാംക്ഷിക്ക	-10.8209
▁കവിൾ	-10.8209
▁അലമാര	-10.821
▁സോറി	-10.821
▁മിന്നുന്ന	-10.8212
▁മരുമകള	-10.8216
▁കായല	-10.8224
▁ചുട	-10.8226
▁ഉറപ്പാക്കി	-10.8265
▁ജീവിച്ചിരുന്ന	-10.8288
▁നിഷേധിക്ക	-10.8289
കുശല	-10.8332
▁കൊറവ	-10.8363
▁നന്ദന	-10.8365
▁സഞ്ജയന	-10.8366
വ്യാപി	-10.8366
▁ഗ്യാസ	-10.8382
പോവുകയും	-10.8384
▁കാത്തിരുന്ന	-10.8439
▁പച്ചപ്പയ്യിനെ	-10.8469
ിക്കരുത	-10.8494
▁മേശപ്പുറത്ത	-10.8518
▁തറവാട്ടുകാര	-10.8535
▁ചിതറി	-10.8543
▁ഉറങ്ങുകയ	-10.8552
▁പകർത്ത	-10.8552
▁കഴുത്തില	-10.8616
▁കാത്തുനിന്ന	-10.8628
ാൻതക്കവണ്ണം	-10.8658
ലക്ഷം	-10.8685
▁ചുരുങ്ങ	-10.869
മുമ്പിൽ	-10.8693
▁ഉപയോഗ	-10.8701
വെളിച്ചം	-10.8706
▁അല്പനേര	-10.8717
നാഴിക	-10.8731
▁കൊണ്ടുപോവ	-10.8731
ത്തീർന്ന	-10.8734
▁നോട്ടുകള	-10.8736
▁ചുറ്റുമ	-10.8737
പ്രശ്ന	-10.8738
ചരിത്ര	-10.8738
▁വീഴ്ച	-10.8748
വയസ്സു	-10.8759
▁ഏൽപ്പി	-10.877
▁കഴുത	-10.8791
നുകൂല	-10.8808
▁ഗുരുവായൂര	-10.8812
സഞ്ചി	-10.8813
ിളക	-10.8815
പാർവ്വതി	-10.8815
▁അദ്ദേഹമ	-10.8815
▁അനുസരണ	-10.8815
▁ആഘോഷ	-10.8815
▁ഇന്റർവ്യൂ	-10.8815
▁ഈർഷ്യ	-10.8815
▁ഉവ്വു്	-10.8815
▁എയർപോർട്ട	-10.8815
▁കുർബാന	-10.8815
▁ചേലനാടൻ	-10.8815
▁ദിവാകര	-10.8815
▁പത്മനാഭൻ	-10.8815
▁ബാലചന്ദ്രൻ	-10.8815
▁ബ്രാഹ്മണ	-10.8815
▁വ്യവഹാര	-10.8815
▁ശ്രീകോവില	-10.8815
▁ശ്രുതി	-10.8815
▁ശ്ലോക	-10.8815
▁സൗരഭ്യ	-10.8815
▁സൗഹൃദ	-10.8815
▁അവിവാഹിത	-10.8815
▁അർഹത	-10.8815
▁കാർത്ത്യായനി	-10.8815
▁പതിനേഴ	-10.8815
▁ബ്രഹ്മ	-10.8815
▁മാനേജർ	-10.8815
▁മുരളീധരന	-10.8815
▁റെയിൽവേ	-10.8815
▁ഓഫീസർ	-10.8815
▁ഡ്യൂട്ടി	-10.8815
▁തീവ്ര	-10.8815
▁മുഖമുയർത്തി	-10.8815
▁ഒരക്ഷരം	-10.8815
▁സാദ്ധ്യത	-10.8815
▁അനിമേഷ	-10.8815
▁ചാപല്യ	-10.8815
▁സംഭ്രമ	-10.8815
▁കാലതാമസം	-10.8815
കൗശല	-10.8815
▁ഒരിയ്ക്കൽ	-10.8815
▁ജൂൺ	-10.8815
▁ബീഡി	-10.8815
▁ഹരിറാം	-10.8815
▁അവയവങ്ങൾ	-10.8815
▁പരിഷ്കാര	-10.8815
▁കൂടിക്കാഴ്ച	-10.8815
▁വേർതിരി	-10.8815
▁സഹതാപ	-10.8815
▁ഇന്റർ	-10.8815
▁കൈക്കലാക്ക	-10.8815
▁കോണിയിറങ്ങി	-10.8815
▁സെന്റ്	-10.8815
▁തുരുമ്പ	-10.8815
▁വയറ്റിൽ	-10.8815
▁കൃതാർത്ഥ	-10.8815
▁പതിനായിര	-10.8815
▁സ്ത്രീധനം	-10.8815
▁പ്രഥമ	-10.8815
▁പ്രേരിപ്പിച്ച	-10.8815
▁വിസ്താര	-10.8815
▁മൈതാന	-10.8815
▁നാട്ടുകാർ	-10.8815
▁കർണ്ണ	-10.8815
▁ഉദ്വേഗ	-10.8816
ക്കാറ്റു്	-10.8816
▁ശ്രീകൃഷ്ണ	-10.8816
▁ഇനീം	-10.8816
ാനാവാത്ത	-10.8817
▁മന്ദസ്വരത്തിൽ	-10.8817
▁ആത്മവിശ്വാസ	-10.8817
▁ജോമോന്റെ	-10.8818
▁അസ്ഥി	-10.8819
▁വീട്ടുകാർ	-10.8819
▁വിനോദയാത്ര	-10.8819
▁എയർ	-10.8819
▁ഏർപ്പെട്ട	-10.882
▁സമർത്ഥ	-10.8821
▁ജോർജ്	-10.8822
പ്പോളൊക്കെ	-10.8822
▁തളർച്ച	-10.8822
▁രണ്ടുപേർക്കും	-10.8822
▁ആർക്കറിയാം	-10.8823
▁ഡോക്ടറുടെ	-10.8824
▁നിശബ്ദ	-10.8825
▁കാംക്ഷിച്ച	-10.8826
▁സാബ്	-10.8827
ഹർഷ	-10.8827
▁മക്കളുടെ	-10.8827
▁മന്ദഹാസത്തോടെ	-10.8828
▁സ്പർശിച്ച	-10.8829
▁അത്ഭുതപ്പെട്ടു	-10.883
ുമ്പോഴേയ്ക്കും	-10.883
ദർശി	-10.8833
േടത്തോളം	-10.8843
പഠന	-10.8858
ണർന്നു	-10.886
▁നിലനില്ക്ക	-10.8862
▁പഴുത്ത	-10.8873
▁ഇരുപത	-10.8875
▁പറമ്പിലേയ്ക്കു	-10.8894
▁ഉത്തരവാദിത്വ	-10.8898
▁വായുവ	-10.89
മ്മച്ചീ	-10.8915
▁നന്ദൻമേനോ	-10.8936
▁ഫലിത	-10.8947
ക്കാവശ്യ	-10.8961
▁പണമുണ്ടാക്ക	-10.8963
ാദ്യം	-10.897
▁ഗ്ലാസു	-10.8974
▁ചെയ്യണമെന്ന	-10.8999
ുറപ്പിച്ചു	-10.9046
ചുവട്ടിൽ	-10.9046
കോപ	-10.9064
ിരിക്ക്യാണു്	-10.909
▁അനുസരിച്ച	-10.9104
▁മറ്റാരു	-10.9106
ിടത്തോളം	-10.9109
▁അനുജന	-10.9117
കിടക്കുകയാണു്	-10.916
▁മിണ്ടാതിരുന്ന	-10.9165
▁ഉയർത്ത	-10.9168
ുകാരുടെ	-10.9175
▁മാധുര്യ	-10.9193
▁തിരിച്ചെത്ത	-10.9195
▁കഴിക്കുന്നതു	-10.9206
▁ഉച്ചരിച്ച	-10.9218
▁എവിടെയാണ	-10.9262
▁വസ്ത്രങ്ങള	-10.9301
▁കൊളുത്ത	-10.9322
ാകാം	-10.9332
▁നന്ദൻ	-10.9353
സുന്ദര	-10.9405
മുഴുവൻ	-10.9405
രേഖ	-10.9414
പുറത്തേക്കിറങ്ങി	-10.9419
▁അടിയന	-10.9419
പൂർണ്ണ	-10.9421
െഴുതുന്ന	-10.9427
ഭക്ഷ	-10.9451
▁ദുഷ്	-10.9468
▁അദ്ഭുതപ്പെടുത്ത	-10.9481
▁ആദ്ധ്യാത്മിക	-10.9482
▁നിഗൂഢ	-10.9482
▁അമ്മുച്ചെറിയമ്മ	-10.9482
▁കുണ്ഠിത	-10.9482
▁ക്രോധ	-10.9482
▁കൺസ്റ്റബിൾ	-10.9482
▁കർച്ചീഫ	-10.9482
▁ജിജ്ഞാസ	-10.9482
▁ജെയിക്സ	-10.9482
▁ദയവുചെയ്തു	-10.9482
▁നിക്ഷേപ	-10.9482
▁നിർവ്വികാര	-10.9482
▁പടിഞ്ഞാറു	-10.9482
▁പരുപരുത്ത	-10.9482
▁പിന്തുടർന്നു	-10.9482
▁പെണ്ണുകാണാൻ	-10.9482
▁പ്രൊഫസർ	-10.9482
▁ഭാസ്കരാ	-10.9482
▁മധുവിധു	-10.9482
▁രഹസ്യപ്പൊലീസ	-10.9482
▁ലോകപരിചയ	-10.9482
▁വേദവതിലളിത	-10.9482
▁വേലായുധൻ	-10.9482
▁വ്യത്യസ്ത	-10.9482
▁സായാഹ്ന	-10.9482
▁സുരക്ഷിത	-10.9482
▁അപരാധ	-10.9482
▁ആദർശ	-10.9482
▁ആസ്പത്രി	-10.9482
▁ഗ്ലോറി	-10.9482
▁തീർച്ചയായിട്ടും	-10.9482
▁പാരമ്പര്യ	-10.9482
▁വീട്ടുമുറ്റ	-10.9482
▁ശതമാന	-10.9482
▁ഇക്കൊല്ലം	-10.9482
▁കേൾപ്പാൻ	-10.9482
▁കേൾവി	-10.9482
▁വിശ്വസ്ത	-10.9482
▁രണ്ടാമത്തേ	-10.9482
▁രോമാഞ്ച	-10.9482
▁മറിയാമ്മ	-10.9482
▁ഇടവിടാതെ	-10.9482
▁താമസിയാതെ	-10.9482
▁സത്യമായിട്ടും	-10.9482
▁പ്രശസ്ത	-10.9482
▁കൂമ്പാര	-10.9482
▁മിനുറ്റ്	-10.9482
▁അക്കൗണ്ട	-10.9482
▁മുദ്ര	-10.9482
▁വൈഭവ	-10.9482
▁അഗ്നി	-10.9482
▁എഡിറ്റ	-10.9482
▁തൊപ്പി	-10.9482
▁അമ്മാമൻ	-10.9482
▁നാല്പത്ത	-10.9482
▁പ്രസിദ്ധീകരിച്ച	-10.9482
▁അനിയൻ	-10.9482
▁പതിനാറ	-10.9482
▁അജിത	-10.9482
▁കുട്ടന്റെ	-10.9482
▁ഭദ്രമായി	-10.9483
▁തിരിച്ചറിവ	-10.9483
▁അങ്ങിന്യ	-10.9483
▁ചുകപ്പു	-10.9483
▁മെഴുക	-10.9484
▁തന്നത്താൻ	-10.9484
▁സലാം	-10.9484
പ്രവേശ	-10.9484
▁കല്യാണിയമ്മ	-10.9484
▁നീരജ	-10.9484
▁അഞ്ഞൂറ	-10.9484
▁അസ്സല	-10.9485
▁കാവ്യ	-10.9485
▁കുറുമ്പ	-10.9485
▁ജോസഫ്	-10.9485
▁കീർത്തി	-10.9485
▁മാരാരുടെ	-10.9485
▁ലൈന	-10.9485
▁പോലീസുകാർ	-10.9485
▁ഇരുപത്തഞ്ചു	-10.9486
േങ്കിലും	-10.9488
▁കുതറി	-10.949
▁ഫ്ള	-10.949
▁കിതച്ചു	-10.9492
▁പേജു	-10.9497
▁ചായയുണ്ടാക്ക	-10.9502
ൊന്നുമുണ്ടായില്ല	-10.9508
സന്താന	-10.9509
▁അവിടേക്ക	-10.951
▁എടുപ്പ	-10.9511
▁തന്റേത	-10.9516
ായിത്തീരും	-10.9518
▁വന്നുകൂടിയ	-10.9524
▁ആഭരണങ്ങള	-10.9526
െങ്ങാനും	-10.9527
▁വെണ്മ	-10.9537
▁ഉടുപ്പുകള	-10.9554
ശങ്കരൻനായര	-10.9565
തൊട്ടു	-10.9568
▁പതിനഞ്ച	-10.9571
▁വിട്ടൊഴിഞ്ഞ	-10.9575
▁കുറുക്കന	-10.9577
പിരിഞ്ഞ	-10.959
▁ദാവീദിന്നു	-10.9598
▁അരമണിക്കൂറ	-10.961
▁ആരുടേ	-10.9612
നേരത്തെ	-10.9612
▁ഏർപ്പാടുകള	-10.9617
▁കഴിയ്ക്ക	-10.9636
▁പലവിധ	-10.9653
▁അടയാളപ്പെടുത്തി	-10.9661
▁ആയിരത്ത	-10.9669
▁ഭീഷണിപ്പെടുത്ത	-10.9679
▁കാണാതായ	-10.9682
തല്ലെന്നു	-10.9689
▁അണ്ണാ	-10.9695
▁പറഞ്ഞയക്ക	-10.9706
▁പൊരിച്ച	-10.9718
▁ചുരുണ്ട	-10.9762
▁മുഖത്തേയ്ക്കു	-10.9764
▁ആചരി	-10.9768
ിന്നുള്ളിൽ	-10.9778
ധരിപ്പിച്ച	-10.9779
ജോണിക്കുട്ടാട്ടൻ	-10.9795
▁അസഹ്യ	-10.9795
▁ബാധിച്ചിരുന്ന	-10.9816
▁മര്യാദക്കാര	-10.9843
▁കോളേജില	-10.9883
▁പാർട്ട	-10.9883
യർന്ന	-10.9883
പൊയ്ക്ക	-10.9924
▁വ്യവസ്ഥ	-10.9933
▁ചുറ	-10.9948
▁കുറഞ്ഞുപോയ	-11.0013
▁പോരാഞ്ഞിട്ടു	-11.0025
വാതിലിലൂടെ	-11.0035
▁വേദനിപ്പിക്ക	-11.0051
▁വാചക	-11.0066
ോളമ	-11.0082
കേട്ടപ്പോൾ	-11.0116
വർത്തമാന	-11.0119
എ	-11.012
വീശി	-11.012
വർഷം	-11.0131
▁വന്ദ	-11.0162
▁കോഴിക്കോട	-11.0187
▁കെമിസ്ട്രി	-11.0196
മേഘങ്ങള	-11.0196
▁അകമ്പടി	-11.0196
▁ഊഹിക്ക	-11.0196
▁താഴേയ്ക്കിറങ്ങി	-11.0196
▁പണ്ഡിത	-11.0196
▁പുൽത്തകിടി	-11.0196
▁പൊറ്റെക്കാട്ട	-11.0196
▁ഫാക്ടറി	-11.0196
▁സന്ദർഭങ്ങള	-11.0196
▁സാമീപ്യ	-11.0196
▁സാഹചര്യ	-11.0196
▁സുഗന്ധ	-11.0196
▁അസാമാന്യ	-11.0196
▁ആകർഷിച്ച	-11.0196
▁ആലിംഗനം	-11.0196
▁ഗോപിയേട്ടൻ	-11.0196
▁ജെറാൾഡ്	-11.0196
▁നാട്ടിൻപുറത്ത	-11.0196
▁പത്തിരുപതു	-11.0196
▁പ്രോനോട്ട	-11.0196
▁മുന്നറിയിപ്പു	-11.0196
▁മെഴുകുതിരി	-11.0196
▁മെഴുത്തിരി	-11.0196
▁രേഷ്മ	-11.0196
▁വിദ്യാഭ്യാസ	-11.0196
▁അന്ധാളിച്ചു	-11.0196
▁അഭിലാഷ	-11.0196
▁ഉചിത	-11.0196
▁കടലാസ്സിൽ	-11.0196
▁ഗുരുനാഥ	-11.0196
▁ചമ്രം	-11.0196
▁തിരുവാതിര	-11.0196
▁ന്യായാധിപ	-11.0196
▁വിസ്തരിച്ചു	-11.0196
▁ഹാസസാഹിത്യ	-11.0196
▁പ്രദർശിപ്പിക്ക	-11.0196
▁പരിഹസിക്ക	-11.0196
ിന്നരികെ	-11.0196
▁ജ്വലിച്ച	-11.0196
▁വാഷിങ്	-11.0196
കൊൾവിൻ	-11.0196
▁പ്രസ്താവ	-11.0196
▁ആസ്വദിക്ക	-11.0196
▁ഇതുവരയ്ക്കും	-11.0196
▁പീറ്റർ	-11.0196
▁എല്ലാറ്റിലും	-11.0196
▁മതിമറന്ന	-11.0196
▁കൂട്ടിച്ചേർ	-11.0196
▁സ്വതവേ	-11.0196
▁അബദ്ധമ	-11.0196
▁ഉച്ചഭക്ഷണ	-11.0196
▁എഴുത്തുപെട്ടി	-11.0196
▁കുമാരമാമ	-11.0196
▁എനിക്കോർമ്മ	-11.0196
▁സോഫ്റ്റ്	-11.0196
▁അകാരണമായ	-11.0196
▁വിളിച്ചുണർത്തി	-11.0196
▁പ്രാകൃത	-11.0196
▁ആരെയെങ്കിലും	-11.0196
▁യോജിച്ച	-11.0196
▁കുഞ്ഞൂട്ടന	-11.0196
ഗ്രന്ഥ	-11.0196
▁അലങ്കരിച്ച	-11.0196
▁ചോർന്നു	-11.0196
▁ആരാധക	-11.0196
▁കൊഴപ്പ	-11.0196
▁യോജിക്ക	-11.0196
▁അസംബന്ധം	-11.0196
▁ബോധംകെട്ടു	-11.0196
▁ഭസ്മ	-11.0196
▁പരുങ്ങി	-11.0196
▁വാസന്തി	-11.0196
▁കാലൊച്ച	-11.0196
▁കൺമുമ്പിൽ	-11.0196
▁അങ്കുരി	-11.0197
▁മാവിൻ	-11.0197
▁മിട്ടായി	-11.0197
▁താഴോട്ടു	-11.0197
▁പുലർന്ന	-11.0197
▁കസവു	-11.0197
▁കൈവശം	-11.0197
▁ഫയൽ	-11.0197
▁മഴവില്ല	-11.0198
▁മനോവേദന	-11.0198
▁ചേട്ടനു	-11.0198
▁കല്യാണിക്കുട്ടി	-11.0199
▁മിക്സ	-11.0199
▁വിമല	-11.02
▁പെയ്യുന്ന	-11.02
▁ചിന്താശ്വാസ	-11.02
▁പടികടന്നു	-11.0201
▁സമാധാനിപ്പിക്ക	-11.0201
▁ഒടുങ്ങ	-11.0202
ാകട്ടേ	-11.0203
▁എങ്ങിന്യാ	-11.021
▁വലിഞ്ഞു	-11.0213
ാനാവാതെ	-11.0215
▁മുക്ത	-11.0218
സുഹൃത്ത	-11.0224
പത്നി	-11.023
▁ഗ്രഹിച്ച	-11.0235
▁ഗണിക്ക	-11.0245
▁കവറ	-11.0256
▁തുരുത്ത	-11.0274
സൂക്ഷിച്ചുനോക്കി	-11.0279
കൊടുപ്പാന	-11.031
▁വിട്ടുകളയ	-11.0341
ക്ലാസ്	-11.0384
ായിട്ടല്ല	-11.042
▁ബോധിപ്പി	-11.0478
▁പരിപാലിച്ചു	-11.0507
െസ്സംബന്ധിച്ച	-11.0509
▁തേന	-11.0527
തുകൊണ്ടാവാം	-11.0537
▁ആവരണ	-11.0553
താമസ	-11.0564
തോന്നുന്ന	-11.0574
ിക്കളിക്കുന്ന	-11.0597
പൊട്ടിച്ചിരിച്ചു	-11.0633
▁തൂങ്ങിക്കിടക്ക	-11.0667
▁മുന്നൂറ	-11.0684
ിച്ചുപോരുന്ന	-11.0697
മായിത്തോന്നി	-11.0719
െന്നവൾക്കു	-11.0798
കാണുന്ന	-11.0846
വീഴുന്ന	-11.0898
ായിരിക്കുമ	-11.0908
▁മാരാര	-11.0963
▁കല്പിച്ചു	-11.0964
▁അതൃപ്ത	-11.0965
ദീർഗ്ഘ	-11.0965
▁അറുമുഖാ	-11.0965
▁ആകർഷക	-11.0965
▁ഓരോന്നോരോന്നായി	-11.0965
▁കൊള്ളരുതാത്ത	-11.0965
▁കൗമുദി	-11.0965
▁ഗോപിനാഥൻ	-11.0965
▁ചാരുകസേല	-11.0965
▁ജീർണ്ണ	-11.0965
▁ഭഗവാനെ	-11.0965
▁മുഖസ്തുതി	-11.0965
▁മൂന്നുപേരും	-11.0965
▁വാഗ്ദാന	-11.0965
▁വാദപ്രതിവാദ	-11.0965
▁വാർദ്ധക്യ	-11.0965
▁സാന്നിദ്ധ്യ	-11.0965
▁എമ്പ്രാന്തിരി	-11.0965
▁ഒഴുക്ക	-11.0965
▁കടവാതില	-11.0965
▁ജനുവരി	-11.0965
▁ദൂഷ്യ	-11.0965
▁നെഞ്ഞിടിപ്പ	-11.0965
▁പരാജിത	-11.0965
▁പുറകെ	-11.0965
▁ബദ്ധപ്പാട	-11.0965
▁യാദൃച്ഛിക	-11.0965
▁ലൈംഗിക	-11.0965
വ്യാഖ്യ	-11.0965
▁അഭിമുഖമായി	-11.0965
▁ചുരുക്കിപ്പറഞ്ഞ	-11.0965
▁പാടുപെട്ടു	-11.0965
▁പ്രാവശ്യമ	-11.0965
▁മരക്കൊമ്പ	-11.0965
▁മെമ്പറ	-11.0965
▁രാവിലത്തെ	-11.0965
▁അപ്പേട്ടാ	-11.0965
▁എല്ലാവരോടും	-11.0965
▁പരിപാലിക്ക	-11.0965
▁പ്രാരംഭ	-11.0965
▁റാന്തൽ	-11.0965
▁വഴിതെറ്റി	-11.0965
▁അഭ്യാസ	-11.0965
▁നിയന്ത്രിക്ക	-11.0965
▁പൂന്തോട്ട	-11.0965
▁മാനേജര	-11.0965
▁ദ്രവ	-11.0965
▁പ്രദർശിപ്പിച്ച	-11.0965
▁മനസ്സാക്ഷി	-11.0965
▁മേല്പറഞ്ഞ	-11.0965
▁അലങ്കാര	-11.0965
▁വർദ്ധിക്ക	-11.0965
▁ഹരജി	-11.0965
▁സുനിലിനെ	-11.0965
▁പുറകില	-11.0965
▁വിറകുപുരയിൽ	-11.0965
▁പ്രിയരതി	-11.0965
▁നിയോഗ	-11.0965
▁ശുമ്മാ	-11.0965
▁ഹെഡ്	-11.0965
▁ചാരിത്രശുദ്ധി	-11.0965
▁കുലീന	-11.0965
▁മരുമകന	-11.0965
▁ചിന്നൻ	-11.0965
▁മൂന്നുനാലു	-11.0966
▁പള്ള്യാല	-11.0966
▁കടുപ്പം	-11.0966
▁നട്ടുച്ച	-11.0966
▁റൊട്ടി	-11.0966
▁ആഭാസ	-11.0966
▁പൂജാമുറി	-11.0966
കണ്ണുനീർത്തുള്ളി	-11.0966
ൊഴികെ	-11.0966
▁തലയ്ക്കൽ	-11.0966
▁ട്രെയിന	-11.0966
▁ശപിച്ചു	-11.0966
▁മൂപ്പരു്	-11.0966
▁പതിനാല	-11.0966
▁മിനക്കെട്ട	-11.0966
▁താലോല	-11.0966
▁വിസ്കി	-11.0966
▁കൂസലില്ലാതെ	-11.0967
▁വലിച്ചെറിയ	-11.0967
▁ആരെയാണു്	-11.0968
▁നിറുത്തി	-11.0968
ാമായിരുന്നില്ലേ	-11.0968
▁വിളയാട	-11.0968
▁കപട	-11.0968
▁വിളർത്ത	-11.0968
▁പുതപ്പു	-11.0968
ാനന്തര	-11.097
▁തെരുവിൽ	-11.0971
▁ചിറകടി	-11.0971
▁കമൽ	-11.0971
▁ആവർത്തിക്ക	-11.0971
▁മുഷിപ്പ	-11.0972
▁കിതയ്ക്ക	-11.0972
▁വിനീത	-11.0973
▁നാസറ	-11.0974
▁കെടുത്തി	-11.0974
പിഞ്ഞാണ	-11.0975
▁എഴുപത്ത	-11.0976
▁തീർപ്പ	-11.0976
▁വാക്യ	-11.098
▁നൂൽ	-11.0983
▁അലിഞ്ഞു	-11.0984
▁ആണുങ്ങൾ	-11.0985
▁അനക്കമില്ല	-11.0998
▁വാങ്ങിക്കൊടുക്ക	-11.1004
▁വഹിച്ച	-11.101
ചെറുപ്പക്കാരത്തി	-11.1016
▁കൊഞ്ചി	-11.1017
▁ശപിക്ക	-11.1029
ായിരിക്കണമെന്ന	-11.1042
വിരാമ	-11.1052
▁മനസിലാ	-11.1074
▁പിടിച്ചുനിർത്ത	-11.1095
േയ്ക്കാ	-11.1107
റിയാഞ്ഞിട്ട	-11.111
▁പൊക്കിപ്പിടിച്ച	-11.1158
▁പരിചയമുണ്ട	-11.1195
ാവശ്യപ്പെട	-11.1209
സമ്പത്ത	-11.123
▁തീർച്ചയാക്ക	-11.1231
▁എവിടേക്ക	-11.1242
▁അമർത്തിപ്പിടി	-11.1297
▁ഓർമ്മിപ്പിക്ക	-11.1318
▁ചുംബിച്ച	-11.1327
ശുദ്ധി	-11.1385
കാര്യത്തെപ്പറ്റി	-11.1424
▁തുടിപ്പ	-11.1493
റൂമിൽ	-11.1516
ുകാരന്റെ	-11.1622
ക്കൊടുക്കും	-11.1663
ിരുന്നുവെങ്കിൽ	-11.1721
പ്രധാന	-11.1722
ശ്ചര്യ	-11.1736
▁നെനക്ക	-11.1763
പെരുമാറ	-11.1764
ദ്വേഷ	-11.1793
▁ഏട്ടത്തി	-11.1797
▁ബാലഗോപാ	-11.1798
▁നെടുവീർപ്പ	-11.1798
▁ആസക്തി	-11.1798
▁ഉണർച്ച	-11.1798
▁കഴുവേറി	-11.1798
▁ക്രിസ്ത്യാനി	-11.1798
▁ടെലിഫോണി	-11.1798
▁നിഷ്ഠൂര	-11.1798
▁പ്രോജക്ട	-11.1798
▁മടക്കയാത്ര	-11.1798
▁മസാലദോശ	-11.1798
▁റേഡിയോ	-11.1798
▁ശിപാർശ	-11.1798
▁സാന്നിധ്യം	-11.1798
▁അബദ്ധത്തിൽ	-11.1798
▁അമ്മിണിഅമ്മ	-11.1798
▁ഇഡ്ഡലി	-11.1798
▁ഉണർവ്വ	-11.1798
▁എടുത്തുചാട്ട	-11.1798
▁കാരുണ്യ	-11.1798
▁കുട്ടേട്ടാ	-11.1798
▁ക്രൗര്യ	-11.1798
▁ഗംഭീരമായ	-11.1798
▁ജോർജ്ജൂട്ടി	-11.1798
▁ടൗണില	-11.1798
▁ഡൊണാൾഡങ്കിൾ	-11.1798
▁താരുണ്യ	-11.1798
▁നൂലാമാല	-11.1798
▁പരമാവധി	-11.1798
▁പാണിബന്ധനത്തി	-11.1798
▁പ്രതിഷേധ	-11.1798
▁പ്രയത്ന	-11.1798
▁പ്ലാറ്റ്ഫോമി	-11.1798
▁ഫ്ലാറ്റ	-11.1798
▁മീനാക്ഷി	-11.1798
▁മെർലി	-11.1798
▁വെറുമൊരു	-11.1798
▁ശൃംഗാര	-11.1798
▁സന്ദർശക	-11.1798
▁സാമ്പത്തിക	-11.1798
▁ഹരീഷ്	-11.1798
ാന്വേഷണ	-11.1798
▁ചുവട്ടില	-11.1798
▁ചൂരൽ	-11.1798
▁ദാമോദര	-11.1798
▁ദാമ്പത്യ	-11.1798
▁വെറുതേ	-11.1798
▁സുകുമാര	-11.1798
▁ഏണിപ്പടി	-11.1798
▁കണാരേട്ട	-11.1798
▁വെപ്രാള	-11.1798
▁വൈക്കോൽ	-11.1798
▁ശവശരീര	-11.1798
▁സങ്കീർണ	-11.1798
▁എല്ലാറ്റിന്നും	-11.1798
▁അജ്ഞാത	-11.1798
▁എപ്പോഴെങ്കിലും	-11.1798
▁മോചനം	-11.1798
പ്പടർപ്പ	-11.1798
▁പുരാതന	-11.1798
▁കുബേര	-11.1798
▁രേണു	-11.1798
പയോഗിച്ച	-11.1798
▁എല്ലാറ്റിനും	-11.1798
▁തെക്കോട്ടു	-11.1798
▁പാറൂട്ടി	-11.1798
▁സ്വസ്ഥത	-11.1798
▁ഇരുപത്തിനാലു	-11.1798
▁കുറുക്കൻ	-11.1798
▁അസ്തമിക്ക	-11.1798
▁യോജിപ്പ	-11.1798
▁വെളുക്ക	-11.1798
▁പദ്ധതി	-11.1798
▁ദക്ഷിണ	-11.1798
▁വ്യക്തമല്ല	-11.1798
▁സഞ്ചാര	-11.1799
▁ചിറ്റപ്പന	-11.1799
▁ശാസന	-11.1799
▁തണലിൽ	-11.1799
▁ധൂർത്ത	-11.1799
▁ചാക്കോച്ച	-11.1799
▁മാൻകുട്ടി	-11.1799
▁ഹോട്ടൽ	-11.1799
▁അനാഥ	-11.1799
▁തിരസ്കരി	-11.1799
്ണ്ണ്ടോ	-11.1799
▁കളിമണ്ണ	-11.1799
▁ശാസിച്ചു	-11.1799
▁കണ്ണോടിച്ചു	-11.1799
▁ആരാധിക്കുന്ന	-11.1799
▁വിസിറ്റ	-11.1799
▁കൗണ്ടറ	-11.1799
▁ഇവ്ടെ	-11.1799
▁എന്നുവച്ചാൽ	-11.1799
▁ചങ്ങല	-11.1799
▁ചഞ്ചല	-11.1799
▁അവിടുത്തെ	-11.1799
▁പേജിൽ	-11.1799
▁ടെസ്റ്റ	-11.1799
▁കെട്ടിപ്പിടിക്ക	-11.1799
▁വശീകരിക്ക	-11.1799
▁ജൂലി	-11.18
▁കടുപ്പമായ	-11.18
▁പ്രകാരത്തിൽ	-11.18
▁പൂനയിൽ	-11.18
▁ശ്വാസംമുട്ടി	-11.18
▁കാഴ്ച്ച	-11.18
▁മരുമകൾ	-11.18
▁അവശത	-11.18
▁ചപല	-11.1801
▁ജീപ്പ	-11.1801
▁മണിയന്റെ	-11.1801
▁ബിജുവിനു	-11.1801
▁മത്തായി	-11.1802
▁വിലാപ	-11.1802
▁വിരുന്നുകാര	-11.1802
▁വാറണ്ടു	-11.1803
▁വദന	-11.1804
▁വായിലിട്ടു	-11.1804
▁അമാന്ത	-11.1804
▁ഒളിച്ചിരിക്ക	-11.1804
▁ആളിക്കത്ത	-11.1805
▁വീർപ്പ	-11.1806
▁മാപ്പാക്ക	-11.1807
▁പോക്കറ്റില	-11.1808
▁മദ്ധ്യത്തിൽ	-11.1809
▁കുടുങ്ങി	-11.1811
▁സ്റ്റോക്ക	-11.1812
▁അനുഭവിക്കേണ്ടിവ	-11.1821
▁അച്ചടക്ക	-11.1825
▁മനോരോഗ	-11.183
▁അമിത	-11.1853
▁ആചാര	-11.1868
▁കൈവശമ	-11.1872
▁നേരെയാക്ക	-11.1879
▁പ്രകടമാ	-11.1888
▁തരികയ	-11.1889
ിടത്തേയ്ക്കു	-11.1911
▁ഉണങ്ങ	-11.1911
▁അപ്പച്ചന	-11.1912
മണിക്കൂറിനുള്ളിൽ	-11.1967
്രത്യക്ഷപ്പെട്ടു	-11.1981
▁കോണകത്തി	-11.1986
പെടുത്തി	-11.1992
▁പിൻഭാഗത്ത	-11.1996
▁എവിടേയ്ക്ക	-11.2089
ായിരിക്കയില്ല	-11.2092
▁കുട്ടിക്കാലത്ത	-11.2144
നോക്കിയപ്പോഴാണു്	-11.2169
▁മാതാപിതാക്കന്മാ	-11.2298
പുത്രി	-11.2302
▁കുനിഞ്ഞ	-11.2361
▁തോന്നീട്ട	-11.2429
▁സംതൃപ്ത	-11.2446
▁ഉണ്ടാക്കിത്തര	-11.2573
▁നൃത്ത	-11.2578
▁അന്യോന്യ	-11.2579
െങ്കിലേ	-11.2595
▁എന്തെങ്കിലുമ	-11.261
ഷാപ്പിൽ	-11.263
ലക്ഷ്മി	-11.2631
മുഴുവനും	-11.2631
മീതെ	-11.2631
▁ഉപേക്ഷ	-11.2657
▁നാണിക്കുട്ട	-11.2707
▁അയൽപക്ക	-11.2707
▁പൗലോസ	-11.2707
▁സ്ക്രീന	-11.2707
▁ഉഴല	-11.2707
▁ഏലസ്സ്	-11.2707
▁പരവതാനി	-11.2707
▁പ്രതിരോധ	-11.2707
▁പ്രേമഭാജന	-11.2707
▁ഭാസ്ക്കരമേനോന	-11.2707
▁യാതൊന്നുമില്ല	-11.2707
▁വിസ്മരിച്ചു	-11.2707
▁സുഹൃത്തുക്കള	-11.2707
പതുക്കെപ്പതുക്കെ	-11.2707
ാഭിപ്രായ	-11.2707
▁ആഡംബര	-11.2707
▁ആപാദചൂഡം	-11.2707
▁ആശയക്കുഴപ്പ	-11.2707
▁ആൺപിള്ള	-11.2707
▁ഇടതൂർന്ന	-11.2707
▁ഇട്ടിരാമൻ	-11.2707
▁ഉജ്ജ്വല	-11.2707
▁ഉമാറിന്റെ	-11.2707
▁ഒലിച്ചു	-11.2707
▁കിലോമീറ്റർ	-11.2707
▁കേശവസ്വാമി	-11.2707
▁കൊടുങ്കാറ്റ	-11.2707
▁ഘടികാര	-11.2707
▁ജയരാമൻ	-11.2707
▁ഡാൾമണ്ട്	-11.2707
▁തയ്യാറെടുപ്പ	-11.2707
▁ദീനദയാല	-11.2707
▁ദീർഘശ്വാസം	-11.2707
▁ധ്യാനിച്ചു	-11.2707
▁നിസ്സംശയം	-11.2707
▁നെഞ്ചിടിപ്പ	-11.2707
▁പഞ്ചുനായർ	-11.2707
▁പ്രാവശ്യവും	-11.2707
▁മണ്ണാങ്കട്ട	-11.2707
▁മാന്ത്രിക	-11.2707
▁മുരളീധരൻ	-11.2707
▁മുഹൂർത്ത	-11.2707
▁രഞ്ജിനി	-11.2707
▁രാമാനുജൻ	-11.2707
▁രാമുണ്ണിനായർ	-11.2707
▁വലിയിടത്തച്ചൻ	-11.2707
▁സാങ്കേതിക	-11.2707
▁സിഗറട്ട	-11.2707
▁സ്ത്രീരത്ന	-11.2707
▁സ്ഥൈര്യ	-11.2707
പ്രൊഡക്ഷന	-11.2707
മ്രാളെ	-11.2707
▁ഇപ്രാവശ്യം	-11.2707
▁കുറച്ചുനേരത്തേ	-11.2707
▁മറുവടി	-11.2707
▁യാന്ത്രിക	-11.2707
▁സീരിയല	-11.2707
▁ഹോസ്റ്റലില	-11.2707
ാലുടൻ	-11.2707
▁പിറകിൽ	-11.2707
▁പെൻസില	-11.2707
▁പ്രകൃത്യാ	-11.2707
▁മുഴുക്കെയും	-11.2707
▁വീഡിയോ	-11.2707
▁സെക്കന്റ	-11.2707
▁സ്പൂൺ	-11.2707
▁പ്രവേശനം	-11.2707
▁കഥാകൃത്ത	-11.2708
▁മ്ലാന	-11.2708
▁ഇല്ലായ്മ	-11.2708
▁മേൽക്കൂര	-11.2708
▁സർവ്വസ്വവും	-11.2708
▁അപ്പേട്ടനെ	-11.2708
▁തലകുനിച്ച	-11.2708
▁ഫ്ളൈറ്റ	-11.2708
▁പുൽപ്പായ	-11.2708
▁ആവേശം	-11.2708
▁ചവുട്ടി	-11.2708
▁മിനുറ്റു	-11.2708
▁അനുതാപ	-11.2708
▁മദാമ്മ	-11.2708
▁ഗൾഫ	-11.2708
▁രചന	-11.2708
▁അപഹരിച്ച	-11.2708
▁വെള്ളിയാഴ്ച	-11.2708
▁സ്ഥൂല	-11.2708
▁പരിണാമ	-11.2708
▁കൊണ്ടുനടത്ത	-11.2708
▁ഫ്ളാറ്റ	-11.2708
▁എതിർവശത്ത	-11.2708
▁അംഗീകരിക്ക	-11.2708
▁പ്രാപിക്ക	-11.2708
▁പൂർത്തിയാക്ക	-11.2708
▁പ്രകടിപ്പിക്ക	-11.2708
▁നൊസ്സ	-11.2708
▁ശാരീ	-11.2708
▁സുനിലിനു	-11.2708
ിട്ടുണ്ടാകണം	-11.2708
▁അച്ഛമ്മ	-11.2708
▁എനിക്കിഷ്ട	-11.2708
▁ചീങ്ങോട	-11.2708
▁അളവറ്റ	-11.2708
▁പിരടി	-11.2708
▁സ്റ്റോപ്പ	-11.2708
▁തടിയൻ	-11.2708
▁വെസ്റ്റ്	-11.2709
▁വ്രണ	-11.2709
▁കവാട	-11.2709
▁അയ്യായിര	-11.2709
▁മുഴുവനായി	-11.2709
▁കോളജിൽ	-11.2709
▁കെട്ടഴിച്ചു	-11.271
▁ചെസ്സ്	-11.271
▁അയൽക്കാര	-11.271
▁ദിവസേന	-11.271
▁പലയിടത്ത	-11.271
▁കണാരന	-11.271
▁നിരോധ	-11.2711
▁പ്രതികരിക്ക	-11.2713
▁മടുപ്പ	-11.2713
െടുപ്പാൻ	-11.2713
▁ഞരങ്ങ	-11.2713
ോടൊത്തു	-11.2716
ഭിനന്ദന	-11.2716
▁മടലു	-11.2719
▁ചായകുടി	-11.272
▁ഇവനു	-11.2721
▁മനുവിനെ	-11.2727
ാനാവുന്നില്ല	-11.2728
സമൂഹ	-11.2733
▁ഗണിച്ച	-11.2737
▁പുത്തന	-11.2746
▁സ്വസ്ഥമായി	-11.2753
▁വണങ്ങ	-11.2764
പ്പോളാണു്	-11.2795
▁ചെറിയച്ഛന	-11.2803
ദിക്കിൽ	-11.2809
സമ്പാദ	-11.2821
▁ഇരുന്നേടത്ത	-11.2843
▁ഹാളില	-11.2892
അങ്ങിനെയാണെങ്കിൽ	-11.2945
ുവരികയാണു്	-11.2965
സ്വാസ്ഥ്യം	-11.2977
സമ്മതിക്കുകയില്ല	-11.305
▁കുളിപ്പിക്ക	-11.3053
▁അരികില	-11.3069
▁നോവലുകള	-11.307
▁തൊടങ്ങീട്ട	-11.3148
െപ്പോലുള്ള	-11.3186
എന്തിനായിരിക്കും	-11.325
▁ഓടിക്കയറ	-11.3253
▁പരിശോധിച്ച	-11.326
▁ശക്തമാ	-11.3315
ുയരുന്ന	-11.3423
▁നീങ്ങിപ്പോക	-11.3529
ദിക്കിലും	-11.3566
▁പരസ്പര	-11.3577
▁ജോലിയെടുത്ത	-11.3583
രോഗി	-11.3593
സൗകര്യ	-11.3631
വൃക്ഷ	-11.3631
ഭാര്യ	-11.3632
▁എഴുപത	-11.3693
പരിശോധ	-11.3698
▁അതിശയോക്തിയ	-11.3707
▁ഉഗ്ര	-11.3707
▁വാഷ്ബേസിന	-11.3707
▁അങ്കമാലി	-11.3707
▁അദ്ദേഹവും	-11.3707
▁അയ്യപ്പന്റെ	-11.3707
▁അവലംബിക്ക	-11.3707
▁അസാധുവാണെന്ന	-11.3707
▁ഉമ്മറപ്പടി	-11.3707
▁ഊടുവഴി	-11.3707
▁എല്ലായ്പോഴും	-11.3707
▁ഒരുവിധേന	-11.3707
▁ഒൻപതു	-11.3707
▁കഷ്ടാരിഷ്ട	-11.3707
▁കുഞ്ഞൂട്ടൻ	-11.3707
▁കോയമ്പത്തൂര	-11.3707
▁ഗുണദോഷ	-11.3707
▁ഗോപാലൻനായർ	-11.3707
▁ഘടിപ്പിച്ച	-11.3707
▁ചുണ്ണാമ്പു	-11.3707
▁ചേലനാടനെ	-11.3707
▁താങ്ക്സ്	-11.3707
▁തിരുവനന്തപുരം	-11.3707
▁പാണ്ഡിത്യ	-11.3707
▁പാപ്പിച്ചേട്ടൻ	-11.3707
▁പിൻതുടര	-11.3707
▁പെമ്പ്രന്നോ	-11.3707
▁പ്രലോഭന	-11.3707
▁പ്ലേസ്കൂള	-11.3707
▁ബിരുദാനന്തര	-11.3707
▁ബ്രഹ്മദത്തൻ	-11.3707
▁ഭഗവാനേ	-11.3707
▁ഭാർഗ്ഗവിയമ്മ	-11.3707
▁മച്ചിനച്ചി	-11.3707
▁മഹത്തായ	-11.3707
▁മാർക്കറ്റിൽ	-11.3707
▁മൽഹോത്ര	-11.3707
▁യഥേഷ്ടം	-11.3707
▁യദൃച്ഛയാ	-11.3707
▁യൂജീനും	-11.3707
▁രാംശരൺ	-11.3707
▁രാജധാനി	-11.3707
▁വടക്കോറത്ത	-11.3707
▁വിധേന	-11.3707
▁വൈരാഗ്യ	-11.3707
▁ഷെൽഫ	-11.3707
▁സന്ദർഭത്ത	-11.3707
▁സാമൂഹ്യ	-11.3707
▁സെക്രട്ടറി	-11.3707
▁സർട്ടിഫിക്കറ്റ	-11.3707
▁അസിസ്റ്റന്റ	-11.3707
▁ഒറ്റയടിപ്പാത	-11.3707
▁കോലാഹല	-11.3707
▁ജ്യോതി	-11.3707
▁തൊള്ളായിരത്തി	-11.3707
▁ദേവദാരു	-11.3707
▁നാണക്കേട	-11.3707
▁നിരഞ്ജന	-11.3707
▁നിർവ്വാഹമില്ല	-11.3707
▁പുറകിൽ	-11.3707
▁പ്രസക്ത	-11.3707
▁പ്രായോഗിക	-11.3707
▁ഭൂഗർഭപാത	-11.3707
▁യൂറോപ്പ	-11.3707
ൊരുമ്പെട്ട	-11.3707
▁ആരുമറിയാതെ	-11.3707
▁കുതിർന്ന	-11.3707
▁തീപ്പൊരി	-11.3707
▁തൊട്ടാവാടി	-11.3707
▁പുലർച്ചെ	-11.3707
▁ഭാഗ്യവശാൽ	-11.3707
▁മലബാറ	-11.3707
▁വീർപ്പുമുട്ട	-11.3707
▁സമ്പാദിപ്പാൻ	-11.3707
ദമ്പതികൾ	-11.3707
▁ക്ലോക്ക്	-11.3707
▁കൺമുന്നിൽ	-11.3707
▁പുരസ്ക്കാര	-11.3707
തന്നെത്താനറിയാതെ	-11.3707
ോട്ടുമിങ്ങോട്ടും	-11.3707
▁ചോദിപ്പാൻ	-11.3707
▁പരിതസ്ഥിതി	-11.3707
▁പല്ലുകടിച്ചു	-11.3707
▁പോരായ്മ	-11.3707
▁ഫയലാക്ക	-11.3707
▁ഫ്രിജ്ജ	-11.3707
▁ബ്രാണ്ടി	-11.3708
▁വിവർത്തന	-11.3708
▁ശിന്നമണി	-11.3708
▁അനവധി	-11.3708
▁ബിക്നി	-11.3708
▁സ്വാഗതം	-11.3708
▁ഹർജി	-11.3708
▁ആയിക്കോട്ടെ	-11.3708
▁ഞങ്ങളുടേത	-11.3708
▁കുറുപ്പന്മാര	-11.3708
▁മൂർഖ	-11.3708
▁മേശവലിപ്പ	-11.3708
▁അഞ്ചെട്ടു	-11.3708
▁അറവുശാലയ	-11.3708
▁ഒരർത്ഥത്തിൽ	-11.3708
▁പഴഞ്ചൻ	-11.3708
▁അങ്ങിനത്തെ	-11.3708
▁ശിരസ്സ	-11.3708
▁ആരൊക്കെയോ	-11.3708
▁അങ്ങനെയിരിക്കെ	-11.3708
▁ഇടക്കിടക്കു്	-11.3708
▁ഉണ്ണിക്കുഞ്ഞ	-11.3708
▁അളിയൻ	-11.3708
▁ഗേയ്റ്റ	-11.3708
▁ജന്തുക്കള	-11.3708
▁അതുമല്ലെങ്കിൽ	-11.3708
▁കെട്ടുവള്ള	-11.3708
▁സ്വദേശം	-11.3708
▁അലക്ഷ്യ	-11.3708
▁നേതാവ	-11.3708
▁ജയിലിൽ	-11.3708
▁കൂർക്കം	-11.3708
▁ഷോക്ക	-11.3708
▁സ്വത്തുക്കള	-11.3708
▁ഊരാളിക്കുന്നി	-11.3708
▁എന്നറിവാൻ	-11.3708
▁പിടിപെടുന്ന	-11.3708
ിനെത്തുടർന്നു	-11.3708
വിവരിക്കവയ്യാത്ത	-11.3708
▁ഇന്നലത്തെ	-11.3708
▁രമണീ	-11.3708
▁ഡസൻ	-11.3708
▁മരപ്പണിക്കാര	-11.3708
▁വരുമാന	-11.3708
▁ബന്ധുക്കള	-11.3708
▁ജയരാമന	-11.3709
▁മിനക്കെട	-11.3709
▁അവിടംവിട്ടു	-11.3709
▁ചേക്കേറ	-11.3709
▁വല്ലപ്പോഴുമ	-11.3709
▁കാപ്പികുടി	-11.371
▁പടിയിറങ്ങി	-11.371
▁ക്ലോക്കിന	-11.371
▁അവശേഷിച്ച	-11.371
▁ഓടിനടക്ക	-11.3711
▁കാത്തിരിപ്പ	-11.3711
▁പ്രബലമായ	-11.3711
▁പിടിച്ചുവലിച്ച	-11.3712
▁തിളയ്ക്ക	-11.3712
മേഖല	-11.3712
പരിശ്രമ	-11.3713
▁നിർമ്മിച്ച	-11.3714
ീട്ടുണ്ടെന്നു	-11.3714
▁കാസറ്റ	-11.3714
▁നടക്കാനിറങ്ങ	-11.3714
കേൾപ്പിച്ചു	-11.3714
▁മിന്നല	-11.3717
▁നിർമ്മിക്ക	-11.3721
▁മാതാക്ക	-11.3722
്ണില്ല്യ	-11.3722
▁കൂട്ടിലിട്ട	-11.3722
സാമ്പാറ	-11.3722
പ്രതിപത്തി	-11.3726
പ്രവാഹ	-11.3744
▁മറക്കരുത	-11.3751
നിവാസി	-11.3767
മുഷ്ടി	-11.378
ിനടുത്തേക്കു	-11.3805
▁ഭർത്താവിനോടു	-11.3848
▁വിളികേട്ട	-11.3854
ക്കിത്തീർക്ക	-11.388
▁വകവെക്ക	-11.3894
▁കുടിയേറി	-11.3894
▁സന്തോഷിപ്പിക്ക	-11.395
▁സ്വീകാര്യമ	-11.4058
▁കാര്യസ്ഥന	-11.4087
ബാക്കിയുള്ളവരുടെ	-11.4113
പോലൊരു	-11.413
▁എന്നാലോചി	-11.4143
▁കത്തെഴുത	-11.4178
▁മുൻഭാഗത്ത	-11.4186
▁മനസ്സിലാക്കീട്ട	-11.4209
ിപ്പോവുക	-11.4272
പ്പോകുമായിരുന്നു	-11.429
▁വിടവാങ്ങ	-11.4317
▁തൊഴിലാളികള	-11.4337
▁വർദ്ധിച്ച	-11.4395
▁നിമിഷനേരത്ത	-11.4439
▁എളുപ്പമായിരുന്ന	-11.4496
പൂശി	-11.4511
മന്ദഹാസം	-11.4539
നാളത്തെ	-11.4644
▁തൊട്ടുമുമ്പ	-11.4697
▁ഡ്രൈവ	-11.4713
സംഭവം	-11.4742
ദുഃഖ	-11.4742
സൗന്ദര്യ	-11.4742
മനുഷ്യന	-11.4742
പൊന്നീ	-11.4742
കുടുംബ	-11.4753
െണീറ്റു	-11.4818
▁ഏങ്ങല	-11.4819
▁ഡിപ്യൂട്ടി	-11.4819
▁റിസപ്ഷ	-11.4819
ഗാംഭീര്യ	-11.4819
▁ആംബുലൻസ	-11.4819
▁കൃതജ്ഞത	-11.4819
▁ഗോവിന്ദ	-11.4819
▁ജബാവാല	-11.4819
▁തലപൊക്കി	-11.4819
▁തിരുവില്വാമല	-11.4819
▁തർജ്ജമ	-11.4819
▁പ്രാചീന	-11.4819
▁ബസ്സ്റ്റോപ്പ	-11.4819
▁ബെർനാഡ	-11.4819
▁ഭഗവതീ	-11.4819
▁മാറോടടുപ്പിച്ചു	-11.4819
▁മുദ്രാവാക്യ	-11.4819
▁മൂത്താശാരി	-11.4819
▁വലിയിടത്തച്ചന	-11.4819
▁വാച്ച്മാൻ	-11.4819
▁വിമർശന	-11.4819
▁വേലപ്പസ്വാമികള	-11.4819
▁ശിവൻകുട്ടിയെ	-11.4819
▁സൗജന്യ	-11.4819
ഭർത്താക്കന്മാർ	-11.4819
▁ആത്മഗതം	-11.4819
▁ഇട്ടിക്കോരസാർ	-11.4819
▁ഇയ്യിടെ	-11.4819
▁ഇരുവശത്തും	-11.4819
▁ഇലക്ട്രിക്	-11.4819
▁ഇസ്താംബൂള	-11.4819
▁ഉത്തേജ	-11.4819
▁ഉഷാറ	-11.4819
▁ഉൽക്കണ്ഠ	-11.4819
▁എഴുനേറ്റു	-11.4819
▁ഒറ്റക്കാളവണ്ടി	-11.4819
▁ഓർഡറ	-11.4819
▁കഥാപാത്രങ്ങള	-11.4819
▁കലാമണ്ഡല	-11.4819
▁കല്യാണിഅമ്മ	-11.4819
▁കാപട്യ	-11.4819
▁കാബൂളി	-11.4819
▁കൃത്രിമ	-11.4819
▁കോംപ്ലക്സ	-11.4819
▁ഗവർമ്മേണ്ട	-11.4819
▁ഗാന്ധി	-11.4819
▁ഘാതകി	-11.4819
▁ചിന്താമഗ്ന	-11.4819
▁ചേലനാടന്റെ	-11.4819
▁ജീവിതസർവ്വസ്വമ	-11.4819
▁ഞെട്ടിയുണർന്നു	-11.4819
▁തദീയത	-11.4819
▁ദൈവാധീനം	-11.4819
▁നിഷ്പ്രയാസം	-11.4819
▁നിസ്സീമ	-11.4819
▁നൂറ്റമ്പത	-11.4819
▁പണിക്കരമ്മാവൻ	-11.4819
▁പണിക്കരുമാഷ	-11.4819
▁പതുപതുത്ത	-11.4819
▁പ്രഖ്യാപിച്ച	-11.4819
▁പ്രത്യാശ	-11.4819
▁പ്രാഥമിക	-11.4819
▁പ്രൊഡ്യൂസർ	-11.4819
▁ഫോറസ്റ്റ്	-11.4819
▁ബാംഗ്ലൂര	-11.4819
▁ബ്രഹ്മാസ്ത്ര	-11.4819
▁മനോവിനോദ	-11.4819
▁മീറ്റിങ്ങ	-11.4819
▁മുഖത്തോടുമുഖം	-11.4819
▁മുനിസിപ്പൽ	-11.4819
▁മൗഢ്യ	-11.4819
▁യാദൃശ്ചിക	-11.4819
▁യൂജീനിനോടു	-11.4819
▁റോസാപ്പൂ	-11.4819
▁വിസ്മരിക്ക	-11.4819
▁വീണ്ടുവിചാര	-11.4819
▁വെവ്വേറെ	-11.4819
▁വൈരുദ്ധ്യ	-11.4819
▁ഷാജി	-11.4819
▁സയൻസിൽ	-11.4819
▁സ്വീകരിപ്പാൻ	-11.4819
▁സൗഹാർദ്ദ	-11.4819
▁ഹീറോ	-11.4819
▁ഓട്ടോറിക്ഷ	-11.4819
▁ജുഹു	-11.4819
▁ഡിഗ്രി	-11.4819
▁തൊഴാൻ	-11.4819
▁നാട്യത്തിന്മേൽ	-11.4819
▁നിർഭാഗ്യവശാൽ	-11.4819
▁നിർവ്വഹിച്ച	-11.4819
▁പത്തായപ്പെര	-11.4819
▁പിൻതുടർന്ന	-11.4819
▁മടക്കിക്കൊടുക്ക	-11.4819
▁മദിരാശിയിൽ	-11.4819
▁മാതാവു്	-11.4819
▁വീട്ടുപേര	-11.4819
▁സജീവമാ	-11.4819
▁ഹെയർ	-11.4819
സംവിധാന	-11.4819
സൗഭാഗ്യ	-11.4819
▁കർത്തവ്യ	-11.4819
▁തത്സമയത്തു്	-11.4819
▁നടുമുറ്റ	-11.4819
▁ഫിലിം	-11.4819
▁വ്യാകുല	-11.4819
▁കമനീയ	-11.4819
▁പുറപ്പെടുവിച്ചു	-11.4819
ത്തിന്റേയോ	-11.4819
▁അശ്രദ്ധ	-11.4819
▁സിദ്ധാന്ത	-11.4819
▁ശയനമുറി	-11.4819
▁കൂട്ടുകെട്ടു	-11.4819
▁പബ്ലിക്	-11.4819
▁വാഴത്തോട്ട	-11.4819
▁സുമിത്ര	-11.4819
▁അപർണ്ണാജി	-11.4819
▁ഇതെന്തൊരു	-11.4819
▁ദേവൂട്ടി	-11.4819
▁കടന്നുപോകുമ്പോൾ	-11.4819
▁നിബന്ധന	-11.4819
▁ശക്തിമത്തായ	-11.4819
▁മലനിരകൾ	-11.4819
▁ഉരുവിട്ടു	-11.4819
▁ഗോപ്യമായ	-11.4819
ആ	-11.5992
ഓ	-12.1088
ഐ	-13.1988
ഢ	-13.1989
ഊ	-13.199
ഘ	-13.1991
ഏ	-13.1992
ഈ	-13.1993
ഉ	-13.1994
ഇ	-13.1995
ഒ	-13.1996
ങ	-13.1997
