<unk>	0
<s>	0
</s>	0
▁	-3.53371
ം	-3.70268
്	-4.03479
ു	-4.0997
യ	-4.36273
ര	-4.42662
ി	-4.59551
വ	-4.6667
മ	-4.68041
ത	-4.68414
ക	-4.74487
ന	-4.83467
ാ	-4.85891
േ	-4.89692
▁അ	-4.89938
ോ	-4.98795
ക്ക	-4.99666
ല	-5.03864
ൻ	-5.10031
▁ആ	-5.13307
ർ	-5.14926
▁ഒരു	-5.15982
യും	-5.21501
ീ	-5.26682
െ	-5.28575
ത്ത	-5.29442
ട	-5.31504
സ	-5.32209
പ	-5.37645
▁ക	-5.44715
▁മ	-5.47546
ണ	-5.47934
ത്തിൽ	-5.55657
ു്	-5.57327
▁എന്ന	-5.61175
റ	-5.61272
ള	-5.6432
▁ത	-5.6641
മായ	-5.67245
ിൽ	-5.68148
▁ഈ	-5.68947
▁സ	-5.69331
ും	-5.69651
ിയ	-5.69886
്യ	-5.70304
പ്പ	-5.72563
ൽ	-5.72672
ൂ	-5.74828
യിൽ	-5.75938
വും	-5.7623
▁പ	-5.78451
തു്	-5.80108
ശ	-5.81889
ിക്ക	-5.8352
ുന്ന	-5.86961
ിച്ച	-5.87412
ങ്ങൾ	-5.88173
ഹ	-5.891
ഗ	-5.90933
യുടെ	-5.9099
ിച്ചു	-5.919
▁ന	-5.93962
ട്ട	-5.9581
ദ	-5.97241
ാണു്	-5.98996
▁വി	-5.99378
ന്ന	-5.99962
ത്തിന്റെ	-6.00163
▁പ്ര	-6.01722
സ്	-6.0329
ാൻ	-6.06706
ത്തെ	-6.08113
ില്ല	-6.11069
▁എ	-6.11233
▁ഇ	-6.12467
ഭ	-6.14319
മായി	-6.14339
ഴ	-6.15577
ച	-6.15724
▁ച	-6.18346
▁വ	-6.18504
ച്ച	-6.19527
നി	-6.20658
വി	-6.21815
ാവ	-6.23992
തി	-6.24838
ായ	-6.25224
മാണു്	-6.2533
ന്റെ	-6.25754
ിന്റെ	-6.26889
ണ്ട	-6.27748
ക്ഷ	-6.28515
തു	-6.28694
ക്കു	-6.29681
ിക	-6.30417
മ്പ	-6.30747
ാന	-6.33996
യെ	-6.34844
▁പി	-6.36059
ഷ	-6.36789
ുക	-6.3718
ുള്ള	-6.39225
മാ	-6.41504
രു	-6.43066
കള	-6.43468
ക്കു്	-6.4355
ായി	-6.44427
കൾ	-6.45078
ബ	-6.46936
▁അവ	-6.50663
യാണു്	-6.51217
ത്തു	-6.52577
ന്ത	-6.52823
കാര	-6.54315
ധ	-6.55679
ജ	-6.56037
ങ്ങ	-6.56151
ല്ല	-6.56254
ാം	-6.56572
ാൽ	-6.57973
ിക്കുന്ന	-6.58642
ടി	-6.60209
രി	-6.60309
നെ	-6.63438
▁മു	-6.65801
ൈ	-6.65994
ങ്ങള	-6.66336
ാമ	-6.67065
ൊ	-6.67145
ണം	-6.674
റ്റ	-6.69646
▁ജ	-6.71489
▁കു	-6.71555
യോ	-6.72009
▁നി	-6.72157
▁എന്നു	-6.72595
ള്ള	-6.73044
വാ	-6.7377
▁ജന	-6.74973
▁ബ	-6.75133
ത്തി	-6.77231
മ്മ	-6.77607
ങ്ക	-6.77671
പ്ര	-6.78093
▁ശ	-6.78562
ാര	-6.78629
ുന്നു	-6.81674
▁കാണ	-6.82536
▁19	-6.82763
നായ	-6.82927
ലി	-6.85503
▁അദ്ദേഹം	-6.85589
▁സി	-6.85614
വർ	-6.86414
▁ദ	-6.8682
▁വാ	-6.87562
ൃ	-6.8796
▁ഞാൻ	-6.88299
ച്ചു	-6.88336
ാത്ത	-6.88446
ൊരു	-6.89219
ക്കാര	-6.89471
ട്ടി	-6.89614
ഞ്ഞ	-6.89939
ത്ര	-6.89997
തന്നെ	-6.90099
ിലെ	-6.90613
ാസ	-6.90662
ാതെ	-6.91283
നും	-6.91493
കര	-6.9176
▁കാ	-6.92034
▁ഭ	-6.93615
റി	-6.93743
▁ഇത	-6.93789
▁അതു	-6.94047
യ്ക്ക	-6.94407
▁പാ	-6.95833
▁എന്നു്	-6.96251
ില	-6.96676
▁പറയ	-6.97147
ന്ദ	-6.97411
പ്പെട്ട	-6.9759
ന്നു	-6.97909
ിനെ	-6.98123
▁ഗ	-6.98943
▁അവർ	-6.99248
ുന്നതു്	-6.99406
ാണ	-6.99428
യു	-6.99591
ിത	-6.99696
ാർ	-7.01364
പ്പോൾ	-7.01932
▁മാ	-7.02738
ാക	-7.02877
ങ്ങളും	-7.0369
നാ	-7.04095
▁പരി	-7.04137
സ്റ്റ	-7.05195
ഞ്ച	-7.05322
▁മനുഷ്യ	-7.06373
▁ചില	-7.07327
ങ്ങളുടെ	-7.07957
ളി	-7.08061
ൗ	-7.08205
ുവ	-7.08468
ത്തിലെ	-7.08737
▁സാ	-7.0947
വര	-7.10229
ഡ	-7.10652
▁അത	-7.11283
താണു്	-7.11445
ുമ്പോൾ	-7.11497
ത്യ	-7.12066
ിട്ടുണ്ടു്	-7.12074
ങ്ങളിൽ	-7.12089
▁പു	-7.1224
സ്സ	-7.12286
ത്തു്	-7.13155
▁ല	-7.14382
▁മത	-7.14455
യാ	-7.1468
▁വര	-7.14953
ാക്ക	-7.1534
യിലെ	-7.15515
▁കഥ	-7.16153
കളും	-7.16249
▁ജീവിത	-7.16511
ക്	-7.16812
▁കാല	-7.17165
തും	-7.18016
ത്തിനു	-7.1879
ഖ	-7.19078
മില്ല	-7.19286
നം	-7.19301
▁നില	-7.1936
യുള്ള	-7.1963
▁ഒന്ന	-7.19697
െന്ന	-7.19892
0	-7.1995
ിച്ചു്	-7.20128
ലാ	-7.20612
ായിരുന്നു	-7.20684
ണ്ണ	-7.21694
ിട്ട	-7.21982
ത്	-7.22101
പോലെ	-7.22148
െങ്കിലും	-7.2258
റു	-7.22605
▁പല	-7.22789
▁കെ	-7.23639
ിട	-7.23742
▁അവൾ	-7.24077
▁തന്നെ	-7.2414
▁പറഞ്ഞു	-7.24356
ത്തിനു്	-7.24648
ിരുന്നു	-7.24766
കൊണ്ടു്	-7.24916
മേ	-7.25388
യ്ക്കു	-7.25404
ാല	-7.25514
ുകൾ	-7.25911
▁പറഞ്ഞ	-7.26201
ൾ	-7.26392
രാ	-7.26806
്യം	-7.26882
കളുടെ	-7.27113
▁ചെയ്യ	-7.27655
ർത്ത	-7.27886
മുള്ള	-7.27931
മു	-7.27935
2	-7.28054
▁ഒര	-7.28097
ണി	-7.28143
▁രണ്ടു	-7.2879
ുണ്ടു്	-7.28858
ങ്ങളെ	-7.29053
▁വേ	-7.29718
താ	-7.30035
നു	-7.30398
ിട്ടുള്ള	-7.30408
ാദ	-7.30722
e	-7.31054
യായി	-7.31104
െല്ലാം	-7.31167
8	-7.31218
ൊക്കെ	-7.31465
▁അതു്	-7.31714
7	-7.32075
ക്ത	-7.32531
റ്റി	-7.32656
റിയ	-7.32758
കൊണ്ടു	-7.32829
▁കൈ	-7.32867
ിപ്പ	-7.33409
5	-7.337
മാന	-7.34255
▁പക്ഷേ	-7.34689
ംഗ	-7.34696
ദ്ധ	-7.34937
ട്ടു	-7.35239
▁വെ	-7.35261
സം	-7.35443
▁തോന്ന	-7.36411
ിരുന്ന	-7.36493
6	-7.38191
▁ഇട	-7.38199
▁ഹ	-7.38431
പ്	-7.38719
രുടെ	-7.38756
▁സ്വ	-7.38779
മല്ല	-7.38914
ല്പ	-7.38995
▁പ്രതി	-7.39136
ാള	-7.39211
ുകയും	-7.39439
ിക്കാൻ	-7.3948
ത്വ	-7.39497
▁ഓ	-7.39581
▁തന്റെ	-7.40119
ാറ	-7.4013
ിരിക്ക	-7.40526
ഞ്ഞു	-7.40627
കളെ	-7.40976
ിരിക്കുന്നു	-7.41441
സ്ഥ	-7.41508
നോ	-7.41608
ഷ്	-7.42528
ന്മാർ	-7.4275
ിന	-7.44083
4	-7.4429
▁നീ	-7.44314
▁എന്ത	-7.44353
വരെ	-7.4461
രും	-7.44697
▁കോ	-7.45151
▁പൊ	-7.4532
ക്കി	-7.45434
▁എം	-7.45611
ാശ	-7.45778
o	-7.45942
▁സാഹിത്യ	-7.45968
i	-7.45986
▁ലോക	-7.46453
t	-7.46741
ക്കും	-7.47015
▁പോ	-7.47804
മോ	-7.47835
ഫ	-7.47846
ഘ	-7.4836
▁കൊ	-7.48476
▁സു	-7.48706
െന്നു്	-7.49038
ദി	-7.49508
▁ജീവ	-7.49677
ഗ്ര	-7.49697
▁അയാൾ	-7.5
ങ്ങി	-7.50167
്യാ	-7.50229
സി	-7.50328
കു	-7.50578
▁നിർ	-7.50775
കാല	-7.50791
യില	-7.50911
▁ചെയ്ത	-7.51223
േണ്ട	-7.51505
▁കേരള	-7.52083
▁1	-7.52515
▁വൈ	-7.52577
ൂർ	-7.53225
▁കണ്ട	-7.5336
പ്പെട	-7.53785
സ്ത	-7.54001
പ്പെടുന്ന	-7.54662
▁സമ	-7.54723
▁അനു	-7.54889
9	-7.55245
ീയ	-7.55322
ജി	-7.55439
▁ബി	-7.55747
ിനു്	-7.55976
ബ്	-7.56013
▁ഫ	-7.56337
കൊണ്ട	-7.56536
3	-7.56789
കളിൽ	-7.57179
ത്തില	-7.57313
▁കാര്യ	-7.57404
ിക്കുന്നു	-7.57533
ക്കുന്ന	-7.58191
ിയുടെ	-7.58985
▁വന്ന	-7.59215
ുകയാണു്	-7.59316
▁കൂടി	-7.59851
▁തീ	-7.60015
ിട്ടില്ല	-7.60682
രണ	-7.60921
▁കൂട്ട	-7.61062
ാപ	-7.61443
▁അവിടെ	-7.61791
ിലും	-7.61836
ികൾ	-7.61986
ശ്ര	-7.62456
ാനും	-7.62931
ാണെന്നു	-7.62947
ധ്യ	-7.63353
വാദ	-7.63363
▁ഡി	-7.63843
രെ	-7.63926
▁ഇവിടെ	-7.64183
ഥ	-7.6426
▁ഉപ	-7.64443
▁പിന്നെ	-7.64763
▁രാജ	-7.64927
ടു	-7.64935
ുവാൻ	-7.65147
▁ചിത്ര	-7.65175
▁സ്ത്രീ	-7.66119
മി	-7.66548
ണമെന്ന	-7.66912
▁മലയാള	-7.67677
▁മറ്റ	-7.67694
നായി	-7.67937
1	-7.68011
▁ചെയ്തു	-7.68414
ാണു	-7.68428
ിനു	-7.68563
▁റ	-7.68699
പോലും	-7.68722
ൺ	-7.68945
▁നിന്നു	-7.68998
▁അതിന്റെ	-7.6951
ൂര	-7.69654
▁ചെ	-7.69812
▁തല	-7.70214
സാ	-7.70391
ാധി	-7.70585
▁അങ്ങനെ	-7.70649
കൂടി	-7.70775
പോ	-7.71397
▁രണ്ട	-7.71502
ാലും	-7.71533
▁നമ്മുടെ	-7.71729
വേ	-7.71764
ിട്ടു	-7.71864
ന്നു്	-7.71921
മുണ്ടു്	-7.71926
ഡ്	-7.72308
▁കവി	-7.72536
▁ഒന്നു	-7.73098
ിക്കുന്നതു്	-7.73459
ോടു്	-7.73574
▁മുമ്പ	-7.73845
▁കട	-7.73993
▁എസ്	-7.74111
▁വീ	-7.74121
▁കവിത	-7.74158
▁അദ്ദേഹത്തിന്റെ	-7.74356
ർഷ	-7.74391
▁എന്റെ	-7.74456
▁ഇങ്ങനെ	-7.74938
▁എല്ലാ	-7.74951
▁ചെയ്യുന്ന	-7.75034
തിര	-7.75147
▁നല്ല	-7.75643
മാര	-7.75905
പ്പി	-7.75999
▁രാഷ്ട്രീയ	-7.7641
ത്തിലും	-7.76482
ോട്ട	-7.76935
▁ഇവ	-7.76944
▁അതി	-7.77296
ത്തിന	-7.77331
▁അന	-7.7749
പ്പു	-7.78008
വിധ	-7.78138
▁കല	-7.78254
▁രൂപ	-7.78317
ോടു	-7.78449
നേ	-7.78482
ൊന്നും	-7.78644
ബന്ധ	-7.79245
▁അവരുടെ	-7.79514
s	-7.79537
െന്നു	-7.79562
ദേശ	-7.80472
▁മൂ	-7.80546
▁അമ്മ	-7.80547
▁സം	-7.80737
▁കഴിഞ്ഞ	-7.80975
▁ഇതു	-7.81185
റ്റു	-7.81904
യ്ക്കു്	-7.82008
▁വലിയ	-7.8203
ാധ	-7.82289
നു്	-7.82503
ിരിക്കുന്ന	-7.82597
▁കഴിയ	-7.82717
ോട	-7.82726
െങ്കിൽ	-7.82819
▁വന്നു	-7.83027
ശി	-7.83045
▁ചിന്ത	-7.8339
രൂപ	-7.83793
മായിരുന്നു	-7.83926
▁വളരെ	-7.83993
നിന്നു	-7.84051
ാനുള്ള	-7.84256
▁ഇല്ല	-7.84268
▁ചാ	-7.84351
▁നിന്നു്	-7.85042
▁മറ	-7.85164
ല്ലോ	-7.85205
കൃത	-7.85396
▁പറയുന്ന	-7.86113
ിക്കുക	-7.86166
▁എന്നാൽ	-7.8645
ന്ത്ര	-7.86715
▁പ്രധാന	-7.86988
മെന്ന	-7.87313
▁മുഖ	-7.87829
ലോ	-7.88281
▁വേണ്ട	-7.8831
▁എത്ര	-7.88336
▁ഉള്ള	-7.8891
▁വഴി	-7.89034
ന്ധ	-7.89198
ർച്ച	-7.89224
ദ്ധ്യ	-7.89451
ിലൂടെ	-7.89561
ാട്ട	-7.89902
▁ൽ	-7.90153
▁കൊണ്ടു	-7.90422
യില്ല	-7.90478
▁കുട്ടി	-7.90517
ദ്യ	-7.90598
▁പുറ	-7.90618
ിൽനിന്നു്	-7.9066
മത	-7.90684
മാർ	-7.90839
▁തെ	-7.90973
ക്കാർ	-7.91009
▁മി	-7.9114
▁പൂ	-7.91615
▁ചരിത്ര	-7.91712
l	-7.91893
െടുത്ത	-7.91966
ിച്ചിരുന്ന	-7.9221
ക്കാൻ	-7.9228
ശാസ്ത്ര	-7.92519
a	-7.9261
▁പേര	-7.92756
▁ശ്രീ	-7.92887
ഫ്	-7.93038
തിൽ	-7.93563
ാക്കി	-7.9385
▁ആത്മ	-7.93996
ാണെന്നു്	-7.94333
യി	-7.94384
ത്തന്നെ	-7.94451
ക്കാല	-7.94465
ഹി	-7.9499
▁കലാ	-7.95214
ർത്തി	-7.95442
ധി	-7.95458
പ്പെട്ടു	-7.96123
യായ	-7.96168
▁ഉണ്ട	-7.96365
▁ഇനി	-7.96441
ുന്നതു	-7.96576
ച്ഛ	-7.96957
▁ഇന്ത്യ	-7.9742
ാൾ	-7.97571
▁രാജ്യ	-7.97659
▁നോക്കി	-7.97819
തുപോലെ	-7.98129
റ്റ്	-7.98216
▁കുറ	-7.98714
▁തോ	-7.9902
▁സത്യ	-7.99191
▁പ്രത്യേക	-7.99396
▁വിജയ	-7.99412
▁എന്തു	-7.99527
▁മാറ്റ	-7.99776
്യൂ	-7.99926
▁വിള	-8.00048
▁നേര	-8.00289
▁താ	-8.00563
യിലും	-8.00735
▁പാർട്ടി	-8.01062
▁അറിയ	-8.01303
ഡി	-8.01328
▁ആര	-8.01382
▁അതിനു	-8.01526
ിച്ചതു്	-8.01786
െന്നും	-8.01843
▁കണ്ടു	-8.01975
യ്യ	-8.02074
▁ഭാഗ	-8.0218
ാന്ത	-8.02272
▁ബാ	-8.02377
സ്ഥാന	-8.02385
ക്രമ	-8.02795
▁അടി	-8.02958
d	-8.0335
▁കിട്ട	-8.03379
▁അടുത്ത	-8.03506
▁ഓരോ	-8.03515
െപ്പറ്റി	-8.03644
▁തുടങ്ങിയ	-8.03739
ുടെ	-8.04341
▁പര	-8.04574
ുന്നില്ല	-8.0481
▁പുസ്തക	-8.04824
▁ഭാഷ	-8.04896
ണ്ഡ	-8.05108
▁ഏറ്റവും	-8.05161
ജന	-8.05177
▁ഭരണ	-8.05196
ർമ്മ	-8.05354
നീ	-8.0537
നാണു്	-8.05433
വെ	-8.05599
ട്ടെ	-8.05956
▁വില	-8.06608
പി	-8.06662
യാള	-8.06733
ടുക്ക	-8.06885
ാവുന്ന	-8.07001
▁ആവശ്യ	-8.07001
മൂല	-8.07015
▁ആദ്യ	-8.07196
▁മനസ്സ	-8.0731
▁ബന്ധ	-8.07551
▁എന്നും	-8.07586
▁മറ്റു	-8.07878
ടുത്ത	-8.08185
തായി	-8.08353
ുണ്ടായ	-8.08456
ഷ്ഠ	-8.0877
ുന്നുണ്ടു്	-8.09156
സമ	-8.09257
ഭാഷ	-8.09499
▁കേട്ട	-8.09671
▁വ്യ	-8.09918
ിട്ടു്	-8.09947
▁മഹാ	-8.10053
മുണ്ട	-8.10095
ങ്ങളായ	-8.10105
▁എഴുത	-8.10512
ിക്കുകയും	-8.10736
രായ	-8.10792
ൊര	-8.1095
വർഗ്ഗ	-8.11112
ാട	-8.11367
ക്കള	-8.11524
ങ്ങൾക്കു	-8.11579
▁അഭിപ്രായ	-8.11601
▁ഏത	-8.11678
▁സ്വന്തം	-8.11767
▁മാത്രം	-8.11823
യല്ല	-8.12115
c	-8.12248
ത്തിനും	-8.12598
▁ആർ	-8.12935
ായിരുന്ന	-8.12965
ല്ലേ	-8.13103
▁മേ	-8.13133
വരും	-8.13201
m	-8.13233
u	-8.13233
▁പോക	-8.1379
▁കാണുന്ന	-8.13811
യാൽ	-8.13997
▁അവസാന	-8.14236
മുഖ	-8.14979
േശ	-8.15269
r	-8.15321
പക്ഷ	-8.15476
ാർത്ഥ	-8.15517
െടുക്ക	-8.16221
പരി	-8.1644
▁ഇത്ര	-8.16557
▁മറ്റൊരു	-8.16583
ഴി	-8.16747
വേണ്ടി	-8.16772
വെച്ച	-8.16794
ജ്ഞാന	-8.17028
▁കുഞ്ഞ	-8.17029
ദ്ര	-8.17175
കല	-8.17276
ാണോ	-8.17684
▁അനുഭവ	-8.17717
▁കണ്ണ	-8.1791
▁നാം	-8.18244
▁ഫല	-8.18362
ൊന്നു	-8.18448
പ്പോഴ	-8.18508
ബോധ	-8.18555
▁അപ	-8.18567
▁സാധാരണ	-8.18653
ിൽനിന്നു	-8.1875
▁രാമ	-8.18809
ജീവിത	-8.18855
വുമ	-8.18998
▁പുതിയ	-8.19019
▁സംഭവ	-8.19356
വേഷ	-8.19394
െപ്പോലെ	-8.19652
▁വിവര	-8.19688
ാക്കിയ	-8.19951
േറ്റ	-8.20309
ന്റ	-8.20408
കൂട	-8.20532
▁മന്ത്രി	-8.20714
h	-8.20774
▁ശരി	-8.21054
▁കോൺഗ്രസ്	-8.21092
തിന്റെ	-8.211
▁ഭാവ	-8.21132
▁നോക്ക	-8.21216
ഭാവ	-8.21318
▁പെ	-8.21458
▁നിര	-8.21826
ിയായ	-8.21994
▁നടത്ത	-8.2221
▁നിയമ	-8.22692
▁സ്നേഹ	-8.22741
ബല	-8.22913
ഷ്യ	-8.22928
പരമായ	-8.23076
▁ഇരു	-8.23081
ിട്ടും	-8.23174
ക്ര	-8.23205
ഹാര	-8.23574
ന്മാ	-8.23584
▁നട	-8.24113
വിട	-8.24158
സ്വ	-8.24264
▁ഗോ	-8.24395
പിടിച്ച	-8.25056
മാണെന്നു	-8.25125
പ്പോഴും	-8.25265
ാണെന്ന	-8.25712
▁കൊടുത്ത	-8.25853
ല്ലാതെ	-8.25898
ൊട്ട	-8.25987
ഗണ	-8.25992
ത്വം	-8.26247
▁പ്രസിദ്ധ	-8.26418
▁ജെ	-8.26588
▁ഉദ	-8.26809
▁ഗ്രന്ഥ	-8.2691
▁പേരു	-8.26919
ചാര	-8.26966
ാണല്ലോ	-8.26995
ർത്ഥ	-8.27054
▁ശക്തി	-8.27093
ത്തെപ്പറ്റി	-8.27249
ിലുള്ള	-8.27584
▁വീട്ട	-8.27585
ദ്ദ	-8.27773
▁ഞാന	-8.2781
▁അധികാര	-8.27867
▁മാന	-8.28176
▁മെ	-8.28533
ഭാഗ	-8.28696
▁മാത്രമേ	-8.28708
രാജ	-8.28769
▁പ്രസംഗ	-8.28816
രോഗ	-8.28932
▁ഡ	-8.29208
ഠ	-8.29225
ന്തി	-8.29581
▁വ്യക്തി	-8.29745
▁മനസ്സിലാക്ക	-8.30079
ിക്കുവാൻ	-8.3017
▁ഇപ്പോൾ	-8.30472
▁അഭി	-8.30579
▁തിര	-8.30646
▁കുറെ	-8.30756
▁വാദ	-8.3096
▁ഇന്നത്തെ	-8.30975
ക്കൾ	-8.31032
▁എന്നാണു്	-8.3117
▁ഉത്തര	-8.31201
▁പതി	-8.3132
ശേഷ	-8.31426
▁അർത്ഥ	-8.31434
▁ശ്രദ്ധ	-8.31452
പോകുന്ന	-8.31644
ഷ്ട	-8.31722
ുന്നതിനു	-8.31793
ുണ്ടോ	-8.3181
▁എങ്ങനെ	-8.31846
ായിരിക്കും	-8.31926
ുകളിൽ	-8.32086
▁തെറ്റ	-8.32184
▁കോൺഗ്രസ	-8.32274
▁നിന്ന	-8.32283
▁സ്ഥല	-8.3229
തരം	-8.323
▁അതിൽ	-8.32404
▁തിരു	-8.32411
▁ഇന്നു	-8.32429
കാലത്തു്	-8.32524
▁ക്ര	-8.33119
▁പാട	-8.3322
ുമ്പോഴ	-8.33246
ശക്തി	-8.33297
ജ്ഞ	-8.33503
▁സ്ഥാന	-8.3378
െടുത്തു	-8.33813
▁ഇര	-8.33822
തല്ല	-8.33832
▁വല	-8.33879
▁നിങ്ങൾ	-8.33922
ട്ര	-8.34235
ിക്കും	-8.34236
ഃ	-8.34253
വരുന്ന	-8.34351
ുമോ	-8.34354
▁സ്	-8.34418
▁ചോദ്യ	-8.34463
▁സിനിമ	-8.34512
▁ഇതു്	-8.34587
ലോക	-8.34705
▁സഹ	-8.34946
▁മൂന്നു	-8.35035
മാത്രം	-8.35168
▁ബുദ്ധി	-8.35207
ങ്ങൾക്കു്	-8.35335
▁ടി	-8.35411
▁ഏക	-8.35691
പാട	-8.35958
ലേ	-8.362
ന്മ	-8.36346
▁കേ	-8.36662
▁മുതലായ	-8.36729
▁വിഷയ	-8.36754
▁പ്രശ്ന	-8.3677
േക്കു	-8.36799
വിശേഷ	-8.36969
ുകാർ	-8.37156
▁ആശയ	-8.37309
ിലാണു്	-8.37583
▁പോയ	-8.37805
▁നേട	-8.37844
▁കൊല്ല	-8.38162
ൊന്ന	-8.38214
▁പത്ര	-8.38361
▁വരുന്ന	-8.38388
▁അതിന	-8.38489
▁വല്ല	-8.3863
ുകയില്ല	-8.38672
▁രസ	-8.3874
ാകുന്നു	-8.38891
െന്റ	-8.38904
വിന്റെ	-8.39157
▁പൊതു	-8.39384
▁ശ്രമ	-8.3954
ടങ്ങ	-8.39647
രിപ്പ	-8.39806
ധികം	-8.39892
▁വർഷ	-8.39948
പ്പോ	-8.39987
▁കൊടുക്ക	-8.40009
വുമായ	-8.40012
▁വെള്ള	-8.40049
▁പറ്റ	-8.40075
ന്മാരുടെ	-8.403
▁ഏതു	-8.40324
ുപോയ	-8.40598
▁ബുദ്ധ	-8.40739
▁ചെറിയ	-8.41134
ഗതി	-8.41183
▁ഒന്നും	-8.41303
▁പണി	-8.41662
നിന്ന	-8.4171
▁തത്ത്വ	-8.41886
▁പ്രസ്തുത	-8.42083
പൂർവ്വ	-8.42118
കൾക്കു	-8.42151
പ്പെടുത്തി	-8.42283
▁പട്ട	-8.42474
ക്കൂടി	-8.42641
▁കാര്യം	-8.42684
വന്ന	-8.43286
ിലേക്കു്	-8.43315
▁നാട	-8.43339
ുണ്ടായിരുന്നു	-8.43386
ത്തിലുള്ള	-8.43492
▁നമുക്കു	-8.43551
▁ഗുരു	-8.43651
▁മരണ	-8.43661
കഥ	-8.44195
▁നാടക	-8.44263
ാണി	-8.44302
ീകരി	-8.44393
▁പദ	-8.44534
y	-8.44759
തുകൊണ്ടു്	-8.44776
കാരൻ	-8.44895
▁കാരണ	-8.4496
▁ഉണ്ടായ	-8.45007
▁ചിരി	-8.45034
മാക്കി	-8.45057
ചന്ദ്ര	-8.45375
യായിരുന്നു	-8.45414
▁മാത്രമ	-8.45442
തിരി	-8.4548
ിരിക്കുന്നതു്	-8.45638
▁എല്ലാം	-8.45681
▁ആയിര	-8.45793
കൾക്കു്	-8.45878
▁അവൻ	-8.46022
▁ഞങ്ങൾ	-8.46182
▁ലെ	-8.46212
▁തുട	-8.46352
കാര്യ	-8.46371
▁കിട്ടിയ	-8.46507
▁സ്വാതന്ത്ര്യ	-8.46583
▁യുദ്ധ	-8.46826
പുര	-8.46896
ിതമായ	-8.46996
▁അവര	-8.4724
ായിത്തീർന്ന	-8.47276
ഷ്ണ	-8.47298
ശാല	-8.47331
▁മണി	-8.47389
▁എൻ	-8.47403
▁നടന്ന	-8.47431
ഘടന	-8.47515
▁വിശ്വാസ	-8.47521
ക്കിട	-8.47739
കൊണ്ടാണു്	-8.47904
പ്പാട	-8.48194
▁അഥവാ	-8.4821
ചേർന്ന	-8.48261
ഭേദ	-8.48392
▁കാരണം	-8.48567
ങ്ങളിലും	-8.48624
▁കുടുംബ	-8.48677
ഭി	-8.48774
പോയി	-8.48804
▁അത്ര	-8.48863
▁അംഗ	-8.48918
ക്ഷേത്ര	-8.4892
▁മതി	-8.48953
▁സമയ	-8.48967
▁മുൻ	-8.49252
ധാര	-8.4929
ശേഷം	-8.49506
▁അധിക	-8.49757
ത്തിലേക്കു	-8.4977
തിനു്	-8.49823
▁കൂടുതൽ	-8.49859
▁കൃഷ്ണ	-8.50097
കൊള്ള	-8.50106
ർവ്വ	-8.50149
▁കടന്നു	-8.50186
ിലേക്ക	-8.50596
വെച്ചു	-8.50673
ലും	-8.50715
▁ദൈവ	-8.50722
▁എന്നിവ	-8.50902
▁തിരിച്ചു	-8.51055
▁മുതൽ	-8.51075
▁കുറച്ചു	-8.51086
▁കയറി	-8.51173
ുണ്ടായിരുന്ന	-8.51257
വസ്തു	-8.51363
ോടുകൂടി	-8.51367
▁20	-8.51545
ർപ്പ	-8.51745
▁ബോധ	-8.518
▁പണ	-8.51802
ാണെങ്കിൽ	-8.51933
തന്നെയാണു്	-8.5223
p	-8.52265
▁സംശയ	-8.52276
ിപ്പിച്ച	-8.52396
ദ്വ	-8.52734
▁ഒറ്റ	-8.52754
▁സംബന്ധിച്ച	-8.53004
▁പിന്ന	-8.53028
മാർഗ്ഗ	-8.53749
പാല	-8.53951
▁മുഴുവൻ	-8.53985
കളില	-8.5422
ക്കൊ	-8.54401
▁വിചാര	-8.545
▁പഴയ	-8.54528
▁എഴുതിയ	-8.54771
▁വിദ്യാഭ്യാസ	-8.54982
▁സാമൂഹ്യ	-8.54982
▁സമുദായ	-8.55281
പദ	-8.55299
▁സെ	-8.55512
ില്ലാത്ത	-8.55615
രാഷ്ട്ര	-8.55734
g	-8.55735
▁അല്ല	-8.55784
▁പ്രയോഗ	-8.55814
▁സംഘ	-8.55906
ിപ്പിക്കുന്ന	-8.56051
പ്രവർത്തന	-8.56063
▁ഇത്തരം	-8.56245
സിദ്ധാന്ത	-8.56275
▁കഴിഞ്ഞു	-8.56278
▁നൽക	-8.56694
▁ഉദാഹരണ	-8.56749
▁തമ്മിൽ	-8.56757
▁രക്ഷ	-8.5683
ന്റേ	-8.56965
വംശ	-8.57135
▁കാണാം	-8.57156
▁മുറി	-8.57184
▁പാർ	-8.57445
ുണ്ടെന്നു	-8.5755
▁രീതി	-8.5808
ധാന	-8.58189
വിശ്വാസ	-8.582
സാഹിത്യ	-8.58239
രീതി	-8.5854
ങ്ങളില	-8.58743
▁ഭാര്യ	-8.59074
പേർ	-8.59151
ശീല	-8.59237
▁മറ്റും	-8.59254
▁പോയി	-8.59312
▁ബഹു	-8.59366
രണം	-8.59441
▁മൂന്ന	-8.59467
ചിന്ത	-8.59758
▁മാത്രമല്ല	-8.59837
▁ജാതി	-8.59953
▁മഹ	-8.59954
▁കൃതി	-8.59985
ൊഴി	-8.60008
▁അപ്പോൾ	-8.60046
▁വോട്ട	-8.60218
തിനാൽ	-8.60357
ചെയ്ത	-8.60391
▁കേൾക്ക	-8.60652
▁പറ	-8.60741
ായിരിക്ക	-8.60853
ജ്ജ	-8.60991
an	-8.61208
▁ദേവ	-8.61231
വർണ്ണ	-8.61276
▁കെട്ടി	-8.61307
ധർമ്മ	-8.61614
േക്കാൾ	-8.61844
ത്തിൽനിന്നു	-8.6191
▁സ്ഥിതി	-8.61975
ുമെന്നു	-8.62035
പ്രസ്ഥാന	-8.62042
▁വേണ്ടി	-8.62071
സിദ്ധ	-8.62252
ചിത്ര	-8.62268
ിക്കാം	-8.62479
▁ഹിന്ദു	-8.62518
▁ബാല	-8.62608
ണ്ടു്	-8.62841
▁കുടി	-8.62996
▁കണ്ണു	-8.6306
ായിത്തീര	-8.63127
പിള്ള	-8.63132
യുണ്ടു്	-8.63173
▁പരീക്ഷ	-8.63333
▁ഉണ്ടായിരുന്ന	-8.6346
ിരുന്നില്ല	-8.63476
▁സംസാര	-8.63607
ത്തിന്റെയും	-8.63679
ചെയ്യ	-8.63724
പുത്ര	-8.63746
▁ചേ	-8.6376
▁നിറ	-8.64017
മുണ്ടായ	-8.645
▁ലേഖന	-8.64578
▁സുഖ	-8.64693
ാവശ്യ	-8.64737
ർഥ	-8.64904
▁അതുകൊണ്ടു്	-8.64919
▁സീറ്റ	-8.65096
▁മാറി	-8.65177
തെന്നു	-8.65482
▁പരമ	-8.65545
▁ഗാന്ധി	-8.65565
▁വീണ്ടും	-8.65812
ചരിത്ര	-8.6599
ഢ	-8.6609
▁പ്രത്യക്ഷ	-8.66092
▁വായിച്ച	-8.66093
▁ആണു്	-8.66149
▁താൻ	-8.66206
ൃത	-8.66237
ിട്ടുള്ളതു്	-8.66457
വൃത്തി	-8.66543
ലീഗ	-8.66558
ിലേയ്ക്കു	-8.66575
▁മനുഷ്യൻ	-8.66595
▁വെളിച്ച	-8.66655
മില്ലാത്ത	-8.66871
▁ഹാ	-8.6719
▁പ്രാചീന	-8.67215
▁നടന്നു	-8.67298
ിപ്പിച്ചു	-8.67343
▁നടക്ക	-8.67516
ത്തോടു	-8.67581
▁ഗുണ	-8.67822
▁അതിനെ	-8.67853
ാടി	-8.67859
വരുടെ	-8.6813
ിക്കേണ്ട	-8.68189
മാത്ര	-8.68305
▁സഹായ	-8.68311
▁മാറ	-8.68618
▁സർവ	-8.68813
▁പതിവ	-8.69049
ത്തോടെ	-8.69242
ങ്ങളാണു്	-8.69368
▁യാതൊരു	-8.69504
▁പുരുഷ	-8.6957
▁എന്നൊരു	-8.69681
ദർശന	-8.69928
▁തുടങ്ങി	-8.69945
ഴുത	-8.70062
▁ഇംഗ്ലീഷ	-8.70084
▁ഉൾ	-8.70084
വെച്ചു്	-8.70142
ത്രേ	-8.7034
▁അദ്ദേഹത്തിനു	-8.70377
▁ഉട	-8.70533
കാവ്യ	-8.70594
വിരുദ്ധ	-8.70699
▁ഇന്നു്	-8.70918
▁രംഗ	-8.70955
▁കുറ്റ	-8.71056
▁വിശ്വസിക്ക	-8.71089
റിഞ്ഞു	-8.71129
െഴുതി	-8.71464
▁ആന്റണി	-8.71551
▁കേന്ദ്ര	-8.7163
▁ചോദിച്ചു	-8.71748
ജീവി	-8.71923
െയ്	-8.71983
െണ്ണ	-8.72167
in	-8.72198
▁പിടി	-8.72373
▁നാല	-8.72461
ക്കൂട്ട	-8.72489
▁ഇതിന	-8.72511
നിൽക്കുന്ന	-8.72939
യെപ്പറ്റി	-8.7294
ാദി	-8.73145
▁എനിക്കു്	-8.73263
▁തെരഞ്ഞെടുപ്പ	-8.73295
▁കൊള്ള	-8.7334
▁അവളുടെ	-8.73641
സംസ്കാര	-8.73669
▁ഹൃദയ	-8.73672
▁ശബ്ദ	-8.73943
▁എടുത്തു	-8.73971
കൃതി	-8.74004
▁പുറത്തു	-8.74025
ുകയുണ്ടായി	-8.74298
റുപ്പ	-8.74321
വാദി	-8.74337
തിനു	-8.74413
▁മുഖ്യമന്ത്രി	-8.74562
▁വാക്കു	-8.74794
▁ചുമ	-8.74841
തൊഴിലാളി	-8.74855
കെട്ട	-8.74918
കൊടുത്ത	-8.74983
▁നിൽക്ക	-8.75009
ികളുടെ	-8.75024
ില്ലെന്നു	-8.75151
▁താമസ	-8.75215
വ്യവസ്ഥ	-8.75549
▁സ്വയം	-8.75592
▁നേരെ	-8.75622
▁രാജാവ	-8.75678
ുവെന്ന	-8.75768
▁സ്വഭാവ	-8.7582
രംഗ	-8.76326
▁എവിടെ	-8.76395
▁നടത്തിയ	-8.76443
മാകുന്നു	-8.76662
er	-8.7667
▁അടിസ്ഥാന	-8.76775
▁പങ്ക	-8.76913
▁ഓർമ്മ	-8.77146
▁യുവ	-8.77285
▁വിശ്വ	-8.77335
n	-8.77569
ാഴ്ച	-8.77615
▁ഏറ്റ	-8.77635
▁അയാളുടെ	-8.77641
▁ദിവസം	-8.78008
▁വാങ്ങ	-8.78078
▁അദ്ദേഹ	-8.78112
▁എനിക്കു	-8.78291
on	-8.78329
▁സംഗതി	-8.78355
▁ഈശ്വര	-8.78544
വിദ്യ	-8.78596
വന്നു	-8.78722
▁ബഷീർ	-8.78905
ഹിത	-8.78935
▁അതേ	-8.79336
▁ഗ്രൂപ്പ	-8.79543
ത്തിലാണു്	-8.79546
▁സ്പ	-8.79805
വുമായി	-8.79999
▁വിപ്ലവ	-8.80185
▁സ്വതന്ത്ര	-8.80186
െത്തിയ	-8.80352
▁വ്യത്യാസ	-8.80507
ന്മാരെ	-8.8052
▁സമീപ	-8.80548
ത്രെ	-8.80784
▁അവരെ	-8.80879
▁എതിർ	-8.80918
യോടെ	-8.80941
▁യാത്ര	-8.81173
▁മരിച്ച	-8.81191
▁പിടിച്ചു	-8.81252
ക്കൊണ്ടു	-8.81268
വർത്ത	-8.81428
▁നാലു	-8.81635
▁അന്യ	-8.81744
മന്ത്രി	-8.81754
▁വാസ്തവ	-8.81812
തവണ	-8.81845
▁പറയുന്നതു്	-8.81908
ഭൂത	-8.81927
ങ്	-8.81962
▁വികാര	-8.8208
കർത്ത	-8.82092
ിക്കുന്നുണ്ടു്	-8.82272
▁ചേര	-8.82412
വകുപ്പ	-8.82423
▁ശങ്ക	-8.8243
▁ഭൂ	-8.82497
ിക്കുന്നതു	-8.8347
ാകും	-8.83747
▁പുറത്ത	-8.83806
▁വിളിച്ചു	-8.83887
ദൃശ്യ	-8.84126
▁പ്രകൃതി	-8.84447
▁മാത്രമാണു്	-8.84501
▁അല്ലെങ്കിൽ	-8.84518
▁കളി	-8.84653
▁വിട്ടു	-8.84798
▁കൂടെ	-8.84832
▁നഗര	-8.84866
▁ചോദിക്ക	-8.85141
ദേവ	-8.85173
▁ജോലി	-8.85484
▁ന്യായ	-8.85516
ബുദ്ധ	-8.85669
നോക്കി	-8.85726
▁മന്ത്രിസഭ	-8.85817
ുമെന്നു്	-8.85921
കളിലും	-8.86372
വാക്യ	-8.86526
▁ഉത്	-8.86572
▁സംസ്ഥാന	-8.86622
ക്കാരുടെ	-8.86731
▁സ്വാമി	-8.86898
നാഥ	-8.86974
▁സമൂഹ	-8.87191
്റെ	-8.87338
തോടെ	-8.87513
▁ആധുനിക	-8.87533
▁എങ്കിലും	-8.87534
േണ്ടതു്	-8.87549
ക്കൊണ്ടു്	-8.87796
▁നടക്കുന്ന	-8.8787
▁തമ്മിലുള്ള	-8.87881
▁വായിക്ക	-8.88
▁സകല	-8.88046
ുവാന	-8.88327
ക്കുറിച്ചു	-8.88482
is	-8.88751
ഞ	-8.88889
▁തിരിച്ച	-8.889
▁എഴുത്തു	-8.88943
ക്ഷേപ	-8.88986
പ്രതി	-8.8901
▁ഇതിൽ	-8.89023
ന്മാരും	-8.89081
ാതിരിക്ക	-8.89099
▁വേറെ	-8.89141
ിക്കപ്പെട്ട	-8.89269
▁മേൽ	-8.89372
ോൺ	-8.89608
▁ഏഴ	-8.89635
▁നീതി	-8.89682
▁വായന	-8.89701
▁ഒരാൾ	-8.89803
പാഠ	-8.89936
▁ചെറു	-8.90284
ിരുന്നതു്	-8.90637
▁സാധിക്ക	-8.9068
ാനന്ദ	-8.90701
▁യഥാർത്ഥ	-8.90711
▁പറയാം	-8.90737
സ്ഥിതി	-8.91042
▁പണ്ഡിത	-8.91062
▁ചെന്ന	-8.91153
യുമായി	-8.91211
▁ഭൂരിപക്ഷ	-8.91421
▁തെളിയ	-8.91441
▁പഠിക്ക	-8.91557
▁എനിക്ക	-8.91625
▁മറുപടി	-8.91782
▁വ്യക്ത	-8.91828
▁മനുഷ്യന്റെ	-8.91925
കക്ഷി	-8.92097
▁അതായതു്	-8.92148
▁കോളേജ	-8.92508
▁വിവാഹ	-8.92537
▁ഉണ്ടാക	-8.92669
പ്രദേശ	-8.92747
▁ജന്മ	-8.9285
കൊടുക്ക	-8.92874
▁പരാജയ	-8.93247
▁ഇഷ്ട	-8.9328
▁ഡോ	-8.93326
ിഷ്ട	-8.93353
▁യുക്തി	-8.93582
▁ബഷീറ	-8.93607
▁റഷ്യ	-8.93733
▁പ്രസിഡന്റ	-8.93976
▁ഗ്രാമ	-8.93992
▁ദുർ	-8.94006
▁കേരളീയ	-8.94226
▁മുഖ്യ	-8.94279
▁നമ്പൂതിരി	-8.94346
▁നോവല	-8.94351
മൊഴി	-8.94458
ർക്കും	-8.94604
സൃഷ്ടി	-8.94717
▁സർവ്വ	-8.94929
▁ആയി	-8.95369
ിറങ്ങി	-8.95575
▁യൂ	-8.95621
▁ഇതിനു	-8.95737
പറയ	-8.95775
▁ബ്രാഹ്മണ	-8.95842
ൃഷ്ട	-8.95869
▁കുറഞ്ഞ	-8.95937
സന്	-8.96015
ഹൃദ	-8.96478
െക്കുറിച്ച	-8.96556
▁മുസ്ലിം	-8.96598
▁നിയമസഭ	-8.966
▁സാമ്പത്തിക	-8.96978
പൂർണ്ണ	-8.97429
ാചാര	-8.97656
▁കരുണാകരന	-8.97751
▁ലക്ഷ്യ	-8.97765
ികളായ	-8.97851
▁ലഭിച്ച	-8.97854
ഗ്രന്ഥ	-8.97923
ങ്ങളിലെ	-8.98077
▁വേണം	-8.98136
യിലേക്കു്	-8.98173
▁തീരുമാന	-8.98514
വഴി	-8.98674
സമ്മത	-8.98689
ിംഗ്	-8.98797
▁അദ്ദേഹത്തെ	-8.9882
ുണ്ടാക്കി	-8.98877
▁ക്ല	-8.98975
വുമില്ല	-8.98982
ാത്മക	-8.99043
▁ചെന്നു	-8.99256
▁വിധി	-8.99298
▁പരിചയ	-8.99353
al	-8.99396
▁നഷ്ട	-8.99456
സാഹ	-8.99525
രാജ്യ	-8.99546
▁എന്താണു്	-8.99671
▁ചുരുക്ക	-8.99682
▁അച്ഛന	-8.99749
ത്തോളം	-8.99951
യിലേക്കു	-8.99978
▁മാനസിക	-9.00077
▁ഭൂമി	-9.00193
കിട	-9.00208
ശ്വര	-9.00259
▁എന്തിന	-9.00424
▁ദുര	-9.00432
▁18	-9.00767
▁കണക്ക	-9.00892
▁പേരിൽ	-9.00912
▁പിന്നീടു്	-9.01083
ാത്മ	-9.01252
കഴിഞ്ഞ	-9.0153
▁കഷ്ട	-9.01532
ുമൊക്കെ	-9.01628
v	-9.01657
സമ്പ്രദായ	-9.01657
▁കീഴ	-9.01702
വിഭാഗ	-9.01705
ിനോടു	-9.01864
▁അറിഞ്ഞ	-9.01917
കൂടാ	-9.01956
▁തുടർന്നു	-9.02094
en	-9.02356
▁സമാധാന	-9.02461
പറഞ്ഞ	-9.02467
▁പറഞ്ഞാൽ	-9.02491
▁എത്തി	-9.02601
േറെ	-9.02861
▁സാമൂഹിക	-9.02862
▁ആദ്യമായി	-9.02992
▁പ്രേമ	-9.03024
▁നിശ്ചയ	-9.03268
▁തമിഴ	-9.03271
▁ജയിച്ച	-9.03308
▁അനേക	-9.03323
കുട്ടി	-9.03428
▁തുറ	-9.03509
ക്സ	-9.03786
▁എഴു	-9.03923
▁കുറേ	-9.03979
▁ഉദ്ദേശ	-9.04083
സ്ഥാപ	-9.04251
കൊണ്ടിരുന്ന	-9.0431
പര്യ	-9.04448
▁തുടങ്ങ	-9.04485
▁വിഷമ	-9.04586
▁ഒരാള	-9.04873
▁ഭാരതീയ	-9.04958
▁പ്രചാര	-9.05047
▁പ്രസ്താവിച്ച	-9.05316
▁രോഗി	-9.0544
▁നൽകിയ	-9.05471
▁ഐതിഹ്യ	-9.05731
▁ദിവസ	-9.05759
▁ആദ്യത്തെ	-9.05941
ിടത്തു	-9.0604
▁വെറും	-9.06165
ാറുണ്ടു്	-9.06197
പേക്ഷ	-9.06524
▁നീണ്ട	-9.06547
▁സ്ഥാപിച്ച	-9.06739
at	-9.06899
പാത്ര	-9.06919
▁മാണി	-9.0698
▁ആർക്കും	-9.06991
▁പഠിച്ച	-9.07052
െന്തു	-9.0718
▁പെരു	-9.07193
▁സ്വീകരിച്ച	-9.07411
▁അവകാശ	-9.07415
▁കോടതി	-9.07418
▁അച്ഛൻ	-9.07422
▁ശിവ	-9.07754
▁നേതാവ	-9.07836
ഹരി	-9.0808
▁അത്ഭുത	-9.08257
ദുഃഖ	-9.08257
▁വിചാരിക്ക	-9.08442
▁പിന്തുണ	-9.08685
ിടത്തോളം	-9.0878
ശ്ശേരി	-9.09114
▁കരുണാകരൻ	-9.09114
▁ആരംഭ	-9.09134
▁വയസ്സ	-9.09136
▁വിമർശ	-9.09175
▁വരുത്ത	-9.09332
▁പഠിപ്പ	-9.09566
▁സഖാവ	-9.09983
ണമെങ്കിൽ	-9.10133
▁യോഗ	-9.10194
f	-9.10411
മുദ്ര	-9.10423
▁നിറഞ്ഞ	-9.10693
ദോഷ	-9.10835
▁വടക്ക	-9.10975
▁നിങ്ങളുടെ	-9.10979
മാറ്റ	-9.11174
ഛ	-9.11284
▁ശിഷ്യ	-9.11294
▁സ്ഥാപന	-9.11329
ദ്ദേശ	-9.11377
ാമെന്നു	-9.114
നേരം	-9.11492
ശ്ച	-9.11791
▁തുറന്നു	-9.11878
▁കാഴ്ച	-9.11932
▁സെക്രട്ടറി	-9.12171
▁ഏറെ	-9.12171
▁എന്തെങ്കിലും	-9.1256
ുണ്ടല്ലോ	-9.1259
ജാത	-9.12595
▁പരസ്പര	-9.12615
▁പ്രവർത്തിക്ക	-9.12744
ൊന്നുമില്ല	-9.12759
പ്പുറത്ത	-9.1313
▁നടത്തുന്ന	-9.13428
നില്ക്കുന്ന	-9.13489
▁സംഗീത	-9.13511
▁അറബി	-9.13521
ുകയായിരുന്നു	-9.13639
▁കേരളത്തിലെ	-9.13846
▁ലഭിക്ക	-9.13933
▁ഭൗതിക	-9.13961
▁കമ്യൂണിസ്റ്റ	-9.13961
▁ഭാരത	-9.14067
▁കേസ	-9.14387
▁ഉണ്ടാക്ക	-9.14604
▁പള്ളി	-9.15112
വേദന	-9.15392
ധർമ	-9.15437
▁ദേശീയ	-9.1579
പാരമ്പര്യ	-9.16244
▁സാമാന്യ	-9.16249
ാവുന്നതാണു്	-9.16508
▁ചങ്ങമ്പുഴ	-9.16707
▁കിടന്ന	-9.1698
ുവാനും	-9.17141
▁അമേരിക്ക	-9.17172
മേനോൻ	-9.17187
▁ഉപദേശ	-9.1783
ാണെങ്കിലും	-9.18008
▁സ്വാഭാവിക	-9.18109
▁നോക്കുക	-9.18226
▁തനിക്കു	-9.18573
▁സഹോദര	-9.18581
▁പോലീസ	-9.18584
▁ബ്ര	-9.18672
നുഭവ	-9.18836
നുസരിച്ചു്	-9.18939
▁പാശ്ചാത്യ	-9.19054
▁മുസ്ലീം	-9.19054
▁വർത്തമാന	-9.19059
▁ഹൈ	-9.19448
▁കണ്ടെത്ത	-9.19502
▁കിടക്കുന്ന	-9.19534
ഗൃഹ	-9.19601
▁ചോദിച്ച	-9.1969
▁സംസ്കൃത	-9.2001
േണ്ടിവന്ന	-9.20241
es	-9.20258
ുണ്ടെങ്കിൽ	-9.20457
▁പ്രാധാന്യ	-9.2049
▁മാധ്യമ	-9.20495
ില്ലെങ്കിൽ	-9.20642
▁പെട്ടെന്ന	-9.20691
▁ചേർത്ത	-9.20702
▁അന്നത്തെ	-9.20858
▁തെരഞ്ഞെടുപ്പിൽ	-9.21043
▁ആദർശ	-9.21264
▁ഇദ്ദേഹ	-9.21458
▁ഒരിക്കൽ	-9.21465
ടർന്ന	-9.21491
ശാസ്ത്രജ്ഞ	-9.21737
▁ഉച്ച	-9.21946
▁നാരായണ	-9.21946
▁പ്രപഞ്ച	-9.22446
▁എത്രയോ	-9.22456
▁ആളുകൾ	-9.22459
റിയാം	-9.22656
▁കഥാപാത്ര	-9.2293
▁മാർക്സ	-9.22933
പ്പറഞ്ഞ	-9.2334
േഴ്സ	-9.23452
re	-9.23846
▁ആലോചിച്ച	-9.23922
പ്രവർത്തക	-9.24015
സേവ	-9.24016
▁നേരിട്ട	-9.24134
▁കഴിവ	-9.24165
▁ആരാധ	-9.24284
▁പ്രവൃത്തി	-9.24383
ിയ്ക്കുന്ന	-9.24419
നിഷേധ	-9.24423
▁നൂറ്റാണ്ട	-9.24924
▁of	-9.24926
▁ഭിന്ന	-9.24967
▁പോരാ	-9.25257
പ്രഖ്യാപ	-9.25429
▁ഇറങ്ങി	-9.25442
കാലത്തെ	-9.25584
ഞ്ജ	-9.25644
യുണ്ടാ	-9.25888
ഭ്രാന്ത	-9.25939
▁പ്രവേശ	-9.25948
െല്ലാ	-9.26194
▁നായർ	-9.26231
▁രാത്രി	-9.26448
ങ്ങോട്ടു	-9.2667
വീക്ഷണ	-9.26715
ശ്വാസ	-9.26824
▁ഉറപ്പ	-9.2696
ാകട്ടെ	-9.27037
▁സന്ദർഭ	-9.27475
ത്തിന്നു	-9.27554
▁പുരോഹിത	-9.27993
ായിട്ടാണു്	-9.27996
▁ഭർത്താവ	-9.27996
▁നമ്മൾ	-9.27996
▁ഏതെങ്കിലും	-9.28225
▁സ്ഥാപിക്ക	-9.28411
െക്കാൾ	-9.2842
▁പിതാവു്	-9.28514
ഘോഷ	-9.2853
നാട്ട	-9.28729
ത്തേയ്ക്കു	-9.28798
▁ഇടയ്ക്കു	-9.28848
ങ്ങളെപ്പറ്റി	-9.28951
▁അവളെ	-9.28989
ത്തിനുവേണ്ടി	-9.29025
▁ഒരിക്കലും	-9.29038
▁കൂടാതെ	-9.29047
ശേഖര	-9.29565
ുവാനുള്ള	-9.30033
▁എളുപ്പ	-9.30094
നിമിത്തം	-9.30098
ന്മാരായ	-9.302
െഴുത്ത	-9.30276
െങ്കില	-9.30289
ക്കെട്ട	-9.30369
▁വിചാരിച്ച	-9.30579
▁സ്വീകരിക്ക	-9.30634
▁ശങ്കരൻ	-9.30637
ായിരിക്കാം	-9.30967
▁ശാന്ത	-9.31155
▁തെളിവ	-9.31217
സമ്മേളന	-9.31697
ശതാബ്ദ	-9.31698
▁നാട്ടിൽ	-9.31792
ക്കഴിഞ്ഞ	-9.31831
▁സമ്മതിക്ക	-9.31882
▁അഞ്ചു	-9.32181
▁നേതൃത്വ	-9.32238
▁തയ്യാറ	-9.3224
▁പത്മ	-9.32285
▁ഉടനെ	-9.32488
▁ചെറുകഥ	-9.32815
നുസരിച്ച	-9.33016
▁ഉയർന്ന	-9.33328
ത്തേക്കു്	-9.33454
വൃത്ത	-9.33667
▁വിദ്യാർത്ഥി	-9.33878
▁സർക്കാർ	-9.33886
▁കരുണ	-9.33906
സ്മരണ	-9.33939
മാകുന്ന	-9.33989
▁മടങ്ങി	-9.3422
ോളം	-9.34264
▁മനഃ	-9.34426
▁വ്യാഖ്യാന	-9.3443
▁അത്തരം	-9.34448
▁ഞങ്ങളുടെ	-9.34456
സംഖ്യ	-9.34527
ഖണ്ഡ	-9.34705
ിട്ടുണ്ടെന്നു	-9.34713
തിനുശേഷം	-9.34791
വാസന	-9.35091
ക്കൂട	-9.35396
▁യുക്തിവാദ	-9.35583
▁ശത്രു	-9.35729
ar	-9.3595
കൊല്ലം	-9.36086
▁ഉറക്ക	-9.36106
ോടൊപ്പം	-9.36106
▁വീടു	-9.36121
▁സൂക്ഷ്മ	-9.36671
▁മുന്നണി	-9.36688
പരിവർത്തന	-9.36767
▁അറിവ	-9.36916
തുടങ്ങി	-9.37161
▁സന്തോഷ	-9.37239
▁പ്രതീക്ഷ	-9.37811
▁ഉപയോഗിച്ച	-9.37811
▁തിരിഞ്ഞു	-9.37817
▁മനസ്സിലായ	-9.37835
th	-9.38344
▁വിദ്വാൻ	-9.38387
▁പ്രതിഫല	-9.38388
സന്ദേശ	-9.3848
ന്യാസ	-9.38741
▁ഐക്യ	-9.38963
ഭ്രമ	-9.38995
ാതിരുന്ന	-9.39111
▁ബാലകൃഷ്ണ	-9.39545
▁മാതൃഭൂമി	-9.39545
▁ഏതായാലും	-9.39545
▁ഉത്തമ	-9.39564
േക്കാം	-9.39641
പെട്ട	-9.3986
▁മുഹമ്മദ്	-9.40131
▁ഉപയോഗിക്ക	-9.40133
▁അങ്ങിനെ	-9.40148
▁കൊണ്ടുവന്ന	-9.40243
▁പ്രൊഫ	-9.4072
▁തെളിഞ്ഞ	-9.40724
▁അനന്തര	-9.40729
▁ലഘു	-9.40737
▁ഉദ്യോഗ	-9.41309
▁കൃഷി	-9.4131
സൗകര്യ	-9.41311
▁മകന	-9.41453
▁നേർ	-9.41841
▁ചൂണ്ടിക്കാണിച്ച	-9.41905
▁മുന്നോട്ടു	-9.41907
▁കണ്ടുപിടിച്ച	-9.42013
▁ക്ഷണ	-9.42042
▁പലപ്പോഴും	-9.42147
▁ഷാ	-9.42346
▁മുതലാളി	-9.42503
▁ക്ലാസ്സ	-9.42505
▁അക്കാലത്ത	-9.4302
▁പത്രാധിപ	-9.43106
സ്വഭാവ	-9.43331
▁തീയതി	-9.43734
▁കരുതി	-9.43742
കൊണ്ടിരിക്കുന്ന	-9.43848
ുകൂട്ട	-9.43899
▁ശരിയായ	-9.44092
▁തിരിച്ചറിയ	-9.44132
▁ദീർഘ	-9.44322
▁ശിക്ഷ	-9.44378
▁കഴിക്ക	-9.44473
▁പരാതി	-9.44952
▁സ്വപ്ന	-9.45023
▁കിടക്ക	-9.45103
▁നാട്ടില	-9.45232
പ്പെടുത്തുന്ന	-9.45254
▁വർദ്ധി	-9.45256
േയുള്ളു	-9.45315
▁ഇന്ദിര	-9.45559
▁ഘടക	-9.45567
▁പകരം	-9.4629
▁വ്യത്യസ്ത	-9.46799
▁പ്രണയ	-9.47111
പ്പോയി	-9.4729
▁വ്യവസായ	-9.47428
▁മഹാകവി	-9.47454
▁പേടി	-9.47487
▁ചെലവ	-9.47614
▁രഹസ്യ	-9.4806
▁ലളിത	-9.48133
▁സ്ഥാനാർഥി	-9.48697
ചക്രവർത്തി	-9.48714
▁സൃഷ്ടിച്ച	-9.48857
▁ബ്രഹ്മ	-9.49339
േഷൻ	-9.49544
പ്രസംഗ	-9.49674
▁റിപ്പോർട്ട	-9.49984
▁സാംസ്കാരിക	-9.49984
▁മാതാവു്	-9.49984
▁ആനന്ദ	-9.50041
▁സാധിച്ച	-9.50224
▁ഉമ്മൻചാണ്ടി	-9.50633
▁ശ്ലോക	-9.5064
▁കല്യാണ	-9.50649
▁ദേവകി	-9.50655
▁സൃഷ്ടിക്ക	-9.51119
▁കോഴിക്കോട്	-9.51287
▁ദേഹ	-9.51323
▁ചൊല്ല	-9.5195
▁സൂര്യ	-9.51952
▁ഇക്കാര്യ	-9.51978
ിന്മേൽ	-9.52049
▁ജോർജ	-9.52051
ുണ്ടാകുന്ന	-9.52381
▁ക്രിസ്ത്യാനി	-9.52607
പെരുമാൾ	-9.52622
▁ആരോഗ്യ	-9.52626
കോടി	-9.52898
യോഗ്യ	-9.52965
▁കണ്ടുപിടിക്ക	-9.53274
▁1900	-9.53274
▁ആലോചിക്ക	-9.53274
▁ആകാശ	-9.53315
▁ഡോക്ടർ	-9.5462
▁വളർന്ന	-9.54623
▁തള്ളി	-9.54728
ിക്കൊണ്ടിരിക്ക	-9.54854
പോലുള്ള	-9.55268
▁മോഹ	-9.55515
▁ആളുകള	-9.55596
പരിപാടി	-9.55764
പുരുഷ	-9.55862
▁മണ്ഡല	-9.55938
▁ജോസഫ്	-9.55985
മനോഭാവ	-9.56015
ിപ്പോയ	-9.56425
സമുദായ	-9.56541
പ്രശ്ന	-9.56543
▁ഒടുവിൽ	-9.56675
▁ശാസ്ത്രീയ	-9.56684
▁നിരൂപണ	-9.56698
ഹമ്മദ	-9.567
▁ഊരുമനയ്ക്കൽ	-9.57369
▁കുറുങ്ങാട്ടു്	-9.57369
▁മാപ്പിളപ്പാട്ട	-9.57369
▁സർക്കാറ	-9.57369
▁ആഗ്രഹ	-9.57383
നിർമ്മാണ	-9.5739
▁അവസര	-9.57498
ഗിരി	-9.57531
യോഗി	-9.57674
നാടക	-9.58363
ുണ്ടെങ്കിലും	-9.58713
▁സാഹചര്യ	-9.58773
▁അബ്ദ	-9.58788
▁പ്രവർത്തിച്ച	-9.58838
ശൈലി	-9.58859
തത്ത്വ	-9.59099
▁the	-9.59491
പദ്ധതി	-9.5964
പോകും	-9.599
▁നമുക്ക	-9.60018
▁സംഭാഷണ	-9.60201
▁ചീന	-9.60253
പ്പുറം	-9.60264
▁സോഷ്യലിസ	-9.60916
▁സുഹൃത്ത	-9.60916
▁കൊച്ചി	-9.6097
▁ശുദ്ധ	-9.60981
▁വിശ്വസിച്ച	-9.61063
ഭിപ്രായ	-9.61624
▁ധൈര്യ	-9.6164
▁സഞ്ജയ	-9.61647
ശോഭ	-9.62339
▁പുരോഗമന	-9.6237
▁അക്കാദമി	-9.6237
▁സ്വാധീന	-9.6237
ീകരണം	-9.624
▁ഒഴിവ	-9.63106
▁വസ്ത്ര	-9.63115
ശാഖ	-9.63296
ിനിടയിൽ	-9.63433
▁പിന്നീട	-9.63461
▁മറ്റുള്ളവര	-9.63509
▁മനോരമ	-9.63847
▁പരസ്യ	-9.63889
▁പതുക്കെ	-9.64593
▁രചിച്ച	-9.64639
▁ഇരുപത	-9.64744
▁ചേർക്ക	-9.64921
▁ഉയർത്ത	-9.65345
▁തർജ്ജമ	-9.65345
▁പ്രയോജന	-9.65346
വിരോധ	-9.65382
പ്പള്ളി	-9.65565
േയുള്ളൂ	-9.65731
▁തുല്യ	-9.66111
▁മനഃസ്ഥിതി	-9.66121
▁നൂറ	-9.66354
രുതെന്ന	-9.66573
പുസ്തക	-9.66692
നില്ക്ക	-9.66846
▁സ്ഥിര	-9.66869
ത്യാഗ	-9.67126
ത്തുനിന്നു്	-9.67448
▁പൊലീസ	-9.67638
▁താഴെ	-9.67642
▁നിരന്തര	-9.67643
▁മൃഗ	-9.67654
▁സയൻസ	-9.67655
പ്രകടന	-9.67703
െടുപ്പ	-9.67739
▁പിണറായി	-9.6841
▁ബേബി	-9.68413
▁അവിടത്തെ	-9.68421
▁ഭംഗി	-9.68482
ുകയാണെങ്കിൽ	-9.68668
▁മാരാര	-9.69401
▁അദ്വൈത	-9.69979
▁പരിണാമ	-9.69987
മേഖല	-9.70045
▁ഏതാണ്ട	-9.70076
ബിംബ	-9.70352
▁പെൺകുട്ടി	-9.70772
▁സമകാലീന	-9.70772
▁വൈകുന്നേര	-9.70772
▁കാലഘട്ട	-9.70774
▁തോമസ്	-9.70812
▁ഒക്കെ	-9.71572
▁സുപ്രസിദ്ധ	-9.71572
▁മധുര	-9.71575
▁വളർത്ത	-9.71752
അ	-9.71882
പഠന	-9.72037
ുകാരുടെ	-9.72242
യാഥാർത്ഥ്യ	-9.72379
▁താരതമ്യ	-9.72379
▁ആലോചന	-9.72379
▁ധാരാളം	-9.72379
▁തൃപ്ത	-9.72379
മലബാറ	-9.7238
▁ധരിച്ച	-9.72453
േണ്ടിയിരിക്കുന്ന	-9.72558
▁ഞങ്ങള	-9.72848
▁ഇവിടത്തെ	-9.73195
ലേഖന	-9.73208
കണ്ഠ	-9.73218
▁ചുറ്റി	-9.73269
▁ചൈന	-9.73302
▁പൗര	-9.73309
▁അച്ചടി	-9.73962
മാണിതു്	-9.73997
▁ആശുപത്രി	-9.74011
▁സാമുദായിക	-9.74011
▁ഹൈക്കോടതി	-9.74011
▁ലൈംഗിക	-9.74838
▁നിരൂപക	-9.74846
േണ്ടതില്ല	-9.7495
▁കത്തോലിക്ക	-9.75671
▁ഉറച്ച	-9.75671
▁ക്രിസ്തു	-9.75671
▁ഇപ്രകാരം	-9.75671
▁മൂഷിക	-9.75674
▁ജൈന	-9.75693
▁നമ്മെ	-9.75788
▁നിമിഷ	-9.76514
▁നടപടി	-9.76515
▁പ്രഥമ	-9.76551
▁അംഗീകരിക്ക	-9.77363
▁പ്രതിഷേധ	-9.78214
▁തികച്ചും	-9.78214
വ്യാപാര	-9.78233
▁ശില്പ	-9.7824
▁ജഡ്ജി	-9.79076
▁ചിത്രീകരിക്ക	-9.79089
▁ഒഴുക	-9.79945
പരാമർശ	-9.79946
ശൂന്യ	-9.7995
▁കിഴക്ക	-9.79951
▁അടുപ്പ	-9.79978
▁സ്ഥാനാർത്ഥി	-9.80004
▁എന്നിങ്ങനെ	-9.80823
▁കുഴപ്പ	-9.80839
സമിതി	-9.80866
ന്വേഷിച്ച	-9.80875
കേന്ദ്ര	-9.81468
▁പെരുമാറ	-9.82121
▁കലാകാരന	-9.8239
▁പൊറ്റെക്കാട്ട	-9.826
▁പരിശോധിച്ച	-9.826
▁താൽപര്യ	-9.82602
▁നോവൽ	-9.82602
▁വെളിപ്പെടുത്ത	-9.82608
▁നിഷ്ക	-9.82658
▁തീർത്തു	-9.82708
▁തീർന്ന	-9.8277
ദിവസം	-9.8332
▁സാങ്കേതിക	-9.83501
▁സ്ഥിതിചെയ്യുന്ന	-9.83507
▁പ്രശസ്ത	-9.83511
ുണ്ടാക്കുന്ന	-9.84188
▁ഈയിടെ	-9.84411
▁കച്ചവട	-9.84411
ദൃഷ്ടി	-9.84832
പ്രയോഗ	-9.85201
▁മൽസരിച്ച	-9.85328
ഗാന്ധി	-9.86143
▁നിലനിൽക്ക	-9.86168
▁നല്ക	-9.86248
▁മനസ്സിലാക	-9.8625
▁അക്കിത്തം	-9.86255
▁മാപ്പിള	-9.86256
▁വിധേയ	-9.86256
▁ഉത്ഭവ	-9.87194
▁തകർന്ന	-9.88145
▁ഭയങ്കര	-9.89084
സ്വാതന്ത്ര്യ	-9.90045
▁ട്രാട്സ്കി	-9.90045
▁കൂടുതല	-9.90046
▁ഗോവിന്ദ	-9.90047
▁നിരവധി	-9.90048
▁നെഹ്റു	-9.91016
ആ	-10.6497
ങ	-10.9812
ഇ	-11.3969
ഓ	-12.3698
‍	-14.0877
ഊ	-14.0878
ഐ	-14.0879
ഏ	-14.088
ഉ	-14.0881
ഒ	-14.0882
ഈ	-14.0883
എ	-14.0883
