<unk>	0
<s>	0
</s>	0
▁	-4.24398
ം	-4.45429
്	-4.46719
▁ഒരു	-4.5839
ു	-5.1031
▁ഈ	-5.10972
യും	-5.28588
▁ആ	-5.36677
ും	-5.42377
വും	-5.48974
▁എന്ന	-5.52568
ി	-5.59103
തു്	-5.80207
യ	-5.84569
ത്തിന്റെ	-5.91434
യുടെ	-5.91825
ത്തിൽ	-5.93618
ു്	-5.97772
ൻ	-6.05182
മാണു്	-6.05388
ാ	-6.06236
മ	-6.09817
യിൽ	-6.14936
മായ	-6.18545
▁എന്നു	-6.18591
▁പി	-6.20729
െ	-6.21265
ങ്ങൾ	-6.22362
▁അദ്ദേഹം	-6.22665
ിൽ	-6.23309
ത്തെ	-6.24052
▁ഞാൻ	-6.25705
ോ	-6.29678
യാണു്	-6.29928
കൾ	-6.31055
ാണു്	-6.31306
▁എന്നു്	-6.31674
വ	-6.33403
ക	-6.34936
ാൻ	-6.3737
േ	-6.39736
▁സി	-6.40368
മായി	-6.41314
ക്കു്	-6.44274
ത	-6.44325
യെ	-6.45263
ക്ക	-6.46891
ില്ല	-6.50631
ര	-6.52314
ന	-6.53951
ത്ത	-6.55782
▁എ	-6.55975
▁അവർ	-6.60907
ക്കു	-6.61317
ുന്ന	-6.63276
▁അതു്	-6.64211
ിന്റെ	-6.6535
▁അതു	-6.66571
▁തന്നെ	-6.67376
ർ	-6.67729
▁കെ	-6.69558
▁പക്ഷേ	-6.7208
▁എം	-6.75676
▁തന്റെ	-6.7641
▁അവൾ	-6.77017
തന്നെ	-6.7723
ൽ	-6.78087
ങ്ങളും	-6.78622
▁പറഞ്ഞു	-6.80703
ിട്ടുണ്ടു്	-6.82085
ായി	-6.8274
യോ	-6.83364
ന്റെ	-6.83917
തു	-6.83943
▁ചില	-6.89309
ത്തിനു്	-6.89881
▁വി	-6.90223
▁അ	-6.9266
ുക	-6.94902
ുണ്ടു്	-6.98116
ത്തിനു	-6.98289
ിരിക്കുന്നു	-6.99645
ാൽ	-7.01608
ായ	-7.04893
ല	-7.05047
▁അതിന്റെ	-7.06025
▁അയാൾ	-7.06363
▁ഇവിടെ	-7.06365
ച്ച	-7.07643
ുകയും	-7.07892
▁ൽ	-7.08755
▁പല	-7.09735
▁നമ്മുടെ	-7.10115
താണു്	-7.10838
▁എന്റെ	-7.11088
ങ്ങളിൽ	-7.11456
▁അദ്ദേഹത്തിന്റെ	-7.11691
▁ചെയ്തു	-7.11706
▁എസ്	-7.11759
തും	-7.12111
ുന്നു	-7.13186
ിരുന്നു	-7.1347
▁ബി	-7.13906
പ	-7.15574
സ്	-7.15587
▁അവരുടെ	-7.16412
ണം	-7.16722
ട	-7.16887
കളും	-7.17034
▁ഡി	-7.18131
ണ	-7.18518
യായി	-7.19793
▁അവിടെ	-7.20176
സ	-7.20987
▁നിന്നു്	-7.21438
ല്ല	-7.21583
നും	-7.22367
▁എന്നാൽ	-7.23406
▁രണ്ടു	-7.23435
ൂ	-7.23747
കൊണ്ടു്	-7.25334
നായ	-7.25368
ത്തിലെ	-7.26087
ുന്നതു്	-7.2614
ങ്ങളുടെ	-7.26675
ക്കും	-7.27357
ുവാൻ	-7.27959
പ്പ	-7.29569
▁ഇങ്ങനെ	-7.2961
▁വലിയ	-7.2962
ാതെ	-7.30753
യിലെ	-7.31396
റ	-7.3149
▁പിന്നെ	-7.32804
▁നിന്നു	-7.339
പ്പോൾ	-7.34433
▁കഥ	-7.36174
▁കൂടി	-7.37212
▁അങ്ങനെ	-7.37805
▁എന്നും	-7.38319
മോ	-7.38677
▁വളരെ	-7.38949
▁നല്ല	-7.39221
മുള്ള	-7.39262
▁ക	-7.39603
▁വന്നു	-7.40448
ിലെ	-7.42212
▁ഏറ്റവും	-7.42431
ന്ന	-7.42891
ുമ്പോൾ	-7.43592
കൂടി	-7.44106
വർ	-7.44383
കളുടെ	-7.44506
▁അവ	-7.45165
ാം	-7.45938
കളിൽ	-7.46541
യുള്ള	-7.47249
ത്തിലും	-7.47461
▁മാത്രം	-7.47475
നെ	-7.47787
▁ഇ	-7.47855
ായിരുന്നു	-7.47863
ിനെ	-7.47958
യായ	-7.48185
ുള്ള	-7.48523
ാത്ത	-7.49097
▁സ്വന്തം	-7.49886
ുടെ	-7.51044
▁സാഹിത്യ	-7.52218
ള	-7.52655
▁എല്ലാ	-7.53545
▁നാം	-7.53884
ിട്ടുള്ള	-7.54107
ങ്ങളെ	-7.55162
▁രാഷ്ട്രീയ	-7.55629
ിരുന്ന	-7.57038
▁കവി	-7.5781
▁പറഞ്ഞ	-7.5786
▁മത	-7.58479
യിലും	-7.59177
▁മറ്റൊരു	-7.59816
▁ജീവിത	-7.60469
▁യുടെ	-7.61323
▁ചെയ്ത	-7.61513
▁കേരള	-7.61528
ത്തന്നെ	-7.62006
▁എത്ര	-7.62006
▁ഇനി	-7.62999
ീ	-7.63281
കള	-7.63384
ിലും	-7.63645
▁തുടങ്ങിയ	-7.6373
▁ജെ	-7.63984
ുകൾ	-7.6433
ത്തിനും	-7.64651
ിച്ചു	-7.64683
ൊരു	-7.6568
▁പുതിയ	-7.65682
▁ഇതു്	-7.66329
▁സ	-7.66511
▁എന്നാണു്	-7.66602
▁മാത്രമേ	-7.67133
ള്ള	-7.67828
ിയ	-7.68129
െങ്കിലും	-7.69023
കളെ	-7.69037
▁ഓരോ	-7.69263
▁ഇപ്പോൾ	-7.69276
▁മ	-7.69742
ാനുള്ള	-7.69886
മല്ല	-7.69907
യ്ക്കു്	-7.69979
ഹ	-7.70087
▁ഇതു	-7.70116
▁ഇന്നത്തെ	-7.70344
പോലും	-7.71592
വര	-7.72101
ിച്ച	-7.73263
യ്ക്കു	-7.73389
▁അതിൽ	-7.7343
ുകയാണു്	-7.73922
▁ഒന്നും	-7.73942
▁മറ്റു	-7.74099
▁കാര്യം	-7.74827
▁സ്ത്രീ	-7.74923
ാനും	-7.74937
പ്പെട്ട	-7.75064
ിനു്	-7.75349
▁വന്ന	-7.75505
▁ടി	-7.7584
▁കഴിഞ്ഞ	-7.77755
▁അവൻ	-7.79432
▁കണ്ട	-7.80172
▁പ്രസ്തുത	-7.80194
ട്ട	-7.80663
▁അമ്മ	-7.8107
▁കോൺഗ്രസ്	-7.81211
ിട്ടില്ല	-7.81244
വരെ	-7.81379
മുണ്ടു്	-7.81794
▁ഒന്നു	-7.8233
ിരിക്കുന്ന	-7.82569
▁ഐ	-7.8278
▁പാർട്ടി	-7.82857
▁എല്ലാം	-7.82981
▁പ	-7.82984
്യ	-7.83626
ച്ചു	-7.83666
▁കാരണം	-7.83832
▁ചെയ്യുന്ന	-7.85078
▁ആർ	-7.85399
▁അഥവാ	-7.85609
യ്ക്ക	-7.85709
റ്റ	-7.85739
▁എൻ	-7.85763
പോലെ	-7.85805
▁എന്തു	-7.86698
ക്	-7.87061
മായിരുന്നു	-7.87137
▁കൂടുതൽ	-7.8726
വി	-7.87538
കൊണ്ടു	-7.87625
ശ	-7.88946
▁കണ്ടു	-7.89251
ഗ	-7.89858
▁ത	-7.8999
ിരിക്കുന്നതു്	-7.9012
മാ	-7.90498
▁തല	-7.90524
തിന്റെ	-7.90653
യില്ല	-7.90797
▁മുഴുവൻ	-7.91448
▁ഉള്ള	-7.91526
▁വേണ്ട	-7.91861
ദ	-7.91964
▁പ്രധാന	-7.92026
▁നോക്കി	-7.92805
ത്തു	-7.92982
▁മറ്റും	-7.93106
ണ്ട	-7.93246
ങ്ങളായ	-7.93411
്റെ	-7.93496
▁ഇത്തരം	-7.93651
▁കാണാം	-7.93714
▁അപ്പോൾ	-7.94074
▁രൂപ	-7.94765
▁തമ്മിൽ	-7.94918
▁അടുത്ത	-7.95949
മ്പ	-7.96211
ൾ	-7.96455
▁സാധാരണ	-7.96587
▁മാത്രമല്ല	-7.97015
▁പഴയ	-7.97026
മില്ല	-7.97221
ാവ	-7.98089
▁അതിനു	-7.98255
ാലും	-7.98965
▁താൻ	-7.99073
▁ഒര	-7.99536
യായിരുന്നു	-7.99568
▁ഏതു	-7.99821
▁കാല	-8.0018
▁പോയി	-8.00675
ങ്ങള	-8.0086
▁നിങ്ങൾ	-8.00906
▁മനുഷ്യൻ	-8.0118
ിനു	-8.01205
▁ശ്രീ	-8.01355
▁ശക്തി	-8.01617
▁അതുകൊണ്ടു്	-8.01759
ജ	-8.01895
▁വഴി	-8.01951
വുമായ	-8.02061
▁പറയുന്ന	-8.0218
ുന്നുണ്ടു്	-8.02701
ന്മാർ	-8.02747
▁കൈ	-8.02752
തിൽ	-8.0319
▁വീണ്ടും	-8.03211
നായി	-8.03257
▁ലോക	-8.03358
▁കാലം	-8.03409
ല്ലോ	-8.03461
തായി	-8.03652
▁ആണു്	-8.03698
▁കുറെ	-8.03772
ച	-8.03916
ാന	-8.03988
ത്തെപ്പറ്റി	-8.0418
▁ഞങ്ങൾ	-8.04353
ക്കുന്ന	-8.04866
▁എങ്ങനെ	-8.05341
▁ഇട	-8.0537
നി	-8.05472
▁എന്നൊരു	-8.05518
രായ	-8.05712
▁യും	-8.05825
▁ഇന്നു്	-8.06092
ില	-8.0625
▁കാണുന്ന	-8.06913
▁യാതൊരു	-8.06953
നു	-8.06967
റി	-8.0707
▁പോലെ	-8.07622
▁ലെ	-8.07933
ത്തില	-8.07958
▁നു്	-8.07963
യില	-8.08081
ക്കാർ	-8.08549
മേ	-8.08624
ഞ്ഞ	-8.08658
▁വര	-8.08939
നിന്നു	-8.09079
േണ്ട	-8.094
▁ഇല്ല	-8.09414
▁എനിക്കു്	-8.09801
▁കല	-8.0993
▁തുടങ്ങി	-8.09998
▁ചോദിച്ചു	-8.10158
▁മഹാ	-8.104
രുടെ	-8.10619
▁ജീവിതം	-8.10689
▁അവളുടെ	-8.11069
▁എന്നെ	-8.11478
▁കവിത	-8.116
▁അതിനെ	-8.1165
ിക്ക	-8.11675
▁അവരെ	-8.1271
▁നടന്ന	-8.12886
▁ദിവസം	-8.13047
യല്ല	-8.13237
ത്	-8.13686
▁പോയ	-8.13754
▁മതി	-8.14001
ഷ	-8.14248
▁എന്നീ	-8.14453
▁ന	-8.14769
കര	-8.1487
▁അയാളുടെ	-8.15064
▁കൊണ്ടു്	-8.15167
രും	-8.15406
െന്നു	-8.15769
തി	-8.16449
▁മൂന്നു	-8.16738
▁നീ	-8.16979
▁ആന്റണി	-8.17001
▁ച	-8.17147
▁മുതൽ	-8.18437
ങ്ങളിലും	-8.18629
▁പറയുന്നതു്	-8.18677
▁ബഷീർ	-8.18945
ലി	-8.1938
പ്പെട്ടു	-8.19394
▁ന്റെ	-8.19651
▁ജാതി	-8.2005
ഡ	-8.20064
▁ചരിത്ര	-8.20126
▁സ്വയം	-8.2042
തുപോലെ	-8.20643
െന്നു്	-8.20936
▁ആയ	-8.20976
▁കൊണ്ടു	-8.21109
▁അത	-8.2116
നു്	-8.21751
▁മാത്രമാണു്	-8.21862
▁അല്ലെങ്കിൽ	-8.21899
▁എഴുതിയ	-8.22082
▁പ്രത്യേക	-8.22104
ബ	-8.22116
രി	-8.22299
▁എനിക്കു	-8.22421
▁നടന്നു	-8.22528
▁മലയാള	-8.2269
ങ്ങ	-8.22738
▁വ	-8.23134
െന്ന	-8.24322
e	-8.24886
▁എങ്കിലും	-8.24961
▁മുതലായ	-8.25056
യുണ്ടു്	-8.25231
▁തമ്മിലുള്ള	-8.25308
▁ഞാന	-8.25334
സി	-8.2552
▁കുട്ടി	-8.25822
ിക്കുന്ന	-8.26018
▁വേണ്ടി	-8.26063
തുകൊണ്ടു്	-8.26383
▁ഓ	-8.26463
▁വരുന്ന	-8.26528
വുമായി	-8.2658
▁പറയ	-8.26626
ത്തിന	-8.26643
▁നില	-8.26758
▁1	-8.26841
▁പറയാം	-8.27141
▁കൂടെ	-8.27741
ക്കാൻ	-8.27767
ിത	-8.27922
▁മനുഷ്യന്റെ	-8.28239
ാര	-8.28374
▁പ്രാചീന	-8.28392
▁ഇതിൽ	-8.29611
▁അതായതു്	-8.29633
ിട്ടു്	-8.29806
ത്തി	-8.29867
നാണു്	-8.29997
നാ	-8.30073
പ്ര	-8.30094
▁മറുപടി	-8.30245
▁വരെ	-8.3026
▁മനുഷ്യ	-8.30527
വാ	-8.30545
▁ജോലി	-8.30767
യി	-8.3106
ടി	-8.3112
▁മണി	-8.31204
▁ാം	-8.31227
ന്നു	-8.31325
▁പരീക്ഷ	-8.32135
ത്തു്	-8.32211
▁അന്നു്	-8.32416
▁അല്ല	-8.32558
▁വില	-8.32983
▁എന്നതു്	-8.33321
ിട്ടും	-8.33498
ഴ	-8.33707
ിക്കാൻ	-8.33876
▁അദ്ദേഹത്തെ	-8.3388
▁കാലത്തു്	-8.3393
ിട്ടുള്ളതു്	-8.3396
ിട്ട	-8.34304
റിയ	-8.34353
ത്തിലാണു്	-8.34657
▁സംബന്ധിച്ച	-8.35202
▁കയറി	-8.35206
▁വേണം	-8.35208
ത്തിന്റെയും	-8.35451
ത്വം	-8.35501
വൻ	-8.35911
▁എന്താണു്	-8.36244
ാല	-8.36363
▁പേരിൽ	-8.3637
ാവുന്ന	-8.36559
▁നിയമ	-8.36823
ല്ലേ	-8.37251
▁കഴിഞ്ഞു	-8.37408
ന്ത	-8.37455
▁കുറച്ചു	-8.37727
മില്ലാത്ത	-8.3793
ങ്ങളാണു്	-8.38021
മെന്ന	-8.38092
ുമായി	-8.38102
▁വേറെ	-8.38167
ിട്ടു	-8.3845
▁പിന്നീടു്	-8.386
▁നടത്തിയ	-8.38684
▁സ്വ	-8.38705
▁മാറി	-8.38822
▁ആദ്യം	-8.38913
ുള്ളു	-8.3892
തല്ല	-8.39207
▁ആരും	-8.39244
തോ	-8.39245
▁തിരിച്ചു	-8.39246
▁കിട്ടിയ	-8.3946
▁മാറ്റ	-8.39503
രു	-8.39639
▁പറഞ്ഞാൽ	-8.39874
▁ഇത്ര	-8.40145
▁സകല	-8.40195
▁ഏക	-8.4041
s	-8.40462
▁ആദ്യമായി	-8.40576
▁പറയാൻ	-8.40628
▁ചെയ്യ	-8.40631
മാകുന്നു	-8.40707
▁കാണ	-8.40738
വരും	-8.40793
െങ്കിൽ	-8.41095
▁മുഖ്യമന്ത്രി	-8.41205
▁പ്ര	-8.41806
▁ബ	-8.41873
മാത്രം	-8.42021
▁വ്യക്തി	-8.42068
പ്	-8.42552
ഭ	-8.4276
▁ആദ്യത്തെ	-8.42833
▁പ്രസ്താവിച്ച	-8.42867
ങ്ങൾക്കു്	-8.43011
▁യാത്ര	-8.43037
തിനു	-8.43061
▁നേരെ	-8.43384
▁കാണാൻ	-8.43536
▁വെറും	-8.43554
ിക	-8.43778
▁ആർക്കും	-8.43889
▁ഹ	-8.44287
▁ഒന്ന	-8.44533
▁8	-8.44597
▁അത്ര	-8.44632
▁പ്രസിദ്ധ	-8.4469
▁അച്ഛൻ	-8.4481
▁തോന്നി	-8.44862
▁ഇവ	-8.45094
▁വിജയ	-8.45126
▁അതിനു്	-8.45238
▁ഭാഷ	-8.45272
▁അവന്റെ	-8.45569
ത്തിലുള്ള	-8.45612
▁അതേ	-8.45613
▁മുമ്പു്	-8.45922
യാ	-8.45966
▁നമുക്കു്	-8.45974
▁എന്തോ	-8.46205
ൈ	-8.46233
ക്ഷ	-8.46318
▁ഇന്നു	-8.46512
▁കരുണാകരൻ	-8.46555
രെ	-8.46735
▁സാമൂഹ്യ	-8.46754
മാണെന്നു	-8.46761
▁എൽ	-8.46821
▁അധികം	-8.46902
ലും	-8.47087
▁ആധുനിക	-8.47245
തിനാൽ	-8.47263
▁വല്ല	-8.47465
▁നിങ്ങളുടെ	-8.47508
▁മതം	-8.47673
▁ചെയ്യുന്നു	-8.47931
▁ചെറിയ	-8.4797
നം	-8.48168
പ്പെടുന്ന	-8.48305
ിട	-8.48513
മ്മ	-8.48731
▁ഗ	-8.4916
▁യെ	-8.49294
യെപ്പറ്റി	-8.49429
▁നമ്പൂതിരി	-8.49503
▁എന്തെങ്കിലും	-8.49597
▁ചോദ്യം	-8.49626
▁സംസ്ഥാന	-8.4986
ാണു	-8.50168
ത്ര	-8.50449
കാര	-8.5056
യുമായി	-8.50562
നോ	-8.50698
യേ	-8.50728
▁സിനിമ	-8.50861
ങ്ക	-8.51065
▁കേരളത്തിലെ	-8.51091
ൊ	-8.51105
നിന്നു്	-8.51267
ട്ടെ	-8.51787
▁യു	-8.51829
▁കലാ	-8.51898
▁ഇതിന്റെ	-8.52028
▁പറയുന്നു	-8.52166
▁പേരു	-8.52349
ാള	-8.52522
ില്ലേ	-8.52984
ഡ്	-8.53303
മാണെന്നു്	-8.53458
▁നമുക്കു	-8.53742
▁ചിരി	-8.53742
▁സ്വാമി	-8.53999
▁നോക്കുക	-8.54135
▁പോലും	-8.54182
ത്തോടെ	-8.54724
▁ചിലർ	-8.55023
ിടത്തോളം	-8.552
▁ഭാര്യ	-8.55211
▁ഉണ്ടായിരുന്ന	-8.5522
യിൽനിന്നു്	-8.55232
▁കൊടുത്ത	-8.55281
▁രണ്ടു്	-8.55327
ിരുന്നതു്	-8.55329
▁ഒന്നു്	-8.55366
കൾക്കു്	-8.55566
▁സംഗതി	-8.55618
യു	-8.55705
യ്ക്കും	-8.55996
▁നിന്ന	-8.56113
െന്നും	-8.56532
▁സത്യ	-8.56633
മി	-8.56681
തെന്നു്	-8.56852
▁കുടുംബ	-8.56989
ക്കാര	-8.57062
തിനു്	-8.57221
▁തന്നെയാണു്	-8.57628
▁ജി	-8.57696
സ്സ	-8.57883
▁മന്ത്രി	-8.57947
വെച്ചു്	-8.5795
▁തെരഞ്ഞെടുപ്പിൽ	-8.58008
▁അന്നത്തെ	-8.58109
ുമോ	-8.58242
ോടു്	-8.58495
▁സാമ്പത്തിക	-8.58502
▁വിദ്യാഭ്യാസം	-8.59107
▁പ്രകൃതി	-8.59527
▁എത്രയോ	-8.59635
▁ഉണ്ടു്	-8.59885
▁അവർക്കു്	-8.60067
▁ജന	-8.60109
▁ചെന്നു	-8.60273
പോയി	-8.60287
ുണ്ടോ	-8.60422
▁അറിയ	-8.60748
▁ഒറ്റ	-8.60789
വരുന്ന	-8.60818
▁യഥാർത്ഥ	-8.61122
▁അവയുടെ	-8.61185
ാക്കി	-8.61273
▁അന്നു	-8.61345
▁കേരളത്തിൽ	-8.61478
ുകയുണ്ടായി	-8.61588
▁ചിന്ത	-8.61648
▁നടക്കുന്ന	-8.61672
മാർ	-8.61763
ൺ	-8.61816
▁ഇന്നും	-8.62019
വരുടെ	-8.62299
▁നാടക	-8.62481
▁സ്ഥിതി	-8.62483
ത്തെയും	-8.62521
▁തങ്ങളുടെ	-8.62535
▁വീട്ടിൽ	-8.62561
▁ജനനം	-8.62621
ന്മാരുടെ	-8.62789
▁ചെയ്യും	-8.62908
▁ചിത്ര	-8.62938
▁മി	-8.63092
▁വിളിച്ചു	-8.63095
യുടെയും	-8.63098
▁ഒരാൾ	-8.6322
▁പുസ്തക	-8.63424
കു	-8.63488
▁of	-8.63626
▁നായർ	-8.63809
ുകയില്ല	-8.63835
െല്ലാം	-8.63842
▁പിടിച്ചു	-8.6389
ൊക്കെ	-8.64606
▁സു	-8.64689
▁പിന്നെയും	-8.64724
ുന്നില്ല	-8.64899
▁മുമ്പിൽ	-8.65023
▁അതി	-8.65129
▁ചെയ്യുന്നതു്	-8.65263
▁നമ്മൾ	-8.654
▁ഏതെങ്കിലും	-8.65417
ാണെന്നു്	-8.65728
രൂപ	-8.6574
▁വിദ്യാഭ്യാസ	-8.65805
▁പിതാവു്	-8.65959
▁ഗാന്ധി	-8.66018
▁ഒരിക്കലും	-8.66455
▁ശരി	-8.66504
▁രസ	-8.66768
▁കൂടാതെ	-8.66839
▁കു	-8.66854
▁ഭരണ	-8.66901
▁ഒരേ	-8.66916
ത്തിൽനിന്നു്	-8.67013
▁ഇവർ	-8.6704
ക്കോ	-8.67107
കാല	-8.67186
▁യുദ്ധ	-8.67407
▁അവളെ	-8.67429
കളാണു്	-8.67463
ൊന്നും	-8.67498
▁കൊല്ല	-8.67556
▁നാലു	-8.67819
▁ജ	-8.67825
ശക്തി	-8.67883
ുന്നതു	-8.68304
▁പണി	-8.68343
ത്തിലേക്കു്	-8.68476
യോടു്	-8.68543
▁എടുത്തു	-8.6855
▁എന്നതാണു്	-8.68889
▁മാണി	-8.6908
▁ശങ്കരൻ	-8.69146
▁ജനാധിപത്യ	-8.693
▁ദൈവ	-8.69359
▁വിധി	-8.69421
ത്തിനുവേണ്ടി	-8.69604
▁ഉടനെ	-8.69651
▁നിന്നും	-8.69797
ക്കി	-8.69837
▁ഇത	-8.69868
ഞ്ഞു	-8.69888
ിനും	-8.6998
യോടെ	-8.7
ികൾ	-8.70015
ാണെന്നു	-8.70106
▁ചിത്രം	-8.70134
ങ്ങളിലെ	-8.70183
▁രീതി	-8.7019
ളി	-8.7051
▁അഭിപ്രായം	-8.7055
▁സമുദായ	-8.70697
▁നാട്ടിൽ	-8.70796
a	-8.70811
▁ഓർമ്മ	-8.70837
ാക	-8.71254
▁നി	-8.71255
▁സ്വാതന്ത്ര്യ	-8.71259
▁സർക്കാർ	-8.71297
▁കാവ്യ	-8.71322
▁പറഞ്ഞതു്	-8.71384
മെന്നു	-8.71389
▁നടത്തി	-8.7148
▁ഒരിക്കൽ	-8.71754
▁അത്തരം	-8.71863
▁ഞങ്ങളുടെ	-8.71889
ിന	-8.719
▁മു	-8.72034
ിലേക്കു്	-8.7224
▁ആളുകൾ	-8.72498
▁അടി	-8.72669
ുവാനും	-8.73048
വുമാണു്	-8.73135
▁കുറഞ്ഞ	-8.73162
▁മുകളിൽ	-8.73199
ഞ്ച	-8.73201
▁കൊല്ലം	-8.73486
റ്റി	-8.73615
▁സെക്രട്ടറി	-8.73663
യിലേക്കു്	-8.73742
▁നീതി	-8.73913
▁വെള്ള	-8.74002
ുമെന്നു്	-8.74033
യേയും	-8.74167
രാ	-8.74243
യിലാണു്	-8.74278
▁പുറത്തു	-8.74352
ന്നു്	-8.74368
▁നടത്തുന്ന	-8.7437
▁ഇതാണു്	-8.74631
വെ	-8.74691
ാണെങ്കിൽ	-8.74711
▁കാര്യങ്ങൾ	-8.74721
▁കൊടുത്തു	-8.74797
▁രണ്ട	-8.74958
▁സ്നേഹ	-8.74987
▁അതും	-8.75013
▁ചെയ്തതു്	-8.75015
▁പലതും	-8.7514
▁ബന്ധ	-8.75173
ഫ	-8.75505
ാണോ	-8.75659
▁കേന്ദ്ര	-8.7567
ഭാഷ	-8.75672
▁ചരിത്രം	-8.75774
▁വിദ്വാൻ	-8.75786
ുള്ളൂ	-8.75819
േയും	-8.76245
▁അദ്ദേഹത്തിനു്	-8.76307
ക്കാരൻ	-8.76372
▁അധികാര	-8.76518
വെച്ച	-8.76694
▁പണം	-8.76866
▁പേരു്	-8.76882
▁കൂട്ട	-8.76898
കൊണ്ട	-8.76918
▁ഏതായാലും	-8.76949
▁ശാസ്ത്ര	-8.76992
▁നിറഞ്ഞ	-8.77053
ാമ	-8.77106
▁സമയം	-8.77166
▁കാണുന്നതു്	-8.7727
സ്റ്റ	-8.77458
▁മുഖ്യ	-8.77825
കളിലും	-8.77872
െപ്പറ്റി	-8.77883
▁നിലയിൽ	-8.77925
ില്ലാത്ത	-8.77941
▁പാട	-8.78009
റു	-8.78016
വെച്ചു	-8.78149
ാണല്ലോ	-8.78259
▁വാ	-8.78274
▁ഗുരു	-8.78327
ക്കൊണ്ടു്	-8.78442
ാനാണു്	-8.7868
▁മുഖം	-8.78766
▁എഴുതി	-8.78784
നിന്ന	-8.79133
▁പറഞ്ഞു്	-8.79143
▁ഗുണ	-8.79296
▁ചൂണ്ടിക്കാണിച്ച	-8.79306
▁പലപ്പോഴും	-8.79358
▁തുടർന്നു	-8.79474
▁കര	-8.79496
▁പിന്തുണ	-8.79645
കാലം	-8.79704
▁മാറ്റി	-8.79756
▁ഉണ്ടായ	-8.79931
മു	-8.80013
ണമെന്നു്	-8.80038
വരാണു്	-8.80268
▁പര	-8.80318
ിൽനിന്നു്	-8.80386
▁ഭാവ	-8.80399
▁ആശയ	-8.80459
▁സ്ഥാപിച്ച	-8.80506
▁കഴിഞ്ഞു്	-8.80831
െയും	-8.80845
▁തോന്നുന്നു	-8.80874
▁ചിലപ്പോൾ	-8.80951
▁പുസ്തകം	-8.80952
▁ആയി	-8.80952
▁അറബി	-8.8101
ോടു	-8.81274
▁ഇത്രയും	-8.81286
ക്കൂടി	-8.81347
▁രാത്രി	-8.81357
▁കടന്നു	-8.81378
പോ	-8.81595
രുതു്	-8.81691
പ്പോ	-8.82284
▁രാജ്യ	-8.82293
▁സുഖ	-8.82303
യെന്ന	-8.82372
▁ബുദ്ധി	-8.82413
▁തീ	-8.8243
പരമായ	-8.82455
▁പട	-8.8257
കഥ	-8.8257
ിരുന്നില്ല	-8.82607
▁ഇതിനു	-8.8263
▁പേർ	-8.82646
ുകളും	-8.82664
താ	-8.82995
▁ചെയ്യാൻ	-8.83095
▁എന്നിവ	-8.83243
▁പ്രത്യക്ഷ	-8.83319
ുന്നതും	-8.83357
▁പ്രവർത്തിക്ക	-8.83397
ിക്കുകയും	-8.83474
▁മരണ	-8.83492
മാക്കി	-8.835
▁അങ്ങിനെ	-8.8357
ുണ്ടായിരുന്നു	-8.83646
▁പ്രവൃത്തി	-8.83652
o	-8.83771
▁പോകുന്ന	-8.83779
▁സ്ഥാന	-8.83852
ജി	-8.83952
▁അനേകം	-8.83968
▁കേട്ടു	-8.84124
▁സ്ഥല	-8.8413
▁വികാര	-8.84281
▁എപ്പോഴും	-8.84294
കൊണ്ടാണു്	-8.84328
▁വിപ്ലവ	-8.84333
▁18	-8.84493
▁അവര	-8.84652
▁നിൽക്കുന്ന	-8.84712
തോടെ	-8.84723
▁കാരണ	-8.84724
▁ആത്മ	-8.84733
▁ചാക്കോ	-8.84847
▁സർവ	-8.84971
▁വിശ്വാസ	-8.85121
ത്തിലൂടെ	-8.85125
▁ഗ്രാമ	-8.85136
▁അതാണു്	-8.85264
ാറുണ്ടു്	-8.85289
▁കോടതി	-8.85292
യാൽ	-8.85382
▁പകരം	-8.8567
▁കളി	-8.8568
േണ്ടതു്	-8.85692
▁ആയിരുന്നു	-8.85694
▁ഡോ	-8.85703
▁എനിക്ക	-8.85721
▁പോക	-8.85895
▁കൊടുക്ക	-8.86079
ങ്ങളുടെയും	-8.86106
▁അയാളെ	-8.86225
▁അനുഭവ	-8.86411
ിലാണു്	-8.86485
ുകയായിരുന്നു	-8.86512
▁നെ	-8.86514
▁അർത്ഥം	-8.8658
▁കാര്യ	-8.86736
▁ഇന്ന	-8.86897
വന്നു	-8.86932
തുമായ	-8.87198
ക്കാരുടെ	-8.87255
ാസ	-8.87276
▁ജനിച്ച	-8.87312
▁അവർക്കു	-8.87349
▁തര	-8.87405
▁മാതാവു്	-8.87436
ംഗ	-8.8772
▁യുക്തി	-8.87893
വു	-8.87897
▁സത്യം	-8.87905
▁സാമൂഹിക	-8.8793
▁മാറ	-8.87946
▁ഉമ്മൻചാണ്ടി	-8.88034
▁മുസ്ലിം	-8.88074
ുവാനുള്ള	-8.88513
▁കേട്ട	-8.88612
▁കിട്ടി	-8.88743
▁മന്ത്രിസഭ	-8.88916
ക്കുവേണ്ടി	-8.89142
▁കണ്ടു്	-8.8915
▁ഇതൊക്കെ	-8.89288
ായിരിക്കും	-8.89319
i	-8.89417
െടുത്ത	-8.89496
▁ഇംഗ്ലീഷ്	-8.89552
▁പത്ര	-8.89707
▁അർത്ഥ	-8.89803
▁വിഷയ	-8.89861
ൗ	-8.89975
ില്ലെങ്കിൽ	-8.89995
▁ദേവകി	-8.90008
പ്പെട	-8.90009
ിക്കുക	-8.90017
▁തീയതി	-8.90031
▁ഏതാനും	-8.90036
ക്ക്	-8.90036
▁കട	-8.90066
▁കിടക്കുന്ന	-8.90102
▁കൂടിയ	-8.90465
▁മാതൃഭൂമി	-8.90576
▁ലോകം	-8.90581
▁മുസ്ലീം	-8.90584
ിക്കുന്നു	-8.9067
▁1900	-8.90676
▁രണ്ടും	-8.90683
▁പ്രതി	-8.90737
യെങ്കിലും	-8.90817
▁സ്വഭാവ	-8.90824
ൂർ	-8.90926
ാദി	-8.90998
വന്ന	-8.91049
▁ഫല	-8.91316
▁ഫ	-8.91439
▁ഒന്നാം	-8.91445
ാർ	-8.91557
ത്വ	-8.91561
പോയ	-8.91677
▁അഭിപ്രായ	-8.91685
ക്കൊണ്ടു	-8.91812
വാദ	-8.91857
▁സമര	-8.91924
▁വെച്ചു	-8.9196
▁ദേശീയ	-8.92009
▁സ്വീകരിച്ച	-8.92056
ിച്ചു്	-8.92177
നോക്കി	-8.92468
▁ദ	-8.9248
▁തമിഴ്	-8.92519
▁മുഖ	-8.92705
▁ലേഖകൻ	-8.92731
▁സ്വതന്ത്ര	-8.92743
▁പ്രശ്ന	-8.92855
ണമെങ്കിൽ	-8.92952
▁നടത്ത	-8.92968
▁മനുഷ്യർ	-8.93087
്യം	-8.93107
▁കള്ള	-8.93149
▁ക്കു്	-8.93225
▁കൊണ്ട	-8.9325
▁കഴിയും	-8.93253
പ്പോലും	-8.93318
▁അദ്ദേഹത്തിനു	-8.9338
▁കമ്മിറ്റി	-8.93474
▁പേര	-8.93641
▁ശ്രദ്ധ	-8.9369
സ്ഥ	-8.93723
തിനെ	-8.9374
▁നേരം	-8.93786
▁ഒടുവിൽ	-8.94076
▁ഭാരതീയ	-8.9411
▁തെരഞ്ഞെടുപ്പു്	-8.94172
▁വാസ്തവത്തിൽ	-8.94197
▁അല്പം	-8.94299
▁ചെറു	-8.94322
▁മുറി	-8.94473
റ്റ്	-8.94697
▁ഊരുമനയ്ക്കൽ	-8.94771
▁കുറുങ്ങാട്ടു്	-8.94771
ാദ	-8.94878
▁ഇന്ത്യൻ	-8.94965
▁സ്ഥലം	-8.95053
ാപ	-8.95079
▁കേരളീയ	-8.95087
▁അതിലെ	-8.95286
▁രവി	-8.95395
▁ആദ്യ	-8.95402
▁ജീവിതത്തിന്റെ	-8.95436
▁മുൻ	-8.95441
▁പു	-8.95488
▁പ്രശ്നം	-8.95499
▁പലരും	-8.95662
▁രൂപം	-8.95678
▁ശ	-8.95706
▁പള്ളി	-8.95718
▁ഒന്നാണു്	-8.95769
ീയ	-8.95834
▁സർവ്വ	-8.96016
ടെ	-8.96037
▁കിട്ട	-8.9607
വേ	-8.96081
▁വക	-8.9609
▁പ്രസംഗ	-8.96111
തെന്നു	-8.96148
▁ജോസഫ്	-8.96174
▁തീരെ	-8.96368
▁സംഭവ	-8.96424
▁എഴുത	-8.96433
▁ആവശ്യ	-8.96454
▁എന്താ	-8.96536
▁തുറന്നു	-8.96619
ങ്ങളെയും	-8.96791
▁അവനെ	-8.9684
▁ഇപ്പോഴും	-8.97119
ക്കുള്ള	-8.97141
▁ഇതര	-8.9715
യാണെന്നു	-8.97216
▁പറയും	-8.9732
ണ്ടു്	-8.97325
▁ഇതുപോലെ	-8.97366
▁സംസ്കൃത	-8.97371
▁യിൽ	-8.97395
▁ദേശ	-8.97506
▁വർഷം	-8.97527
▁തോന്ന	-8.9762
▁സഖാവു്	-8.97651
ങ്ങളായി	-8.97655
▁സൗന്ദര്യ	-8.98055
ജന	-8.98072
y	-8.9813
ാക്ക	-8.98154
സം	-8.9821
▁കേൾക്ക	-8.98228
▁കണ്ണു	-8.98241
▁സിദ്ധാന്ത	-8.98286
▁കാണിക്കുന്ന	-8.98296
▁സാംസ്കാരിക	-8.98303
▁ഭൂരിപക്ഷം	-8.98328
▁ബഷീറിന്റെ	-8.98367
ത്തിലേക്കു	-8.98558
▁യുദ്ധം	-8.98767
▁കാഴ്ച	-8.98996
വുമില്ല	-8.9904
▁അടിസ്ഥാന	-8.99255
ലാ	-8.99265
▁മുഹമ്മദ്	-8.99286
▁വാദ	-8.99442
▁സ്വാതന്ത്ര്യം	-8.99475
ുകളിൽ	-8.99532
ിയായ	-8.99654
▁ബോധ	-8.99688
ങ്ങൾക്കും	-8.99756
ല്ലാതെ	-8.99765
▁അക്കാദമി	-8.99772
▁കുറേ	-8.99857
കൊണ്ടും	-8.99888
ങ്ങൾക്കു	-8.99941
0	-9.00097
▁പിടിച്ച	-9.0028
▁ചായ	-9.00372
ുവ	-9.00416
ാകുന്നു	-9.00421
യിലുള്ള	-9.00423
നില	-9.00436
മുഖ	-9.00685
▁കമ്യൂണിസ്റ്റ്	-9.00707
ിയുടെ	-9.00722
▁ഭിന്ന	-9.00791
ുകയോ	-9.00926
▁മുന്നിൽ	-9.00955
▁ഭാഗം	-9.0102
▁എന്നുള്ള	-9.01117
▁ലഭിച്ച	-9.01244
t	-9.01344
▁ചങ്ങമ്പുഴ	-9.01427
പ്പി	-9.01438
യ്യ	-9.01488
▁പ്രത്യേകം	-9.01535
▁ജീവ	-9.0166
ണി	-9.01752
▁രാജ	-9.01797
ിലൂടെ	-9.01824
ലെ	-9.01934
ുന്നതിൽ	-9.01986
ൂര	-9.02011
▁മാനസിക	-9.02042
▁ഏറെ	-9.0212
▁മല	-9.02177
ുന്നതിനു്	-9.02215
കൾക്കു	-9.02453
രീതി	-9.02632
▁അന	-9.02687
വിന്റെ	-9.02759
▁ഭൂമി	-9.0278
▁വെളിച്ചം	-9.02883
▁മനുഷ്യനെ	-9.02901
▁ക്ഷേത്ര	-9.02905
കല	-9.02948
4	-9.03144
▁മരിച്ച	-9.03151
▁രണ്ടാം	-9.03154
▁ഇല്ലാത്ത	-9.03182
▁വിരുദ്ധ	-9.03219
▁ചോദിക്ക	-9.03298
▁മഹാകവി	-9.03536
▁രണ്ടാമത്തെ	-9.03565
ായിരുന്ന	-9.03646
▁കൂട്ടത്തിൽ	-9.03653
വഴി	-9.03752
▁രീതിയിൽ	-9.03772
▁പ്രസ്ഥാന	-9.03843
▁മലയാളത്തിൽ	-9.03854
ാത	-9.03855
▁അഞ്ചു	-9.04033
▁ഉണ്ടായിരുന്നു	-9.04211
പ്പോലെ	-9.04277
ലു	-9.04586
യെല്ലാം	-9.04745
മാന	-9.04778
യോടു	-9.04786
▁പൊതു	-9.04812
▁സൃഷ്ടി	-9.04951
▁നീണ്ട	-9.05059
▁മകൻ	-9.05072
കളിലെ	-9.05201
▁മര	-9.05241
▁എവിടെ	-9.05258
▁ആള	-9.05633
▁the	-9.05799
കളായ	-9.05836
▁അവിടത്തെ	-9.05885
▁അതൊരു	-9.05922
▁ശരിയായ	-9.05951
▁മനസ്സിലാക്ക	-9.05964
▁പരാതി	-9.06073
▁അവയിൽ	-9.06251
ത്രേ	-9.06388
മത	-9.0639
പ്പു	-9.0645
തന്നെയാണു്	-9.06507
▁ഹിന്ദു	-9.06513
▁ഇനിയും	-9.06518
ിയിരിക്കുന്നു	-9.06535
▁കൊ	-9.06553
▁സ്ഥാനം	-9.06584
▁ആൾ	-9.06831
▁ശബ്ദ	-9.07011
▁പോ	-9.07175
▁പച്ച	-9.07307
ക്കാ	-9.07345
▁ശരീര	-9.07457
▁അടുത്തു	-9.07463
▁എല്ലാവരും	-9.07486
▁പ്രസിഡന്റ്	-9.07583
യൊക്കെ	-9.07601
ുണ്ടായ	-9.07611
▁അവയെ	-9.07726
നേ	-9.07852
▁മനസ്സിൽ	-9.07857
▁വ്യവസായ	-9.07914
▁മാ	-9.0799
യാണു	-9.07991
▁നോക്കിയാൽ	-9.08
ിലേക്കു	-9.08097
er	-9.08112
▁പിണറായി	-9.08169
ിയും	-9.08193
▁ചേര	-9.08198
▁ആദർശ	-9.08372
▁കാര്യത്തിൽ	-9.085
▁രക്ഷ	-9.08712
▁ആനന്ദ	-9.08718
▁പാ	-9.08757
വിധ	-9.0883
▁വിട	-9.0884
▁വെ	-9.08896
▁ദുഃഖ	-9.08912
▁ഹൃദയ	-9.08931
▁ഒക്കെ	-9.08974
ന്മാരെ	-9.09019
▁ചർച്ച	-9.09146
ഷ്	-9.09157
▁പ്രാധാന്യം	-9.09206
ശാല	-9.09215
▁ഉത്തരം	-9.09259
യിലൂടെ	-9.09317
ച്ചു്	-9.09386
▁തിരിഞ്ഞു	-9.09427
ഃ	-9.09535
▁ഉണ്ടാക	-9.09618
▁നൽകിയ	-9.09722
▁മറ	-9.09744
▁ധാരാളം	-9.0978
▁താഴെ	-9.09794
▁വായിച്ച	-9.10007
മാവ	-9.10027
2	-9.10037
ബന്ധ	-9.10132
▁അന്ന	-9.10226
തര	-9.10249
▁തന്ന	-9.10291
ങ്ങളെപ്പറ്റി	-9.10403
▁അവസ്ഥ	-9.10465
ഥ	-9.10547
▁ഇവിടത്തെ	-9.10621
▁പ്രധാനമന്ത്രി	-9.10654
ാറില്ല	-9.10655
യിലേക്കു	-9.10667
ണ്ണ	-9.10678
▁കൊള്ള	-9.10839
▁അയാൾക്കു്	-9.10911
▁എന്ത	-9.10912
▁കാ	-9.10957
▁അര	-9.11012
▁വിവാഹ	-9.11112
▁നമ്മെ	-9.11128
▁മൂല	-9.11181
▁കൊച്ചി	-9.11273
▁കൃതി	-9.11402
▁സാമുദായിക	-9.11413
യുമാണു്	-9.1142
കൊണ്ടിരിക്കുന്ന	-9.11609
▁ഇതുവരെ	-9.11694
▁നു	-9.11798
▁ധർമ്മ	-9.12022
ണമെന്നു	-9.12047
മാണല്ലോ	-9.12174
▁വീര	-9.12175
▁കഴിയുന്ന	-9.12206
▁നൽക	-9.12245
▁ജയ	-9.12332
▁ഇന്ത്യ	-9.12389
ാവുന്നതാണു്	-9.12395
ണമെന്ന	-9.1242
▁മഴ	-9.12567
ങ്ങളെല്ലാം	-9.12594
ദ്	-9.12618
▁പ്രവർത്തന	-9.12639
▁തവണ	-9.1264
▁വാർത്ത	-9.12697
ക്കെതിരെ	-9.12729
▁ചെന്ന	-9.1283
ധ	-9.1288
▁കഥകൾ	-9.12962
ാറ	-9.12997
▁പ്രസംഗം	-9.13078
▁ഇപ്രകാരം	-9.1312
▁ഉത്തമ	-9.13234
▁ഇവരുടെ	-9.13241
ാണെന്ന	-9.13258
▁പ്രകാശ	-9.13354
▁ബാല	-9.13479
▁നടക്ക	-9.13566
ബുദ്ധി	-9.13569
▁മുന്നണി	-9.13654
കൾക്കും	-9.13692
ന്മാരും	-9.13805
▁ഉത്തര	-9.13848
▁അവസാനം	-9.139
▁കാണിച്ച	-9.13956
▁അല	-9.13956
ുമ	-9.14092
ത്രെ	-9.14095
▁പാരമ്പര്യ	-9.14098
പര	-9.14145
ൊന്നു	-9.14165
മില്ലാതെ	-9.14256
▁ഗ്രന്ഥ	-9.14265
ത്തിൽനിന്നു	-9.14456
▁സീറ്റ്	-9.145
▁ശബ്ദം	-9.14537
ൃ	-9.14568
തിനുശേഷം	-9.14962
▁അതുകൊണ്ടു	-9.15139
▁ഇതിനെ	-9.15283
ാകട്ടെ	-9.15327
▁ശേഷം	-9.1534
▁മട്ടിൽ	-9.15374
രണ	-9.15447
ിക്കുന്നതു്	-9.15461
▁ഭരണം	-9.15562
▁വായിച്ചു	-9.15607
ത്തോടു്	-9.15622
മാരുടെ	-9.15691
▁വിട്ടു	-9.15703
ക്കുന്നു	-9.15728
▁തികച്ചും	-9.15769
▁ഇന്ത്യയിൽ	-9.15775
കാലത്തു്	-9.15786
▁നിങ്ങളെ	-9.15827
ത്താൽ	-9.15917
ുകൊണ്ടു്	-9.15924
▁എഫ്	-9.15935
▁പണ	-9.16
▁കോ	-9.16019
▁ചേർന്ന	-9.16024
▁മാർ	-9.16062
ത്തിനുള്ള	-9.16131
▁നട	-9.16139
▁പദ	-9.16168
▁മേൽ	-9.16192
▁ഡോക്ടർ	-9.16226
▁മനോരമ	-9.163
നിൽ	-9.16304
▁ഐതിഹ്യ	-9.16362
ശാസ്ത്ര	-9.16392
▁പഠിച്ച	-9.1641
േക്കാം	-9.16508
▁ഫലം	-9.16518
▁നീല	-9.16529
കളെയും	-9.16578
മാണിതു്	-9.16619
യർ	-9.16785
▁മുറിയിൽ	-9.16807
▁വയ്യ	-9.1699
▁കൈയിൽ	-9.1714
▁കക്ഷി	-9.1721
ൊന്ന	-9.17246
▁ചെറിയമ്മ	-9.17265
▁നഗര	-9.17305
ിനി	-9.17351
▁വണ്ടി	-9.17386
റ്റു	-9.17435
ാലോ	-9.17464
ക്കുകയും	-9.1748
▁വെച്ച	-9.17532
▁പ്രത്യക്ഷപ്പെട	-9.17601
▁കൊച്ചു	-9.17673
▁വിവാഹം	-9.17692
▁മിക്ക	-9.17701
▁വെള്ളം	-9.17831
▁ഒരുതരം	-9.17854
▁ബന്ധപ്പെട്ട	-9.17955
▁വർത്തമാനം	-9.18044
ൊര	-9.18336
▁തത്ത്വ	-9.18337
▁എന്നിങ്ങനെ	-9.18349
▁ഏതോ	-9.18379
▁വിശ്വാസം	-9.18414
ാണ	-9.18424
▁ബ്രാഹ്മണ	-9.18467
▁വേണ്ടതു്	-9.18591
ുമ്പോഴും	-9.18711
▁നേടിയ	-9.18812
▁കണ്ടുപിടിച്ച	-9.18987
▁ബുദ്ധ	-9.1903
ബി	-9.19085
ചിന്ത	-9.19098
▁പതുക്കെ	-9.19109
▁ബേബി	-9.19111
▁ഭാഷാ	-9.19122
ിരിക്ക	-9.19152
▁വിവിധ	-9.1922
▁കണ്ടാൽ	-9.19303
▁തോന്നുന്നില്ല	-9.19497
ുമായിരുന്നു	-9.19695
▁കിടക്ക	-9.1981
▁മൂന്നു്	-9.19823
ഖ	-9.1993
▁സ്വീകരിക്ക	-9.19988
യെന്നു്	-9.20015
▁തോമസ്	-9.2007
▁ല	-9.20421
ോടെ	-9.20428
ക്കുന്നതു്	-9.2043
▁ചിരിച്ചു	-9.20452
▁ലളിത	-9.20561
മണി	-9.20629
നീ	-9.20691
▁വിചാര	-9.20728
മെന്നും	-9.20734
▁പരി	-9.20831
▁സ്ഥിതിചെയ്യുന്ന	-9.20914
▁സമാധാന	-9.20962
▁വ്യവസ്ഥ	-9.20965
രാജ	-9.21013
പി	-9.21015
മാര	-9.21021
ഗ്ര	-9.21233
ുണ്ടായിരുന്ന	-9.21362
▁ഏതു്	-9.21381
യൊന്നും	-9.21403
▁നൽകി	-9.21581
ങ്ങി	-9.21706
▁ഷാ	-9.21788
ുമെന്നു	-9.21822
▁നോവൽ	-9.21913
9	-9.22011
കാ	-9.22016
▁ജനങ്ങൾ	-9.2206
▁പറ്റിയ	-9.22063
▁അതിനാൽ	-9.22106
▁ബല	-9.2212
ാതിരിക്ക	-9.222
▁വരും	-9.22268
▁ശിക്ഷ	-9.22321
▁അന്യ	-9.22355
▁പരസ്പരം	-9.22423
മേൽ	-9.22586
മൊന്നും	-9.22677
െടുത്തു	-9.22725
▁തമാശ	-9.22728
വന	-9.22895
▁ലോ	-9.22943
ട്ടി	-9.23037
▁പ്രേമ	-9.23049
▁നിമിത്തം	-9.23143
▁പ്രപഞ്ച	-9.23357
വോ	-9.23423
▁പാശ്ചാത്യ	-9.23439
▁ഇറങ്ങി	-9.23533
ിപ്പ	-9.23553
▁ആശയം	-9.23553
ിക്കും	-9.23611
ത്തോടു	-9.23634
▁തർജ്ജമ	-9.23666
▁സന്തോഷ	-9.23687
▁വെച്ചു്	-9.23712
▁പത്തു	-9.23795
▁അക്കിത്തം	-9.23824
▁വല്ലതും	-9.23837
▁ബാക്കി	-9.23973
യാണെന്നു്	-9.24175
▁നിർത്തി	-9.24391
▁ഇതിലെ	-9.24631
ത്തേയും	-9.2474
ിന്റെയും	-9.24847
പ്പെടുത്തിയ	-9.24878
▁പ്രധാനപ്പെട്ട	-9.2489
▁ലേഖന	-9.24948
ക്കര	-9.24977
യാണല്ലോ	-9.24978
▁സ്വഭാവം	-9.25122
▁പറ്റി	-9.25129
▁മുതലായവ	-9.25133
▁വിഷമ	-9.25153
മെന്നു്	-9.25262
▁തൊഴിലാളി	-9.25264
▁വിവരിച്ച	-9.25296
പ്പോഴും	-9.2534
▁സർ	-9.25358
▁സംശയ	-9.25362
ിരിക്കും	-9.25489
▁കിട്ടുന്ന	-9.25524
സ്ഥാന	-9.2553
രായി	-9.25533
▁തീര	-9.25641
6	-9.25738
ചെയ്ത	-9.25802
▁ചെയ്യുക	-9.25853
▁അതിന	-9.25854
ട്ടു	-9.25899
▁സ്ഥാപന	-9.25957
▁വൈ	-9.26045
ത്യ	-9.26093
പദ	-9.26135
സ്ത	-9.26192
യാണോ	-9.26211
▁അവള	-9.263
വർക്കു്	-9.26324
ർത്ത	-9.26383
▁എച്ച്	-9.265
▁ചെറുകഥ	-9.26536
▁വസ്തുത	-9.26645
▁വാങ്ങി	-9.26771
രം	-9.26779
യെയും	-9.26819
ദ്ധ	-9.27143
▁മനഃസ്ഥിതി	-9.27148
▁ചോദ്യ	-9.27151
▁പ്രഥമ	-9.27355
▁നിരവധി	-9.27447
▁സംസ്കാര	-9.27454
▁ബന്ധം	-9.27509
ന്ദ	-9.27627
തെന്നും	-9.27675
▁കുട്ടികൾ	-9.27686
▁മനുഷ്യരുടെ	-9.277
▁ആലോചന	-9.27723
ശി	-9.27744
ിക്കുവാൻ	-9.27776
▁മരിച്ചു	-9.2784
െപ്പോലെ	-9.27866
െടുക്ക	-9.2791
▁പൂ	-9.27934
കളുടെയും	-9.27972
േറ്റ	-9.27976
യാൾ	-9.28
▁കരുതി	-9.28018
ക്കള	-9.28067
▁എന്നോ	-9.28081
▁അതുപോലെ	-9.2813
▁തനിക്കു	-9.28175
ത്തോടുകൂടി	-9.2842
െഴുതിയ	-9.28501
▁ലക്ഷ്യം	-9.28553
▁ഭാഷയിൽ	-9.28648
▁ജീവിതത്തിൽ	-9.28652
▁ഞാനും	-9.28739
▁ഉപ	-9.2874
▁തിരു	-9.28761
▁കേവലം	-9.28809
▁അയാള	-9.28813
ിരുന്നെങ്കിൽ	-9.28815
▁കെട്ടി	-9.28846
▁കൃഷ്ണ	-9.28919
▁ധർമ	-9.28919
ഴുത	-9.29019
▁അവരിൽ	-9.29197
സമ	-9.29251
യെന്നു	-9.29376
▁നിവൃത്തിയില്ല	-9.29378
▁മാർക്സിസ്റ്റ്	-9.29399
▁കണ്ടുപിടിക്ക	-9.29578
രൂപം	-9.29618
▁എത്തി	-9.29708
▁അംഗ	-9.29712
ഡി	-9.29768
ചെയ്യ	-9.29796
ോട	-9.29804
▁ഇതേ	-9.29853
▁ജയിച്ച	-9.29945
n	-9.29954
▁ഇന്ത്യയിലെ	-9.30165
▁പ്രയോഗ	-9.30184
▁ഇവയിൽ	-9.30279
▁വന്നതു്	-9.30295
▁ലഘു	-9.30306
▁ചിത്രീകരിച്ച	-9.30388
▁മുഴുവനും	-9.30473
യിട	-9.30487
▁മുമ്പു	-9.30489
▁ദൈവം	-9.30489
ുണ്ടല്ലോ	-9.3053
▁ദേവ	-9.30549
▁മൂന്നാം	-9.30599
▁മേ	-9.30658
പ്രകാരം	-9.30701
▁രോഗ	-9.30726
ലോ	-9.30762
▁നിറ	-9.3079
ത്തും	-9.30825
ദേശ	-9.30926
▁കുറ്റ	-9.30974
▁മലയാളി	-9.31001
▁വേദന	-9.31017
തുകൊണ്ടാണു്	-9.31074
▁പൊടി	-9.31108
ുമില്ല	-9.31204
▁ലോകത്തിലെ	-9.31252
▁ശുദ്ധ	-9.31287
▁ലും	-9.31344
▁മുമ്പ	-9.31353
▁ഒരുപക്ഷേ	-9.3139
കൂട	-9.31411
▁ആലോചിക്ക	-9.3142
▁ആലോചിച്ചു	-9.3146
▁പുറമേ	-9.31534
▁മതത്തിന്റെ	-9.31644
▁എന്നിട്ടും	-9.31648
ുണ്ടെങ്കിൽ	-9.31668
ിരിക്കണം	-9.31674
▁കോളേജ്	-9.31729
▁ജീവിച്ചിരുന്ന	-9.31775
ുകാർ	-9.31854
▁എന്നാലും	-9.31887
കം	-9.31991
▁തോന്നും	-9.31995
▁ചിത്രീകരിക്ക	-9.32013
▁കഥാ	-9.32109
▁കവിതയിൽ	-9.32125
ത്തര	-9.32228
▁അറിഞ്ഞ	-9.32268
▁കാലത്തെ	-9.32277
▁ചിത്രങ്ങൾ	-9.32317
നായിരുന്നു	-9.32358
വിട	-9.32377
▁ഓഫ്	-9.3242
കൊണ്ടുള്ള	-9.32442
▁വിശ്വസിക്കുന്ന	-9.32463
▁വർഗ്ഗ	-9.32617
al	-9.32674
▁പോരാ	-9.32763
u	-9.32768
▁നേതാവു്	-9.32796
മാകുന്ന	-9.32801
ിലുള്ള	-9.32911
ാവശ്യ	-9.32924
▁അന്ധവിശ്വാസ	-9.32987
▁ചെ	-9.33065
▁സൂചിപ്പിക്കുന്ന	-9.33153
യാകുന്നു	-9.33183
▁എന്നൊക്കെ	-9.33188
▁ഈയിടെ	-9.33341
പ്പോയി	-9.33356
യായിരുന്ന	-9.33375
ഭാവ	-9.33407
▁വർഷ	-9.33531
▁ഇഷ്ട	-9.33565
▁ന്യായ	-9.33576
▁സ്ഥാനാർഥി	-9.3363
വർഗ്ഗ	-9.33632
ാട	-9.33689
▁വരുന്നു	-9.337
ിരിക്കുകയാണു്	-9.33706
ുമാണു്	-9.33734
▁കഴിയ	-9.33788
ങ്	-9.33934
▁കോട്ട	-9.33944
▁മുന്നോട്ടു	-9.33996
▁പരിഭാഷ	-9.34034
▁അന്വേഷണ	-9.3408
ന്റ	-9.34144
▁വെളിച്ച	-9.34406
ഭാഗ	-9.34443
▁ഇത്തവണ	-9.3445
▁പിന്നാലെ	-9.3445
▁ജനറൽ	-9.34453
ബോധ	-9.34455
▁മെ	-9.34527
▁നോക്ക	-9.3454
▁ചുരുക്കത്തിൽ	-9.34552
കർ	-9.34618
യില്ലാത്ത	-9.34653
രാജ്യ	-9.347
ശേഷം	-9.34769
▁ലോകത്തിൽ	-9.34769
ക്കാരും	-9.34777
▁നിര	-9.34864
▁തരം	-9.34899
▁സംഗീത	-9.34942
▁ജയിച്ചു	-9.34957
▁ജ്ഞാന	-9.34996
▁അനു	-9.34998
കൊണ്ടിരുന്നു	-9.35059
ിട്ടുണ്ടോ	-9.35234
▁അല്ലേ	-9.35248
▁വീണു	-9.35349
▁കറുത്ത	-9.35496
▁11	-9.35513
▁പാടില്ല	-9.35514
യിരുന്നു	-9.35625
▁ചാ	-9.35681
▁ഏത	-9.35741
ോട്ട	-9.35824
▁പിന്നിൽ	-9.35867
▁തോന്നിയ	-9.36119
▁കാണും	-9.36165
▁കല്യാണം	-9.36191
▁കണ്ണുകൾ	-9.36266
ീകരി	-9.36305
▁മരണം	-9.36405
▁വിളി	-9.36409
ിച്ചതു്	-9.36471
▁മിക്കവാറും	-9.36544
▁and	-9.36793
ുകയുള്ളു	-9.36809
▁വ്യത്യാസ	-9.36827
▁അത്ഭുത	-9.36861
▁നിയമം	-9.36973
▁അനുഭവം	-9.36995
▁പരിപാടി	-9.37023
▁രാജ്യം	-9.37124
െഴുതി	-9.37172
▁തെറ്റ	-9.37192
▁വേ	-9.37234
he	-9.37293
▁ടെ	-9.37347
▁ലക്ഷ്യ	-9.3737
രാണു്	-9.37457
ുമെന്ന	-9.37486
▁ആരെങ്കിലും	-9.37645
▁നമുക്ക	-9.37679
ന്തി	-9.37734
▁കാണുന്നു	-9.3776
▁ഒട്ടും	-9.37764
▁സമ	-9.37793
കൊടുത്തു	-9.3793
▁വന്നപ്പോൾ	-9.37941
▁നാമ	-9.37954
▁സംഖ്യ	-9.37964
▁പുരുഷ	-9.38033
ട്ട്	-9.38054
ക്കുക	-9.38066
▁തിര	-9.38072
കളായി	-9.38083
▁അവൾക്കു	-9.38124
മായിത്തീർന്ന	-9.38134
▁ഭൗതിക	-9.38197
▁ആരോ	-9.38229
വേണ്ടി	-9.38344
ാശ	-9.38409
മാണോ	-9.38491
▁സംഘടന	-9.38537
ക്കാണു്	-9.38641
▁തിരുവനന്തപുരത്ത	-9.38683
▁വളർച്ച	-9.38683
ടുത്ത	-9.38711
▁തട്ടി	-9.38789
▁a	-9.38801
▁അവൾക്കു്	-9.3889
▁15	-9.38938
▁നായ	-9.38939
▁പൊലീസ്	-9.38957
▁ഉണ്ടായി	-9.38983
മന	-9.3917
▁വാക്കുകൾ	-9.39174
▁വാങ്ങ	-9.39225
▁20	-9.39277
യിൽനിന്നു	-9.39299
▁വന്നു്	-9.39329
p	-9.3934
കൻ	-9.39359
▁നിന്റെ	-9.39374
▁കാമ	-9.39601
▁മറ്റ	-9.39601
▁അധികാരം	-9.39684
തയും	-9.39687
ar	-9.39706
▁അതെ	-9.3972
▁നേടി	-9.39756
▁പ്രണയ	-9.39794
▁ഇങ്ങിനെ	-9.39806
ില്ലെന്നു	-9.39852
▁എന്തൊരു	-9.39931
▁കെട്ട	-9.40022
പാ	-9.40033
▁2	-9.40071
▁വ്യത്യാസം	-9.40113
മാണെന്നും	-9.40149
▁ധാരണ	-9.40304
▁വിജയിച്ചു	-9.40323
ക്കണ്ട	-9.40349
▁തിരിച്ചറിയ	-9.40495
▁കൂട്ടി	-9.40514
▁വാദം	-9.40526
▁കവിയുടെ	-9.40527
യുമ	-9.40851
യല്ലേ	-9.40862
▁ശാരദ	-9.40871
▁നദി	-9.40885
▁എല്ലാവർക്കും	-9.40899
▁ഉയർന്ന	-9.40924
▁ശാസ്ത്രീയ	-9.40924
▁വിചാരിച്ചു	-9.41052
പാട	-9.41074
കാര്യ	-9.41114
▁പെരുമാൾ	-9.41122
▁ഇടയ്ക്കു്	-9.41124
▁ജീവി	-9.41212
യോടും	-9.41256
ച്ഛ	-9.41354
▁നന്മ	-9.41381
ാനായി	-9.41435
യുണ്ടാ	-9.41599
▁ആത്മഹത്യ	-9.41691
7	-9.4171
▁കേ	-9.41728
തായിരുന്നു	-9.41921
▁പരിശോധിക്ക	-9.41973
▁പറയേണ്ട	-9.41989
▁ഗ്രന്ഥകാരൻ	-9.41989
▁ഇക്കാര്യത്തിൽ	-9.42047
▁വിജയം	-9.42096
ഗ്രന്ഥ	-9.42121
▁ചോദിച്ച	-9.42169
▁വായിക്ക	-9.42229
▁പെ	-9.42238
▁ഇദ്ദേഹം	-9.4226
ുമ്പോഴാണു്	-9.42274
▁അതോടെ	-9.42288
റും	-9.42295
പ്പെടുത്തി	-9.42319
ബോധം	-9.42328
കൊള്ള	-9.42376
ക്കുവാൻ	-9.42395
▁കണ്ണ	-9.42408
▁തനിക്കു്	-9.42416
▁കടുത്ത	-9.42473
ലാണു്	-9.42477
▁പറയുന്നുണ്ടു്	-9.42499
മുണ്ടായി	-9.42518
മാത്ര	-9.42636
വിൽ	-9.4266
▁വിശ്വസിക്ക	-9.42748
▁സ്ഥാപിക്ക	-9.42768
സാ	-9.42875
3	-9.42883
▁നൽകുന്ന	-9.4293
▁നീട്ടി	-9.43038
▁സമയ	-9.43046
▁ഇടതുപക്ഷ	-9.43113
ക്കാല	-9.43213
യുമായ	-9.43232
▁ഭ്രാന്ത	-9.43281
▁പേടി	-9.43285
▁സെ	-9.43321
▁വൈകുന്നേരം	-9.43442
ോളം	-9.43442
മൂലം	-9.43501
േക്ക	-9.43514
▁നിങ്ങൾക്കു്	-9.43588
▁ക്രിസ്ത്യാനി	-9.43596
▁അംഗീകരിക്ക	-9.43624
ക്കേ	-9.43662
▁സമൂഹ	-9.43731
▁കൃഷി	-9.43988
യാണെങ്കിൽ	-9.44081
▁കിടന്നു	-9.44236
▁വരുന്നതു്	-9.44281
▁രാമ	-9.44281
ിയതു്	-9.44289
▁ഒടുക്കം	-9.44313
▁കരുണാകരന്റെ	-9.44317
▁ജനങ്ങളുടെ	-9.44335
▁രണ്ടുപേരും	-9.44349
▁സ്വപ്ന	-9.44355
▁വരി	-9.4436
▁മാറ്റം	-9.44408
▁ഹൈക്കോടതി	-9.44542
പ്പാ	-9.44547
ഭേദ	-9.44565
▁പിടി	-9.44608
സാഹിത്യ	-9.44648
മായും	-9.44664
തെല്ലാം	-9.44754
▁രാഷ്ട്ര	-9.44809
▁മറിച്ചു്	-9.44815
▁ചുമതല	-9.44817
on	-9.44899
▁വിട്ട	-9.44922
▁നയ	-9.44952
▁പരാജയ	-9.45099
▁അഭിപ്രായപ്പെട്ട	-9.45131
▁പാത്ര	-9.45144
▁ക്ഷമ	-9.45146
ലോക	-9.45176
▁സൂക്ഷ്മ	-9.45189
ിറങ്ങി	-9.45349
▁ചീഫ്	-9.45393
▁പരിചയ	-9.45401
▁സമ്പ്രദായം	-9.45595
▁നിരൂപണ	-9.45661
▁അതില	-9.45694
ാത്മക	-9.45753
▁മാതൃക	-9.4583
▁നിത്യ	-9.45874
റാ	-9.45879
രിൽ	-9.45924
കേന്ദ്ര	-9.46044
ുടെയും	-9.46048
പ്പെടുന്നു	-9.46093
റോ	-9.46124
▁ആരോഗ്യ	-9.46137
▁തെളിഞ്ഞു	-9.46182
ുമുണ്ടു്	-9.46187
▁is	-9.46234
▁രാജാവു്	-9.46255
നുമായ	-9.46265
▁പാട്ടു	-9.4628
▁കി	-9.46293
▁നാട്ടിലെ	-9.464
▁ബോധം	-9.46402
▁വെറുതെ	-9.46521
ദ്യോഗിക	-9.46552
▁ഒരൊറ്റ	-9.46556
▁ഒന്നാമത്തെ	-9.4656
▁പുരോഗമന	-9.46568
▁അവകാശ	-9.4659
ത്തിനായി	-9.46637
▁സാമാന്യ	-9.4667
▁മധുര	-9.46672
ാട്ട	-9.46686
▁സ്നേഹം	-9.4669
▁എണ്ണ	-9.4669
▁10	-9.46783
ജ്ഞ	-9.46855
മൊക്കെ	-9.46874
▁തോറ്റു	-9.47036
▁ശ്രമിച്ച	-9.47049
വന്റെ	-9.47119
▁സ്ത്രീകൾ	-9.47136
▁ഭൂരിപക്ഷ	-9.47241
▁ചെല്ല	-9.47242
ര്‍	-9.47272
▁വിദേശ	-9.47296
▁ഉദാഹരണം	-9.47302
▁മെയ്	-9.47306
മാരും	-9.47403
മല്ലേ	-9.47451
▁രചിച്ച	-9.4747
▁പരമ	-9.4748
▁പറയുന്നതു	-9.47536
▁വിജ്ഞാന	-9.47577
▁സൃഷ്ടിച്ച	-9.47615
▁ഇടം	-9.47623
വംശ	-9.47716
▁മികച്ച	-9.47731
▁പണ്ടു്	-9.47808
േണ്ടി	-9.47865
▁കാണിച്ചു	-9.4794
▁നേരത്തെ	-9.4795
കുഞ്ഞാലിക്കുട്ടി	-9.47994
ാനോ	-9.48115
മായിരുന്ന	-9.48137
▁വിദ്യാർത്ഥി	-9.48148
▁പുസ്തകങ്ങൾ	-9.48149
ിൻ	-9.48178
▁രാമൻ	-9.48247
മുണ്ട	-9.48255
▁ഓട	-9.48264
▁എടുത്ത	-9.4835
െത്തിയ	-9.48529
ായിരിക്കാം	-9.48549
▁ഇരു	-9.48551
▁തേ	-9.4856
▁നാല	-9.48575
ിരിക്കാം	-9.48593
ാണെന്നും	-9.48598
▁അരി	-9.48636
▁രചന	-9.48645
▁പാത	-9.48647
▁ഗോ	-9.48679
യെപ്പോലെ	-9.48918
▁വമ്പിച്ച	-9.48919
▁ബാലകൃഷ്ണപിള്ള	-9.4892
▁ജോൺ	-9.48928
▁അച്ഛന്റെ	-9.48948
ാനു	-9.48954
▁തൊഴിൽ	-9.48976
േണ്ടിവന്നു	-9.49101
▁ജസ്റ്റിസ്	-9.49108
ുണ്ടായിരുന്നില്ല	-9.4913
▁മനസ്സു	-9.49139
ിനോടു്	-9.49249
▁പുറപ്പെട്ട	-9.49265
▁ഐതിഹ്യം	-9.49286
ദർശന	-9.49288
ാർത്ഥ	-9.49313
വാൻ	-9.49323
▁വല	-9.49386
ലിൽ	-9.49417
▁ഇടയ്ക്കു	-9.49473
പൂർവ്വം	-9.49502
▁മാത്രമ	-9.49527
ചെയ്തു	-9.49606
▁കത്തി	-9.49652
▁പതിവു്	-9.49681
d	-9.4973
ുകളുടെ	-9.49777
വൃത്തി	-9.4978
മാണു	-9.49795
▁ഉച്ച	-9.49861
വള	-9.49867
▁സ്വകാര്യ	-9.49939
▁തുടര	-9.49972
ിട്ടുണ്ടെന്നു	-9.49979
▁ജീവിതത്തെ	-9.50023
▁പൂർവ്വ	-9.50131
▁വിഷയം	-9.50132
ുന്നതിനു	-9.50249
മുണ്ടായിരുന്നു	-9.5025
▁യുവ	-9.50256
▁വാക്കു	-9.50351
▁ഇതിനു്	-9.50358
▁കൃതികൾ	-9.50418
▁ഭാരത	-9.50491
▁വരച്ച	-9.50646
▁ജല	-9.50647
ബ്	-9.50667
▁സാഹിത്യം	-9.50811
ോടും	-9.50893
▁വരുമ്പോൾ	-9.50919
▁കാക്ക	-9.50981
▁കൊണ്ടുവന്ന	-9.5099
▁പടി	-9.51008
വാദം	-9.51059
കവി	-9.51097
ഹിത	-9.51103
മുമ്പു്	-9.51152
▁സഹായ	-9.51178
▁ചുവടെ	-9.51343
▁തിരുവനന്തപുരം	-9.51343
▁ജനകീയ	-9.51344
▁വോട്ടു	-9.51386
▁ചിന്താ	-9.5144
▁ചുറ്റും	-9.51465
▁ഗതി	-9.5166
▁12	-9.51673
താണെന്നു	-9.51698
▁ഇരുന്നു	-9.51717
▁മനസ്സിലാക്കിയ	-9.5177
കഴിഞ്ഞു	-9.51801
▁നിൽക്ക	-9.51839
ില്ലല്ലോ	-9.51925
പ്രസ്ഥാന	-9.51936
▁ഭയ	-9.51956
സ്ഥാനം	-9.51979
▁മാറിയ	-9.51984
▁പാവം	-9.52025
▁പ്രസ്താവന	-9.52046
വനും	-9.52059
ജീവിത	-9.52098
ാതിരുന്ന	-9.52139
ന്മാരായ	-9.52147
്യാ	-9.5222
പ്പു്	-9.52278
ഫ്	-9.5241
▁ചീന	-9.52514
▁ഭ	-9.52533
▁ഇരുന്ന	-9.52546
▁സുന്ദര	-9.52548
▁ഫോട്ടോ	-9.52579
ടു	-9.52604
വിനെ	-9.52617
▁വിശ്വ	-9.52677
പക്ഷ	-9.5275
▁സാധ്യത	-9.52776
▁s	-9.5279
▁ഭക്തി	-9.52798
▁പറ	-9.52828
▁സാധാരണയായി	-9.52872
▁നാട	-9.52882
▁ദർശന	-9.52922
▁ബാ	-9.5295
▁പ്രതിപക്ഷ	-9.52973
ുമെന്നും	-9.5301
▁കാലത്തു	-9.53022
▁ഉപയോഗിക്ക	-9.53037
ാലേ	-9.53063
▁ചികിത്സ	-9.53099
മാത്രമേ	-9.53137
ക്കൽ	-9.53244
▁ലേഖനം	-9.53253
▁നേരത്തേ	-9.53271
▁തെരഞ്ഞെടുപ്പു	-9.53307
മാറ്റ	-9.5333
▁അവസാന	-9.53505
▁സംഭവിച്ച	-9.5352
▁വിചാരിക്കുന്നു	-9.53666
▁പെട്ടെന്നു്	-9.53741
▁ബഹു	-9.53747
▁13	-9.53844
▁ശങ്കർ	-9.53899
▁ചെന്നു്	-9.53903
▁സ്ഥിതിചെയ്ത	-9.5392
▁പുറമെ	-9.53988
ശീല	-9.54014
▁ഛായ	-9.54062
െന്നാണു്	-9.54086
▁ഭയങ്കര	-9.54087
നാമ	-9.54112
▁പരിഷ്കാര	-9.54116
▁മനുഷ്യരെ	-9.54204
▁സാ	-9.54207
▁നും	-9.54274
▁വലിയൊരു	-9.54276
▁തെറി	-9.54293
ിക്കാം	-9.54306
▁വാക്കു്	-9.54339
▁പേരും	-9.54359
▁അകത്തു	-9.54408
▁വർണ്ണ	-9.54532
മായിരിക്കും	-9.54624
▁മൃഗ	-9.54657
▁വേദ	-9.54668
▁കമ്പനി	-9.54721
▁ശ്രമ	-9.54754
▁ഉള്ളിൽ	-9.54807
▁മറ്റു്	-9.5481
▁കൊടുക്കുന്ന	-9.54863
കൊണ്ടിരുന്ന	-9.54893
പ്പെടുന്നതു്	-9.54935
▁ദൃശ്യ	-9.54935
വയാണു്	-9.54936
▁ഇരിക്ക	-9.54941
മല	-9.54953
▁നെഹ്റു	-9.54954
പുര	-9.54989
▁14	-9.55054
▁നിർത്ത	-9.5508
m	-9.55113
▁ദരിദ്ര	-9.55166
▁തങ്ങൾ	-9.55179
▁മാർച്ച്	-9.55223
കോ	-9.55227
▁ലഹള	-9.55257
▁അധിക	-9.55298
ഷി	-9.55338
സിദ്ധാന്ത	-9.55349
ുകയാണെങ്കിൽ	-9.55368
കളില	-9.55424
േക്കു	-9.55447
▁തൊട്ടു	-9.55447
കാലത്തെ	-9.5547
റിഞ്ഞ	-9.55476
ർത്ഥ	-9.55505
ുണ്ടെന്നു്	-9.55521
▁കാണിക്ക	-9.55554
തെന്ന	-9.55606
▁നോക്കുമ്പോൾ	-9.55608
▁വ്യത്യസ്ത	-9.5575
▁ഖ	-9.55773
യാക്കി	-9.55784
▁നീങ്ങി	-9.55798
▁ഇപ്പോഴത്തെ	-9.55798
▁ലാ	-9.55887
ഴി	-9.55901
ിട്ടാണു്	-9.55915
ക്കൊ	-9.55966
ുണ്ടെന്നു	-9.55996
▁വിചാരിച്ച	-9.56051
▁ശീല	-9.56101
▁നേരിട്ട	-9.56152
▁പുരോഗതി	-9.56198
▁ചീത്ത	-9.56208
▁തള്ള	-9.56329
▁കുത്തി	-9.56355
▁1958	-9.56377
▁പ്രമുഖ	-9.56415
യെന്നും	-9.56471
മെ	-9.56476
▁വേണ്ടത്ര	-9.56481
▁കഴിഞ്ഞില്ല	-9.56489
െടുത്തു്	-9.56495
ക്ത	-9.56556
▁ചിന്താഗതി	-9.56578
▁ആദി	-9.56581
കഴിഞ്ഞ	-9.56589
കൊടുക്ക	-9.56626
കെട്ട	-9.56668
▁കുറഞ്ഞു	-9.56768
▁എട്ടു	-9.56832
▁അക്കാലത്തു്	-9.56847
▁അഞ്ച	-9.56874
പരി	-9.56888
▁ഏഴു	-9.56889
ിൽനിന്നു	-9.56968
മാണെങ്കിൽ	-9.56977
▁പറഞ്ഞിട്ടുള്ള	-9.56979
▁പറയുക	-9.57016
ാറുള്ള	-9.57019
ിനെപ്പറ്റി	-9.5711
▁പോര	-9.57151
▁മഞ്ഞ	-9.57157
▁ഹൃദയം	-9.5721
▁തർക്ക	-9.57226
▁പ്രവർത്തിച്ച	-9.5723
ക്രമ	-9.57428
കളിലൂടെ	-9.57462
▁ഒന്നിച്ചു	-9.57505
യുമില്ല	-9.57561
▁വശ	-9.57568
സ്വഭാവ	-9.57664
വിരുദ്ധ	-9.57666
ില്ലെന്നു്	-9.57669
▁1996	-9.57675
▁വള്ളത്തോൾ	-9.57675
▁ഭാഗ	-9.57693
▁സാങ്കേതിക	-9.57701
▁ഇന്നലെ	-9.57701
▁ഉണ്ടാക്ക	-9.57742
▁തോമസിന്റെ	-9.57765
▁ഇതൊരു	-9.57787
▁ചോര	-9.57789
ില്ലാതെ	-9.57838
കരമായ	-9.57878
▁കൂ	-9.57915
▁വേദാന്ത	-9.57953
വിടെ	-9.57983
▁വിളിക്ക	-9.57999
▁ഓർമ	-9.58026
കളുണ്ടു്	-9.5803
ഫല	-9.58075
▁മനസ്സിലാക്കി	-9.58155
▁തകഴി	-9.58229
▁എന്നായിരുന്നു	-9.58348
▁5	-9.58486
മുണ്ടായ	-9.58504
ായിത്തീർന്ന	-9.58512
▁ആവശ്യമില്ല	-9.58608
െത്തി	-9.58645
▁ജനുവരി	-9.58769
▁യോഗ	-9.58772
▁മാപ്പിളപ്പാട്ട	-9.58804
▁വേറൊരു	-9.5899
ക്ഷേത്ര	-9.58994
▁തീർച്ചയായും	-9.58994
▁പാർട്ടിയുടെ	-9.59004
▁ഉമ്മ	-9.59024
▁പിടിക്ക	-9.59078
▁ലഭിക്ക	-9.59082
▁ഇതെല്ലാം	-9.59098
▁സമരം	-9.59125
പു	-9.5916
▁നില്ക്കുന്ന	-9.59161
▁ഉദാഹരണങ്ങൾ	-9.5922
ങ്ങളില	-9.59231
▁എന്തു്	-9.59279
ജീവി	-9.59356
▁വേഗം	-9.59405
േയുള്ളൂ	-9.59495
▁സമാധാനം	-9.59502
ിനെയും	-9.59543
ക്കാരനായ	-9.59561
▁തുറന്ന	-9.59587
▁മനുഷ്യന	-9.59618
വർഷം	-9.5965
തേ	-9.59716
ിട്ടില്ലാത്ത	-9.59832
▁കഷ്ട	-9.59848
കാരൻ	-9.59883
ാനന്ദ	-9.5994
താണെന്നു്	-9.60037
സു	-9.60048
യിട്ടു	-9.60076
▁പാറ	-9.60113
▁അതിനെപ്പറ്റി	-9.60141
▁നിന്നാണു്	-9.60145
▁വിള	-9.60152
ാന്ത	-9.60272
▁സൃഷ്ടിക്ക	-9.60283
▁പേരിട്ട	-9.60328
▁ലീഗ്	-9.60331
▁ജന്മി	-9.60346
1	-9.60384
ക്കിടയിൽ	-9.60511
▁സുപ്രസിദ്ധ	-9.60535
▁യാഥാർത്ഥ്യ	-9.60548
േക്കും	-9.60556
വിഷയ	-9.60653
▁റ	-9.60793
പ്പറ്റി	-9.60825
▁കർമ്മ	-9.60878
വിധം	-9.60919
ുപോയ	-9.60923
▁പഠിക്ക	-9.60934
േക്കാൾ	-9.60939
▁തത്ത്വചിന്ത	-9.60948
▁ചുറ്റി	-9.60971
▁അയാൾക്കു	-9.60977
▁ആവർത്തിച്ചു	-9.61049
▁കുറവ	-9.61059
ഘ	-9.61065
ക്കായി	-9.61101
മുണ്ടായിരുന്ന	-9.61231
തുകൊണ്ടു	-9.61231
നിന്നും	-9.61284
▁ഒച്ച	-9.61314
▁ശിവ	-9.61333
▁മണ്ഡല	-9.61408
▁ചട്ട	-9.61421
കൂ	-9.61544
▁കൊണ്ടുവന്നു	-9.61583
▁ഒടുവിലത്തെ	-9.61703
▁പൊതുവെ	-9.61705
▁വലിച്ചു	-9.61753
▁കയറ	-9.61829
▁മുഖേന	-9.61837
▁കോൺഗ്രസിന്റെ	-9.61838
▁കേരളം	-9.61839
തയുടെ	-9.61909
▁പാട്ട	-9.61915
▁ദിവ്യ	-9.61937
▁നിർ	-9.62031
▁ശതമാനം	-9.62048
▁പരിണാമ	-9.62084
5	-9.62237
▁ദേഹ	-9.62257
േണ്ടതാണു്	-9.62308
▁സമ്പ്രദായ	-9.62349
▁നടപടി	-9.62354
▁അടിമ	-9.62367
▁ആന	-9.62469
പോകുന്ന	-9.62477
▁തോറ്റ	-9.62538
പിടിച്ച	-9.62555
േണ്ടതില്ല	-9.62642
▁എഴുന്നേറ്റു	-9.62643
▁വൻ	-9.62701
▁ഇന്ദിര	-9.62723
സ്ഥാപന	-9.62727
▁വള	-9.62782
ന്റ്	-9.62839
▁കഴിക്ക	-9.62886
▁ചേർന്നു	-9.62894
▁പഠിക്കുന്ന	-9.62895
▁സാധിക്ക	-9.62925
▁അദ്വൈത	-9.62949
▁ആവശ്യം	-9.62976
▁സംഭാഷണ	-9.62999
▁നവീന	-9.63033
▁പ്രാദേശിക	-9.63044
▁മൂന്ന	-9.63092
▁പണ്ടു	-9.63144
▁മാർഗ്ഗ	-9.63227
വായ	-9.63244
▁ഗവേഷണ	-9.6327
▁പറയുമ്പോൾ	-9.63274
▁പറ്റ	-9.63311
പിടിച്ചു	-9.63372
വൈ	-9.63389
നില്ക്കുന്ന	-9.63494
തുതന്നെ	-9.63532
ിക്	-9.636
▁എന്നതു	-9.63606
▁കണ്ടപ്പോൾ	-9.63612
ാണെങ്കിലും	-9.63636
▁പരസ്യ	-9.63645
ധി	-9.63721
ുകൊണ്ടു	-9.63728
▁സംഭവം	-9.63878
▁ആരാണു്	-9.63885
ങ്ങളിലൂടെ	-9.63945
സിന്റെ	-9.6399
ിപ്പിച്ച	-9.64016
ഗതി	-9.64024
തെ	-9.64029
ർക്കു്	-9.64032
ങ്ങളേയും	-9.64045
ശ്	-9.64052
▁നാടകം	-9.64076
വു്	-9.64153
▁മദ്യ	-9.64271
▁അടുപ്പ	-9.64347
▁ഏപ്രിൽ	-9.64434
▁1977	-9.64434
▁ക്രമേണ	-9.64436
▁നാളെ	-9.64438
▁ഭാവന	-9.64475
യതു്	-9.6451
യുടേയും	-9.64542
സ്റ്റ്	-9.64619
▁ഭാവി	-9.64649
▁നോട്ട	-9.6466
▁രാജി	-9.64692
▁പറഞ്ഞില്ല	-9.64706
ാൾ	-9.6479
വരിൽ	-9.6488
രസ	-9.6489
▁ഇരുട്ട	-9.64903
▁പെട്ടി	-9.64963
യോടുകൂടി	-9.65027
▁വെളുത്ത	-9.65049
തിനെപ്പറ്റി	-9.65051
മാണെന്ന	-9.65169
▁കഥയിൽ	-9.65188
▁വിജയൻ	-9.65208
മാണതു്	-9.65291
▁പറഞ്ഞിട്ടുണ്ടു്	-9.65298
ങ്ങു	-9.65315
▁നേട	-9.65346
▁എങ്ങനെയാണു്	-9.65348
▁സീറ്റു	-9.65361
▁കുട	-9.65458
നിൽക്കുന്ന	-9.65473
▁മൂത്ത	-9.65491
▁തോന്നുന്ന	-9.65547
▁ആശുപത്രി	-9.65579
▁നിങ്ങള	-9.65595
▁ശാന്ത	-9.65626
െന്നോ	-9.65649
▁അറിവ	-9.65652
en	-9.65679
▁ആറു	-9.65683
ചരിത്ര	-9.65698
▁ആലുവാ	-9.65809
▁പ്രയോഗിച്ച	-9.65837
▁പ്രസിദ്ധീകരിച്ച	-9.65843
▁തീവണ്ടി	-9.65848
▁ചുവന്ന	-9.65853
▁പദ്ധതി	-9.65856
ത്തിൽനിന്നും	-9.65857
▁നരക	-9.65872
▁അദ്ദേഹ	-9.65875
▁തികഞ്ഞ	-9.65883
രോ	-9.65904
പറയ	-9.65976
▁പത്രാധിപർ	-9.66002
▁കുട്ടികളെ	-9.66003
▁നേര	-9.66006
▁നിയമസഭാ	-9.66049
▁ചെയ്തു്	-9.66049
▁ജന്മ	-9.66124
▁മേല	-9.66164
▁യോഗം	-9.66259
മതി	-9.66327
ത്തോടും	-9.66335
ുന്നതാണു്	-9.66344
യുന്ന	-9.66345
▁എങ്ങിനെ	-9.66354
▁കയ്യ	-9.66358
▁അതോ	-9.66458
▁ഫലമായി	-9.66461
▁അംഗം	-9.66493
പതി	-9.66521
മല്ലാത്ത	-9.66533
ൊന്നുമില്ല	-9.66547
ജ്	-9.66591
▁പ്രശ്നങ്ങൾ	-9.666
▁ഇതാ	-9.66631
ുമായ	-9.6666
▁സമയത്തു്	-9.66665
▁വർത്തമാന	-9.66681
▁മറ്റേ	-9.66704
▁വെളിപ്പെടുത്ത	-9.66705
▁വിദ്യ	-9.66711
▁സഹ	-9.66717
▁in	-9.66734
▁കവിതയുടെ	-9.66742
▁പെട്ടെന്നു	-9.66792
▁വീടു	-9.67029
▁17	-9.67078
വച്ചു	-9.67151
ക്കൾ	-9.6721
▁ഗുഹ	-9.67256
▁ചേട്ടൻ	-9.67279
▁കാപ്പി	-9.67297
ാരും	-9.67351
▁വിനയ	-9.6736
ിഷ്ട	-9.67382
▁പറ്റില്ല	-9.67407
കളെപ്പറ്റി	-9.67417
▁പണ്ടേ	-9.67461
▁കനത്ത	-9.67463
വരുന്നു	-9.67482
▁ഫലിത	-9.67525
▁മലയാളത്തിലെ	-9.67567
▁എത്തിയ	-9.67623
▁നല്ലൊരു	-9.67625
▁മാസം	-9.67628
▁പ്രദേശ	-9.67628
▁പറയാതെ	-9.67667
▁വികസന	-9.67687
▁മനുഷ്യര	-9.67787
▁മനസ്സ	-9.67865
ികളായ	-9.67913
▁16	-9.68023
ട്ടു്	-9.68251
▁നേരിട്ടു	-9.68264
യുണ്ടായി	-9.68302
▁വാക്യ	-9.68304
ാക്കിയ	-9.68311
▁ജീവിക്കുന്ന	-9.68347
ടേ	-9.68388
▁ഐക്യ	-9.68479
▁കുറ	-9.68488
ികളുടെ	-9.68497
▁വാസന	-9.6858
▁ജഡ്ജി	-9.68599
രംഗ	-9.68601
കൊടുത്ത	-9.68601
▁കൃത്രിമ	-9.68609
▁വീടു്	-9.68619
▁ഓടി	-9.68657
▁ചൂണ്ടിക്കാണിക്ക	-9.6872
▁എത്രയെത്ര	-9.6872
ിപ്പിക്കുന്ന	-9.68729
നോടു്	-9.68733
▁നേരിട്ടു്	-9.68746
ല്പ	-9.6876
▁പ്രത്യേകത	-9.68812
▁സിദ്ധിച്ച	-9.68854
▁കലർന്ന	-9.68888
▁പണ്ടത്തെ	-9.68893
വൾ	-9.68897
▁അമേരിക്കൻ	-9.68921
▁കോളേജിൽ	-9.68939
▁വിചിത്ര	-9.68956
▁ഓർക്ക	-9.68972
▁സന്ദർഭ	-9.68977
▁ഏതാണ്ടു്	-9.68982
▁സംശയം	-9.69012
▁പണ്ഡിതന്മാർ	-9.69014
▁അടങ്ങിയ	-9.69032
▁മറന്നു	-9.69073
മാല	-9.69088
ായാലും	-9.69143
▁പദം	-9.69208
▁കുടുംബം	-9.6926
▁പതിവ	-9.69281
▁എഴുതുന്ന	-9.69332
ാണി	-9.69345
▁ഈശ്വര	-9.694
സ്ഥിതി	-9.69423
▁തൊഴില	-9.69444
പാല	-9.69458
▁അച്ഛന	-9.69473
▁മണ	-9.69692
ക്കാരായ	-9.69749
▁ഗാന്ധിജി	-9.6995
തല	-9.69973
▁കുടി	-9.6999
ദ്യ	-9.7002
▁മരിക്ക	-9.70127
ഹൃദയ	-9.70164
▁സെപ്റ്റംബർ	-9.70191
▁നിർമ്മിച്ച	-9.702
ത്തിലോ	-9.7021
▁കരുണ	-9.70232
▁സൂചിപ്പിച്ച	-9.70238
▁ബുദ്ധമത	-9.70263
ംകൊണ്ടു്	-9.70282
▁വാതിൽ	-9.70299
ക്കാരെ	-9.70337
േണ്ടതുണ്ടു്	-9.70363
ത്തോളം	-9.70372
▁മാപ്പിളപ്പാട്ടു	-9.70402
ീസ്	-9.7041
▁വിമർശന	-9.70482
▁ബ്ര	-9.70494
▁മനസ്സിന്റെ	-9.70503
▁ഇടയിൽ	-9.70512
▁പോലീസ്	-9.70528
▁ബുദ്ധൻ	-9.70585
യം	-9.70616
▁പരിവർത്തന	-9.7066
▁മാന	-9.70722
▁കറ	-9.70747
▁കണ്ടതു്	-9.7075
▁റിപ്പോർട്ട്	-9.70907
മാക്കിയ	-9.70953
▁ഡ	-9.71039
ണ്ഡ	-9.71072
ളും	-9.71152
▁24	-9.7119
▁അനന്തരം	-9.71198
▁വിളിച്ച	-9.71199
▁ബ്രഹ്മ	-9.71332
▁ചക്രവർത്തി	-9.71339
ട്ര	-9.71349
▁വ്യാഖ്യാന	-9.71389
▁മാത്രമായി	-9.71406
▁പിള്ള	-9.71426
ക്കാർക്കു്	-9.71456
▁മതവിശ്വാസ	-9.71512
▁വാസ്തവ	-9.71519
▁തൊട്ട	-9.71602
▁സ്ഥാനാർത്ഥി	-9.71628
▁ലൈംഗിക	-9.71631
▁തിരുവിതാംകൂർ	-9.71683
▁എതിരാളി	-9.71684
▁വാമൊഴി	-9.71688
▁ചേരമാൻ	-9.71692
▁കുറച്ച	-9.71703
▁വിര	-9.71705
ിക്കണം	-9.7174
ജീവിതം	-9.71745
▁മറ്റൊന്ന	-9.71779
▁സാധു	-9.71857
ക്കുട്ടി	-9.71895
ത്വവും	-9.71971
▁പ്രവർത്തനം	-9.71973
ധർമ്മ	-9.72027
▁മാസ	-9.72082
▁ജോർജ്	-9.72094
▁ഉപയോഗിച്ച	-9.721
മുണ്ടോ	-9.72154
▁മുതലാളിത്ത	-9.72157
യാണ	-9.72162
▁മലയാളം	-9.72207
▁വധ	-9.72219
▁ഉപദേശ	-9.72231
ഭാവം	-9.7224
▁തള്ളി	-9.723
മൂ	-9.72326
▁അല്ലാതെ	-9.72355
പ്പിച്ചു	-9.724
ിടത്തു്	-9.72438
നായിരുന്ന	-9.72438
▁ഇതുതന്നെ	-9.72596
▁ഗൃഹ	-9.72651
▁വാക്ക	-9.72655
▁വർഗ	-9.72686
▁വിവരം	-9.72723
▁3	-9.72729
▁മുരളി	-9.72758
▁ലേഖനത്തിൽ	-9.72826
▁ഹാ	-9.72848
▁വാഴ	-9.7285
▁മാധ്യമ	-9.7287
യാക	-9.72908
നെയും	-9.72934
ാവൂ	-9.72951
▁മുതിർന്ന	-9.72971
ങ്ങളോ	-9.73054
ണമെന്നും	-9.73055
▁പ്രായോഗിക	-9.73064
▁മുതലാളി	-9.73123
സ്ഥല	-9.73158
നിര	-9.73173
ത്തിന്നു	-9.73195
▁1967	-9.73198
▁ക്രിസ്ത്യൻ	-9.73198
▁ബ്രിട്ടീഷ്	-9.73198
▁മിണ്ടിയില്ല	-9.73199
▁ദുരന്ത	-9.73313
▁കീഴ്	-9.7337
▁കുറ്റം	-9.7341
തന്ത്ര	-9.73422
മന്ത്രി	-9.73425
ed	-9.73474
▁വിശ്വസിച്ച	-9.73561
▁രംഗ	-9.73614
▁പൊ	-9.73617
▁തീർച്ച	-9.73622
▁എന്നിട്ടു്	-9.73661
▁കൃഷ്ണൻ	-9.73742
▁അന്വേഷണം	-9.73757
▁ഉപയോഗിക്കുന്ന	-9.73764
▁കാർ	-9.73793
▁നക്ഷത്ര	-9.73896
▁ശാന്തി	-9.73944
വർഷ	-9.73964
മൊന്നുമില്ല	-9.74101
▁കഴിച്ച	-9.74116
കലാ	-9.74158
ല്ലാത്ത	-9.74216
ബാ	-9.74242
▁പണ്ട	-9.7425
▁സംഘ	-9.74263
▁7	-9.74276
ുന്നതുവരെ	-9.74303
▁കുള	-9.74373
ടിച്ചു	-9.74434
▁വേല	-9.74507
▁കരുത	-9.7451
▁ആഭ്യന്തര	-9.74635
ിക്കുമ്പോൾ	-9.74637
ണു്	-9.74646
നാടക	-9.74651
▁വിശ്വസിച്ചു	-9.74671
▁ചന്ദ്ര	-9.74686
▁വൃക്ഷ	-9.74699
▁പിന്നീടു	-9.74705
▁22	-9.74707
▁1980	-9.74737
▁സീത	-9.74738
▁പ്രൊഫസർ	-9.74742
▁കേരളത്തിന്റെ	-9.74756
▁സംബന്ധിച്ചു്	-9.74811
ങ്ങനെ	-9.74817
▁സമകാലീന	-9.74823
▁താന	-9.74856
േണ്ടിവരും	-9.74887
▁പാപ	-9.749
▁അതൊക്കെ	-9.74909
ക്കാണ	-9.75038
ണോ	-9.75053
ഗുണ	-9.75074
▁മാസ്റ്റർ	-9.75173
▁നിലനിൽക്ക	-9.75196
▁രാജാവിന്റെ	-9.75204
▁കടന്ന	-9.75231
▁ഭംഗി	-9.75271
▁പ്രമേയം	-9.75452
▁പേരുകൾ	-9.75502
▁പോകുന്നു	-9.75542
▁തകർന്നു	-9.75552
ങ്ങളുമായി	-9.75579
▁അനുവദിക്ക	-9.75586
▁തമിഴ	-9.75618
ുമൊക്കെ	-9.75636
ക്കാനും	-9.7564
ബല	-9.75643
മത്രേ	-9.75658
▁പഠിച്ചു	-9.75684
8	-9.75702
▁കേട്ടു്	-9.75721
ുവെന്നും	-9.7574
ക്കുമ്പോൾ	-9.75782
▁രഹസ്യ	-9.75815
▁വൈരുദ്ധ്യ	-9.75821
▁സം	-9.75843
▁ഇന്ത്യാ	-9.75848
ിന്മേൽ	-9.75926
▁വാസ്തവം	-9.75926
മ്പി	-9.75959
വുമ	-9.75977
▁ആര	-9.76001
▁നില്ക്ക	-9.7601
▁പൊട്ട	-9.76052
▁പട്ടിണി	-9.76139
കെട്ടി	-9.7616
▁ധീര	-9.76216
▁വയലാർ	-9.76289
▁ആയുധ	-9.76294
▁നന്ദി	-9.76295
തീ	-9.76297
ന്മാ	-9.76299
▁കുളി	-9.76302
ലിന്റെ	-9.76337
▁ഗദ്യ	-9.7635
▁ജില്ലാ	-9.76403
▁ഉടൻ	-9.76437
▁ലഭിക്കുന്ന	-9.76455
കവിത	-9.76477
പറ്റി	-9.76481
▁എത്രമാത്രം	-9.7649
▁ചെയ്യാം	-9.76534
▁ആവ	-9.76554
▁ഈശ്വരൻ	-9.76555
▁ആണ	-9.76558
▁എത്ത	-9.76618
പെട്ട	-9.76727
▁വിവര	-9.76737
യ്ക്കാൻ	-9.76746
▁സാദ്ധ്യമല്ല	-9.76748
▁ധന	-9.76899
▁ഇവരിൽ	-9.76905
▁അർത്ഥത്തിൽ	-9.76925
▁മധ്യ	-9.76945
▁ഉദ്ദേശിച്ച	-9.77004
▁നേരിട	-9.77032
▁ധരിച്ച	-9.77059
▁ചേർത്തു	-9.77063
▁ഒരാൾക്കു്	-9.77183
▁തത്വ	-9.77185
▁സ്വാധീന	-9.77233
ുണ്ടെങ്കിലും	-9.77266
▁മാല	-9.77289
▁ആളുകളെ	-9.77361
ാകുന്ന	-9.77373
▁മകൾ	-9.7738
▁റഷ്യ	-9.77443
▁മാന്യ	-9.77447
▁അതിശയോക്തി	-9.7746
▁കാൽ	-9.77625
▁തോ	-9.77643
▁പണിയ	-9.77776
▁യുക്തിവാദ	-9.77788
യായിരിക്കും	-9.77815
▁തുടർന്നു്	-9.77826
യൻ	-9.77861
▁സ്കൂൾ	-9.7788
▁1991	-9.77887
▁താരതമ്യേന	-9.77888
▁സ്റ്റേറ്റ്	-9.77891
▁കാത്തു	-9.77911
▁വേയി	-9.77934
▁തട്ട	-9.77936
▁അദ്ധ്യാപകൻ	-9.78032
▁അവന	-9.78051
▁നിലപാടു്	-9.78077
▁കാള	-9.78104
▁ബുദ്ധിജീവി	-9.78104
ാമെന്നു	-9.78216
▁കഴിഞ്ഞാൽ	-9.78222
▁നേതാക്കൾ	-9.78255
ൊന്നു്	-9.78261
തിലും	-9.78266
ാകാൻ	-9.78271
▁അപ്പോഴും	-9.78341
ത്തേക്കാൾ	-9.78346
▁കഥകളി	-9.78349
▁മത്സര	-9.78387
▁ദിവസ	-9.784
▁പട്ടി	-9.7841
▁കരി	-9.78421
തായ	-9.78427
▁നന്നായി	-9.78454
നെപ്പോലെ	-9.78481
ട്	-9.78484
സംഘ	-9.78514
രൂപത്തിൽ	-9.78535
െന്നപോലെ	-9.78545
▁വിവാദ	-9.78564
▁വയസ്സ	-9.78586
es	-9.78607
▁വാക്യം	-9.78674
▁നഗ്ന	-9.78704
▁ദീർഘ	-9.78794
യേക്കാൾ	-9.78805
▁പ്രമാണ	-9.78807
ടാ	-9.78943
▁ബോ	-9.79025
▁സ്ഥാനത്തു്	-9.79028
▁വരെയുള്ള	-9.79091
▁കിടന്ന	-9.79193
നേയും	-9.79241
ിലോ	-9.79251
▁അറിഞ്ഞു	-9.79268
ക്കണം	-9.79347
ത്തക്ക	-9.79363
കളെല്ലാം	-9.79397
ക്കൂട്ട	-9.79473
▁വൈദിക	-9.79487
▁പ്രൊഫ	-9.79494
▁എന്തെന്നാൽ	-9.795
▁19	-9.79506
▁അപേക്ഷ	-9.79506
യപ്പോൾ	-9.79509
▁തലമുടി	-9.79515
▁എഴുത്തു	-9.79517
കുട്ടി	-9.79526
▁നവ	-9.79585
▁പ്രതിഷേധ	-9.79597
ലേ	-9.79598
▁കഴിയൂ	-9.79609
യിട്ട	-9.79675
▁പാഠ	-9.7969
ിരിക്കുന്നതു	-9.79706
▁ദോഷ	-9.79714
▁ശൈലി	-9.79737
▁കല്ല	-9.7974
▁കൊണ്ടും	-9.79758
▁ചേർക്ക	-9.79796
▁നോക്കൂ	-9.79797
▁പാരസിക	-9.79881
ഠ	-9.7989
▁അക്ഷര	-9.7993
▁ജീവചരിത്ര	-9.79938
▁അപര	-9.79944
▁ദേശാഭിമാനി	-9.79965
▁ജീവൻ	-9.80012
▁താഴ്	-9.80046
▁ജനിച്ചു	-9.80069
കൂടാ	-9.80139
▁അതുവരെ	-9.80177
വല	-9.80275
വനെ	-9.80276
മെങ്കിലും	-9.80276
▁അതുകൊണ്ടുതന്നെ	-9.80304
c	-9.8036
▁ചലന	-9.80374
▁തീർത്തും	-9.80398
▁കലയുടെ	-9.80432
▁ആയിരുന്ന	-9.80543
▁എന്തിനു്	-9.80575
▁ബോറ	-9.80589
ത്തിലേയ്ക്കു	-9.80665
▁സംസാരിച്ചു	-9.80693
ച്ചതു്	-9.8071
▁അഴിമതി	-9.80785
▁സീറ്റ	-9.80815
▁ഒരാളെ	-9.8082
ത്തെക്കുറിച്ചു്	-9.80847
▁ടോൾസ്റ്റോയി	-9.80866
ന്നും	-9.80874
മെല്ലാം	-9.80912
ദി	-9.81005
r	-9.81054
വയ്ക്ക	-9.81135
▁കവിതാ	-9.81137
ാവും	-9.81139
ാകും	-9.81171
സഭ	-9.8118
ോടുള്ള	-9.81208
▁കൂലി	-9.81213
▁കാണാവുന്നതാണു്	-9.81232
▁ഏഴ	-9.81263
▁ഹാസ്യ	-9.8127
▁സമുദായം	-9.81295
▁4	-9.81297
ിപ്പിച്ചു	-9.81329
ിറങ്ങിയ	-9.81336
ായും	-9.81359
▁രോഗം	-9.81376
▁സന്താന	-9.81382
▁ആത്മീയ	-9.81392
▁തനി	-9.81413
യുള്ളു	-9.81427
▁ചലച്ചിത്ര	-9.81432
റിഞ്ഞു	-9.81446
▁പുറം	-9.81454
ാന്തര	-9.81461
▁മനസ്സു്	-9.8159
▁നോവല	-9.81592
▁ഇപ്പോഴ	-9.81598
ിട്ടുണ്ടല്ലോ	-9.8162
▁സങ്കട	-9.81649
▁നിരന്തരം	-9.81655
ങ്ങളുള്ള	-9.81657
▁കണ്ണിൽ	-9.81662
▁ഞങ്ങള	-9.81696
▁കള	-9.81732
ുവെന്നു	-9.8182
പ്രതി	-9.81866
വീണ	-9.8187
▁ചേർത്ത	-9.81871
ുവാനായി	-9.81914
▁നേതൃത്വം	-9.81955
ക്കിടക്കുന്ന	-9.8196
▁വന്നില്ല	-9.81989
▁കുഴി	-9.82007
▁ശേഷിച്ച	-9.82032
▁കോൺഗ്രസുകാര	-9.82066
ത്തിനുശേഷം	-9.82081
▁കാണുന്നുണ്ടു്	-9.82086
▁പങ്കു	-9.82096
▁മൊ	-9.82126
നാള	-9.82136
▁മറ്റുള്ളവർ	-9.82136
▁കണക്കു	-9.82242
▁സൃഷ്ടിച്ചു	-9.82244
▁ട്രാട്സ്കി	-9.82278
▁ലഭിച്ചു	-9.82283
ർക്കു	-9.82308
മുറി	-9.82318
▁ദൂര	-9.82351
▁അമ്മയുടെ	-9.82488
ഗ്	-9.82672
▁അന്ത്യ	-9.82699
▁പരിഹാസ	-9.82702
ുകളെ	-9.82712
or	-9.82753
തൊക്കെ	-9.82763
യാത്ര	-9.82778
ത്തോ	-9.82789
▁ഇതും	-9.82791
കളോ	-9.828
▁പകുതി	-9.82805
▁1957	-9.82806
▁ഇത്യാദി	-9.82806
▁ജൂൺ	-9.82806
▁സൂചന	-9.82806
▁2001	-9.82808
▁നളിനി	-9.82809
▁വിഷാദ	-9.8281
ാമെന്നു്	-9.82826
▁അനീതി	-9.82858
ചെയ്യുന്ന	-9.82861
▁മിണ്ടാതെ	-9.82861
▁അവസര	-9.82872
▁കോൺഗ്രസിലെ	-9.82875
ങ്ങളുണ്ടു്	-9.8292
▁താൽപര്യ	-9.82954
മാറി	-9.82987
▁താമസ	-9.83065
യിലോ	-9.83131
ത്തിന്റേയും	-9.83146
▁ആകുന്നു	-9.83262
കാരനായ	-9.8328
▁എളുപ്പം	-9.83293
ത്തിലേ	-9.83316
ിനേയും	-9.83354
▁തിന്ന	-9.83392
▁അതുകൊണ്ടാണു്	-9.83404
▁അറിയാതെ	-9.8341
മനുസരിച്ചു്	-9.8344
▁ദുർ	-9.8344
▁ശേഷി	-9.83506
▁അക്രമ	-9.83506
▁ചുരുക്കം	-9.83531
കൂടെ	-9.83544
▁നിലനിൽക്കുന്ന	-9.83544
▁തൃശൂർ	-9.83552
ുടേയും	-9.83592
▁അവനു	-9.83658
▁വിശേഷ	-9.83701
▁പദ്യ	-9.83703
ുണ്ടാക്കിയ	-9.83713
ാനാവില്ല	-9.83728
▁അടിസ്ഥാനം	-9.83787
▁തീർന്ന	-9.83869
യാണെന്നും	-9.8387
▁ഭൂ	-9.83874
▁ക്ലാസ്സിൽ	-9.83904
▁ശിഷ്യ	-9.83912
▁നിങ്ങൾക്കു	-9.83924
▁ഒരാള	-9.83948
ബന്ധം	-9.8397
വേണം	-9.83986
▁കേൾക്കുന്ന	-9.83997
▁മടി	-9.84001
ജ്ജ	-9.84036
ing	-9.84178
▁ഭക്ത	-9.84201
▁സാമൂതിരി	-9.84202
▁വായന	-9.84209
തുടങ്ങിയ	-9.84316
ിങ്	-9.84327
ിട്ടുമുണ്ടു്	-9.84345
▁സ്ത്രീയുടെ	-9.8438
തിന	-9.84398
▁ഈഴവ	-9.84469
ത്താൻ	-9.8447
▁വഞ്ചി	-9.84491
▁അഗ്നി	-9.845
▁എങ്കിൽ	-9.84502
▁ശോക	-9.84503
▁മത്തായി	-9.84506
▁കുതിര	-9.84506
ാത്തതു്	-9.84526
▁കലാകാരൻ	-9.84527
▁യുവതി	-9.84549
▁ഉത്സാഹ	-9.84563
ുന്നതിലും	-9.8459
▁മനസ്സിലാക്കാം	-9.84632
▁അനന്തര	-9.84647
▁കൊണ്ടുവര	-9.84715
▁അറിയാം	-9.84787
▁പരസ്പര	-9.84864
▁അമേരിക്ക	-9.84881
▁മഹത്തായ	-9.84913
▁കോഴി	-9.84917
േന	-9.84931
▁പൊട്ടി	-9.84942
▁പ്രയോഗം	-9.84966
വിശ്വാസ	-9.85004
▁കല്യാണ	-9.85081
പ്പോകുന്ന	-9.85087
▁വിഭാഗം	-9.85093
▁p	-9.85126
▁മനുഷ്യവർഗ്ഗ	-9.85151
മാക്കുന്ന	-9.85152
▁നൂറു	-9.85198
▁സ്ത്രീകളുടെ	-9.85208
കേ	-9.85211
▁ഓർത്തു	-9.85216
▁പ്രതീക്ഷിക്ക	-9.85244
ണ്ടേ	-9.85263
▁ഉള്ളൂ	-9.85305
▁മുഖത്തു	-9.85384
ുവോ	-9.85418
തിനും	-9.8546
▁വച്ചു	-9.85464
യുണ്ടായിരുന്ന	-9.85496
ത്തിന്നു്	-9.85498
▁6	-9.85498
▁മനസ്സിലായി	-9.85577
▁ശ്രമിച്ചു	-9.85625
കാരി	-9.85632
▁ഒന്നുപോലെ	-9.85634
▁ചൊല്ലി	-9.85637
▁പ്രകടിപ്പിക്ക	-9.85689
▁പോവ	-9.85713
▁കണ്ടില്ല	-9.85725
മുണ്ടാക	-9.85787
▁അവസാനിച്ചു	-9.85793
ിക്കൊണ്ടിരിക്ക	-9.85805
▁പഠന	-9.85846
▁കണ്ടിട്ടില്ല	-9.85849
▁പുക	-9.85853
▁പൗരസ്ത്യ	-9.8587
പ്പെടുത്തുന്ന	-9.85897
തുടങ്ങി	-9.85906
▁തമ്പുരാൻ	-9.85911
▁കഴിച്ചു	-9.86003
▁സ്വീകരിച്ചു	-9.86025
്യൂ	-9.8606
ലോകം	-9.86142
പ്പണി	-9.86142
▁തിരക്ക	-9.86166
▁മറിയ	-9.86166
▁മൽസരിച്ച	-9.86198
▁ഡയറക്ടർ	-9.86225
▁ഒട്ടേറെ	-9.86227
▁കണ്ണാടി	-9.8623
▁വേണമെങ്കിൽ	-9.86248
▁കുറേക്കൂടി	-9.86261
▁എന്തെല്ലാം	-9.86262
▁മൈ	-9.86298
in	-9.86348
തുമില്ല	-9.86353
▁സമ്മതിക്ക	-9.86355
▁സോഷ്യലിസ്റ്റ്	-9.86355
ണ്ട്	-9.86398
ർഷ	-9.86419
▁9	-9.86453
▁ചിന്തിക്ക	-9.86471
▁കാണുമ്പോൾ	-9.86471
▁ത്യാഗ	-9.86494
വർക്കു	-9.86569
ളു	-9.86574
▁നിൽക്കുന്നു	-9.86576
▁ചാര	-9.86598
ക്കുറിച്ചുള്ള	-9.86697
▁യന്ത്ര	-9.86708
ിൽനിന്നും	-9.86756
▁മുമ്പുതന്നെ	-9.86763
പാർട്ടി	-9.86774
പ്പേ	-9.86801
ാനി	-9.86831
▁വരികൾ	-9.86841
▁മുതല	-9.86863
ംപോലെ	-9.86936
ചിത്ര	-9.86943
വാദി	-9.86948
പ്പൻ	-9.8695
▁പാല	-9.87002
▁കഴിയാത്ത	-9.87012
▁പദവി	-9.87015
യിരിക്കുന്ന	-9.87031
▁വോട്ട്	-9.87049
▁രാഷ്ട്രീയം	-9.87077
▁ഭീഷണി	-9.87129
▁ഉദ്യോഗ	-9.87141
പോകും	-9.87222
ാവസ്ഥ	-9.87227
▁നേതൃത്വത്തിൽ	-9.87229
▁ഉണ്ടാക്കിയ	-9.87383
ശ്ശ	-9.87439
▁പെൺകുട്ടി	-9.87439
▁ഇര	-9.87448
▁ജീവിക്ക	-9.87455
മായിട്ടാണു്	-9.8747
ിയാണു്	-9.87505
▁ഒരുപോലെ	-9.87528
▁സഹിക്ക	-9.8759
▁മുഖത്തു്	-9.87591
▁കിട്ടിയതു്	-9.8761
▁അവതരിപ്പിക്ക	-9.87633
േഷൻ	-9.87691
െന്താണു്	-9.87774
▁പുഴ	-9.87778
ത്തരം	-9.87885
▁അലി	-9.87904
▁കുല	-9.87913
▁യേശു	-9.87931
▁എണ്ണം	-9.87931
▁മാപ്പിള	-9.87946
▁1982	-9.87979
▁ഉം	-9.87979
▁മുണ്ടശ്ശേരി	-9.8798
യാണെന്ന	-9.8798
▁പരാജയം	-9.87982
▁രാഷ്ട്രപതി	-9.87989
▁യ	-9.88021
▁ഒന്നുരണ്ടു	-9.88124
ഭാഗം	-9.88125
മാർഗ്ഗ	-9.88133
▁ഉണ്ടാവ	-9.88175
▁പരിഗണന	-9.88176
▁വരുത്ത	-9.88187
▁കേസ്	-9.88203
കൃതി	-9.88264
ക്കഴിഞ്ഞ	-9.8828
▁സാധിച്ച	-9.88288
▁25	-9.88389
ുണ്ടാകുന്ന	-9.88458
ികളും	-9.88467
കൃതികൾ	-9.88535
▁ജനം	-9.88573
▁കാലു	-9.88577
▁വന്നാൽ	-9.88661
▁പ്രയോജന	-9.88667
▁മന	-9.88678
▁ജാ	-9.88696
ത്തുള്ള	-9.88843
▁മേനോൻ	-9.88853
▁ശ്രദ്ധിക്ക	-9.88865
ുണ്ടായി	-9.88874
താണെന്നും	-9.88976
സർ	-9.89232
▁ആത്മാർത്ഥത	-9.89262
ലുകൾ	-9.8932
▁പേരുള്ള	-9.89324
യോഗ്യ	-9.89332
▁അതുതന്നെ	-9.89348
▁തള	-9.89425
സംഘടന	-9.89468
▁യുടെയും	-9.89507
▁അയ	-9.89542
യൊരു	-9.89546
▁എന്നല്ല	-9.89555
▁ലോകത്തെ	-9.89582
കൃത	-9.89634
ധാര	-9.89643
ിക്കാനും	-9.89677
▁യിലെ	-9.89733
▁റഷ്യൻ	-9.89736
▁തെരഞ്ഞെടുപ്പ	-9.89747
▁സിനിമാ	-9.89749
▁തന്മൂലം	-9.89765
▁ആഗസ്റ്റ്	-9.89765
▁നടന്നതു്	-9.89769
▁റോ	-9.89771
▁ശ്രമം	-9.89779
▁ഒരാളുടെ	-9.89856
▁പോക്ക	-9.89892
▁എത്രത്തോളം	-9.89898
▁വിപരീത	-9.89905
▁ഉണ്ടെന്നു	-9.89913
▁അറ	-9.89956
▁ആരു	-9.89993
▁അബദ്ധ	-9.89996
ിതമായ	-9.90008
▁ഉദാഹരണത്തിനു്	-9.90019
ുവെന്നു്	-9.90028
പിള്ള	-9.90034
വിട്ട	-9.90036
▁വായ	-9.90069
െണ്ണ	-9.90078
▁പുറത്തു്	-9.90084
മെങ്കിൽ	-9.90093
സൃഷ്ടി	-9.90097
▁വിപ്ലവം	-9.90119
കുല	-9.9012
ില്ലെന്ന	-9.90146
▁മക്കൾ	-9.90152
▁പ്രകൃത	-9.90196
▁കണ്ടെത്ത	-9.90205
▁പുതുമ	-9.90229
ല്യ	-9.90263
▁മതപരമായ	-9.90296
ണ്ടായ	-9.90319
ഹാര	-9.90328
യ്ക്കുള്ള	-9.90385
▁ആകാശ	-9.90389
▁എന്തും	-9.90392
▁അനേക	-9.90442
▁നാലു്	-9.90482
യിൽനിന്നും	-9.90586
▁കലാപ	-9.90671
▁പോകാൻ	-9.90681
ിലേയ്ക്കു	-9.90692
▁ശരിക്കും	-9.90695
▁അവളും	-9.90701
▁ജനങ്ങളെ	-9.90713
ളുടെ	-9.90717
▁തുടങ്ങുന്ന	-9.90725
▁മണ്ണ	-9.90734
▁പ്രശസ്ത	-9.90739
രുതെന്നു്	-9.90765
▁ഉയര	-9.90776
ഭൂത	-9.90784
▁മനോഹരമായ	-9.90786
▁ചെയ്തിരുന്നു	-9.90794
േണ്ടിവന്ന	-9.90805
സ്വ	-9.90822
പ്പോയ	-9.90843
▁പൊതുജന	-9.90972
▁അവസരം	-9.91026
▁വിധേയ	-9.91082
▁കടക്ക	-9.91088
▁നായര	-9.91103
▁തെറ്റു	-9.9112
▁തിരിച്ച	-9.91136
▁നിർബന്ധ	-9.91168
▁താ	-9.91178
▁സങ്കല്പ	-9.91182
▁കിട്ടും	-9.91184
ടുത്തു	-9.91207
ർപ്പ	-9.91217
▁ദൂരെ	-9.91217
പ്പോഴാണു്	-9.91218
ുണ്ടാക്കി	-9.91331
▁ഫെബ്രുവരി	-9.91359
▁പ്രസ്താവിക്ക	-9.91393
▁മഹ	-9.91414
▁ശരിയല്ല	-9.9144
▁ഉദ്യോഗസ്ഥ	-9.91478
െന്തു	-9.91542
▁ഭാവം	-9.91551
▁വരാൻ	-9.9156
▁കുഞ്ഞു	-9.91573
▁അവസാനിക്ക	-9.91575
▁കൊടുങ്ങല്ലൂർ	-9.91583
▁മഹാത്മാഗാന്ധി	-9.91583
▁വൈക്കം	-9.91586
▁മേന്മ	-9.91591
ിരിക്കുമ്പോൾ	-9.91601
▁കുറച്ചുനേരം	-9.91604
▁പുള്ളി	-9.91607
▁അപ്പ	-9.91616
ത്തക്കവണ്ണം	-9.9162
▁ക്ലാസ്സ	-9.91621
▁രംഗം	-9.91633
▁വർഗ്ഗീയ	-9.91673
▁ജനത	-9.9169
▁ഭംഗിയായി	-9.91737
▁വിവരിക്കുന്ന	-9.91745
▁അന്വേഷിച്ചു	-9.91756
▁നിശ്ചയിക്ക	-9.91804
▁ഇടതുമുന്നണി	-9.91847
▁നിസ്സാര	-9.9185
▁തമ്മില	-9.91853
▁ചേർന്നു്	-9.91856
▁അഭിമാന	-9.91865
▁സദാ	-9.91887
▁മറ്റോ	-9.9189
▁കല്പ	-9.91904
രചന	-9.91917
▁മാർക്സ്	-9.91948
തരം	-9.91981
ഭ്യ	-9.91986
▁സഹോദര	-9.92014
ഘടന	-9.92026
ുവാന	-9.9209
▁അവസാനത്തെ	-9.92136
▁ഇംഗ്ലീഷിൽ	-9.92142
▁ഗീത	-9.92152
ശുദ്ധി	-9.92231
▁സഹൃദയ	-9.92254
▁നിർമ്മാണ	-9.92288
കളുമായി	-9.92296
▁അദ്ദേഹത്തിന	-9.92301
ക്കുകയാണു്	-9.9237
▁ദിന	-9.92372
▁സാഹിത്യത്തിൽ	-9.92432
▁ഉണ്ടാകുന്ന	-9.92447
▁സമിതി	-9.92467
▁തുറക്ക	-9.92524
▁ആദ്യകാല	-9.92539
▁കാണുന്നില്ല	-9.92551
യുള്ളൂ	-9.92599
▁സാഹചര്യ	-9.92636
▁ജയിക്ക	-9.92649
▁വീണ	-9.92682
▁ജീവന	-9.92688
▁കൂട്ടു	-9.92723
▁ഇവയുടെ	-9.92737
▁f	-9.92763
വിഭാഗ	-9.92775
▁എന്നതിന്റെ	-9.92777
േയുള്ളു	-9.92814
ദ്ര	-9.92834
വ്യവസ്ഥ	-9.92941
രണം	-9.92976
▁പ്രതീക്ഷ	-9.92981
ാമായിരുന്നു	-9.92983
▁കോഴിക്കോട്ടു	-9.92994
ാതിരിക്കാൻ	-9.9301
ിംഗ്	-9.93013
ങ്ങളൊന്നും	-9.9302
▁അതിനുള്ള	-9.93072
മാരെ	-9.9309
▁കുഞ്ഞാലി	-9.93106
നാഥ	-9.93129
വില	-9.93151
▁ആഗ്രഹ	-9.93159
▁ഇടശ്ശേരി	-9.93167
le	-9.93186
▁രോഗി	-9.93209
▁കെട്ടിയ	-9.93248
വിട്ടു	-9.93306
▁കട്ട	-9.93322
െയ്	-9.93365
▁ആകെ	-9.93376
▁സ്വാഭാവികമായി	-9.93419
▁തയ്യാറ	-9.93433
▁1987	-9.93435
▁സാക്ഷാൽ	-9.93439
▁ഇപ്പറഞ്ഞ	-9.93452
▁അപമാന	-9.9346
ക്കഴിഞ്ഞു	-9.93479
▁ജില്ലയിലെ	-9.93497
▁നിഷേധിക്ക	-9.93507
പടി	-9.93528
▁കോടതിയിൽ	-9.9354
▁കൊടുക്കാൻ	-9.93572
▁സംഭവിക്ക	-9.93592
▁21	-9.93658
g	-9.9366
പേർ	-9.93684
മാത്രമാണു്	-9.93692
an	-9.93727
▁സംസ്ക്കാര	-9.93782
▁26	-9.93795
▁പുറത്ത	-9.93796
▁ഉദാഹരണ	-9.93805
▁കവിതകൾ	-9.93846
▁നിശ്ചയിച്ചു	-9.93873
▁പ്രവർത്തിച്ചു	-9.93902
ുമല്ലോ	-9.93905
സ്ത്രീ	-9.93927
▁വർദ്ധിച്ചു	-9.9395
▁അങ്ങനെയാണു്	-9.9396
യാണെങ്കിലും	-9.9397
▁തീരുമാന	-9.93975
പ്പോഴ	-9.94009
▁പതി	-9.94051
കാണ	-9.94081
ാമെന്ന	-9.94109
▁കർമ	-9.94192
ക്കാരി	-9.94218
തിര	-9.94293
പെട	-9.94318
▁മാഷ	-9.94429
യാണിതു്	-9.94437
ോടുകൂടി	-9.94444
ന്ധ	-9.94494
▁പ്രായ	-9.94588
▁ഗുണം	-9.94592
▁ഭരിച്ചിരുന്ന	-9.94686
▁എന്തിന	-9.94741
▁ആശയങ്ങൾ	-9.94768
▁നീണ്ടു	-9.94779
▁കെട്ടിട	-9.94813
▁ശബരിമല	-9.94856
▁വിശ്വസിക്കുന്നു	-9.94918
▁പ്രതിപാദിക്ക	-9.94938
▁പട്ടാള	-9.9499
ഷ്ട	-9.95014
യച്ചു	-9.95046
സ്യ	-9.95079
▁വെല്ലുവിളി	-9.95093
പുത്ര	-9.95128
▁ഉറക്ക	-9.95199
▁പക്ഷ	-9.95201
▁കാറ്റ	-9.95253
▁സഭ	-9.95304
▁അലങ്കാര	-9.95319
▁പ്രാഥമിക	-9.95321
▁ഡിസംബർ	-9.95322
▁റെയിൽവേ	-9.95322
▁പ്രാർത്ഥന	-9.95322
▁ശ്രീനാരായണ	-9.95325
▁സംഗീതനാടക	-9.95332
▁കോട്ടയം	-9.95339
ത്തിനോ	-9.95372
സൂ	-9.95379
▁ആദ്ധ്യാത്മിക	-9.95409
▁പോകുന്നതു്	-9.9541
▁നാനാ	-9.95417
▁സഞ്ജയന്റെ	-9.9542
▁ഇങ്ങനെയൊരു	-9.95449
▁നാരായണൻ	-9.95495
▁സ്വർഗ്ഗ	-9.9551
പോകുന്നു	-9.95517
ശ്ര	-9.95541
▁ഉറക്കെ	-9.95551
ക്കിട	-9.9561
യുണ്ടായിരുന്നു	-9.95631
▁മൂന്നാ	-9.95633
▁കേട്ടിട്ടുണ്ടു്	-9.95641
ക്സ	-9.95681
▁വരാം	-9.95712
▁കിട്ടിയില്ല	-9.95714
ാണ്	-9.95728
▁വികാരം	-9.95736
▁മാത്യു	-9.95739
▁പറയണം	-9.95741
▁27	-9.95789
ട്ടോ	-9.95812
▁ബൗദ്ധ	-9.95816
▁പാടി	-9.95842
▁വ്യാഖ്യാനിക്ക	-9.95869
▁ഇതൊന്നും	-9.95895
▁പ്രസക്തി	-9.95907
▁പ്രഖ്യാപിച്ചു	-9.95975
വനാണു്	-9.95991
▁തലമുറ	-9.95993
▁സഞ്ചാര	-9.96049
▁ബാഹ്യ	-9.96051
▁ഭക്ഷണ	-9.96091
▁കവികൾ	-9.96094
ർക്കും	-9.96163
▁പ്രതീക	-9.9618
▁പൊറ്റെക്കാട്ട്	-9.96222
▁വകുപ്പു	-9.96255
▁തേടി	-9.96285
ക്കൊണ്ട	-9.96292
▁ശില്പ	-9.96301
▁തെളിവ	-9.96314
ദിവസം	-9.96332
നല്ല	-9.96346
▁ആളെ	-9.96375
▁പെരുമാറ	-9.96392
▁കഴിയില്ല	-9.96412
▁കൊണ്ടാണു്	-9.96423
ic	-9.96429
നോടു	-9.96447
▁ഗോപു	-9.96447
നിയമ	-9.96555
▁വർണ്ണിച്ച	-9.96561
വാസന	-9.96601
▁ഘടക	-9.967
▁നിമിഷം	-9.96736
▁ഉയർന്നു	-9.96745
▁ഉപേക്ഷിക്ക	-9.9677
▁പശ്ചിമ	-9.96773
വയ	-9.96786
ക്കാം	-9.96835
താണോ	-9.96885
▁ജീവചരിത്രം	-9.96886
കിടക്കുന്ന	-9.96889
തത്ത്വ	-9.96922
▁ഗ്രാൻപാ	-9.9697
▁ഉന്നത	-9.96976
ന്യ	-9.97019
▁പൂജ	-9.97057
▁നാട്ടുകാര	-9.97101
▁ക്കും	-9.97123
▁ബുദ്ധിമുട്ട	-9.97226
ാൻവേണ്ടി	-9.9723
▁ഷ	-9.9723
▁ആഹ്ലാദ	-9.97245
▁ജൂലൈ	-9.97245
▁തെരഞ്ഞെടുക്ക	-9.97245
▁ഭേദ	-9.97294
യാള	-9.97303
▁കൂട്ടരും	-9.97343
▁രേഖ	-9.97359
▁അവനു്	-9.97394
കൊണ്ടുതന്നെ	-9.97398
▁എടുക്ക	-9.97415
▁അഭിപ്രായങ്ങൾ	-9.9742
വ്യ	-9.97454
സമുദായ	-9.97457
▁വിധം	-9.97499
ിയ്ക്കുന്ന	-9.97521
▁സ്ഥാപിക്കുന്ന	-9.97529
▁പിടിച്ചു്	-9.97567
▁നാടൻ	-9.97601
▁പേ	-9.97626
ത്തന്നെയാണു്	-9.97637
ഷൻ	-9.9764
▁മനസ്സിലാക്കാൻ	-9.97669
വനു്	-9.97684
യല്ലാതെ	-9.97689
ിക്കേണ്ട	-9.97697
▁തെറ്റി	-9.97702
യാണതു്	-9.97707
ിക്കാനുള്ള	-9.97745
ത്ത്	-9.97809
▁അവതരിപ്പിച്ച	-9.97813
▁തോട്ട	-9.97829
▁നിറം	-9.97865
▁ആചാര	-9.97873
▁ഭാഗങ്ങൾ	-9.97931
▁പോലുള്ള	-9.97939
▁ആവശ്യമായ	-9.97946
▁അമ്മു	-9.98024
ഗോ	-9.98042
▁സഹായിക്ക	-9.98104
▁ശവ	-9.98111
▁വിവേക	-9.98147
▁അങ്ങ	-9.98167
രുത	-9.98196
▁ദാസ്	-9.98202
▁പുരാണ	-9.98204
▁മുമ്പേ	-9.98222
ജീവിതത്തിന്റെ	-9.98229
ിത്തീര	-9.98253
ാചാര	-9.98289
▁നിയമസഭ	-9.98311
is	-9.98312
▁വൃത്തി	-9.98337
▁ഒന്നായി	-9.98339
▁അതാ	-9.98376
▁വീട	-9.98379
▁തടയ	-9.98398
▁ചെയ്തിട്ടുണ്ടു്	-9.98414
മല്ലാതെ	-9.98417
▁സൂര്യ	-9.98512
ക്കാരന്റെ	-9.9852
▁സംസാരിച്ച	-9.98536
റപ്പ	-9.98567
▁സമ്മേളന	-9.98567
▁ചുമ	-9.98601
യാളാണു്	-9.98616
▁അനുഭവിച്ച	-9.98633
▁വീട്ടില	-9.98653
▁രാജ്യത്തിന്റെ	-9.98659
ിച്ചിരുന്നു	-9.98736
▁മൂല്യ	-9.98747
▁പരിവർത്തനം	-9.98759
ത്തെപ്പറ്റിയുള്ള	-9.98778
ക്കാനുള്ള	-9.98793
▁to	-9.98811
▁കുഴ	-9.98816
▁കയറിയ	-9.98884
ോടൊപ്പം	-9.9901
▁സഖാക്കൾ	-9.9915
▁കുഴപ്പ	-9.99159
▁ദുരിത	-9.99185
▁സൂക്ഷിച്ചു	-9.99192
▁അദ്വാനി	-9.99205
▁ജാനകിയമ്മ	-9.99205
▁ചോഴ	-9.99222
▁സമീപമുള്ള	-9.99229
▁പിറന്ന	-9.99233
▁ആയാൾ	-9.99238
▁യവന	-9.99246
ാധികാര	-9.99249
▁യാതൊന്നും	-9.99249
▁കേസ	-9.99251
▁സുഖം	-9.99265
ക്കാതെ	-9.9927
▁അനുഭവിക്ക	-9.99274
ക്കാത്ത	-9.99298
ാംഗ	-9.99319
പക്ഷം	-9.99319
▁കാര്യമ	-9.99383
ാലു	-9.99394
ുണ്ടെന്ന	-9.99397
▁സ്വാതന്ത്ര്യസമര	-9.99415
▁വട്ട	-9.99416
▁എന്തിനാണു്	-9.99453
▁പ്രദർശിപ്പിച്ച	-9.99454
യിരുന്ന	-9.99457
▁ദുഷ്ട	-9.99467
ശാഖ	-9.99505
▁രാജധാനി	-9.99512
▁പരിഗണിക്ക	-9.99574
കാലത്തു	-9.99576
▁അക	-9.99583
ിയിരുന്ന	-9.99597
▁പോയതു്	-9.99629
▁കഥാപാത്രങ്ങൾ	-9.99665
▁നിരൂപണം	-9.99711
▁മര്യാദ	-9.99718
▁സമുദ്ര	-9.99733
പ്പിക്ക	-9.99786
യിരിക്കുന്നു	-9.9979
ധ്യ	-9.99842
▁തരത്തിലുള്ള	-9.99856
▁മൂഷിക	-9.99884
▁കസേര	-9.99895
ങ്ങും	-9.99909
സംഭവ	-9.99967
ണ്ടാ	-9.99992
▁ആത്മാവ	-10.0006
▁കാലത്ത	-10.0009
ുന്നതുപോലെ	-10.001
▁കഴിഞ്ഞപ്പോൾ	-10.0011
യിട്ടു്	-10.0015
▁പുരുഷൻ	-10.0019
▁അടുക്കള	-10.002
▁തീർന്നു	-10.0025
ല്ലെങ്കിൽ	-10.0032
▁സാഹിത്യത്തിന്റെ	-10.0033
റിയാം	-10.0037
▁സേവന	-10.0039
ുപോയി	-10.0039
താകുന്നു	-10.0045
ഭരണ	-10.0045
നിറ	-10.0045
▁ജില്ല	-10.0048
▁പഴ	-10.0053
▁മനുഷ്യനു്	-10.0054
▁തെളിഞ്ഞ	-10.0056
▁മനസ്സിലായ	-10.0056
ത്തേക്കു്	-10.0057
ിനേക്കാൾ	-10.006
▁വർഷങ്ങൾക്കു	-10.0066
ക്കൊപ്പം	-10.0066
▁എന്നേ	-10.0082
▁നഗരം	-10.0084
ായിരുന്നെങ്കിൽ	-10.0086
▁പരമാർത്ഥ	-10.0087
▁ഞ	-10.009
▁കൂടിയാണു്	-10.0091
▁ഒന്നുമില്ല	-10.0095
▁ഉദ്ധരിച്ച	-10.0102
▁രൂപത്തിൽ	-10.0102
▁കഥയുടെ	-10.0103
മാവാം	-10.0107
▁മനുഷ്യനും	-10.0107
കൂടാതെ	-10.0109
▁പ്രവർത്തക	-10.0109
▁മമത	-10.0111
▁കുറവു	-10.0115
▁അവിട	-10.0117
▁നിരാശ	-10.0118
▁അച്ചടി	-10.012
▁സമ്മത	-10.012
▁വളരെയധികം	-10.0121
▁വേഷ	-10.0126
▁പാര	-10.0127
▁ണു്	-10.0128
ഭി	-10.0128
ിയൻ	-10.0129
നേരം	-10.0129
▁മുറ	-10.0131
▁വളർന്നു	-10.0135
▁ശത്രു	-10.0138
re	-10.0138
കട	-10.0139
ിയിൽ	-10.0143
▁എന്നർത്ഥം	-10.0152
ാശയ	-10.0153
തില	-10.0153
▁സംസാരിക്ക	-10.0155
▁വിഷ	-10.0155
▁കാണുക	-10.0157
▁പിന്ന	-10.0161
▁വഴിക്കു്	-10.0161
▁23	-10.0165
ങ്ങളിലേക്കു്	-10.0166
വ്യാപാര	-10.0167
പോരുന്ന	-10.0168
ധർമ	-10.0169
▁ആളാണു്	-10.017
▁ആശ	-10.0171
▁ഭർത്താവു്	-10.0173
ചെ	-10.0178
▁പുരുഷന	-10.018
▁ഭവന	-10.0181
വാസി	-10.0184
േക്കു്	-10.0184
▁പെട്ട	-10.0189
▁മാന്യത	-10.0189
▁പണ്ഡിതൻ	-10.0189
▁സുന്ദരി	-10.019
ണ്ടി	-10.0191
▁മൂ	-10.0193
▁ശ്രമിക്ക	-10.0193
ിരിക്കയാണു്	-10.0193
▁അധികാരി	-10.0198
▁വെക്ക	-10.0198
രിക്ക	-10.0201
▁ഇന്ത്യയുടെ	-10.0201
രിയ	-10.0202
നിഷ്ഠ	-10.021
▁നയിക്കുന്ന	-10.0211
▁ധ	-10.0214
കളെപ്പോലെ	-10.0216
▁വിളക്കു	-10.0222
വേഷ	-10.0225
▁വ്യക്തമായി	-10.0229
▁ചക്ര	-10.0232
യൊന്നു	-10.0233
കർമ്മ	-10.0235
തായും	-10.024
▁സൗന്ദര്യം	-10.0242
ാമോ	-10.0244
▁ദീപ	-10.0245
വർക്കും	-10.0246
ച്ചി	-10.0247
▁രസം	-10.0249
▁വ്യക്തമായ	-10.0256
▁സംസാരിക്കുന്ന	-10.0256
കൃത്യ	-10.026
തായിരിക്കും	-10.0261
ണേ	-10.0268
ുന്നതിനുള്ള	-10.0269
കണ്ടു	-10.0272
▁മുടി	-10.0273
ിട്ടുള്ളു	-10.0274
▁ഹോ	-10.0274
▁സമൂഹത്തിന്റെ	-10.0278
▁യാണു്	-10.0278
മറ	-10.028
മിട	-10.0292
▁പഞ്ച	-10.0293
▁ആരു്	-10.0293
▁വിചാരണ	-10.0295
▁ഭീകര	-10.0302
്യമായ	-10.0303
ലൈ	-10.0304
ിട്ടുള്ളതും	-10.0305
▁മിണ്ട	-10.0309
പ്രവർത്തന	-10.0312
▁ആവശ്യപ്പെട്ടു	-10.0317
ങ്ങ്	-10.0318
▁സുരാസു	-10.0323
▁മുതൽക്കു്	-10.0324
▁മായാവതി	-10.0325
▁രാമചന്ദ്രൻ	-10.0325
▁സാവിത്രി	-10.0325
▁സൂപ്പി	-10.0325
▁ഐക്യമുന്നണി	-10.0325
▁കൃഷ്ണമേനോൻ	-10.0325
▁അതിർത്തി	-10.0325
▁യോഗ്യത	-10.0326
▁ബാധിച്ച	-10.0326
▁ചില്ലറ	-10.0328
▁ചന്ദ്രിക	-10.0328
▁അച്യുതാനന്ദൻ	-10.0329
▁പുരോഹിത	-10.0332
▁പലതരം	-10.0335
▁ബാബു	-10.0335
▁പൊക്ക	-10.0337
▁കത്തോലിക്കാ	-10.0338
▁ക്രമ	-10.0338
▁ദക്ഷിണ	-10.0338
▁അകലെ	-10.0339
ുവെന്ന	-10.034
▁കോൺഗ്രസിനു്	-10.0342
ഗണ	-10.0344
ഗാന	-10.0345
▁പന്ത	-10.0347
▁വയസ്സിൽ	-10.035
യുമൊക്കെ	-10.0353
▁ശക്ത	-10.0357
▁ഇവയെ	-10.0357
കോടി	-10.0358
▁വിചാരിക്ക	-10.0359
▁പറയുകയുണ്ടായി	-10.0364
▁അധികാരത്തിൽ	-10.0365
▁രാഷ്ട്രീയത്തിൽ	-10.0369
▁ഈവക	-10.0371
▁മറ്റെല്ലാ	-10.0376
▁ഒന്നുകൂടി	-10.038
പ്രദേശ	-10.038
▁കുട്ടികളുടെ	-10.0386
▁ഉറച്ച	-10.0387
▁രണ്ടോ	-10.0392
കിട്ട	-10.0393
▁സ്വതന്ത്രചിന്ത	-10.0398
▁ഒപ്പം	-10.0398
▁ശരിയാണു്	-10.0399
തെങ്കിൽ	-10.0399
▁ഇല്ലാതെ	-10.0403
▁ഇരിക്കുന്ന	-10.0408
▁വിവരങ്ങൾ	-10.0408
പ്പെട്ടു്	-10.041
▁ഹിന്ദുമത	-10.041
ത്തെയാണു്	-10.0417
മാറ	-10.0418
ിയെ	-10.0418
▁സ്വാഭാവികം	-10.0419
▁കാര്യമാണു്	-10.042
▁ഇടപെട	-10.0422
▁എന്തുകൊണ്ടു്	-10.0423
കളിലേക്കു്	-10.0424
▁പെരുമാറ്റ	-10.0428
മുതൽ	-10.0429
▁മടങ്ങി	-10.0435
റിയാതെ	-10.0437
▁വഴിക്കു	-10.0441
▁30	-10.0442
റിൽ	-10.0442
▁പ്രതിബിംബ	-10.0443
▁ഹിംസ	-10.0445
▁പ്രസിദ്ധീകരണ	-10.0448
▁കോൺഗ്രസ	-10.0452
▁പ്രായം	-10.0453
ടുക്ക	-10.0455
▁ഉൾ	-10.0458
ിട്ടുണ്ടെന്നു്	-10.0464
ക്കാർക്കും	-10.0466
പര്യ	-10.0468
മാൻ	-10.0471
പോന്ന	-10.0475
▁പുസ്തകത്തിൽ	-10.0476
ന്റെയും	-10.0481
▁ലോകത്തിന്റെ	-10.0484
കളുടേയും	-10.0486
ശാസ്ത്രം	-10.049
▁പത്ത	-10.0493
▁താൽപര്യം	-10.0495
▁വേഷം	-10.0497
പത്	-10.0501
▁നിലനിർത്ത	-10.0503
▁ചൊല്ല	-10.0504
▁മഅദനി	-10.0505
ങ്ങളോടു്	-10.0508
ദ്വ	-10.0511
▁കൊടുത്തു്	-10.0514
തല്ലേ	-10.052
▁ടാഗോർ	-10.052
▁പെരു	-10.0521
▁വിചാരം	-10.0522
▁പാവ	-10.0522
ന്മ	-10.0525
▁പറയാന	-10.0525
▁പൂർവ	-10.0526
▁പുഞ്ചിരി	-10.0529
പ്രകാശ	-10.0531
ംകൊണ്ടു	-10.0532
▁ഏറെക്കുറെ	-10.0533
▁കൗൺസിൽ	-10.0533
▁ജർമ്മൻ	-10.0533
▁രാവിലെ	-10.0533
▁തെക്കൻ	-10.0533
▁ഇക്കൂട്ടത്തിൽ	-10.0533
▁ശതാബ്ദത്തിന്റെ	-10.0533
▁അവർക്ക	-10.0534
▁നൂറ്റാണ്ടു	-10.0537
ില്ലെങ്കിലും	-10.0537
▁ഒന്നല്ല	-10.054
▁ഇവയെല്ലാം	-10.0541
ദ്ദ	-10.0542
▁മലബാറിലെ	-10.0542
▁രാധാകൃഷ്ണൻ	-10.0544
ാമല്ലോ	-10.0545
രേ	-10.0546
▁മാസിക	-10.0547
വിനു്	-10.0548
▁ലൗകിക	-10.0549
▁സർക്കാറിന്റെ	-10.0553
വർഗ	-10.0554
▁വളർന്ന	-10.0554
▁ഇറങ്ങ	-10.0559
▁പ്രത്യേകിച്ചും	-10.0559
▁തോമസി	-10.0565
▁ഇടതു	-10.0571
▁ഭരിക്ക	-10.0573
▁വിധത്തിൽ	-10.0574
കണ്ടു്	-10.0578
വസ	-10.0579
്ര	-10.058
▁താമസിക്ക	-10.0583
▁കൂടുതലായി	-10.0583
▁അത്രയും	-10.0586
▁തെളിയുന്ന	-10.0588
▁സംശയമാണു്	-10.0592
ശൈലി	-10.0592
▁രാജാവ	-10.0595
ത്തക്കവിധം	-10.0596
▁മഹിമ	-10.06
▁വെട്ടി	-10.0602
▁ആവശ്യമാണു്	-10.0602
ഹ്	-10.0603
▁നിനക്കു്	-10.0603
▁ആഹാരം	-10.0603
▁വൃത്ത	-10.0604
പ്രവാഹ	-10.0604
▁പ്രചാര	-10.0604
▁പക്ഷം	-10.0605
▁കാണാന	-10.0608
രുടെയും	-10.061
കളോടു്	-10.0611
▁നിലയ്ക്കു്	-10.0611
▁കമ്മ്യൂണിസ്റ്റ്	-10.0613
▁വിശദീകരിക്ക	-10.0618
▁m	-10.0618
▁താല്പര്യ	-10.0619
▁ഭയം	-10.0619
▁തേങ്ങ	-10.0624
▁സൂക്ഷിക്ക	-10.0626
▁ചങ്ങമ്പുഴയുടെ	-10.0629
▁പ്രബല	-10.063
േയ്ക്ക	-10.063
▁ജനന	-10.0635
മായിത്തീർന്നു	-10.0638
ുമെല്ലാം	-10.0638
▁റെ	-10.0639
െത്ത	-10.0643
▁ആരാധന	-10.0645
▁കഥകളും	-10.0649
പാത	-10.065
▁ബലം	-10.0656
▁മനോ	-10.0656
ിരിക്കുക	-10.0658
▁ആരെ	-10.066
യാൻ	-10.0668
കൊണ്ടിരിക്ക	-10.067
h	-10.0672
▁തുടങ്ങിയതു്	-10.0674
▁പരിശോധിച്ചു	-10.0677
ീല	-10.0678
▁അടുക്ക	-10.0679
ജ്ഞാന	-10.0679
ഹി	-10.0689
പ്രവർത്തിക്കുന്ന	-10.0691
ണിയ	-10.0693
ാനുഭവ	-10.0694
്ത	-10.0698
െടുക്കാൻ	-10.0706
കണ്ട	-10.0707
▁കേൾക്കാൻ	-10.0708
▁റഷ്യയിൽ	-10.0717
▁പങ്ക	-10.0721
തുകൊണ്ടും	-10.0721
▁സൗകര്യ	-10.0722
▁സൃഷ്ടിക്കുന്ന	-10.0726
മാകും	-10.0726
▁വകുപ്പു്	-10.0729
▁തീർച്ചപ്പെടുത്ത	-10.0734
ിക്കുകയാണു്	-10.0736
ീട്ട	-10.0737
▁ഇൻ	-10.0738
▁ആണെന്നു	-10.0738
v	-10.0739
▁പ്രസ്ഥാനം	-10.074
തോടുകൂടി	-10.0742
▁ഞങ്ങൾക്കു്	-10.0743
ർച്ച	-10.0744
ിക്കാതെ	-10.0745
▁ഒക്ടോബർ	-10.0746
▁കൗമുദി	-10.0746
▁ലെനിൻ	-10.0746
▁1998	-10.0746
▁മൂന്നാമത്തെ	-10.0746
▁അതേസമയം	-10.0746
▁കൂട	-10.0747
▁കോൺഗ്രസുകാർ	-10.0747
നായക	-10.0747
▁സംഭാവന	-10.0748
ുമ്പോഴ	-10.0748
റിന്റെ	-10.0749
പ്പെട്ടതു്	-10.0752
▁പുത്ര	-10.0752
▁സ്ത്രീകളെ	-10.0752
▁കലാസൃഷ്ടി	-10.0753
▁ഫാ	-10.0754
ിരു	-10.0755
യില്ലാതെ	-10.0757
▁ഹെ	-10.0761
▁തെളിയിച്ചു	-10.0762
മത്രെ	-10.0765
▁സാർ	-10.0766
▁സെന്റ്	-10.0766
▁ആളു	-10.077
▁നാടു	-10.0772
▁സ്ത്രീയെ	-10.0772
▁സാമൂഹ്യജീവിത	-10.0778
േശ	-10.0778
▁സാഹിത്യകാരന്മാര	-10.0783
ൻസ്	-10.0787
▁പേരായ	-10.0787
വകുപ്പ	-10.079
▁ഗ്രൂപ്പ	-10.0794
▁ആലോചിച്ച	-10.0795
ക്കൊരു	-10.08
ങ്ങളു	-10.0805
▁കച്ചവട	-10.0805
യെപ്പറ്റിയുള്ള	-10.0809
▁പുണ്യ	-10.0809
ക്കിയ	-10.0816
സങ്കല്പ	-10.0816
▁വാരിക	-10.0821
▁പിൻ	-10.0822
▁എന്താണ	-10.0823
▁എന്നതായിരുന്നു	-10.0825
▁ഫോർ	-10.0825
▁ആയിരം	-10.0833
▁ദിവസവും	-10.0835
▁കുഞ്ഞ	-10.0836
▁കൊല	-10.0837
▁തടി	-10.084
▁കാത്തിരിക്ക	-10.0842
▁കൃതികളിൽ	-10.0842
▁നടപ്പാക്ക	-10.0846
മട	-10.0846
▁ഘട്ടത്തിൽ	-10.0847
▁ദയ	-10.0847
▁കല്ലു	-10.0847
▁അംശ	-10.0848
ന്തു	-10.0848
▁ഇങ്ങോട്ടു	-10.0849
ിട്ടുണ്ടെങ്കിലും	-10.0853
▁വരുത്തി	-10.0855
പൂ	-10.0864
▁വിമർശക	-10.0864
▁വൈരുദ്ധ്യവാദ	-10.0866
▁ലാണു്	-10.0869
▁പദങ്ങൾ	-10.0869
വിചാര	-10.087
▁രാജിവെച്ചു	-10.0871
മായിരുന്നില്ല	-10.0874
▁നിയമസഭയിൽ	-10.0875
▁കോപ	-10.0878
പറഞ്ഞ	-10.088
▁സംഭവങ്ങൾ	-10.0881
▁നിയന്ത്രണ	-10.0884
യായും	-10.0888
▁അറിഞ്ഞുകൂടാ	-10.0891
സിൽ	-10.0893
▁മൂലം	-10.0894
▁സ്	-10.0894
▁കുടിക്ക	-10.0896
ടിച്ച	-10.0904
▁അത്യാവശ്യ	-10.0907
▁ജീവിച്ച	-10.0907
▁നിന്നുള്ള	-10.091
▁ആളുകള	-10.0912
പിടിക്ക	-10.0914
▁നിലപാട	-10.0918
▁തെ	-10.0919
ങ്ങളുടേയും	-10.092
പാരമ്പര്യ	-10.0923
▁തി	-10.0927
▁ഇവിടെയും	-10.0928
ുമ്പോഴേക്കും	-10.0933
▁പേന	-10.0936
▁നാടുവാണിരുന്ന	-10.0939
▁അംഗീകരിച്ച	-10.0944
▁കാട്ട	-10.0944
▁അതിഥി	-10.0946
▁പുറപ്പെടുവിച്ച	-10.0948
▁രഹസ്യം	-10.0949
പൂർവം	-10.0949
▁ഉണ്ടോ	-10.0955
▁സന്മാർഗ്ഗ	-10.0956
▁വികാസ	-10.0957
ുന്നതിനുമുമ്പു്	-10.0957
ുമുള്ള	-10.0959
ഞ്ജ	-10.0962
▁എഡിറ്റർ	-10.0963
▁മലബാർ	-10.0963
▁ക്ഷത്രിയ	-10.0963
▁പ്രദർശിപ്പിക്ക	-10.0963
▁എന്നുവെച്ചാൽ	-10.0963
▁പ്രായേണ	-10.0963
▁രാധ	-10.0965
▁മടക്കി	-10.0969
▁c	-10.097
▁തിരിയ	-10.0972
▁ആത്മകഥ	-10.0973
▁പോൾ	-10.0973
ഞ്ഞു്	-10.0974
▁മറ്റുള്ളവരുടെ	-10.0975
▁ഇദ്ദേഹത്തിന്റെ	-10.0977
▁മേഘ	-10.0978
▁വിചാരിക്കുന്ന	-10.098
▁കടന്നു്	-10.0981
ദാന	-10.0982
▁പ്രധാനമായി	-10.0986
കാരണ	-10.0988
▁കലഹ	-10.099
▁ആത്മാവു്	-10.0991
ട്ടിൽ	-10.0993
▁പ്രകടന	-10.0994
▁വെയില	-10.0994
▁ശരിയായി	-10.0995
▁സീറ്റുകൾ	-10.0998
▁കൂട്ടർ	-10.1
▁പ്രേരണ	-10.1001
▁മനുഷ്യജീവിത	-10.1003
▁യൂ	-10.1006
കയറി	-10.1006
രുന്നു	-10.1008
വ്രത	-10.101
ക്കണ്ണ	-10.1014
പ്പെടും	-10.1021
▁ഉള്ളു	-10.1022
പ്രസംഗ	-10.103
ിയായി	-10.103
▁ബോർഡ്	-10.1033
▁പ്രചാരണ	-10.1034
▁നഷ്ടപ്പെട്ട	-10.1035
▁ഉദ	-10.1035
പാഠ	-10.1037
▁പുറപ്പെടുന്ന	-10.104
▁വാല്മീകി	-10.1042
▁കഥയാണു്	-10.1046
▁മാര	-10.105
▁കണ്ടെത്തി	-10.1062
നേര	-10.1062
▁സമ്മതിച്ചു	-10.1066
ാത്മകമായ	-10.1068
▁ഉദ്ദേശ്യ	-10.1076
▁ആശ്വാസ	-10.1082
▁ചരിത്രത്തിൽ	-10.1084
▁ബംഗാളി	-10.1085
▁നാഗ	-10.1087
▁കുഴപ്പം	-10.1091
▁കെട്ടു	-10.1093
ുതന്നെ	-10.1094
വശത്ത	-10.1094
▁ധ്യാന	-10.1101
▁തീരുമാനം	-10.1101
▁സുപ്രീംകോടതി	-10.1109
ുമായുള്ള	-10.1109
▁നീള	-10.111
▁കർഷക	-10.1111
▁എവിടെയും	-10.1112
ാത്മ	-10.1116
▁ക്ല	-10.1116
▁ഇതിന	-10.1119
▁ആരംഭിച്ച	-10.1121
വിശേഷ	-10.1122
ുകയുള്ളൂ	-10.1122
ാസ്	-10.1122
▁നിറഞ്ഞു	-10.1122
▁സ്വാമിയുടെ	-10.1124
വേണ്ട	-10.1127
▁അപ	-10.1128
▁ഞങ്ങളെ	-10.113
മാർഗ	-10.1132
▁തൊട	-10.1139
ായിട്ടാണു്	-10.1139
▁ലക്ഷം	-10.1143
▁ശങ്ക	-10.1143
▁കാര്യമായ	-10.1143
▁പ്രകൃതിയുടെ	-10.1147
▁മനോഭാവ	-10.1149
വാക്യ	-10.1149
▁വീക്ഷണ	-10.1153
വരുന്നതു്	-10.1156
▁എന്തൊക്കെ	-10.116
▁പത്മജ	-10.116
നിർമ്മാണ	-10.1166
ിപ്പോൾ	-10.1169
▁സേവ	-10.1169
▁പൗര	-10.1172
▁സമുദായത്തിന്റെ	-10.1173
▁ക്ഷേത്രപ്രവേശന	-10.1176
▁വാങ്ങിയ	-10.1185
▁ബൂർഷ്വാ	-10.1185
▁സുറിയാനി	-10.1185
▁അനുകമ്പ	-10.1185
▁ഇന്ദിരാഗാന്ധി	-10.1185
▁ജയിലിൽ	-10.1185
▁സോണിയ	-10.1186
▁സ്വപ്നം	-10.1186
▁28	-10.1187
▁ആരംഭിച്ചു	-10.1188
▁വലുത	-10.119
▁അഖിലേന്ത്യാ	-10.119
മൂർത്തി	-10.1191
▁റഷ്യയിലെ	-10.1195
▁ഫിലോസഫി	-10.1197
▁അനുകൂല	-10.1198
സ്വാതന്ത്ര്യ	-10.1202
▁മണിക്കൂർ	-10.1204
▁നാമം	-10.1204
▁അധ്യക്ഷ	-10.1206
▁എന്നിവർ	-10.1219
▁പ്രത്യേകിച്ചു്	-10.1222
▁മോഹ	-10.1228
▁അന്വേഷിക്ക	-10.1232
▁അവിടെയും	-10.1234
▁തത്ത്വശാസ്ത്ര	-10.1236
▁പ്രേമം	-10.1239
▁പറയുകയാണു്	-10.1246
▁പുറത്തേയ്ക്കു	-10.1246
ർഥ	-10.1248
▁മതവും	-10.1253
▁പ്രസാദ	-10.1255
നോക്കിയാൽ	-10.1257
ചന്ദ്ര	-10.1262
ിരുന്നു്	-10.1263
▁ബെ	-10.1265
▁പെണ്ണ	-10.1267
കുന്ന	-10.1268
▁സോ	-10.1268
സംബന്ധമായ	-10.1269
▁നടക്കാൻ	-10.1269
▁സാധ്യമല്ല	-10.127
▁വസ്ത്ര	-10.127
▁ഭർത്താവ	-10.1273
▁നേരിടുന്ന	-10.1275
▁പരിഹരിക്ക	-10.1284
▁ശ്ലോകം	-10.1285
നെന്ന	-10.1285
▁പ്രകടിപ്പിച്ച	-10.1286
▁വെളിച്ചത്തിൽ	-10.1288
ന്മാർക്കു്	-10.1289
ായിരിക്കണം	-10.129
▁അച്ഛനും	-10.1291
▁അഹിംസ	-10.1292
വൃത്ത	-10.1294
▁എന്നോടു	-10.1294
▁ചീ	-10.1296
ാഹ	-10.1297
രോഗ	-10.1297
▁പ്രവേശിക്ക	-10.1297
▁കാര്യങ്ങളിൽ	-10.1299
▁വീഴ	-10.1305
▁ഗ്രൂപ്പു	-10.1305
പദ്ധതി	-10.1305
▁ആക്ഷേപ	-10.1308
▁കേസിൽ	-10.1309
നുസരിച്ചു്	-10.131
മതം	-10.1313
ലീ	-10.1314
▁ചെറുപ്പ	-10.1315
ത്തിയ	-10.1318
▁ലക്ഷണ	-10.1318
▁ചൂട	-10.132
▁ഭക്ഷണം	-10.1321
▁ഭാര്യയെ	-10.1323
▁നൃത്ത	-10.1326
▁വരില്ല	-10.1326
പ്പിൽ	-10.1328
▁തുല്യ	-10.1328
▁അതിലും	-10.133
▁വരുത്തിയ	-10.1333
▁പ്രഖ്യാപിച്ച	-10.1335
ോദ	-10.1335
ത്തുന്ന	-10.1337
▁ഊഹ	-10.1339
▁ഭരണാധികാരി	-10.1341
ന്റേ	-10.1342
രാഷ്ട്രീയ	-10.1344
▁റാ	-10.135
▁രക്ഷപ്പെട	-10.1352
പട	-10.1352
▁ഉണ്ടായില്ല	-10.1354
▁ചെയ്തിട്ടുള്ള	-10.1356
▁വടി	-10.1358
പ്പിച്ച	-10.1359
▁ഭരണഘടന	-10.1363
▁ഭവ	-10.1367
▁നിഷേധ	-10.1368
▁അയയ്ക്ക	-10.1368
▁പ്രതിഭ	-10.1369
▁അക്കാലത്തെ	-10.1373
തുമാണു്	-10.1374
ഗത	-10.1375
റിയുന്ന	-10.1377
▁തടസ്സ	-10.1381
ുകയല്ല	-10.1382
▁ശരീരം	-10.1383
ുളള	-10.1387
പ്പട	-10.1388
▁നാട്ടില	-10.1393
▁നബി	-10.1393
f	-10.1394
▁ദോഷം	-10.1397
ദിന	-10.1398
ള്ളി	-10.1404
▁ഇല	-10.1408
▁വകുപ്പ	-10.1409
ശാസ്ത്രജ്ഞ	-10.1412
▁വീഴുന്ന	-10.1412
▁താമര	-10.1412
▁1970	-10.1413
▁കൊച്ചച്ഛൻ	-10.1413
▁മേല്പറഞ്ഞ	-10.1413
▁വേശ്യ	-10.1413
▁സംഘട്ടന	-10.1413
▁1965	-10.1413
▁2004	-10.1413
▁അപ്പേട്ടൻ	-10.1413
▁തിരിച്ചറിവ	-10.1413
▁ദീപിക	-10.1415
▁മകന്റെ	-10.1416
▁കണ്ടെത്തിയ	-10.1417
▁കഞ്ഞി	-10.1417
▁രക്ത	-10.1419
▁നേരെമറിച്ചു്	-10.1421
▁ഒമ്പതു	-10.1422
▁നാലാം	-10.1424
▁മൂപ്പ	-10.1428
▁ചോദിച്ചാൽ	-10.1431
▁തുടങ്ങിയവ	-10.1432
▁നല്ലതു്	-10.1433
▁അവയെല്ലാം	-10.1434
ഭേദം	-10.1435
കൂടിയ	-10.1436
സ്വഭാവം	-10.1437
▁രുചി	-10.1438
▁സിദ്ധാന്തം	-10.1439
▁ചാടി	-10.1444
l	-10.1444
▁യഥാർത്ഥത്തിൽ	-10.1444
▁മൂപ്പർ	-10.1447
ുണ്ടെന്നും	-10.1448
ത്തെപ്പറ്റിയും	-10.1449
▁സഹായം	-10.1459
▁ബുദ്ധന്റെ	-10.1461
െന്നുള്ള	-10.1461
▁ഇരുട്ടിൽ	-10.1466
ൂരി	-10.1467
▁വംശ	-10.1467
▁കുന്ന	-10.1469
▁സ്ഥാപനങ്ങൾ	-10.1469
രീതിയിൽ	-10.1473
പീഡ	-10.1473
യാക്കിയ	-10.1477
▁പാടിയ	-10.1478
▁കിടപ്പ	-10.1482
ണ്ണി	-10.1484
ാക്കുന്ന	-10.1486
ിനോടു	-10.1489
▁അധികവും	-10.149
കൊള്ളുന്നു	-10.1491
▁ചതി	-10.1493
കുടുംബ	-10.1496
▁നോക്കുന്ന	-10.1503
▁ചുമര	-10.1504
▁വിശാലമായ	-10.1506
▁പഠിപ്പിച്ച	-10.1513
▁അസാധാരണ	-10.1516
▁അയച്ചു	-10.1516
▁മണ്ഡലത്തിൽ	-10.1517
▁പഠിപ്പിക്ക	-10.1518
▁കഥകളിൽ	-10.1524
▁സാരി	-10.1527
▁നിരീക്ഷണ	-10.1527
▁സ്പഷ്ട	-10.1534
▁നാരായണ	-10.1534
▁ഉപയോഗിച്ചു്	-10.1543
മനുസരിച്ചു	-10.1543
ാവാം	-10.1544
▁ഈശ്വരന	-10.1545
ുന്നതിനും	-10.155
▁കഥാപാത്ര	-10.1552
▁എതിർക്ക	-10.1553
▁ചാരി	-10.1555
തയെ	-10.1555
▁ഇട്ട	-10.1558
▁സന്നദ്ധ	-10.1558
ായിത്തീര	-10.1563
▁എന്താണു	-10.1563
▁ഇടയ്ക്ക	-10.1563
ജാതി	-10.1565
േനെ	-10.1568
▁മാനുഷിക	-10.1569
▁സ്കൂളിൽ	-10.1572
▁ജൈന	-10.1579
പ്പാട	-10.1583
▁ദി	-10.1586
▁സ്വന്തമായി	-10.1595
▁പോന്ന	-10.1599
▁പറഞ്ഞതു	-10.16
▁ഉണ്ണി	-10.1604
മാറ്റി	-10.1609
പദേശ	-10.1612
▁പ്രയോഗിക്ക	-10.1614
▁കരുണാകരനെ	-10.1614
ിപ്പോയ	-10.1616
▁പക്ഷി	-10.1616
▁മട്ട	-10.1616
▁തലയിൽ	-10.1616
▁നിന്നെ	-10.1618
▁ഹിന്ദി	-10.1623
▁വിശിഷ്ട	-10.1623
ാനേ	-10.1632
പേക്ഷ	-10.1634
▁വായിക്കുന്ന	-10.1642
▁സ്വന്ത	-10.1642
ാർഹ	-10.1645
▁റേഡിയോ	-10.1645
▁പുരാതന	-10.1645
▁പ്രേരിപ്പിക്ക	-10.1645
▁വിദ്യാർഥി	-10.1645
▁അജ്ഞത	-10.1645
▁മുതൽക്കു	-10.1646
▁വാതിൽക്കൽ	-10.1646
മാതിരി	-10.1647
▁ഉണ്ടെങ്കിൽ	-10.1647
▁അതിനുവേണ്ടി	-10.1648
▁വിദ്യാർത്ഥികൾ	-10.1648
▁നിലവിൽ	-10.1651
▁മാരാരുടെ	-10.1651
▁കഴിയുമോ	-10.1651
▁അനുമാനിക്കാം	-10.1651
▁ന്യായാധിപ	-10.1653
▁അന്ധ	-10.1653
▁ഏഴാം	-10.1654
▁മകനെ	-10.1654
▁ഏതൊരു	-10.1656
▁ധ്വനി	-10.1657
▁ഇറക്ക	-10.1657
▁ത്രി	-10.1659
▁ഉപദേശം	-10.1661
▁ഗോവിന്ദൻ	-10.1666
▁വിശ്രമ	-10.1666
▁ചുരുങ്ങിയ	-10.1667
▁നീച	-10.1669
▁നിങ്ങൾക്ക	-10.1673
▁അതിന്നു	-10.1673
മുണ്ടെന്നു	-10.1675
▁മക്ക	-10.1677
▁സ്മരണ	-10.1682
തെങ്കിലും	-10.1683
▁അത്യന്തം	-10.1685
▁അന്ത	-10.1686
▁സാമാന്യമായി	-10.1687
▁സർക്കാറ	-10.1687
കിട്ടിയ	-10.1691
▁റിപ്പോർട്ട	-10.1691
നാടു	-10.1694
▁മാർഗ്ഗം	-10.1694
▁കേട്ടാൽ	-10.1697
െല്ലാ	-10.1703
▁തീരുമാനിച്ചു	-10.1705
▁പൊറ്റെക്കാട്ട	-10.1708
▁ബിരുദം	-10.1713
താണ	-10.1713
പ്പറഞ്ഞ	-10.1715
യുണ്ടാക്കി	-10.1717
▁ലോക്സഭാ	-10.1719
▁മൂക്ക	-10.1721
▁സന്ധ്യ	-10.1722
▁ബഹുമാന	-10.1723
ിക്കുന്നുണ്ടു്	-10.173
വീക്ഷണ	-10.1731
ri	-10.1732
▁ജീവിതത്തിലെ	-10.1737
വിദ്യ	-10.174
▁കമ്പി	-10.1741
▁പുറപ്പെട്ടു	-10.1742
ാണതു്	-10.1742
ർജ	-10.1749
▁വൃദ്ധ	-10.1752
▁പ്രതിഫലിക്കുന്ന	-10.1757
▁കന	-10.1757
▁സിനിമയിൽ	-10.1758
▁കുട്ടിയെ	-10.1763
▁നടത്താൻ	-10.1765
രാഷ്ട്ര	-10.177
▁കൊടി	-10.1772
▁പറയുവാൻ	-10.1775
▁പുര	-10.1776
▁ശാഖ	-10.1777
കൊല്ലം	-10.1782
വിടുന്ന	-10.1785
▁ഉറക്കം	-10.1788
ാത്തതുകൊണ്ടു്	-10.179
▁തോന്നിയില്ല	-10.1793
▁കാര്യവും	-10.1799
▁ദേവി	-10.1803
▁അടിച്ചു	-10.1809
ൊന്നുമല്ല	-10.1811
▁മറ്റുള്ളവരെ	-10.1812
▁പുത്രനായ	-10.1815
▁ഉയർത്ത	-10.1816
ുന്നതിലൂടെ	-10.1821
രൻ	-10.1822
▁വസ്ത്രം	-10.1824
▁അങ്ങോട്ടു	-10.183
▁കിട	-10.183
▁പ്രചാരണം	-10.1832
▁നായിക	-10.1835
▁വിന്റെ	-10.1838
പുരം	-10.1839
▁ട്ര	-10.1842
▁കുറിക്കുന്ന	-10.1847
ഷ്ഠ	-10.1849
▁ദാർശനിക	-10.1849
ുണ്ടാകും	-10.1853
▁ദ്വീപ	-10.1855
▁ഭവഭൂതി	-10.1855
▁നടക്കുന്നതു്	-10.1857
▁മാരാർ	-10.1863
▁ഘട്ട	-10.1863
▁അറ്റ	-10.1864
മിന	-10.1866
ാവാൻ	-10.1868
▁ചൈന	-10.1869
▁ഇന്നുവരെ	-10.1874
▁ഇഷ്ടപ്പെട്ട	-10.1874
രക്ഷ	-10.1874
▁ഗംഭീര	-10.1874
▁ക്ലേശ	-10.1875
▁പരിശ്രമ	-10.1876
▁ആന്ധ്ര	-10.1882
▁പട്ടികജാതിക്കാര	-10.1883
ന്‍	-10.1883
▁ഏട്ടൻ	-10.1883
▁പ്രയാസം	-10.1883
▁മൗലവി	-10.1883
ുന്തോറും	-10.1883
ദൃഷ്ട്യാ	-10.1883
▁ശതാബ്ദത്തിൽ	-10.1883
▁അസൂയ	-10.1883
▁ഒന്നുകിൽ	-10.1884
▁വിളംബരം	-10.1884
▁നാട്ടുകാർ	-10.1884
▁പിന്നാക്ക	-10.1884
ീസ	-10.1885
▁ഒന്നാംതരം	-10.1885
▁അടിയിൽ	-10.1886
▁പിരിച്ചുവിട	-10.1886
▁മലയാളികൾ	-10.1887
മൂല	-10.1892
▁കപ്പൽ	-10.1894
▁ചെലവ	-10.1894
▁ബാലകൃഷ്ണൻ	-10.1895
▁മാറ്റങ്ങൾ	-10.1897
▁ഓണ	-10.1898
▁മുനി	-10.1899
ത്തല	-10.1901
▁മുമ്പില	-10.1902
▁സമൂഹം	-10.1902
▁ജനാധിപത്യം	-10.1908
▁നമ്മള	-10.1909
▁കമ്പ	-10.1912
തൻ	-10.1913
▁നുണ	-10.1914
▁മലബാറിൽ	-10.1916
▁നശിക്ക	-10.1918
▁പറഞ്ഞിരിക്കുന്ന	-10.1919
▁മോശ	-10.1921
▁ചെയ്താൽ	-10.1922
ിലേറെ	-10.1924
▁സംസ്കാരത്തിന്റെ	-10.1925
▁നോ	-10.1925
▁തരത്തിൽ	-10.1926
▁പാട്ടു്	-10.1926
▁നേതൃത്വ	-10.1926
▁അഭിനയ	-10.1927
പണി	-10.1929
▁അത്രയ്ക്കു	-10.193
▁ത്തിലെ	-10.1932
▁കത്ത	-10.1933
▁പത്രങ്ങൾ	-10.1936
▁കാണാതെ	-10.1937
▁സത്ത	-10.194
▁രേഖപ്പെടുത്തിയ	-10.1941
▁വോട്ട	-10.1949
▁കൊണ്ടുപോയി	-10.1953
▁പ്രപഞ്ചം	-10.1953
▁പുതു	-10.1953
▁പിടികിട്ട	-10.1955
▁ഇതിലും	-10.1957
പിടി	-10.1959
ിച്ചുകൊണ്ടു്	-10.1964
▁ഇവരെ	-10.1965
▁വേണമെന്നു്	-10.1966
▁മാത്രമായിരുന്നു	-10.1975
ക്ര	-10.1975
▁സഖ്യം	-10.1977
▁ശ്വാസം	-10.1977
▁ഗ്രന്ഥങ്ങൾ	-10.1986
▁ആരെയും	-10.1988
▁പഠിപ്പിക്കുന്ന	-10.199
▁ധൈര്യം	-10.199
ക്കില്ല	-10.199
മൂല്യ	-10.1992
▁സാധിച്ചു	-10.1998
▁അധ്യാപക	-10.1999
▁അനുഭവിക്കുന്ന	-10.2004
▁സമ്മാന	-10.2008
▁ചെയ്യുന്നുണ്ടു്	-10.2009
▁ആവേശ	-10.2009
▁പ്രേത	-10.2009
ാകെ	-10.2013
▁പുറത്താക്ക	-10.2016
േയ്ക്കു	-10.2017
▁പ്രധാനം	-10.2018
▁കേറി	-10.2021
▁നശിച്ചു	-10.2021
ാകയാൽ	-10.2029
▁കോടതിയലക്ഷ്യ	-10.2031
▁പ്രതിഷ്ഠ	-10.2032
▁മാതിരി	-10.2034
ാണെന്നുള്ള	-10.2035
ഹാ	-10.2043
▁പിന്നില	-10.2043
▁കൈയ	-10.2043
▁ചര	-10.2045
▁സഹായിച്ച	-10.2049
ദൃഷ്ടി	-10.2056
▁സ്വാർത്ഥ	-10.2056
▁പുലർത്ത	-10.2059
▁ചൂഷണ	-10.2065
മായിത്തീരുന്നു	-10.2076
▁സ്നേഹവും	-10.2077
▁സന്ദേശ	-10.2078
▁വിമർശിക്ക	-10.2079
▁ജനിപ്പിക്കുന്ന	-10.2082
മുറ	-10.2083
▁കുരു	-10.2084
ുകയാണു	-10.2085
▁കായ	-10.2085
കളുള്ള	-10.2096
പ്രവർത്തനം	-10.2096
▁ഭാര്യയുടെ	-10.2098
▁പനമ്പിള്ളി	-10.2099
▁ചുവപ്പ	-10.21
ത്തിനാണു്	-10.2103
▁സിദ്ധി	-10.2103
ല്	-10.2103
▁കാണപ്പെടുന്ന	-10.2103
▁നേതാവ	-10.2106
വിലാസ	-10.2111
ണ്ടാക	-10.2115
▁ഉദാഹരണമായി	-10.2116
▁അഭിവൃദ്ധി	-10.2123
▁പിന്നീട	-10.2125
▁ശ്രീകണ്ഠൻ	-10.2127
▁സമ്മതിച്ച	-10.2127
▁സനാതന	-10.2127
▁1968	-10.2127
▁1999	-10.2127
▁ഏറ്റവുമധികം	-10.2127
▁ചിലപ്പതികാര	-10.2127
▁തന്നിമിത്തം	-10.2127
▁നവംബർ	-10.2127
▁ആലപ്പുഴ	-10.2127
▁സംഘടിപ്പിച്ച	-10.2127
▁പുത്തൻ	-10.2127
▁പരിഷ്ക്കാര	-10.2127
▁മൊത്തം	-10.2127
▁പണിക്കർ	-10.2128
▁പ്രാകൃത	-10.2128
▁സുഹൃത്ത	-10.2128
▁ഹിന്ദുക്കൾ	-10.2129
▁ബാധിക്ക	-10.2131
▁ആശാന്റെ	-10.2132
▁ഉപയോഗ	-10.2133
▁അടിസ്ഥാനമാക്കി	-10.2133
▁ഭൂരിപക്ഷത്തോടെ	-10.2136
റിയില്ല	-10.2138
▁കമ്മ്യൂണിസ	-10.214
▁ഇൻസ	-10.2146
▁പൊതി	-10.2149
▁ശ്രീനാരായണഗുരു	-10.2151
ല്ലൊ	-10.2153
▁നഗരത്തിൽ	-10.2155
വാങ്ങി	-10.2155
▁കീഴിൽ	-10.2156
▁കോഴിക്കോട്	-10.2156
▁കുറച്ചു്	-10.2157
▁ഉദാഹരണമാണു്	-10.2158
▁സഹോദരൻ	-10.2159
▁യോ	-10.2163
പരമായി	-10.2168
▁മകനും	-10.2168
▁മോചനം	-10.2169
▁എതിർത്തു	-10.2171
▁അപ്പോഴ	-10.2174
താണല്ലോ	-10.2174
▁ജീവിച്ചു	-10.2175
▁പറഞ്ഞാലും	-10.2175
▁നീക്ക	-10.2178
▁പട്ടണ	-10.2181
തിന്നു	-10.2182
▁സമീപം	-10.2182
▁വരയ്ക്ക	-10.2183
ത്തിലേയ്ക്കു്	-10.2184
ികളെ	-10.2185
വാന	-10.2186
▁സ്വാഗതം	-10.2189
▁വഴിയ	-10.2191
കളേയും	-10.2191
പ്പുറത്ത	-10.2193
▁നീക്കം	-10.2195
െന്താ	-10.2198
ണ്ടാക്ക	-10.2201
▁അയ്	-10.2201
ിന്നു്	-10.2203
▁ഏറ്റെടുക്ക	-10.2205
ാകാം	-10.2206
കൊണ്ടിരിക്കുന്നു	-10.2208
ിനോടും	-10.2208
▁മൗനം	-10.2222
▁കഥയ	-10.2224
▁മാധ്യമങ്ങൾ	-10.2224
▁കരുണാകര	-10.2226
▁ആരുടെ	-10.2226
േറ്റു	-10.2229
▁സഹോദരി	-10.2234
ണ്ടായി	-10.2239
▁നിലക്കു്	-10.2242
▁കൈകാര്യം	-10.2252
▁ഗ്രൂപ്പ്	-10.226
▁പാർപ്പിട	-10.226
്യവും	-10.226
▁പിതൃ	-10.226
▁എന്തിനു	-10.2263
ത്തെക്കാൾ	-10.2264
ിച്ചിട്ടുണ്ടു്	-10.2268
ുവാനാണു്	-10.2269
▁തുണ	-10.2277
▁യുക്തിവാദി	-10.2281
▁ആക്രമണ	-10.2289
വീര	-10.2291
▁ഒഴിഞ്ഞ	-10.2291
▁ഭാഗ്യം	-10.2294
▁ക്ര	-10.2296
ത്തിനിടയിൽ	-10.2299
▁യാ	-10.2299
ത്തിലേക്കും	-10.2299
▁വിശുദ്ധ	-10.2306
▁നാശ	-10.2306
▁ശൃംഗാര	-10.2306
തീര	-10.2307
ക്കൊടുക്ക	-10.2309
▁തിരിച്ചുവര	-10.2311
▁എതിർ	-10.2321
▁സംഭാഷണം	-10.2335
▁മക്കള	-10.2336
കളൊന്നും	-10.2337
▁കഷ്ടം	-10.2339
▁പെട്ടെന്ന	-10.2341
കൊ	-10.2342
▁ഹൃദയത്തിൽ	-10.2343
▁മതേതര	-10.2347
▁കരഞ്ഞു	-10.2347
▁ഉണ്ടായിട്ടില്ല	-10.2349
▁പോകും	-10.235
യെപ്പറ്റിയും	-10.2352
▁പത്രം	-10.2356
▁സ്വാഭാവിക	-10.2357
▁ലീഡർ	-10.236
▁ശോഭന	-10.236
മുണ്ടെന്നു്	-10.236
▁ഇതില	-10.2363
▁കാട	-10.2363
▁അമ്പല	-10.2364
▁ആറ	-10.2367
റെ	-10.2369
▁അവയ്ക്കു	-10.2369
ധന	-10.2371
▁വാര	-10.2372
ച്ചാൽ	-10.2374
at	-10.2375
▁1960	-10.2377
▁സൈക്കിൾ	-10.2377
▁മക്കത്തുപോയ	-10.2377
ity	-10.2377
▁താര	-10.2377
▁ലിപി	-10.2377
▁1948	-10.2378
▁സമത്വവാദി	-10.2378
▁നായനാർ	-10.2378
▁നിർത്തിയ	-10.2378
വീ	-10.2379
▁സാഹിത്യകാരന്മാർ	-10.238
ന്തോ	-10.238
രിപ്പ	-10.2382
ർമ്മ	-10.2382
▁കഴുത്ത	-10.2384
ക്കുന്നതും	-10.2385
ൽക്ക	-10.2385
▁അപ്പോഴേക്കും	-10.2386
ക്കഥ	-10.2386
ർഡ	-10.2387
▁കുറെയൊക്കെ	-10.2388
▁ബഹുജന	-10.2388
▁കുറെക്കൂടി	-10.2391
▁ഗുരുവിന്റെ	-10.2391
▁പ്രചരിപ്പിക്ക	-10.2391
▁നടക്കുന്നു	-10.2394
▁എനിക്കൊരു	-10.2396
▁പുരോഗമനസാഹിത്യ	-10.2397
▁മുട്ടി	-10.2397
▁ചെറുപ്പക്കാരൻ	-10.2397
▁വാത്സല്യ	-10.2398
▁മറു	-10.24
▁ദുർബല	-10.24
ായിത്തീർന്നു	-10.2401
▁ഇല്ലെങ്കിൽ	-10.2404
ഴ്	-10.2405
▁പിൽക്കാലത്തു്	-10.2409
▁അപ്പോഴാണു്	-10.2409
ിച്ചിരുന്ന	-10.241
ഫി	-10.2417
▁ചിഹ്ന	-10.2419
▁സത്യത്തിൽ	-10.2419
▁ചെയ്യാതെ	-10.2419
കാർ	-10.242
ക്കാൾ	-10.242
മ്പോ	-10.242
▁താഴ	-10.2422
ക്കെട്ട	-10.2424
▁ഹർജി	-10.2424
▁തനിക്ക	-10.2426
ടയ	-10.2428
▁കാലത്താണു്	-10.2429
▁സമ്പന്ന	-10.2429
ണ്ടോ	-10.243
▁വർഷങ്ങൾ	-10.243
ത്തിരി	-10.2433
രെയും	-10.2434
▁സാധന	-10.2435
▁കടൽ	-10.2436
▁ചേർക്കുന്നു	-10.2439
▁ശ്ലോക	-10.2445
യോടുള്ള	-10.2445
▁അർഹിക്കുന്ന	-10.2446
മട്ടിൽ	-10.245
▁കാര്യമായി	-10.2451
▁ശ്രദ്ധിച്ച	-10.2453
▁കയ്യിൽ	-10.2456
▁കരുതുന്ന	-10.2458
▁ഇളം	-10.2464
▁എസി	-10.2466
▁ചെയ്തിരുന്ന	-10.2466
നടന്നു	-10.2469
▁പറഞ്ഞപ്പോൾ	-10.2471
▁നാസ്തിക	-10.2476
▁മുദ്ര	-10.2477
ങ്ങളിലാണു്	-10.248
▁അയച്ച	-10.2481
▁റി	-10.2483
ദോഷ	-10.2485
സൗന്ദര്യ	-10.2486
ത്തിന്ന	-10.2488
▁സ്ഥലത്തെ	-10.2491
▁വയസ്സു	-10.2495
▁വഴിയിൽ	-10.2498
തയിൽ	-10.2499
▁അസ	-10.25
▁സ്ഥാപിച്ചു	-10.2504
തിലാണു്	-10.2506
സ്തി	-10.2512
▁ഒരാ	-10.2512
▁കട്ടില	-10.2513
▁മടങ്ങ	-10.2514
▁അർഥ	-10.2514
▁മലയാളസാഹിത്യ	-10.2514
നാണ	-10.2518
▁നിശ്ശബ്ദ	-10.2522
▁സുഹൃത്തുക്കള	-10.2526
മാത്രമല്ല	-10.2527
ന്ദ്	-10.2528
ിട്ടുള്ളൂ	-10.253
▁മനുഷ്യസമുദായ	-10.2532
▁പതിവു	-10.2533
മർ	-10.2535
ുകയെന്നതു്	-10.2537
▁അന്നേ	-10.2538
▁കൊണ്ടുപോക	-10.254
▁മുന്ന	-10.2541
ില്ലെന്നും	-10.2544
ിയാൽ	-10.2544
▁ഹി	-10.2545
ഷ്യ	-10.2546
▁വിനോദ	-10.2546
▁അറിയപ്പെടുന്ന	-10.2547
▁പോന്നു	-10.2549
▁നർമ്മ	-10.2551
▁മുന്നില	-10.2551
▁പതിപ്പ	-10.2555
പകര	-10.2558
▁തീർത്തു	-10.2562
യെക്കുറിച്ചു്	-10.2565
▁ഏറ	-10.2566
▁തിരുത്ത	-10.2569
പാത്ര	-10.2571
▁കഥയും	-10.2573
പ്രകൃതി	-10.2578
ാഴ്ച	-10.2583
ടുപ്പ	-10.2583
▁സൗകര്യം	-10.2583
▁ഗാന	-10.2584
▁ചെയ്യപ്പെട്ട	-10.2586
▁പല്ലു	-10.2587
പള്ളി	-10.2587
▁യുഗ	-10.2593
▁തെളിയിക്ക	-10.2595
▁ഭാഗ്യ	-10.26
വിരോധ	-10.2601
തന	-10.2603
ീർ	-10.2603
പ്പിടി	-10.2603
▁വായു	-10.2606
▁ഗു	-10.2607
▁പാർട്ടിയിൽ	-10.2609
ിരിക്കാൻ	-10.261
▁സിനിമയുടെ	-10.2614
▁വക്കീല	-10.2617
▁വിചിത്രമായ	-10.2617
കളഞ്ഞു	-10.2618
േറെ	-10.2626
▁ആഴ്ച	-10.2631
ൊരിക്കൽ	-10.2633
▁ശിങ്കിടി	-10.2633
▁ഒന്നാമതായി	-10.2634
▁വാദപ്രതിവാദ	-10.2634
▁സ്ക്കൂൾ	-10.2634
▁നിലവിലുള്ള	-10.2634
▁നിഴൽ	-10.2634
▁ഇക്കൂട്ടർ	-10.2634
▁പ്രതിച്ഛായ	-10.2634
▁മിഥ്യ	-10.2634
ട്ടും	-10.2634
▁മുൻകൂട്ടി	-10.2635
▁വാരി	-10.2635
▁പ്രിയ	-10.2636
▁ചാട	-10.2639
▁ഇരിപ്പ	-10.2639
▁ആശ്രമ	-10.2641
▁നൂറ്റാണ്ടിന്റെ	-10.2641
▁താടി	-10.2641
ക്കളുടെ	-10.2641
പ്പെടുകയും	-10.2642
ക്കറിയാം	-10.2643
▁സ്മരണീയമാണു്	-10.2643
▁ആവർത്തിക്ക	-10.2644
▁സാഹിത്യകാരൻ	-10.2645
▁മന്ത്രിസഭയിൽ	-10.2645
▁മണീ	-10.2646
▁കൂടിയേ	-10.2646
▁താനും	-10.2651
▁ആദരിക്ക	-10.2651
ാർഥ	-10.2652
▁ജേക്കബ്	-10.2653
▁പ്രതിനിധാനം	-10.2653
▁വനിതാ	-10.2656
▁സ്വാഭാവികമായും	-10.2658
െടുക്കുന്ന	-10.2659
ോൺ	-10.266
▁തുണി	-10.2661
▁71	-10.2664
▁പൂർണ്ണ	-10.2666
▁ശ്രമിക്കുന്ന	-10.2667
▁ഗണിക്ക	-10.2668
ർത്ഥം	-10.2668
ുന്നതിന്റെ	-10.2671
▁വസ്തു	-10.2672
ാവു	-10.2675
▁പുത്രി	-10.2675
▁അവരും	-10.2676
▁നിശ്ചയിച്ച	-10.2676
▁പ്രഭു	-10.2677
▁അപകട	-10.2679
വിളി	-10.268
ടങ്ങ	-10.2683
▁ചെയ്യണം	-10.2684
▁ധൈര്യ	-10.2686
▁ചെവി	-10.2686
▁ധരിക്ക	-10.2687
▁ചേ	-10.2689
▁മന്ത്രിസ്ഥാനം	-10.269
▁വിട്ടു്	-10.2693
ഭാവന	-10.2699
▁സയൻസ്	-10.27
▁കുമാര	-10.2701
വാള	-10.2704
▁ഇക്കാര്യം	-10.2705
ത്തുടങ്ങി	-10.2706
ുണ്ടാക്കുന്ന	-10.2707
▁സംഭവിക്കുന്ന	-10.2708
▁ജനതയുടെ	-10.2709
തരംഗ	-10.2712
▁ചോദ്യത്തിനു്	-10.2712
ായിരുന്നില്ല	-10.2712
▁പാർക്ക	-10.2716
▁കൗതുകം	-10.2716
ഭക്ത	-10.2717
വാല	-10.2718
ത്തുനിന്നു്	-10.2718
▁കാശു	-10.2718
▁കുപ്പി	-10.2726
ഗിരി	-10.2727
▁സംവരണ	-10.2728
▁അടിസ്ഥാനത്തിൽ	-10.2728
ർത്തി	-10.2729
▁പകർന്നു	-10.2729
▁അനുഭവങ്ങൾ	-10.273
റിഞ്ഞു്	-10.273
▁വാഹന	-10.2738
ചേർന്ന	-10.2744
സമ്മത	-10.2745
▁ഭാരം	-10.2746
▁മുട്ട	-10.2748
കേരള	-10.2749
ഭൂമി	-10.2752
▁പൂർണ	-10.2756
▁കുലശേഖര	-10.2766
പ്രമാണ	-10.2771
▁പാണ്ഡ്യ	-10.2773
▁രോഗികളെ	-10.2776
▁വ്യസന	-10.2778
▁പഠിപ്പ	-10.278
വരു	-10.2784
▁കല്പിച്ച	-10.2785
▁രചിക്ക	-10.2786
▁സമ്മേളനം	-10.2789
▁നഷ്ട	-10.2791
▁എന്നുള്ളതു്	-10.2797
▁ഏറ്റ	-10.2801
ക്കാരന	-10.2808
ല്ലാ	-10.281
ിച്ചാൽ	-10.2812
▁രാജിവെച്ച	-10.2817
ാമെങ്കിൽ	-10.2817
വന്നു്	-10.282
▁കുട്ട	-10.2821
▁വിശാല	-10.2824
ത്തോട	-10.2826
▁ഉത്ഭവ	-10.2827
ിയാ	-10.2828
▁കരുതിയ	-10.283
ക്കാരനും	-10.2833
▁സഹായിക്കുന്ന	-10.2838
▁ന്ന	-10.2843
നുസരിച്ചു	-10.2849
▁ചൈതന്യ	-10.2851
▁ഗോവിന്ദ	-10.2854
▁കണക്ക	-10.2865
ിറങ്ങ	-10.2867
മാണെങ്കിലും	-10.2868
കൈ	-10.287
ുത	-10.2871
▁സമ്പാദിക്ക	-10.2872
ഭാഷയിൽ	-10.2873
ra	-10.2874
ൂഹ	-10.2877
▁ശിഷ്യന്മാര	-10.2878
▁ഒമ്പത	-10.288
▁ക്രിമിനൽ	-10.2883
▁അന്തസ്സ	-10.2885
▁നിലനിന്ന	-10.2887
▁ത്തിൽ	-10.2891
ദേവ	-10.2892
▁മേശ	-10.2893
▁ഇസ്ലാം	-10.2895
▁കുഞ്ഞായിൻ	-10.2897
▁യൗവന	-10.2897
▁തണുപ്പ	-10.2897
▁പുറപ്പെടുവിക്ക	-10.2897
▁പ്രസിദ്ധീകരിക്ക	-10.2897
▁സദാചാര	-10.2898
▁മലപ്പുറം	-10.2898
▁ഗ്രന്ഥകാരന്റെ	-10.2899
റുടെ	-10.29
▁ചുരുക്ക	-10.29
▁പ്രഖ്യാപിക്ക	-10.29
വർത്ത	-10.2901
▁കിഴക്കൻ	-10.2901
▁രസകരമായ	-10.2902
▁ഫിലിം	-10.2903
▁ഉറപ്പ	-10.2903
▁അയ്യോ	-10.2909
സംഘം	-10.2909
കാര്യം	-10.2909
▁സോവിയറ്റ്	-10.2911
▁കുത്തക	-10.2913
▁വർദ്ധിപ്പിക്ക	-10.2918
ത്തിൽപ്പെട്ട	-10.2921
▁ഭാര്യയും	-10.2922
▁വ്യാകരണ	-10.2922
▁ചെറിയൊരു	-10.2926
▁ഭാര	-10.2928
▁ആശാൻ	-10.2929
▁പഠിക്കാൻ	-10.293
▁കഴിക്കുന്ന	-10.2933
▁ഞാനൊരു	-10.2933
▁അവഗണിക്ക	-10.2935
▁ചെയ്യുമ്പോൾ	-10.2936
▁ഏറ്റു	-10.2937
▁കാര്യമില്ല	-10.2937
▁ബാധിക്കുന്ന	-10.2941
ബർ	-10.2942
▁താത്പര്യ	-10.2943
വെക്കുന്ന	-10.2943
▁ഏതാണു്	-10.2944
▁ശങ്കര	-10.2946
▁ദിവസങ്ങൾ	-10.2959
ാറായ	-10.296
▁നേർത്ത	-10.2964
▁പരിതഃസ്ഥിതി	-10.2964
▁തുടക്കം	-10.2966
ുകയുമില്ല	-10.2967
▁മേഖല	-10.2967
▁കപ്പ	-10.297
ിരിക്കുന്നതും	-10.2971
▁കാണിച്ചു്	-10.2985
▁പൂച്ച	-10.2985
ാംശം	-10.2986
ഗുരു	-10.2987
വച്ചു്	-10.2995
▁എന്നോടു്	-10.2996
▁ഉട	-10.2996
▁ഓഫീസ	-10.2996
മനുഷ്യ	-10.2998
നായർ	-10.3001
▁സംസ്കാരം	-10.3003
▁വിൽ	-10.3003
മായിട്ടുള്ള	-10.3006
യെടുത്തു്	-10.3008
▁ചിത്രങ്ങളിൽ	-10.3009
▁ഒന്നോ	-10.3012
കൊണ്ടല്ല	-10.3015
▁സംഗതികൾ	-10.3017
പരമ്പര	-10.302
▁അർഥം	-10.3021
യുണ്ടോ	-10.3023
മായിട്ട	-10.3024
തിനേക്കാൾ	-10.3024
▁എന്നപോലെ	-10.3026
▁കാലഘട്ടത്തിൽ	-10.3028
▁ബഹള	-10.3029
വേദി	-10.3029
▁കാശ	-10.3033
▁ബാപ്പ	-10.3036
▁സാദൃശ്യം	-10.3036
പ്പെടേണ്ട	-10.3037
▁അങ്ങു്	-10.3038
ദു	-10.3038
▁സാദൃശ്യ	-10.304
▁എന്നാണു	-10.3049
പ്പെടുക	-10.305
▁സഞ്ജയ	-10.3053
ുകയാണോ	-10.3056
കുമാർ	-10.3056
▁ആചാര്യ	-10.3057
▁കാമുകി	-10.306
▁നടക്കും	-10.306
മുണ്ടെങ്കിൽ	-10.3062
ച്ചെ	-10.3064
▁സംഭവിച്ചു	-10.3076
▁മുപ്പതു	-10.3077
പ്രസ്ഥാനത്തിന്റെ	-10.3079
▁അഭിപ്രായപ്പെട	-10.308
▁താമസം	-10.308
▁പിഴ	-10.3082
▁നരവംശ	-10.3083
▁നല്കിയ	-10.3084
ുമെന്നാണു്	-10.3089
▁പ്രബന്ധ	-10.3091
നദി	-10.3093
▁മനോഭാവം	-10.3101
ചരിത്രം	-10.3103
▁മറ്റൊര	-10.3105
▁കുട്ടിയുടെ	-10.3106
▁ന്യൂനപക്ഷ	-10.3106
ത്തോടുള്ള	-10.3107
▁ഘടന	-10.311
▁ഇനിയ	-10.3112
സന്	-10.3114
സാര	-10.3116
▁വഹിക്കുന്ന	-10.3123
▁ലക്ഷ	-10.3123
▁മൗലിക	-10.3129
▁കൃത്യമായി	-10.3138
▁വാർഡ	-10.3138
▁പറഞ്ഞിട്ടില്ല	-10.3143
▁അദ്ധ്യാപക	-10.3143
നാട്ട	-10.3145
കാര്യങ്ങൾ	-10.3147
▁ഉപഭോഗ	-10.3148
▁പ്രസിദ്ധി	-10.3148
▁പ്രവാചക	-10.3149
▁കാണിക്കുന്നു	-10.3152
▁ഭൂത	-10.3152
ക്കാലം	-10.3154
▁ഉപ്പു	-10.3155
▁മുങ്ങി	-10.3157
▁അങ്ക	-10.3157
▁അവകാശം	-10.3161
വയ്ക്കുന്ന	-10.3163
▁നീങ്ങ	-10.3163
ുകൊള്ളട്ടെ	-10.3165
▁ശുണ്ഠി	-10.3167
▁വാർഷിക	-10.3167
▁കൺവീനർ	-10.3167
▁ഭഗവദ്ഗീത	-10.3167
▁വൈലോപ്പിള്ളി	-10.3167
▁ശാശ്വത	-10.3167
▁പാലോളി	-10.3167
▁1995	-10.3167
▁അനവധി	-10.3169
▁ഒന്നുതന്നെ	-10.317
00	-10.3171
▁കലാകാരന്റെ	-10.3171
▁പങ്കെടുത്ത	-10.3172
▁പാഞ്ഞു	-10.3173
▁ലങ്ക	-10.3174
പ്പുഴ	-10.3174
▁പ്രതിമ	-10.3176
▁നിയന്ത്രിക്ക	-10.3177
പ്രകാര	-10.3178
▁വിദൂര	-10.3179
യുദ്ധ	-10.318
▁നിർവഹിക്ക	-10.318
▁വടക്കൻ	-10.3182
▁ഇത്രമാത്രം	-10.3182
▁ഭാരതത്തിലെ	-10.3183
▁ആവശ്യപ്പെട്ട	-10.3184
▁ഉടമ	-10.3188
▁വനിത	-10.3189
▁കോടി	-10.3195
▁വർണ	-10.3197
▁ബുദ്ധിപരമായ	-10.3201
കൊണ്ടോ	-10.3202
▁എഴുത്തുകാര	-10.3205
▁കുറവാണു്	-10.3205
▁ഗുപ്ത	-10.321
▁വായിക്കാൻ	-10.3211
▁മദിരാശി	-10.3213
▁പരിശോധന	-10.3214
▁വസ്തുക്കൾ	-10.3215
▁പതിനഞ്ചു	-10.3218
്ടു	-10.3218
ടിക്കുന്ന	-10.3219
▁കാമറ	-10.3223
▁പറയൂ	-10.3223
▁കാണാവുന്ന	-10.3224
▁കഴിവുള്ള	-10.3227
സോ	-10.3228
സിദ്ധാന്തം	-10.3238
▁സദ്യ	-10.3239
ന്താ	-10.324
▁വൈവിധ്യ	-10.324
▁മുദ്രാവാക്യം	-10.3245
▁നശിച്ച	-10.3248
▁ഇക്കാലത്തു്	-10.3252
▁തോന്നിയതു്	-10.3256
▁വെയ്ക്ക	-10.3261
യാന	-10.3261
വട്ടം	-10.3263
മണ്ഡലത്തിൽ	-10.3263
▁രാജാക്കന്മാർ	-10.3263
▁പ്രവർത്തകർ	-10.327
ിറക്ക	-10.3272
▁നിലത്തു	-10.3274
▁മയ	-10.3275
▁വരിക	-10.3275
▁പൊതുവേ	-10.3277
ചേ	-10.3278
ാവണം	-10.3278
▁ഭൂതകാല	-10.3279
▁ലഭിച്ചതു്	-10.3281
et	-10.3283
▁ചവിട്ട	-10.3287
മേഖല	-10.329
രാജ്യം	-10.329
▁ദാരിദ്ര്യം	-10.3291
താനും	-10.3292
▁അകത്തേയ്ക്കു	-10.3292
വസ്തു	-10.3293
ഭ്രാന്ത	-10.3293
ിട്ടുണ്ട	-10.3294
മുദ്ര	-10.3296
▁ചൂഷണം	-10.3297
യിൻ	-10.3297
വുമില്ലാതെ	-10.3298
കാരന്റെ	-10.3304
▁പായ	-10.3305
▁പീ	-10.3307
ന്മാരിൽ	-10.3309
▁ഗൗരവ	-10.331
▁കണ്ടിട്ടുണ്ടു്	-10.3311
പോല	-10.3312
▁ചന്ത	-10.3313
▁ഭാഷയുടെ	-10.3318
▁പരമാർത്ഥം	-10.3322
▁പ്രാരംഭ	-10.3323
▁വിദഗ്ദ്ധ	-10.3328
▁കാമുക	-10.3328
േല	-10.3328
ation	-10.3329
▁അണ	-10.333
ുപോലെ	-10.3331
▁വേലി	-10.3331
▁ഞെട്ടി	-10.3337
ിട്ടേ	-10.3344
ള്ളതു്	-10.3346
▁താമസിച്ച	-10.3347
▁ഉണ്ണ	-10.3355
▁ദൽഹി	-10.3358
▁ഉണ്ട	-10.3359
▁പന്ത്രണ്ടു	-10.3362
തോന്നി	-10.3363
▁സന്യാസി	-10.3365
▁സവിശേഷത	-10.3366
ുന്നവർ	-10.3379
മാവും	-10.3381
▁എഴുത്തുകാരന	-10.3383
▁ലളിതമായ	-10.3385
▁നൽകിയിട്ടുള്ള	-10.3388
യുമായിരുന്നു	-10.3388
▁അറിയുന്ന	-10.339
ിക്കുന്നതു	-10.339
ുണ്ടാവും	-10.3395
യിലേ	-10.3401
▁ദാ	-10.3406
▁വൈദ്യ	-10.3406
ാങ്ക	-10.3406
▁ആലുവ	-10.3408
ായിരിക്ക	-10.3409
▁കാളി	-10.3409
▁വടക്കു	-10.341
▁സാക്ഷി	-10.3418
▁ശാരീരിക	-10.3418
ിന്നു	-10.3422
▁പശ്ചാത്തല	-10.3422
ന്മാർക്കും	-10.3423
ത്തിന്മേൽ	-10.3424
▁പുഷ്പ	-10.3424
▁പക	-10.343
▁സന്ദർഭം	-10.3431
▁ജൈനമത	-10.3431
▁നന്നായ	-10.3431
പ്പിടിച്ച	-10.3433
താവ	-10.3435
ുപോലും	-10.3439
രവ	-10.344
▁വൈഷ്ണവ	-10.3441
▁അഹിംസാ	-10.3443
▁സഹകരണ	-10.3444
മുനിസിപ്പാലിറ്റി	-10.3445
▁കുഞ്ഞുപാത്തുമ്മ	-10.3445
▁പാർലമെന്റ്	-10.3445
▁ഇടയ്ക്കിടയ്ക്കു	-10.3445
▁ടൈ	-10.3445
▁ഗുരുവായൂർ	-10.3446
▁തെന്നല	-10.3446
ഭാരത	-10.3446
▁കൈക്കൂലി	-10.3446
▁അതിനും	-10.3447
▁എന്തായാലും	-10.3448
▁ഇത്രത്തോളം	-10.3449
▁29	-10.345
▁പ്രസന്ന	-10.345
▁ഇത്തിരി	-10.3451
▁മദ്യം	-10.3452
▁പിന്തുണയോടെ	-10.3453
കിട	-10.3454
▁പ്രസംഗിച്ചു	-10.3456
നൽ	-10.3456
▁50	-10.3458
▁പ്രണയം	-10.3458
▁പെരുമാളിന്റെ	-10.3461
▁സമത്വ	-10.3461
▁സയൻസിന്റെ	-10.3461
നിർ	-10.3463
▁സഖാവിന്റെ	-10.3464
▁യോജിക്ക	-10.3464
▁ക്രിസ്ത്യാനികൾ	-10.3466
ീഷ	-10.3468
us	-10.3469
ാടി	-10.3471
പ്പിടിച്ചു	-10.3472
▁കടലാസ്സു	-10.3473
▁പരിശുദ്ധ	-10.3473
▁യാഥാസ്ഥിതിക	-10.3473
▁എന്നുള്ളതാണു്	-10.3477
▁ഹാജി	-10.3479
മഹാ	-10.348
▁വിശ്വസിക്കാൻ	-10.3488
▁പട്ട	-10.3493
േൽ	-10.3494
▁മരുന്നു	-10.3496
▁അന്തർ	-10.35
▁പുറത്തുവന്ന	-10.3502
കഥകൾ	-10.3507
േണ്ടിയിരിക്കുന്ന	-10.3507
▁പരിസര	-10.351
▁സംഗീതം	-10.3514
പൊളി	-10.3515
▁പാവപ്പെട്ട	-10.3515
ർമ	-10.3519
▁ഖണ്ഡ	-10.3519
▁മനസ്സിലായില്ല	-10.352
▁മദ	-10.3523
▁മൂടി	-10.3523
ക്കുപോലും	-10.3523
വുമായിരുന്നു	-10.3525
▁പറയുന്നത	-10.3528
▁എന്നതിൽ	-10.3529
▁പ്രതിനിധി	-10.3531
▁വിഭിന്ന	-10.3531
▁ഉദ്ഘാടനം	-10.3536
▁തോന്നിക്കുന്ന	-10.3537
▁മാനസികമായ	-10.3539
▁പോയാൽ	-10.3541
തൊന്നും	-10.3543
ണമെന്നില്ല	-10.3544
ചക്ര	-10.3547
ത്രയും	-10.355
യിലേക്കും	-10.3552
▁തലസ്ഥാനമായ	-10.3555
യ്ക്കുന്ന	-10.3555
ക്കെല്ലാം	-10.3556
▁മാർഗ	-10.3556
▁ഹേ	-10.356
▁ഉദ്ദേശിക്കുന്ന	-10.3567
▁ആരുമില്ല	-10.3568
▁സ്ഥിതിക്കു്	-10.3572
ിങ്ങനെ	-10.3573
▁നായകൻ	-10.3577
സ്വാമി	-10.3577
▁കുടിച്ച	-10.3577
▁ഒഴുകി	-10.3577
നിരൂപണ	-10.3579
നില്ക്ക	-10.358
വെളിച്ച	-10.3582
പ്രദ	-10.3582
▁പ്രതീക്ഷിച്ച	-10.3584
ിണി	-10.3587
യുമുണ്ടു്	-10.3587
▁ഒളിച്ചു	-10.3588
ിനുള്ള	-10.3594
▁കേവല	-10.3595
▁കത്തിച്ചു	-10.3595
▁കാറ	-10.3596
▁പ്രചാരം	-10.3597
▁ഊണു	-10.3603
▁എന്നതും	-10.3604
▁കുടിയ	-10.3606
▁ആഘോഷ	-10.3607
പൊ	-10.3607
▁ഗാ	-10.3607
യെടുത്തു	-10.3608
▁സന്തോഷം	-10.3611
▁തിരുവ	-10.3612
▁ആസ്പദിച്ചു	-10.3612
ക്കൂ	-10.3613
ുകളിലും	-10.362
സ്വരൂപ	-10.362
▁സിംഗ്	-10.3628
പ്രധാനമായ	-10.363
റിയാൻ	-10.3639
▁ഒരുമിച്ചു	-10.364
ടങ്ങിയ	-10.3647
▁കലയിൽ	-10.3651
▁ഓർത്ത	-10.3652
▁ചിത്രത്തിൽ	-10.3654
വലി	-10.3659
ുവല്ലോ	-10.3668
പ്പറ	-10.3672
ിനുവേണ്ടി	-10.3676
48	-10.3677
▁തെക്കു	-10.3677
▁കണ്ണു്	-10.368
▁അയോധ്യ	-10.3689
▁പടർന്നു	-10.3689
ാമെന്നും	-10.369
ലുള്ള	-10.3693
▁പ്രശസ്തി	-10.3695
പറഞ്ഞു	-10.3695
▁അച്ഛനെ	-10.3696
▁ഏഷ്യ	-10.3699
▁ബസ്സ	-10.3702
▁വ്യക്തിപരമായ	-10.3704
▁ക്ഷേത്രത്തിൽ	-10.3705
▁നര	-10.3707
യത്രെ	-10.3709
▁അനുഗ്രഹ	-10.3712
▁ഹരി	-10.3712
▁പൊരുത്ത	-10.3713
ളെ	-10.3715
▁പോസ്റ്റ	-10.3717
▁ഉൾപ്പെടുന്ന	-10.3718
▁അറിവു	-10.3721
രേഖ	-10.3725
▁പരിഷ്കൃത	-10.3726
▁ഏട്ടന	-10.3727
▁മറിച്ച	-10.3729
വരാൻ	-10.373
▁ഭീമ	-10.373
▁സംഘടിത	-10.373
▁അടിയുറച്ച	-10.373
▁ജനസാമാന്യ	-10.373
▁തെറ്റിദ്ധാരണ	-10.373
▁നിഷിദ്ധ	-10.373
▁ബാല്യകാലസഖി	-10.373
▁മുഖസ്തുതി	-10.373
▁രാജേഷ്	-10.373
▁മതിയാവൂ	-10.3731
▁മഹനീയ	-10.3731
▁തൽഫലമായി	-10.3731
▁മത്സ്യ	-10.3731
▁1951	-10.3731
▁യഥാർഥ	-10.3731
▁ശാസ്ത്രജ്ഞന്മാർ	-10.3731
▁പ്രബുദ്ധ	-10.3733
▁കോഴിക്കോട്ടെ	-10.3733
ിന്മേല	-10.3733
▁സിറിയക്	-10.3735
▁മറ്റാര	-10.3738
▁ഉറപ്പിച്ചു	-10.3739
▁എഴുതപ്പെട്ട	-10.374
▁ചുമ്മാ	-10.3742
▁വിചാരിക്കുവാൻ	-10.3743
▁സംസ്ഥാനത്തു്	-10.3747
ൊരാൾ	-10.3749
▁നായക	-10.3749
▁തെരുവു	-10.375
▁ഒരിട	-10.3751
▁മാത്രമേയുള്ളു	-10.3752
ോർത്തു	-10.3753
▁കാളിദാസൻ	-10.3753
th	-10.3753
▁നേരിയ	-10.3753
▁മനസ്സിനെ	-10.3756
സും	-10.3757
▁ആൻഡ്	-10.3757
▁പൊങ്ങി	-10.3759
▁പ്രതികാര	-10.3759
▁വ്യക്തിത്വ	-10.376
ുമായിരുന്നില്ല	-10.3761
▁മാനം	-10.3763
▁കടിച്ചു	-10.3763
ന്ത്യ	-10.3766
▁പൗരോഹിത്യ	-10.3767
▁പ്രവണത	-10.3767
▁സമ്മേളനത്തിൽ	-10.377
▁വിശേഷിച്ചും	-10.377
കാവ്യ	-10.3771
▁സന്ന്യാസി	-10.3771
▁നിവൃത്തി	-10.3772
▁മങ്ങി	-10.3774
▁കർണാടക	-10.3776
▁മറ്റെന്ത	-10.3777
▁വിളിക്കാൻ	-10.3779
▁രാജിവെക്ക	-10.3783
▁പറഞ്ഞതുപോലെ	-10.3785
▁ന്യായം	-10.3786
▁ആസ്വദിക്ക	-10.3788
മേനോൻ	-10.3789
▁മറിച്ചു	-10.3791
▁മന്ത്രിമാർ	-10.3792
വാരി	-10.3793
▁നിലനിറുത്ത	-10.3794
ല്‍	-10.3795
▁ഞങ്ങൾക്കു	-10.3798
നൈ	-10.38
▁ഉയർത്തി	-10.3803
നാട	-10.3804
രഹിതമായ	-10.3806
യാലും	-10.3808
▁യഥാർത്ഥമായ	-10.3809
ത്തീ	-10.3811
▁തെരഞ്ഞെടുത്ത	-10.3816
▁മനുഷ്യനു	-10.3816
▁വരച്ചു	-10.3817
വാദികൾ	-10.3817
▁ഉണ്ടായിരിക്ക	-10.3818
▁കേരളോല്പത്തി	-10.3818
ിക്കപ്പെട്ട	-10.382
ട്ടേ	-10.382
തന്ന	-10.3822
▁തുടർച്ചയായി	-10.3822
▁തീവ്ര	-10.3823
▁കൊള്ളാം	-10.3824
▁അപേക്ഷിച്ചു്	-10.3824
രംഗത്തു്	-10.3832
്യത	-10.3832
▁അന്തരീക്ഷം	-10.3833
▁ആകർഷിക്ക	-10.3835
▁നാരായണഗുരു	-10.3837
▁ചങ്ങാതി	-10.3837
ങ്ങിനെ	-10.3839
▁ന്റെയും	-10.3839
▁ചെറുപ്പക്കാര	-10.384
▁വരികയാണു്	-10.3844
ക്കെ	-10.3845
▁ചെറിയാൻ	-10.3847
▁സമാഹാര	-10.3847
▁ആയിര	-10.3857
▁ദു	-10.3862
▁ഇരുണ്ട	-10.3864
▁അങ്ങേ	-10.3864
▁ആരോപണ	-10.3866
▁ആരോപണം	-10.3866
ക്കൂട	-10.3866
▁കടല	-10.3866
പറ	-10.3869
▁ചരിത്രത്തിലെ	-10.387
▁മഹാഭാരത	-10.387
▁പാട്ടുകൾ	-10.387
ലോകത്തിൽ	-10.3875
പ്രകടന	-10.3875
ളിൽ	-10.3876
▁രമ	-10.3877
▁നൃത്തം	-10.3878
▁ആവശ്യപ്പെടുന്ന	-10.388
▁എന്നുമാത്രം	-10.3881
▁മേശപ്പുറത്തു	-10.3886
▁രാജ്യത്തെ	-10.3889
▁സാമന്ത	-10.3891
ച്ചെന്നു	-10.3893
▁രോഗികൾ	-10.3896
▁ചി	-10.3902
▁വക്ക	-10.3902
വിധി	-10.3903
യാകുന്ന	-10.3905
▁മറ്റുള്ളവര	-10.3906
ധാന	-10.3907
▁വിഗ്രഹ	-10.391
▁ഉപേക്ഷിച്ചു	-10.3911
▁താമസിച്ചു	-10.3912
▁ആണെന്നു്	-10.3913
▁സദ	-10.3918
▁ശാസ്ത്രം	-10.3923
▁സാമ്രാജ്യ	-10.3924
▁കോളേജു	-10.3925
▁പ്രതികൂല	-10.3925
▁ഇല്ലേ	-10.3938
പദം	-10.3939
മാസം	-10.3939
ch	-10.3946
▁സമീപിച്ചു	-10.3946
▁ഉൾപ്പെട്ട	-10.3947
el	-10.3949
▁കൂടുതല	-10.395
യാകട്ടെ	-10.3953
▁അവയ്ക്കു്	-10.3953
▁നാടു്	-10.3954
ിടത്തു	-10.3958
ൃത	-10.3959
▁വേണ്ടിയാണു്	-10.3961
▁ഭൂമിയിൽ	-10.3962
▁മതത്തെ	-10.3962
▁ഘടകങ്ങൾ	-10.3964
റാവു	-10.3964
▁അടച്ചു	-10.3964
▁കണക്കാക്ക	-10.3968
▁തീരുമാനിക്ക	-10.3971
▁വാള	-10.3971
▁അനുഭവിച്ചു	-10.3972
▁അമ്മേ	-10.3976
▁വച്ച	-10.3977
വരെയും	-10.3977
▁ഗാന്ധിയുടെ	-10.3979
ത്വത്തെ	-10.398
▁നോക്കു	-10.3986
ുകതന്നെ	-10.3987
▁പതിവായി	-10.3988
▁പ്രചരിച്ചിരുന്ന	-10.399
ാണവർ	-10.3991
▁വർണ്ണന	-10.3994
▁കൗൺസില	-10.3994
ത്തിര	-10.3995
▁റൂ	-10.3996
പ്പര	-10.3996
▁സജീവ	-10.4003
▁തൂ	-10.4004
▁എഴുതിയതു്	-10.4008
ാംശ	-10.4008
▁വാടക	-10.4011
തോറും	-10.4011
െഴുത്തു	-10.4014
▁ഉദ്ധരിക്ക	-10.4016
▁ദൈവത്തെ	-10.4018
വിഭവ	-10.4019
▁വിശ്വസ്ത	-10.4019
പ്പോഴേക്കും	-10.402
▁സിംഹ	-10.4022
▁സവർണ	-10.4024
▁ദൃഢ	-10.4025
▁മുരളീധരൻ	-10.4025
▁വ്യാമോഹ	-10.4025
▁സാർവ്വദേശീയ	-10.4025
▁ഇടയ്ക്കിടെ	-10.4025
▁രക്തസാക്ഷി	-10.4025
▁വാതില	-10.4025
▁തിളക്ക	-10.4025
▁തിന്മ	-10.4025
▁ഭൂപ്രദേശ	-10.4025
▁ജനസംഖ്യ	-10.4026
▁മേൽപ്പറഞ്ഞ	-10.4026
ൊഴി	-10.4027
▁വിലാപ	-10.4031
▁കാലത്തോളം	-10.4033
▁കോപ്പി	-10.4033
▁അറിയാവുന്ന	-10.4034
▁നിയോജകമണ്ഡല	-10.4035
▁അങ്ങനെയൊരു	-10.4036
▁സുധീരൻ	-10.4036
▁ഭാരതീയരുടെ	-10.4038
▁കരുതുന്നു	-10.404
▁മുന്നിട്ടു	-10.404
▁വോട്ടിന്റെ	-10.4041
ാതിരിക്കുക	-10.4042
▁കൊള്ളാവുന്ന	-10.4044
▁മൊഴി	-10.4044
▁പ്രതാപ	-10.4045
▁ഭർത്താവിന്റെ	-10.4049
ാധ	-10.405
സ്ത്ര	-10.405
▁തിളങ്ങുന്ന	-10.4051
സുഖ	-10.4052
▁നോക്കാതെ	-10.4052
▁വർക്കി	-10.4053
▁നിരൂപകൻ	-10.4054
ക്കുറവ	-10.4057
▁തൂലിക	-10.4058
▁സംഗതികളിൽ	-10.4061
▁45	-10.4062
▁രാജ്യത്തിലെ	-10.4063
▁സ്വതന്ത്രമായ	-10.4065
▁നടക്കുമ്പോൾ	-10.4067
▁പരിഹാര	-10.4068
▁മനസ്സിലാകും	-10.4071
▁തടവുകാര	-10.4071
▁ഓട്ട	-10.4072
▁കന്യക	-10.4076
▁അതുവഴി	-10.4076
▁പ്രചോദനം	-10.4082
▁എന്നതിനു്	-10.4085
am	-10.4085
▁രണ്ടുമൂന്നു	-10.4087
ായാൽ	-10.4088
▁സകലതും	-10.4088
▁അസത്യ	-10.4088
▁ചോദ്യങ്ങൾ	-10.409
ിക്കൊണ്ടു്	-10.4091
കും	-10.4092
വിട്ടു്	-10.4093
▁അന്യായ	-10.4093
മാക്കാൻ	-10.4094
▁ശിലാ	-10.4097
▁പുതിയൊരു	-10.4099
▁കാണിക്കാൻ	-10.4101
▁വിളിക്കുന്ന	-10.4102
ിലെത്തി	-10.4104
▁നോക്കിയ	-10.4108
തവണ	-10.4108
▁പറയപ്പെടുന്നു	-10.4109
▁പ്രളയ	-10.4111
▁വായനക്കാർ	-10.4112
▁വായിച്ചുനോക്ക	-10.4112
▁അമ്മയും	-10.4112
▁അദ്ദേഹവും	-10.4113
▁കമ്മ്യൂണിസ്റ്റ	-10.4114
▁ബാങ്ക്	-10.4114
▁അതൊന്നും	-10.4115
▁കാണാത്ത	-10.4116
▁മാരാര്	-10.4118
ുമായിരുന്ന	-10.4124
▁ദാരിദ്ര്യ	-10.4124
▁അദ്ദേഹത്തിൽ	-10.4127
▁തത്ത്വജ്ഞാന	-10.4127
▁തമ്പുരാന	-10.4132
▁ഒന്നര	-10.4133
▁64	-10.4136
▁ഗവൺമെന്റ്	-10.4136
▁മനസ്സിലാക	-10.4138
▁അനുസരിച്ചു്	-10.4138
▁വാദിക്ക	-10.4139
▁മനുഷ്യനിൽ	-10.414
▁സംശയമില്ല	-10.4141
യായിത്തീർന്ന	-10.4142
▁കടമ	-10.4143
▁പശു	-10.4145
▁പൂട്ടി	-10.4146
▁അവസാനിപ്പിക്ക	-10.4147
▁തുട	-10.4147
വരിക	-10.4148
ിതാ	-10.4149
തിരി	-10.4151
ഭാഗത്തു	-10.4152
ാറു	-10.4153
യുടേത	-10.4153
▁ലേഖനങ്ങൾ	-10.4154
നിന്നാണു്	-10.4164
▁ഉപയോഗിച്ചു	-10.4165
ളം	-10.4168
▁അകത്ത	-10.4169
▁നിർബ്ബന്ധ	-10.4173
ങ്ങോട്ടു	-10.4173
ത്തിൻ	-10.4174
▁മകളെ	-10.4174
▁യുദ്ധത്തിൽ	-10.4174
നുസരിച്ച	-10.4175
കളൊക്കെ	-10.4175
▁എഴുതിയിട്ടുള്ള	-10.4176
ചക്രവർത്തി	-10.4176
കക്ഷി	-10.4179
▁കൊട്ടാര	-10.4181
സമിതി	-10.4182
വിനു	-10.4182
▁കോൺഗ്രസ്സ്	-10.4182
▁ജന്തു	-10.4182
▁അംശം	-10.4185
▁വലിച്ച	-10.4186
▁മറ്റുള്ള	-10.4187
▁മന്ത്രിസഭയുടെ	-10.4189
▁കിടക്കുന്നതു്	-10.419
▁സംകല്പ	-10.4192
▁രാജവംശ	-10.4193
▁മെച്ച	-10.4194
▁ഉല	-10.4195
െത്തുന്ന	-10.4197
▁വഴക്ക	-10.4199
▁പുസ്തകങ്ങളുടെ	-10.4206
▁കേസു	-10.4211
▁മകന	-10.4215
▁മൗന	-10.4217
നുമാണു്	-10.4217
▁വിശേഷിപ്പിക്ക	-10.4217
▁തുക	-10.4217
▁ശ്രദ്ധിച്ചു	-10.4222
പ്പൂ	-10.4224
വർക്ക	-10.4226
▁പുല്ലു	-10.4226
തത്ത്വം	-10.4229
▁ചെടി	-10.4235
▁ലയിച്ചു	-10.4236
ഷ്ണ	-10.4238
▁ധാർമിക	-10.4243
ിന്റേയും	-10.4251
ങ്കര	-10.4252
▁പറയാനുള്ള	-10.4257
▁തത്ത്വം	-10.4261
▁കാളിദാസ	-10.4263
▁രംഗത്ത	-10.4265
▁വിജയിച്ച	-10.4274
▁അനുകരണ	-10.4274
▁സ്വതന്ത്രമായി	-10.4277
▁ദേഹം	-10.4277
▁വായനക്കാർക്കു	-10.428
രുതെന്ന	-10.428
പത്തി	-10.428
▁കൊലപാതക	-10.4281
ിരുന്നതു	-10.4282
▁ദേശീയത	-10.4284
▁സവർണ്ണ	-10.4289
ur	-10.4294
▁സൂത്ര	-10.4295
▁ബാലൻ	-10.4301
ദ്ധ്യ	-10.4301
ാനാ	-10.4302
ഗ്ന	-10.4302
▁പാലിക്ക	-10.4306
ഖണ്ഡ	-10.4308
ധാരണ	-10.4312
▁ജ്ഞാനം	-10.4316
ങ്ങളെപ്പോലെ	-10.4316
പ്പാട്ടു	-10.4316
ാക്കാൻ	-10.4317
പ്രശ്ന	-10.4318
▁ക്രൈസ്തവ	-10.4326
▁കരുണാകർജി	-10.4328
▁1947	-10.4328
▁1985	-10.4328
▁ഇരിങ്ങാലക്കുട	-10.4328
▁തൃക്കണാമതിലക	-10.4328
▁തൃണമൂൽ	-10.4328
▁ഫ്രഞ്ച്	-10.4328
▁വാജ്പേയി	-10.4328
▁ശ്രീധരൻ	-10.4328
▁സെൻട്രൽ	-10.4328
▁സ്മാരക	-10.4328
▁ചന്ദന	-10.4328
▁അത്തവണ	-10.4328
▁ഹൈന്ദവ	-10.4328
▁അനുഭൂതി	-10.4328
▁വരാന്തയിൽ	-10.4328
പറയേണ്ടതില്ലല്ലോ	-10.4328
▁ബോദ്ധ്യ	-10.4328
പിടിച്ചു്	-10.4329
▁അമ്മൂമ്മ	-10.4329
▁അജിത	-10.4329
▁ലജ്ജ	-10.4329
▁പാവങ്ങൾ	-10.433
വക	-10.4331
▁നല്ലവണ്ണം	-10.4332
▁രണ്ടുപേർ	-10.4332
▁തൽ	-10.4333
▁ധനിക	-10.4333
▁പ്രിയപ്പെട്ട	-10.4333
▁എവിടെയെങ്കിലും	-10.4333
▁സാഹിത്യപ്രസംഗ	-10.4337
▁ഇസ്ലാമിക	-10.4337
▁കളിയാക്ക	-10.434
▁താണു	-10.4341
▁പറയട്ടെ	-10.4345
▁ഗോപാലൻ	-10.4345
▁ഉപദേശിച്ച	-10.4346
est	-10.4346
▁നിലവിളി	-10.4348
▁അടുക്കളയിൽ	-10.4353
ക്കല്ല	-10.4353
ധർമ്മം	-10.4354
ാവുന്നതു്	-10.4354
▁വന്നുചേർന്ന	-10.4355
▁അദ്വൈതാശ്രമം	-10.4358
▁പകല	-10.4359
▁കഴിഞ്ഞിട്ടില്ല	-10.4359
▁സഹിഷ്ണുത	-10.4362
▁പൂർണ്ണമായി	-10.4363
ാത്മാവ	-10.4365
▁സ്നേഹിക്കുന്ന	-10.4368
ുകയെന്ന	-10.4369
ഘട	-10.4371
▁എവിടെയോ	-10.4372
▁വിശേഷിച്ചു്	-10.4372
▁തിരിച്ചറിയാൻ	-10.4376
സേന	-10.4377
ചോദ	-10.4379
കളിൽനിന്നു	-10.438
വാസം	-10.4381
മുട്ട	-10.4384
▁വിഷമം	-10.4388
▁നമ്പൂതിരിപ്പാട	-10.4392
▁ഒട്ട	-10.4393
▁അഭയം	-10.4395
▁കവിതയിലെ	-10.4396
▁നേടാൻ	-10.4398
▁ജില്ലയിൽ	-10.44
▁അന്ധത	-10.4401
▁സ്വന്തമായ	-10.4402
ണ്ടാകുന്ന	-10.4402
െതിരെ	-10.4403
▁മനസ്സിലാവ	-10.4403
▁വിജയന്റെ	-10.4406
നാണെന്നു	-10.4406
കളോടും	-10.4406
▁സമ്പത്ത	-10.4407
▁ശരിക്കു	-10.441
▁ബ്രാഹ്മണൻ	-10.4411
▁വന്നിരിക്കുന്നു	-10.4414
▁സിദ്ധ	-10.4415
▁കാര	-10.4415
od	-10.4415
▁വികാരങ്ങൾ	-10.4417
▁ജീവിച്ചിരിക്ക	-10.4419
▁പ്രാ	-10.4422
▁പോകുമ്പോൾ	-10.4423
െക്കാൾ	-10.4424
കളോടു	-10.4424
▁തോന്നുന്നതു്	-10.4425
വിദ്വേഷ	-10.4428
ro	-10.4432
▁പിതാവ	-10.4434
▁ഇവര	-10.4435
▁അങ്ങു	-10.4436
വുമല്ല	-10.4436
▁പ്രകാശം	-10.4437
▁വ്യ	-10.4438
▁പാർത്തിരുന്ന	-10.4442
▁കാണില്ല	-10.4444
▁തിരിച്ചടി	-10.4448
▁ലാഭ	-10.4454
▁പോസ്റ്റ്	-10.4455
▁മാറ്റാൻ	-10.4457
▁വ്യത്യസ്തമായ	-10.4462
ാണത്രേ	-10.4465
▁ഇന	-10.4465
ol	-10.4466
▁വിഷ്ണു	-10.4467
▁എഴു	-10.4468
യായാലും	-10.447
▁കൈയില	-10.447
▁എതിരായി	-10.4471
വേല	-10.4473
രീ	-10.4475
ർഗ	-10.4476
▁ക്ലാസ	-10.4482
ജു	-10.4483
▁വന	-10.4483
ത്വത്തിന്റെ	-10.4484
▁കഥയിലെ	-10.4484
ബാധ	-10.4485
ബുദ്ധ	-10.4489
പോലുമില്ല	-10.4489
ദേശത്തു	-10.4491
സഞ്ചാര	-10.4492
നീതി	-10.4496
പുരാണ	-10.4496
▁പണക്കാര	-10.4498
▁മുസ്ലിംലീഗ	-10.4499
▁ചുറ്റുമുള്ള	-10.4501
▁പരിഭ്രമ	-10.4501
വീശ	-10.4505
െവിടെ	-10.4505
▁കിടക്കുന്നു	-10.4508
യ്ക്കുവേണ്ടി	-10.4509
▁കാലഘട്ട	-10.4517
▁ചേർക്കുന്ന	-10.4519
ഗ്രാമ	-10.452
തെങ്ങനെ	-10.4521
▁സ്വർണ്ണ	-10.4522
▁കാലത്തിന്റെ	-10.4523
▁തറ	-10.4523
കളിൽനിന്നു്	-10.4527
രസം	-10.4531
▁പ്രാപിച്ച	-10.4534
▁വയ്യാത്ത	-10.4535
▁കലാരീതി	-10.454
ക്കൂടെ	-10.4541
▁ഏറ്റെടുത്തു	-10.4542
▁നാലപ്പാട്ട	-10.4544
▁ചിലതു്	-10.4544
▁ഗ്രന്ഥത്തിൽ	-10.4544
▁നിശ്ചയ	-10.4545
കളയുന്ന	-10.4552
മഹ	-10.4556
▁അമ്മയെ	-10.4559
▁നഷ്ടപ്പെട്ടു	-10.4562
ായതു്	-10.4563
▁കുറവു്	-10.4566
ക്കാരനെ	-10.4568
▁പിൻഗാമി	-10.4569
▁എനി	-10.457
വായന	-10.4572
▁വഹിച്ച	-10.4572
െപ്പറ്റിയുള്ള	-10.4573
▁എഴുത്തു്	-10.4577
▁സമർത്ഥ	-10.4577
▁സെക്രട്ടറിയായി	-10.4583
▁പറന്നു	-10.4584
▁വൈകാരിക	-10.4586
വാക്യം	-10.4589
ിഷ്ടം	-10.4594
▁തുടങ്ങ	-10.4598
▁രാജൻ	-10.4599
യറ്റ	-10.4599
▁ഇടി	-10.4601
ങ്ങളിലുള്ള	-10.4605
▁നോട്ടം	-10.4605
ങ്ങളായിരുന്നു	-10.4609
▁വ്യാപാര	-10.4611
▁മഠ	-10.4611
▁ഉണ്ടായിട്ടുള്ള	-10.4612
▁കപില	-10.4616
▁മാത്രമായ	-10.4618
ഭംഗി	-10.4618
▁കുഞ്ഞിയമ്മ	-10.4623
ുവാൻവേണ്ടി	-10.4628
▁പത്മ	-10.463
ിരുന്നല്ലോ	-10.4633
▁കണ്ടെത്തുന്ന	-10.4634
നോവ	-10.4635
▁അവസാനിച്ച	-10.4635
▁പാഠപുസ്തക	-10.4636
ാനില്ല	-10.4638
▁ചെരിപ്പ	-10.4639
▁നിൽക്കുന്നതു്	-10.464
▁നൂതന	-10.464
▁സർവകലാശാല	-10.464
▁1952	-10.464
▁ഉന്മേഷ	-10.464
▁എറണാകുളം	-10.464
▁യജമാന	-10.464
▁ഹൈസ്ക്കൂൾ	-10.464
▁ജനതാദള	-10.464
▁വ്യാജ	-10.464
▁എടക്കൽ	-10.464
▁നിഷ്കർഷ	-10.464
▁വിനീത	-10.464
▁നടുക്ക	-10.464
▁ലീഗിന്റെ	-10.464
▁അനശ്വര	-10.4641
▁ലാങ്ങ്	-10.4641
▁ജോർജ്ജ്	-10.4642
▁ബഹുമതി	-10.4642
▁ഉദാര	-10.4643
▁ഉൽ	-10.4644
▁മനുഷ്യവർഗ	-10.4644
▁തുറമുഖ	-10.4644
▁ഫാക്ടറി	-10.4647
▁പാഠ്യ	-10.4648
ശൂന്യ	-10.4649
▁മുള	-10.465
▁പകൽ	-10.465
▁രണ്ടിനും	-10.465
▁പോകട്ടെ	-10.465
▁ഇക്കഴിഞ്ഞ	-10.465
▁പറയാറുണ്ടു്	-10.4653
▁ഗംഗാധരൻ	-10.4653
ങ്ങളിൽനിന്നു്	-10.4661
▁തേട	-10.4662
▁പിരിഞ്ഞു	-10.4664
▁ഭരിക്കുന്ന	-10.4665
വരുമ്പോൾ	-10.4667
▁വൈസ്	-10.4667
ുകാരെ	-10.4671
▁പ്രാവശ്യം	-10.4671
▁രാമന്റെ	-10.4672
▁സംബന്ധിച്ചു	-10.4674
മുണ്ടാക്കി	-10.4675
▁മനഃശാസ്ത്ര	-10.4679
▁തിരിഞ്ഞ	-10.4682
▁പാർട്ടിയെ	-10.4686
ച്	-10.4686
പ്രസ്ഥാനം	-10.4687
ോടി	-10.4688
രുടേയും	-10.4688
▁സമകാലിക	-10.4689
▁ഒഴിഞ്ഞു	-10.469
മുണ്ടല്ലോ	-10.4693
▁ചെയ്യേണ്ട	-10.4695
▁ഭൗതികമായ	-10.4697
ലേഖന	-10.4698
▁കുന്നു	-10.4699
▁തൃശൂര	-10.4701
▁നിൽക്കുകയാണു്	-10.4703
▁ദീന	-10.4704
▁പ്രയാസമ	-10.4705
▁കുമാരൻ	-10.4705
▁അനുവാദം	-10.4708
വെന്നു്	-10.4712
▁കിട്ടാതെ	-10.4712
▁ചുറ്റുപാട	-10.4712
▁തുടക്കത്തിൽ	-10.4712
▁ഈശ്വരനെ	-10.4717
ണു	-10.4718
▁മാനവ	-10.4718
നാൾ	-10.472
▁പെരുമാള	-10.4721
ന്മാരായി	-10.4721
▁ശൂന്യത	-10.4724
▁വിലയിരുത്ത	-10.4725
▁പ്രകട	-10.4725
മില്ലായ്മ	-10.4726
▁വ്യക്തികളുടെ	-10.4726
▁എന്താണെന്നു	-10.473
മോഹ	-10.4735
▁വേറെയും	-10.4737
▁സംഘം	-10.4738
▁ചൈനയിലെ	-10.4738
ാദർശ	-10.4738
▁അപവാദം	-10.474
ജീവിതത്തിൽ	-10.4742
സാമ	-10.4743
▁സംരക്ഷണ	-10.4743
▁പർവ്വത	-10.4745
വസ്ഥ	-10.4758
ുണ്ടായതു്	-10.4758
ച്ചിട്ട	-10.4766
▁ഇങ്ങനെയാണു്	-10.4767
▁ടോ	-10.4768
▁വളര	-10.4769
▁നീക്കി	-10.4774
▁കിട്ടാൻ	-10.4774
പ്രസ	-10.4778
▁കാലമായ	-10.4778
▁സമീപിച്ചു്	-10.4782
ിലേക്ക	-10.479
▁തകർന്ന	-10.4792
▁പ്രമേയ	-10.4793
▁ചോ	-10.4794
ുകയേ	-10.4794
ിരിക്കെ	-10.4794
▁ഒപ്പ	-10.4795
ിക്കപ്പെടുന്ന	-10.4795
▁കണ്ണീര	-10.4796
റായി	-10.4799
▁തെളിയ	-10.4803
ങ്ങളുമാണു്	-10.4805
▁ഉണ്ടാക്കി	-10.4806
ച്ചാ	-10.4807
▁ആശ്രയിച്ച	-10.4809
▁പരന്ന	-10.481
▁അവിടെനിന്നു	-10.4811
▁അർഹത	-10.4812
ായ്ക	-10.4812
നിമിത്തം	-10.4812
പരിപാടി	-10.4814
സാമ്രാജ്യ	-10.4815
വെട്ടി	-10.4815
▁പൂവ	-10.4817
▁ഇറങ്ങിയ	-10.4818
▁യമ	-10.4819
▁താമസിക്കുന്ന	-10.482
ിനോ	-10.4823
▁കുത്ത	-10.4825
▁പത്രത്തിൽ	-10.4825
▁മനഃ	-10.4827
▁ഇവർക്കു്	-10.4828
▁പറഞ്ഞുകേട്ട	-10.4831
▁മാറ്റിയ	-10.4833
▁സഹിച്ചു	-10.4834
▁കയറ്റ	-10.4835
▁ചെയ്യാന	-10.4842
പട്ട	-10.4844
▁ഉപകാര	-10.4845
▁കടം	-10.4847
കമായ	-10.485
▁പ്രതിബന്ധ	-10.485
▁മന്ത്രിസഭയുണ്ടാ	-10.4851
▁സീ	-10.4853
ൽനിന്നു്	-10.4858
▁സാധിച്ചിട്ടില്ല	-10.4858
▁നിർമ്മിക്ക	-10.486
▁മർദ്ദന	-10.486
ിക്കാത്ത	-10.486
▁എതിർത്ത	-10.4869
പ്പും	-10.4869
▁കണ്ണടച്ചു	-10.4869
▁കലയും	-10.4875
▁ആസ്പദമാക്കി	-10.488
േണ	-10.4881
▁രണ്ടാമ	-10.4882
▁ശരിയാ	-10.4883
കൂട്ടി	-10.4883
▁കലാപം	-10.4884
യിലെത്തി	-10.4884
ാനാവാത്ത	-10.4886
ശേഷി	-10.4888
▁പ്രാപ്തി	-10.489
▁ഇളയ	-10.4898
as	-10.4898
വന്നതു്	-10.4901
സമ്പ്രദായ	-10.4901
▁കോളേജ	-10.4903
ാറായി	-10.4905
താര	-10.4906
▁നല്കുന്ന	-10.4907
▁വേണ്ടാ	-10.4909
▁നഗരത്തിലെ	-10.491
സത്ത	-10.491
ിലേയ്ക്കു്	-10.4912
▁ക്രൂര	-10.4914
▁ഇട്ടു	-10.4914
വിമർശന	-10.4916
▁ആഴ	-10.4923
▁അന്തരീക്ഷ	-10.4928
കർത്ത	-10.4929
▁ജനല	-10.493
▁നോവലുകള	-10.4931
▁പ്രസിദ്ധമായ	-10.4931
▁പൊന്തി	-10.4935
കാരം	-10.4935
പ്പടി	-10.4937
▁ഉൾക്കൊള്ളുന്ന	-10.4942
▁മാർട്ടി	-10.4944
▁അനിവാര്യ	-10.4947
ന്നതു്	-10.4948
നഗ	-10.495
▁അവതാര	-10.4951
▁കാർഷിക	-10.4951
ബീ	-10.4953
▁ആരോഗ്യം	-10.4956
▁മാതാവ	-10.4958
▁പാമ്പ	-10.4959
ാമത്തെ	-10.4959
▁തന്ത്ര	-10.4959
▁സൈന്യ	-10.496
▁കൊമ്പ	-10.4961
▁അസ്തിത്വ	-10.4961
▁31	-10.4961
▁ലിംഗ	-10.4962
▁ആകപ്പാടെ	-10.4963
▁കുഞ്ഞിക്കുട്ടൻ	-10.4963
▁കുസൃതി	-10.4963
▁ബംഗാൾ	-10.4963
▁രാജ്ഞി	-10.4963
▁സാമർത്ഥ്യ	-10.4963
▁സോഷ്യൽ	-10.4963
▁സ്റ്റുഡിയോ	-10.4963
▁തിരികെ	-10.4963
▁അബ്ദുൽ	-10.4963
▁ചൂണ്ട	-10.4963
▁1978	-10.4963
▁രണ്ടായി	-10.4963
▁കാളവണ്ടി	-10.4963
▁ചക്രവാള	-10.4963
▁നാലഞ്ചു	-10.4964
▁യാദവ	-10.4964
ശബ്ദ	-10.4964
▁മറ്റൊരാൾ	-10.4964
▁എഴുത്തുകാർ	-10.4964
▁കുഞ്ഞിരാമൻ	-10.4965
▁42	-10.4965
▁വലിപ്പ	-10.4966
▁വെറുക്ക	-10.4967
▁ഗോത്ര	-10.4968
▁ചെയർമാന	-10.4969
▁പോരെങ്കിൽ	-10.4969
▁അധഃപതന	-10.4969
▁അന്ധകാര	-10.4969
▁അവശ	-10.497
▁വളരെക്കാലം	-10.497
▁കരിമ്പ	-10.4973
ബോധവും	-10.4977
പ്രയോഗ	-10.4978
▁കോഴിക്കോടു്	-10.498
ർവ്വ	-10.4981
▁തിരിച്ചെത്തിയ	-10.4983
▁സ്വീകരിച്ചു്	-10.4983
▁കാരണമുണ്ടു്	-10.4984
ാതീത	-10.4985
▁നേതാക്കള	-10.4987
രിക	-10.4987
▁ക്ഷേത്രം	-10.4989
▁വ്യക്തിയുടെ	-10.499
ലീഗ	-10.4991
തേയുള്ളു	-10.4991
▁ആരോടും	-10.4996
▁വിശേഷിപ്പിച്ച	-10.5
▁ചതുര	-10.5003
▁പണ്ഡിത	-10.5004
▁പോറ്റി	-10.5005
▁ഉള്ളൂർ	-10.5005
▁അവസാനമായി	-10.5006
▁t	-10.5007
▁വല്ലാത്ത	-10.5007
▁ശിഷ്യൻ	-10.5008
ാരാധന	-10.5009
▁അങ്ങയുടെ	-10.501
▁വിവരിച്ചു	-10.5011
▁അദ്ദേഹത്തിന്നു	-10.5012
▁വിപ്ലവകാരി	-10.5015
▁വിദ്യാലയ	-10.5017
സ്വാതന്ത്ര്യം	-10.5018
▁അല്ലാത്ത	-10.5018
ഭരണം	-10.5019
▁താള	-10.502
▁മൈൽ	-10.5022
▁ഗണ്യമായ	-10.5023
▁പറഞ്ഞിട്ടുള്ളതു	-10.5023
▁ഭീതി	-10.5024
▁സിദ്ധിക്കുന്നു	-10.5024
പോന്നു	-10.5024
▁രസിക്ക	-10.5028
ുള്ളതു്	-10.5028
▁വസ്തുക്കള	-10.5029
▁ആളുകളുടെ	-10.5032
▁അള	-10.5035
▁പ്രക്ഷോഭ	-10.5037
▁അധർമ്മ	-10.5039
▁കമ്പോള	-10.504
▁പ്രയത്ന	-10.504
▁രോഗികളുടെ	-10.504
▁നടക്കുക	-10.504
▁നോക്കാം	-10.5043
▁ദൈവത്തിന്റെ	-10.5044
▁കാട്ടി	-10.5048
കുറുപ്പ	-10.5049
▁ബീജ	-10.5049
പരവും	-10.5051
▁കരുണാകരനു്	-10.5053
വുമുള്ള	-10.5056
▁കേട്ടോ	-10.5056
ിട്ടുള്ളതു	-10.5057
നിയോഗ	-10.5059
▁നടന്നു്	-10.5068
ല്ലെന്നും	-10.5068
▁മകളുടെ	-10.5068
▁ഓർമ്മിപ്പിക്ക	-10.5068
ലേക്കു	-10.5071
ക്കാണുന്ന	-10.5073
▁റോഡ	-10.5075
▁കരുണാകരനും	-10.5075
▁ആധി	-10.5078
▁നാടകങ്ങൾ	-10.508
▁ഉപദ്രവ	-10.5082
▁നിറുത്ത	-10.5083
▁ഉറച്ചുനിന്നു	-10.5086
▁അറേബ്യ	-10.5088
▁പരിഹാരം	-10.5089
ചരിത്രത്തിൽ	-10.5096
▁കുട്ടികള	-10.5096
തിനാലും	-10.5097
മായിരിക്കുന്ന	-10.5099
▁സഹജ	-10.5101
▁എമ്മ	-10.5104
ിപ്പിച്ചു്	-10.5106
▁കോൺഗ്രസും	-10.5106
മാകയാൽ	-10.511
രിക്കുന്ന	-10.511
ദശ	-10.5112
▁തെളിയിക്കുന്നു	-10.5116
▁ഉണ്ടാക്കുന്ന	-10.5117
▁പ്രത്യേകമായ	-10.5118
ക്കാർക്കു	-10.5119
▁പ്രകാരം	-10.5121
▁തൂങ്ങി	-10.5122
ാകുമോ	-10.513
▁ധാരാളമായി	-10.5134
▁പാണ്ഡിത്യ	-10.5135
▁ഗുജറാത്ത	-10.5136
▁ചിത്രകല	-10.5137
ക്കുന്നുണ്ടു്	-10.5139
▁ജനിപ്പിച്ച	-10.5145
▁പ്രാപ്ത	-10.5145
▁വാദിച്ചു	-10.5146
▁ശരിയെന്നു	-10.5149
ിത്തീർന്ന	-10.515
▁ക്രിസ്തുമത	-10.5151
ത്തിനുള്ളിൽ	-10.5152
▁കൊണ്ടുവരുന്ന	-10.5152
പറയുന്ന	-10.5153
▁പ്രകടിപ്പിച്ചു	-10.5153
ശിക്ഷ	-10.5155
▁ക്രിസ്തു	-10.5158
യിട്ടുണ്ടു്	-10.5158
▁കാലത്തും	-10.5159
▁അങ്ങനെയല്ല	-10.5165
▁ശി	-10.517
▁ആക്രമിച്ച	-10.517
ചിത്രം	-10.5171
ടക്കം	-10.5171
പോയാൽ	-10.5173
▁സന്ദേശം	-10.5175
ാർത്ഥം	-10.5175
ുകിടക്കുന്ന	-10.5176
▁സംശയിക്ക	-10.5177
▁മുഹമ്മദ	-10.5177
▁കരയ	-10.5183
▁അതല്ല	-10.5183
ൊട്ട	-10.5184
▁മറഞ്ഞു	-10.5184
▁ഉപയോഗപ്പെടുത്ത	-10.5188
വാർത്ത	-10.519
▁കൊന്നു	-10.5192
േഴ്സ്	-10.5197
▁നിശ്ചല	-10.5197
▁ഉണ്ടെന്നു്	-10.52
▁വളരുന്ന	-10.5202
▁യുക്തിവാദം	-10.5204
▁എലി	-10.5212
▁പറമ്പ	-10.5212
▁ഫ്രഞ്ചു	-10.5216
മൊന്നു	-10.5217
▁സ്വീകാര്യ	-10.5218
യോഗം	-10.5218
ിട്ടുമില്ല	-10.5227
▁മന്ത്രിയായ	-10.5229
▁നിർദ്ദേശ	-10.5229
ങ്ങളിലൊന്ന	-10.5229
▁ഒരുവിധം	-10.523
▁നമ്മ	-10.5231
▁കേരളീയർ	-10.5233
▁വ്യക്തികൾ	-10.5234
▁സന്ദർഭത്തിൽ	-10.5235
▁ബു	-10.5235
ion	-10.5237
▁ആദിമ	-10.5242
▁രംഗത്തു്	-10.5244
▁വളർത്ത	-10.5245
▁കഴിവ	-10.5247
▁സാര	-10.5247
▁പ്രസ	-10.5249
യുക്ത	-10.525
▁മനസ്സിലാക്കുന്ന	-10.5251
റ്റർ	-10.5252
▁തന്നെയായിരുന്നു	-10.5252
▁മീനു	-10.5254
ാക്കിത്തീർക്ക	-10.5255
വെന്നു	-10.5255
▁തെറ്റു്	-10.5257
മെന്നതു്	-10.5258
▁മൂന്നും	-10.526
▁നിർണ്ണയിക്ക	-10.5261
▁തെളിവു	-10.5262
▁വരൂ	-10.5263
▁മുൻപ	-10.5264
▁കൊന്ന	-10.5265
മുഖം	-10.5265
▁ഇടക്കാല	-10.5268
ുമ്പോഴേ	-10.5268
▁തൊട്ടടുത്ത	-10.5269
▁കിട്ടാത്ത	-10.5271
ഭക്തി	-10.5271
▁വിഡ്ഢി	-10.5272
▁തിരിച്ചറിയുന്ന	-10.5275
▁തകർക്ക	-10.528
ഉണ്ടായിരുന്നില്ല	-10.528
▁പണിത	-10.528
▁മുകളില	-10.5281
▁നെറ്റി	-10.5283
േണ്ടതു	-10.5287
▁താണ	-10.5287
ാക്	-10.5293
കൊടുക്കുന്ന	-10.5293
▁അച്യുതമേനോന	-10.5294
യെക്കാൾ	-10.5294
വിഷ	-10.5294
▁ഇതിഹാസ	-10.5294
ുള്ളതു	-10.5294
ഢ	-10.5294
ങ്ങളിലേക്കും	-10.5295
▁ഗൂഢ	-10.5296
വരുമായ	-10.5296
▁ന്റുപ്പുപ്പാ	-10.5296
▁അലക്സാണ്ടർ	-10.5296
▁ഇത്രയധികം	-10.5296
▁കോടിയേരി	-10.5296
▁ഗൗരിയമ്മ	-10.5296
▁തൊപ്പി	-10.5296
▁ദൃഷ്ടാന്ത	-10.5296
▁ബാലചന്ദ്രൻ	-10.5296
▁സൈക്കിള	-10.5296
▁സ്റ്റഡീസ്	-10.5296
▁സ്വാശ്രയ	-10.5296
▁തുനിഞ്ഞ	-10.5296
▁തുലോം	-10.5296
▁നിരർത്ഥക	-10.5296
▁സൂഫി	-10.5296
▁കണ്ടുപിടിത്ത	-10.5296
▁നസ്രാണി	-10.5296
▁പരോക്ഷ	-10.5296
▁മാനേജർ	-10.5296
▁മങ്കട	-10.5296
▁2006	-10.5296
▁ഉൽകൃഷ്ട	-10.5296
▁അച്ചടക്ക	-10.5297
ടിയ	-10.5297
▁മുൻനിർത്തി	-10.5297
വുമുണ്ടു്	-10.5298
▁ഗ്രൂപ്പുകാർ	-10.5298
▁തലശ്ശേരി	-10.5299
▁പിന്നേയും	-10.5299
▁അവനവന്റെ	-10.5299
▁ലീല	-10.53
▁സാരമില്ല	-10.53
▁ചിത്രകാരൻ	-10.5301
▁അടിയന്തിരാവസ്ഥ	-10.5302
▁പട്ടിക	-10.5302
▁നൂറ	-10.5303
▁ശ്രീമതി	-10.5304
വണ്ടി	-10.5305
▁വൈകാതെ	-10.5306
▁വടക്കേ	-10.5308
▁വായനക്കാരുടെ	-10.531
▁നിറവേറ്റ	-10.5311
▁മാത്രമുള്ള	-10.5312
▁അതിനൊരു	-10.5313
ുകയാണുണ്ടായതു്	-10.5315
▁ചോദിച്ചപ്പോൾ	-10.5316
▁മുല്ല	-10.5317
▁മന്ത്രവാദ	-10.5317
▁എളുപ്പത്തിൽ	-10.5319
▁സർവ്വകലാശാലയുടെ	-10.5321
▁ചെന്നപ്പോൾ	-10.5323
▁അത്ഭുതം	-10.5324
▁ചാരു	-10.5326
▁തൽക്കാലം	-10.5326
കയും	-10.5331
▁ഉടു	-10.5332
മെന്റ്	-10.5334
▁നിഴല	-10.5335
▁ഒതുക്കി	-10.5337
▁പതിവുപോലെ	-10.5338
▁സിനിമകളിൽ	-10.534
▁മജീദ്	-10.5342
▁അതെല്ലാം	-10.5344
ക്കൊക്കെ	-10.5347
▁അവശേഷിക്കുന്ന	-10.5347
▁മൂഢ	-10.5348
▁മുന്നോട്ടു്	-10.5348
▁വാങ്ങാൻ	-10.5349
▁സ്ഥാപക	-10.535
▁കേരളീയരുടെ	-10.5351
▁പുലി	-10.5352
പ്പോള	-10.5352
ith	-10.5353
▁സത്യാഗ്രഹ	-10.5354
▁കണ്ടുപിടിക്കാൻ	-10.5357
▁കണ്ടുപിടിച്ചു	-10.5358
▁സ്ഥാപനം	-10.5363
▁അതിൽനിന്നു	-10.5364
▁സാമൂഹികമായ	-10.5366
ണ്ടായിരുന്നു	-10.5371
▁സമൂഹത്തെ	-10.5372
▁കുടിച്ചു	-10.5372
▁അലസ	-10.5375
▁വിവരിക്ക	-10.5376
മാകാം	-10.5377
▁ഉള്ളതു്	-10.5377
ിരിയ്ക്കുന്നു	-10.5378
▁തങ്ങളെ	-10.5382
▁അതുകൊണ്ട	-10.5383
▁പുനര	-10.5384
കാൻ	-10.5386
ങ്ങളാണെന്നു	-10.5386
▁ചിന്താശക്തി	-10.5386
▁നല്ലപോലെ	-10.5388
സത്യ	-10.539
▁കുണ്ടറ	-10.5391
▁സോഷ്യലിസ	-10.5393
▁പ്രശ്നങ്ങള	-10.5397
▁ഭാരതീയർ	-10.5397
▁പ്രയോഗിക്കുന്ന	-10.5398
െഴുത്ത	-10.54
▁ശാസ്ത്രീയമായ	-10.5402
▁സഖ്യ	-10.5405
▁ശ്രേഷ്ഠ	-10.5407
▁ഒരുപാടു്	-10.541
▁പരിചയപ്പെട്ട	-10.5412
▁ആഹാര	-10.5415
ാണെന്നാണു്	-10.5416
▁പരിചയം	-10.5419
▁മായാ	-10.542
▁കഴിയുകയില്ല	-10.542
▁നല്ക	-10.5421
ങ്ങളിൽനിന്നും	-10.5423
▁അവരോടു്	-10.5425
▁രാജാവു	-10.5428
▁പുത്രൻ	-10.543
▁മനുഷ്യരും	-10.5431
നിർത്തി	-10.5437
േതര	-10.5441
മിത	-10.5442
▁ഗവൺമെന്റ	-10.5448
▁നിറച്ചു	-10.5453
▁കലാരൂപ	-10.5453
▁അദ്ധ്വാന	-10.5454
▁തെളിയിക്കുന്ന	-10.5454
▁സഖാവ	-10.5456
ശേഷ	-10.5458
▁കഥാപാത്രം	-10.546
▁പ്ല	-10.5462
▁അജ്ഞാത	-10.5465
▁സന്ദർശിച്ച	-10.5465
▁പറയാവുന്ന	-10.5468
കാരണം	-10.547
കൃതികള	-10.5472
▁വിപ്ലവത്തിന്റെ	-10.5474
▁വെളിച്ചത്തിന്റെ	-10.5475
▁താലൂക്ക	-10.5476
ക്കിടയിലെ	-10.5477
ുന്നതിനുവേണ്ടി	-10.5477
▁ആരംഭിക്ക	-10.5477
▁ചിത്രത്തിന്റെ	-10.5481
പറയാൻ	-10.5484
▁കൊളുത്തി	-10.5491
▁വിഷയത്തിൽ	-10.5491
സൻ	-10.5493
ഗൃഹ	-10.5494
▁വീട്ടുകാര	-10.5498
▁എന്നല്ലാതെ	-10.5499
ിലായിരുന്നു	-10.5499
▁ദയനീയ	-10.5508
യെക്കുറിച്ചുള്ള	-10.5508
▁സ്ഥലത്തു	-10.5509
▁രേഖപ്പെടുത്ത	-10.5515
യുമുള്ള	-10.5517
▁ജയിൽ	-10.5518
രംഗത്തിൽ	-10.5519
▁പ്രയോഗിച്ചു	-10.5519
▁ഉറങ്ങ	-10.552
▁പാരമ്പര്യം	-10.552
▁വാർ	-10.5526
യ്ക്കാണു്	-10.5531
▁പരീക്ഷണ	-10.5531
▁സങ്കടം	-10.5533
▁ദൂത	-10.5533
▁മാറുന്ന	-10.5535
▁സീറ്റിൽ	-10.5536
▁വായിച്ചു്	-10.5536
▁പ്രാണ	-10.5536
▁അനുസരിച്ചു	-10.5539
ജ്ഞാനം	-10.5549
ൊരാള	-10.5557
▁ഉറപ്പു	-10.5558
▁വരുന്നുണ്ടു്	-10.5558
▁ഉപമ	-10.5559
ാളുകൾ	-10.556
▁പേരുണ്ടായിരുന്ന	-10.556
ിരുന്നുവെങ്കിൽ	-10.5562
▁എന്നുകൂടി	-10.5565
പ്പുറത്തു്	-10.5568
െഴുതുന്ന	-10.5569
▁പിന്നെയോ	-10.557
▁നടത്തിയതു്	-10.5573
▁ആരാ	-10.5574
യിലേയ്ക്കു	-10.5574
▁രാത്രിയിൽ	-10.558
ാഭി	-10.5583
▁ശത്രുക്കള	-10.5586
▁നെഞ്ച	-10.559
▁ലത്തീൻ	-10.5591
▁പാലാ	-10.5595
മുണ്ടാക്കുന്ന	-10.5598
▁കൊണ്ടോ	-10.56
▁ഉയർത്തിപ്പിടി	-10.56
▁കേന്ദ്രമന്ത്രി	-10.5608
സംവിധാന	-10.5611
ൊപ്പം	-10.5611
▁വ്യവഹാര	-10.5614
▁ഉപന്യാസ	-10.5614
ക്കുറിപ്പു്	-10.5614
▁പുലര	-10.5617
ണവും	-10.5618
▁അശോക	-10.5618
▁സാഞ്ചി	-10.5618
▁ബാധ	-10.562
▁വിത്തു	-10.562
▁കലാകാരന്മാർ	-10.5627
▁അന്ധമായ	-10.5633
▁po	-10.5635
കുന്നു	-10.5637
il	-10.5637
▁ഗ്രഹിക്ക	-10.5638
▁1984	-10.5641
▁ആധ്യാത്മിക	-10.5641
▁ഉറുപ്പിക	-10.5641
▁ഗവർണർ	-10.5641
▁ശൂദ്ര	-10.5641
▁സന്ദർശിക്ക	-10.5641
▁കബീർ	-10.5641
▁പീടിക	-10.5641
▁മദാമ്മ	-10.5641
▁മുസ്ലീങ്ങൾ	-10.5641
▁കെട്ടിപ്പടുത്ത	-10.5641
▁തണുത്ത	-10.5641
▁ആർക്കെങ്കിലും	-10.5641
▁പത്നി	-10.5641
▁അവശേഷിച്ച	-10.5641
▁ജന്മവാസന	-10.5642
▁ഫലമുണ്ടായില്ല	-10.5642
▁ഏറെക്കാലം	-10.5642
▁കാരൂർ	-10.5643
▁മിക്കപ്പോഴും	-10.5645
▁മഹാരാഷ്ട്ര	-10.5645
▁പെൺ	-10.5646
ലംബ	-10.5647
▁ഹിന്ദുക്കളുടെ	-10.5649
മായൊരു	-10.565
▁ബഷീറിനെ	-10.5651
▁ആറാം	-10.5652
▁നോവലുകൾ	-10.5652
ിച്ചപ്പോൾ	-10.5655
▁മരിച്ചുപോയ	-10.5656
▁അഞ്ചാം	-10.5657
▁മന്ത്ര	-10.5661
▁നമ്മിൽ	-10.5662
▁പിതാവിന്റെ	-10.5663
▁മാർക്സിന്റെ	-10.5664
ച്ചില	-10.5665
ിയിട്ടുണ്ടു്	-10.5665
▁സങ്കൽപ	-10.5665
▁പിണക്ക	-10.5666
തിൽനിന്നു്	-10.5666
ാവുക	-10.5668
▁നശിപ്പിക്ക	-10.5669
▁മൽസരിക്ക	-10.5669
▁കേൾക്കുമ്പോൾ	-10.5669
▁സമാധി	-10.5671
▁ശങ്കരാചാര്യർ	-10.5674
▁കൗ	-10.5674
▁തിരുവിതാംകൂറിലെ	-10.5674
▁മേടിച്ചു	-10.5675
വെന്ന	-10.5675
രിയ്ക്ക	-10.5675
▁നേതാക്കന്മാർ	-10.5675
▁കത്തോലിക്ക	-10.5676
▁അധഃപതിച്ച	-10.5677
▁ഉപകരണ	-10.5681
▁നേരേ	-10.5682
▁നേർ	-10.5691
▁സുപ്രസിദ്ധമായ	-10.5691
വെക്കാൻ	-10.5692
▁രോഗികള	-10.5695
▁അകത്തേക്കു	-10.5695
▁അതിനുശേഷം	-10.5695
▁നികുതി	-10.5696
▁ജീവിക്കാൻ	-10.5698
▁ടോൾസ്റ്റോയിയുടെ	-10.5699
▁വേണ്ടിയുള്ള	-10.57
▁ചെയ്യുവാൻ	-10.5701
▁പുരുഷന്റെ	-10.5702
▁സ്ഥിര	-10.5704
വചന	-10.5705
▁ദീർഘകാലം	-10.5707
രാജാവായ	-10.571
▁ആയിരിക്കും	-10.571
▁ചിന്തിക്കുന്ന	-10.5716
▁ബ്രഹ്മാവ	-10.5722
▁തന്നെയും	-10.5724
▁വൈര	-10.5726
▁ചെയ്യാനുള്ള	-10.5727
▁വീട്ട	-10.5732
ങ്ങളിൽനിന്നു	-10.5738
▁അടിച്ച	-10.5738
▁വെയിൽ	-10.5738
▁നടുവിൽ	-10.5739
▁ക്രൂരത	-10.5745
▁ഉദ്ദേശം	-10.5745
▁അടക്കം	-10.5746
▁പ്രബലമായ	-10.5748
▁ശമ്പളം	-10.575
▁നാടകീയ	-10.575
▁എഴുതുന്നതു്	-10.575
▁സഞ്ചരിക്ക	-10.5751
▁ഒരിടത്തു്	-10.5755
▁ഒരുപാടു	-10.5756
▁ഇല്ലെന്നു	-10.576
▁ദാഹ	-10.5761
▁സാഹിത്യത്തിലും	-10.5762
▁ഗ്രന്ഥം	-10.5763
▁കഥകളുടെ	-10.5764
▁ലോകത്തു്	-10.5765
ൊഴിച്ചു	-10.5766
▁പോക്കു്	-10.5766
▁പിളർന്നു	-10.5767
ക്കുശേഷം	-10.5769
യച്ച	-10.5773
▁സാഹചര്യത്തിൽ	-10.5774
ങ്ങു്	-10.5776
▁തെങ്ങ	-10.5779
യോഗി	-10.5781
▁കൊടുങ്ങല്ലൂരിൽ	-10.5783
▁ഹിന്ദുത്വ	-10.5785
ണർ	-10.5787
ാവി	-10.5787
▁അറിയിച്ചു	-10.5789
▁സ്വത്തു	-10.5794
▁ഇതിനുള്ള	-10.5795
▁നടത്തുന്നു	-10.5798
പ്പെടാൻ	-10.5805
▁അല്പ	-10.5807
▁നിയമങ്ങൾ	-10.5808
സമ്മേളന	-10.5809
▁സോഷ്യലിസം	-10.5812
▁പറയുന്നതും	-10.5813
ഭൂ	-10.5814
▁പണവും	-10.582
▁തല്ലി	-10.5823
ut	-10.5826
▁പുസ്തകത്തിന്റെ	-10.5828
മുന	-10.583
▁പ്രകടനം	-10.5831
▁കച്ചവടം	-10.5831
▁അക്കാലത്തു	-10.5835
ക്കൊണ്ടിരുന്നു	-10.5836
▁വാദിക്കുന്ന	-10.5837
പരവുമായ	-10.5838
▁ചിന്തിച്ചു	-10.5838
ക്ഷേമ	-10.5839
കളായിരുന്നു	-10.5841
വരോടു്	-10.5844
▁നവോത്ഥാന	-10.5844
ദീപ	-10.5846
അ	-10.585
▁എളുപ്പമല്ല	-10.5852
▁വകുപ്പിൽ	-10.5854
▁പണ്ഡിതന്മാര	-10.5857
▁ഇരുപതു	-10.5858
ക്കാരുടെയും	-10.5858
ാനുഭൂതി	-10.5858
ത്തിൽത്തന്നെ	-10.5859
▁ആവിഷ്ക്കരിക്ക	-10.5861
▁സമൂഹത്തിൽ	-10.5861
▁പാദ	-10.5861
▁രൂപവും	-10.5862
▁കയറ്റി	-10.5862
▁തുല്യമായ	-10.5864
▁മാഷ്	-10.5866
തിന്നു്	-10.5866
▁ആത്മീയത	-10.5867
ണമെന്നാണു്	-10.5867
പ്പിക്കുന്ന	-10.5867
പദവി	-10.5867
ബോ	-10.5867
▁നടത്തുന്നതു്	-10.5871
▁33	-10.5875
മാർക്കും	-10.5875
▁ദേഷ്യ	-10.5875
▁ചിത്രീകരണ	-10.5876
ല്ലെന്നു്	-10.5879
▁ശവകുടീര	-10.588
റിഞ്ഞുകൂടാ	-10.588
▁മാനദണ്ഡ	-10.5881
▁ഇതിവൃത്ത	-10.5881
▁ഉദ്ഘാടന	-10.5881
▁എതിർക്കുന്ന	-10.5882
▁പുറപ്പെട	-10.5883
▁സഞ്ചരിക്കുന്ന	-10.5885
വിജ്ഞാന	-10.5885
▁മറ്റെ	-10.5886
▁കേട്ടിട്ടില്ല	-10.5886
▁പ്രസക്ത	-10.5887
▁യുക്തിവാദികൾ	-10.5889
▁കൈവശമ	-10.589
▁നോവലിൽ	-10.5892
ൂന്ന	-10.5893
▁ഇന്ത്യയെ	-10.5894
se	-10.5895
▁ആക്രമിക്ക	-10.5896
▁കൽപ്പ	-10.5896
▁നിന്നുകൊണ്ടു്	-10.5898
▁തത്ത്വജ്ഞാനി	-10.5899
▁സ്വാധീനം	-10.59
▁കാവ	-10.5902
വിള	-10.5902
ങ്ങളിലെല്ലാം	-10.5903
ത്തിലുണ്ടു്	-10.5903
▁പേരെടുത്ത	-10.5908
▁കോള	-10.591
▁മാധ്യമം	-10.591
ാവകാശ	-10.5913
▁അവാർഡു	-10.5914
കളഞ്ഞ	-10.5915
▁എഴുത്ത	-10.5917
പ്രഭ	-10.5919
▁വെറുപ്പ	-10.5919
▁സ്ത്രീക്കു്	-10.592
ന്മാരാണു്	-10.592
▁യാതൊര	-10.5939
▁അവിടെത്തന്നെ	-10.594
സിംഗ്	-10.594
ടക്ക	-10.5943
▁സംരക്ഷിക്ക	-10.5944
▁സ്വരൂപ	-10.5945
യുണ്ടാക്കിയ	-10.5945
ക്കളെ	-10.5947
ഴിയ	-10.5947
തിന്ന	-10.5947
▁അഴിച്ചു	-10.5949
▁വാശി	-10.5951
▁പൈ	-10.5951
▁ബാധിച്ചു	-10.5957
ിലൊരു	-10.5959
▁പ്രസംഗിക്ക	-10.596
കളാൽ	-10.596
▁കാലത്തിനു	-10.5961
ുന്നുവെന്ന	-10.5962
▁ഇള	-10.5962
▁ഇതിനെപ്പറ്റി	-10.5963
▁ക്ലാസ്സു	-10.5968
▁കടലാസ	-10.5969
▁യോജിച്ച	-10.597
▁ഭ്രമ	-10.5971
▁നായരെ	-10.5973
▁ആഫ്രിക്ക	-10.5974
ടീ	-10.5975
▁ദുഷിച്ച	-10.5976
▁പാറി	-10.5977
▁മുറിച്ചു	-10.5978
വർണ്ണ	-10.5978
▁കൂട്ടം	-10.598
▁കുര	-10.5982
പ്രശ്നം	-10.5982
കാലങ്ങളിൽ	-10.5984
▁മൗലികമായ	-10.5987
ട്ടാ	-10.599
▁വിഭാഗങ്ങള	-10.5992
▁അടുപ്പം	-10.5993
ദാസ	-10.5993
ിട്ടുള്ളതാണു്	-10.5993
▁തല്ലു	-10.5994
നേരെ	-10.5994
ചിത്യ	-10.5995
▁അവധി	-10.5996
▁പാലക്കാട്	-10.5997
▁അയിത്ത	-10.5998
▁ദ്രാവിഡ	-10.5998
ക്കൊരാനേണ്ടാർന്ന	-10.5998
▁1954	-10.5998
▁കാശ്മീര	-10.5998
▁ക്യാമറ	-10.5998
▁പൊടുന്നനെ	-10.5998
▁ബാനർജി	-10.5998
▁റൊമാന്റിക്	-10.5998
▁സെനറ്റംഗം	-10.5998
▁മമ്മാലി	-10.5998
▁സാത്വിക	-10.5998
▁മറ്റുചില	-10.5998
▁ജോണി	-10.5998
▁അബ്ദ	-10.5998
▁അക്കൂട്ടത്തിൽ	-10.5998
▁കുപ്രസിദ്ധ	-10.5999
▁ശ്രേണി	-10.5999
▁കണ്ണീർ	-10.5999
▁മിസ്റ്റർ	-10.5999
▁ലക്ക	-10.5999
▁2000	-10.5999
▁നികൃഷ്ട	-10.6
▁ബന്ധുക്കൾ	-10.6
▁അന്നേരം	-10.6
▁നാവിക	-10.6
▁മൂഷികവംശകാവ്യ	-10.6001
▁മണ്ഡലം	-10.6001
▁രാഷ്ട്രം	-10.6001
▁വാസ	-10.6002
▁പ്ലാ	-10.6002
▁തമ്പുരാന്റെ	-10.6003
▁ഏതെല്ലാം	-10.6004
▁രാഷ്ട്രീയകക്ഷി	-10.6004
▁നയം	-10.6005
▁അഞ്ചാറു	-10.6005
ിലേക്കും	-10.6005
▁പൈസ	-10.6006
▁കൈയും	-10.6006
▁പുസ്തകങ്ങള	-10.6006
▁നിമിത്തമാണു്	-10.6007
▁ഒളപ്പമണ്ണ	-10.6007
▁അദൃശ്യ	-10.6007
▁അതോടൊപ്പം	-10.6008
കിയ	-10.6008
▁മാധവൻ	-10.6011
▁യൂറോപ്പിൽ	-10.6011
▁അനുസ്മരിപ്പി	-10.6012
▁ബോർഡ	-10.6014
▁അന്വേഷിച്ച	-10.6014
ലിസ	-10.6015
▁വേണോ	-10.6015
▁ശ്രദ്ധേയമാണു്	-10.6016
▁അനന്ത	-10.6019
▁മനുഷ്യർക്കു	-10.602
▁മാറിക്കൊണ്ട	-10.6021
▁ഉറപ്പാക്ക	-10.6022
▁തകര	-10.6025
▁ഒറ്റക്ക	-10.6025
▁ഇംഗ്ലീഷ	-10.6025
▁കഴുത്തിൽ	-10.6026
▁ലഹരി	-10.6027
▁തെളിവുകൾ	-10.6028
▁സഞ്ചാരി	-10.6029
▁കഠിനമായി	-10.6029
ക്കുള്ളിൽ	-10.6029
മൊഴി	-10.6029
ുകാരുടെ	-10.6033
▁ദുര	-10.6034
▁ആര്യ	-10.6034
പ്പട്ട	-10.6034
▁തൊഴിലാളികൾ	-10.6034
▁കിട്ടണം	-10.6037
▁എന്നതിനു	-10.6038
▁കേസരി	-10.6039
▁മമതാ	-10.6041
▁പഞ്ചാബ്	-10.6042
▁ബേജാറ	-10.6042
▁ഒന്നിനു	-10.6042
▁പത്രങ്ങളിൽ	-10.6043
▁വിസ്മരിച്ചു	-10.6044
ിക്കണമെന്ന	-10.6044
യോട	-10.6047
▁പരമ്പര	-10.6047
▁പുതുതായി	-10.6048
▁പോരേ	-10.6048
▁നിറുത്തി	-10.605
മാർഗ്ഗം	-10.605
ങ്കിലും	-10.6053
ുകയെന്നതാണു്	-10.6053
▁കോബദ്	-10.6056
കൊള്ളുന്ന	-10.6057
▁മന്ന	-10.6057
▁വിളമ്പ	-10.6058
▁കാണുവാൻ	-10.6059
ാറുള്ളതു്	-10.6059
▁കണ്ടിട്ട	-10.6059
ദേശം	-10.606
ദ്ദേശ	-10.606
▁നന്നാക	-10.6061
ൂറ്റ	-10.6068
▁വല്ലാതെ	-10.607
സംസ്കാര	-10.6071
▁അടയാളപ്പെടുത്ത	-10.6072
▁തുടച്ചു	-10.6072
ാട്ടി	-10.6073
▁അധികമായി	-10.6074
ചാര	-10.6075
▁ദൽഹിയിൽ	-10.6077
▁വഞ്ചന	-10.6078
▁ഗവണ്മെന്റ്	-10.6086
▁ആട്ട	-10.6086
▁ഭേദം	-10.6088
യില്ലെന്നു	-10.6088
▁അൽപം	-10.609
വെള്ള	-10.609
▁ചെറുത	-10.6093
്മാർ	-10.6093
▁ആയിരത്തി	-10.6094
▁പരിധി	-10.6095
▁വെളിപ്പെട്ട	-10.6097
മനോഭാവ	-10.6102
ത്യാഗ	-10.6106
▁കുപ്പായം	-10.6107
▁സംവാദ	-10.6108
▁പ്രതിഫലം	-10.6108
▁എന്നിവയാണു്	-10.6109
ുകളാണു്	-10.6113
▁സർവ്വകലാശാല	-10.6114
▁ഭൗതികവാദ	-10.6118
ുന്നതിനെ	-10.6119
▁യുക്തിവിചാര	-10.612
▁ഏകാന്ത	-10.6121
▁ഒഴിവാക്ക	-10.6124
ിട്ടുണ്ടെങ്കിൽ	-10.6124
▁ആളുടെ	-10.6125
▁വെള്ളി	-10.6134
▁വരുമാന	-10.6134
▁ആക്രമിച്ചു	-10.6136
▁വിവരണ	-10.6137
▁നിരത്ത	-10.6138
▁സ്ഥലത്തു്	-10.6141
▁മടങ്ങിവന്ന	-10.6142
▁പകര	-10.6142
▁ആജ്ഞ	-10.6144
▁മണ്ണിൽ	-10.6149
▁കൈവന്ന	-10.615
▁തുടരുന്ന	-10.615
▁അനുകൂലമായ	-10.615
നാക്കി	-10.6151
▁കൗതുക	-10.6152
കഴിഞ്ഞാൽ	-10.6156
▁പാലിച്ചു	-10.6156
▁ഇങ്ങനെയുള്ള	-10.6156
വലയ	-10.6159
▁അപകടം	-10.6159
▁എതിര	-10.616
▁നിശ്ചിത	-10.6161
▁ജീവിച്ചിരുന്നു	-10.6161
ുന്നതിനിടയിൽ	-10.6161
▁പ്രചരിച്ചു	-10.6161
▁നിരന്തര	-10.6162
▁ഉപേക്ഷിച്ചു്	-10.6163
െത്തിയപ്പോൾ	-10.6165
▁രൂപാന്തര	-10.6167
▁വീശി	-10.617
സ്മരണ	-10.6173
▁നാൾ	-10.6173
ടർ	-10.6179
▁വെടി	-10.6179
▁ജനിച്ചതു്	-10.618
ക്കാണും	-10.6181
▁ചിലര	-10.6184
ദേവൻ	-10.6186
മെന്നോ	-10.6188
▁ഉദ്ദേശ്യം	-10.619
ാധി	-10.619
ാത്തവിധം	-10.6193
▁നിനക്ക	-10.6197
▁ലേ	-10.6197
▁വിമർശിച്ചു	-10.6203
▁ആൾവാർ	-10.6203
▁കവിതയെ	-10.6206
▁പ്രതിഫല	-10.621
ക്കേണ്ട	-10.6212
▁ഒളി	-10.6217
ശരീര	-10.6217
റിയാത്ത	-10.6219
▁വിശദീകരിച്ചു	-10.622
▁പറയുന്നില്ല	-10.622
പുരോഗതി	-10.6221
പ്രേമ	-10.6222
▁കൃതിയിൽ	-10.6223
ൊഴിഞ്ഞു	-10.6225
ലക്ഷണ	-10.6226
▁മാറുന്നു	-10.6228
▁നടത്തം	-10.6232
▁അപവാദ	-10.6233
▁സംവരണം	-10.6233
▁ചോള	-10.6237
സേവ	-10.624
▁മാരാര	-10.624
സമയത്ത	-10.6242
യത്രേ	-10.6248
▁മോക്ഷ	-10.6251
▁വീട്ടിലേക്കു	-10.6254
▁യൂറോപ്പ	-10.6254
ിരിക്കട്ടെ	-10.6255
▁കൊച്ച	-10.6256
▁സവിശേഷ	-10.6262
്കി	-10.6262
▁അപേക്ഷിച്ചു	-10.6262
▁നീതിബോധ	-10.6264
യുണ്ടെന്നു	-10.6265
ha	-10.6272
കൊണ്ടേ	-10.6272
▁ചിത്രങ്ങള	-10.6274
കാലത്തും	-10.6274
▁ഭൗതികവാദി	-10.6282
▁സാധനങ്ങൾ	-10.6283
ശ്വര	-10.6284
രുമായ	-10.6286
▁പ്രധാനമായ	-10.6291
ിനെതിരെ	-10.6297
ുണ്ടാകാം	-10.6302
▁കോൺഗ്രസിന	-10.6302
▁മേൽക്കാണിച്ച	-10.6303
യിലെത്തിയ	-10.6305
▁ഇങ്ങ	-10.6306
ാണെന്നോ	-10.6306
പുരുഷന	-10.6307
മുണ്ടായില്ല	-10.6307
▁കഴിവു	-10.6308
ത്തെപ്പോലെ	-10.6315
▁കലാകൗമുദി	-10.6318
ക്കുകയായിരുന്നു	-10.6319
▁രക്തം	-10.6321
മായാലും	-10.6321
▁പ്രകൃതഗ്രന്ഥ	-10.6325
▁വില്ല	-10.6326
▁സർക്കാര	-10.6327
▁മനുഷ്യജീവി	-10.6332
▁ചരിത്രപരമായ	-10.6343
സിദ്ധി	-10.6343
▁കാഴ്ചപ്പാട	-10.6344
▁ഭാരതത്തിൽ	-10.6345
യിട്ടും	-10.6345
കഴിഞ്ഞു്	-10.6352
▁കോയ	-10.6352
▁അസമത്വ	-10.6353
ങ്ങളിലേക്കു	-10.6355
ഴിച്ചു	-10.636
▁വാഗ്	-10.636
▁കുഞ്ഞി	-10.6361
▁വ്യക്ത	-10.6366
കുട	-10.6366
▁വീതി	-10.6367
▁കിളി	-10.6367
യിട്ടില്ല	-10.6368
▁കണ്ണുനീർ	-10.6368
▁ഉഗ്ര	-10.6368
യൂണിയൻക്രിസ്ത്യൻ	-10.6368
▁1989	-10.6368
▁ഇമ്മാതിരി	-10.6368
▁ഉണര	-10.6368
▁ക്യാപിറ്റൽ	-10.6368
▁പോതാളക	-10.6368
▁ഭരണസമിതിയംഗം	-10.6368
▁മലയാളപരിഭാഷയുടെ	-10.6368
▁മെഡിക്കൽ	-10.6368
▁യൂറോപ്യൻ	-10.6368
▁സങ്കുചിത	-10.6368
▁പൊങ്ങച്ച	-10.6368
▁ആവിർഭാവ	-10.6368
▁ഗോർക്കി	-10.6368
▁ചെന്നിത്തല	-10.6368
▁പിറകിൽ	-10.6368
▁പ്രത്യയശാസ്ത്ര	-10.6368
▁മാമ്മൻ	-10.6368
▁വളരെയേറെ	-10.6368
▁മോഡി	-10.6369
▁സമർപ്പിക്ക	-10.6369
▁സൈനിക	-10.6369
▁സ്തുതി	-10.6369
▁ഏതാദൃശ	-10.6369
▁യൂത്ത്	-10.637
▁കലാശിച്ച	-10.637
▁ഒഴുക്ക	-10.637
▁വെളിച്ചപ്പാട	-10.637
▁കൃഷ്ണപിള്ള	-10.637
▁ദേ	-10.637
▁തെല്ലു	-10.6371
▁ശില്പശാല	-10.6371
▁കേശവൻ	-10.6372
▁ഉപരി	-10.6373
▁വിധിച്ച	-10.6374
▁അതങ്ങനെ	-10.6375
▁നിസ്സംശയം	-10.6375
▁പുനർ	-10.6377
▁ചോദിക്കുന്നു	-10.6378
▁ഉത്തരവാദി	-10.6378
െങ്കിലേ	-10.6381
▁സ്പർശ	-10.6382
▁ചിന്ന	-10.6383
▁അകത്തു്	-10.6384
▁ഒന്നാമതു്	-10.6384
കേട്ടു്	-10.6385
▁പലർക്കും	-10.6385
▁ഏറ്റുമുട്ട	-10.6386
▁കുരിശു	-10.6387
പ്പുറം	-10.639
▁ഉണർന്ന	-10.6391
▁ആത്മാവിന്റെ	-10.6393
▁അർ	-10.6393
രുന്ന	-10.6393
▁ഭാഗമായി	-10.6393
▁മടങ്ങിവര	-10.6394
മെഴുതിയ	-10.6395
വ്യത്യാസ	-10.6396
▁തുള	-10.6397
▁പരസ്യം	-10.6397
▁മാതൃഭാഷ	-10.6399
വാണു്	-10.6399
▁കേൾക്കാം	-10.64
▁തെറ്റായ	-10.64
▁പ്രദർശന	-10.6403
▁മൺ	-10.6404
▁ഉൾക്കൊള്ള	-10.6404
ിരുന്നുവെങ്കിലും	-10.6406
▁സർപ്പ	-10.6406
▁കേട്ടപ്പോൾ	-10.6407
▁വൈകുന്നേര	-10.6408
▁കൊടിയ	-10.6408
ിരുന്നതിനാൽ	-10.641
യുദ്ധം	-10.641
▁വിശ്വരൂപ	-10.6411
▁മീതെ	-10.6413
ul	-10.6415
▁കത്തു	-10.6419
▁രമേശ്	-10.642
▁വിരൽ	-10.6422
▁തുറ	-10.6422
▁അറിയാത്ത	-10.6422
▁കാര്യത്തിലും	-10.6427
▁പടം	-10.6427
▁നോവലിന്റെ	-10.6428
▁ശ്ലോകത്തിൽ	-10.6431
▁എസിന്റെ	-10.6435
്വാ	-10.6436
▁പുരോഹിതൻ	-10.6439
▁പേരിന്റെ	-10.6439
▁പിന്നിൽനിന്നു	-10.644
▁കീർത്തി	-10.644
▁സമ്മതിക്കുന്ന	-10.644
▁വയല	-10.6442
▁വരികയും	-10.6442
▁പൗരസ്ത്യകല	-10.6443
ംഗ്	-10.6448
തയോടെ	-10.6448
▁മുക്ത	-10.6449
▁നിർമ്മിക്കുന്ന	-10.6449
ണീ	-10.6451
▁പൊളിച്ചു	-10.6458
▁ഉൾപ്പെടുത്ത	-10.6458
▁നിശ്ശബ്ദത	-10.6459
▁ഒന്നിനെ	-10.6463
മാകുന്നതു്	-10.6465
▁കേരളോൽപ്പത്തി	-10.6465
▁അവരോടു	-10.6465
▁ശേഷമാണു്	-10.6466
ങ്ങളോടും	-10.6467
▁കൂടിച്ചേർന്ന	-10.6468
▁ഇരുട്ടു	-10.6468
▁പേരാണു്	-10.647
▁പഠിപ്പിച്ചു	-10.6472
▁ജീവിക്കുന്നതു്	-10.6474
▁ഗർഭ	-10.6476
ക്കൊണ്ടിരിക്ക	-10.6483
▁ബലി	-10.6483
▁ദർശനം	-10.6484
ഞ്ഞി	-10.6487
▁സ്ഥിരം	-10.6491
▁ശക്തമായ	-10.6495
▁നിമിഷ	-10.6495
െക്കൊണ്ടു്	-10.6496
▁പ്രാപിച്ചു	-10.6497
▁കണ്ടുവരുന്ന	-10.6501
▁മുഖത്ത	-10.6501
വചനം	-10.6502
നുമായി	-10.6503
മ്പല	-10.6504
യിൽക്കൂടി	-10.6504
▁ചിലരുടെ	-10.6505
▁കിടന്നിരുന്ന	-10.6505
▁വിവരണം	-10.6506
▁വിറ	-10.6508
ങ്ങളുമായ	-10.6509
▁ഭരിച്ചു	-10.6511
▁മഹാഭാരതം	-10.6518
▁കലി	-10.6518
ൊഴുകുന്ന	-10.6519
ബ്ബ	-10.6521
▁ക്ഷണ	-10.6521
▁എടുത്തു്	-10.6523
ിടുന്ന	-10.6524
▁സാഹിത്യത്തിലെ	-10.653
കൃഷ്ട	-10.6531
▁ബഹളം	-10.6532
▁കപ്പല	-10.6533
▁മൽസരിച്ചു്	-10.6533
ചിതമായ	-10.6534
ുണ്ടായിട്ടില്ല	-10.6535
▁സവിശേഷമായ	-10.6536
പായ	-10.6541
▁കുറ്റപ്പെടുത്ത	-10.6549
ചെയ്യാൻ	-10.6549
▁പുരുഷനെ	-10.6552
▁എസ്സ	-10.6553
▁പുരുഷന്മാർ	-10.6554
ഷാ	-10.6555
▁ഇല്ലാതായി	-10.6556
സമയത്തു്	-10.6556
ലേക്കു്	-10.6557
ക്കണ്ടു്	-10.6558
ായപ്പോൾ	-10.6559
▁തങ്ങൾക്കു്	-10.6559
▁വ്യത്യാസങ്ങൾ	-10.6559
▁പുറ	-10.656
മുണ്ടെന്നും	-10.6561
ചിത്രങ്ങൾ	-10.6565
▁പുച്ഛ	-10.6569
്റ്റിറ്റ്യൂട്ടു്	-10.6569
▁മിത്ര	-10.657
▁പതിഞ്ഞ	-10.657
ay	-10.657
▁അവിടെനിന്നു്	-10.6578
▁യോഗത്തിന്റെ	-10.6581
നസ്സ	-10.6581
കനും	-10.6582
▁അധിക്ഷേപ	-10.6582
▁സാമാന	-10.6584
▁കാണുകയില്ല	-10.6592
▁തിരിച്ചെത്തി	-10.6592
യായിട്ടാണു്	-10.6592
തീർക്ക	-10.6593
▁അറിവു്	-10.6595
യായിരിക്കാം	-10.6595
ാവശ്യമായ	-10.6598
▁പ്രസംഗിക്കുന്ന	-10.6598
▁എട്ട	-10.6602
വേദന	-10.6603
വ്യക്തി	-10.6603
പരിണാമ	-10.6606
▁ഉറ	-10.6608
െപ്പറ്റിയും	-10.6608
▁മടിയ	-10.6609
▁ചേരുന്ന	-10.6613
ist	-10.6613
▁ആകർഷിക്കുന്ന	-10.6613
ാകണം	-10.6614
കുടി	-10.6615
കത്ത	-10.6615
▁കനം	-10.6616
പോൽ	-10.6617
കനായ	-10.6619
▁നിലനിന്നു	-10.6625
▁സ്ഥാനത്തു	-10.6629
▁എന്നാണല്ലോ	-10.6629
െടുപ്പ	-10.663
▁മാറും	-10.6631
▁സ്വീകരിക്കുന്ന	-10.6632
ാവലി	-10.6632
▁സംസാര	-10.6633
▁ഐതിഹ്യങ്ങൾ	-10.6634
▁നഷ്ടപ്പെട	-10.6635
▁യോജിക്കുന്ന	-10.6636
▁നിന്നിരുന്ന	-10.6636
▁കുപ്പായ	-10.6637
▁തത്	-10.6639
▁മുഖപ്രസംഗ	-10.6639
▁പാഠം	-10.6641
ാനിടയുള്ള	-10.6644
▁പേരിട്ടിട്ടുള്ള	-10.6646
▁ഇയാൾ	-10.6647
ചെയ്തു്	-10.6647
▁ഉത്തരവാദിത്ത	-10.6651
▁ഇക്കാലത്തു	-10.6652
▁പ്രതിരൂപ	-10.6654
ത്തിലേക്കുള്ള	-10.6654
ുക്കൾ	-10.6658
▁കൊടു	-10.6659
▁കോല	-10.666
ിട്ടുള്ളവർ	-10.666
ുന്നുണ്ടോ	-10.6661
▁ആഗ്രഹിക്കുന്ന	-10.6662
▁ഉദ്ദേശ	-10.6664
ചെന്ന	-10.6665
▁എന്നിവര	-10.6667
ഞ്ചു	-10.6668
▁ദിശ	-10.6668
▁വിശേഷണ	-10.6669
ാലോചിച്ചു	-10.6669
▁അറേബ്യയിൽ	-10.6672
▁ഗുണങ്ങൾ	-10.6672
കല്പന	-10.6676
സ്ഥാനത്തു	-10.6677
▁നേടുന്ന	-10.6677
നായകൻ	-10.6678
▁തോൽ	-10.6679
▁അവസാനിക്കുന്ന	-10.6683
▁തിരിച്ചുവന്ന	-10.6683
▁മതിയായ	-10.6685
▁ഗീതാ	-10.6686
▁പ്രവേശിച്ച	-10.669
▁വാദിക്കുന്നു	-10.6694
▁യെയും	-10.6695
ുന്നവർക്കു്	-10.6696
കൾക്കിടയിൽ	-10.6698
▁പ്രകൃത്യാ	-10.6698
▁യക്ഷി	-10.6699
റപ്പിച്ചു	-10.6701
▁മനസ്സിലാകുന്ന	-10.6701
▁അണി	-10.6706
െക്കുറിച്ച	-10.6707
▁ജനിക്കുന്ന	-10.6708
▁വിളിക്കുന്നു	-10.671
▁ഭാഗവത	-10.671
▁ഇരിയ്ക്ക	-10.6711
▁കറുപ്പ	-10.6712
ക്കുണ്ടു്	-10.6712
▁അമേരിക്കയിലെ	-10.6712
പോലെയുള്ള	-10.6713
യോളം	-10.6714
▁വന്നിരുന്നു	-10.6717
പ്രിയ	-10.6719
▁ഫോ	-10.6719
▁അധ്വാന	-10.6722
▁എടുത്തുകൊണ്ടു	-10.6723
▁പനി	-10.6724
തന്നെയായിരുന്നു	-10.6727
▁പുല	-10.6727
▁നിർവ്വഹിക്ക	-10.6728
മായിരിക്കണം	-10.6728
ടഞ്ഞു	-10.6729
▁രാഘവ	-10.6729
▁പുറത്തേക്കു	-10.6732
▁ഗോപാലകൃഷ്ണ	-10.6733
▁പാടില്ലാത്ത	-10.6733
▁വാഴ്ച	-10.6734
▁ബാങ്ക	-10.6737
വുമാകുന്നു	-10.6738
▁ആന്തര	-10.6738
ത്തേയ്ക്കു്	-10.6742
തിനെക്കാൾ	-10.6748
ന്നെ	-10.6748
▁തിരിച്ചറിഞ്ഞ	-10.6749
യാണ്	-10.6749
▁വിമർശനം	-10.675
▁നിലാവു	-10.6752
ച്ഛേദ	-10.6752
▁തക്ക	-10.6753
▁ഘന	-10.6753
▁1953	-10.6753
▁1964	-10.6753
▁1969	-10.6753
▁അപ്പേട്ടന്റെ	-10.6753
▁ആഖ്യാന	-10.6753
▁കാലാവധി	-10.6753
▁ചെങ്ങന്നൂർ	-10.6753
▁ചെയർമാൻ	-10.6753
▁ജ്യോതിബസു	-10.6753
▁തിരുമേനി	-10.6753
▁പരമാവധി	-10.6753
▁പ്രേക്ഷക	-10.6753
▁യൂണിയൻ	-10.6753
▁യൂനിയൻ	-10.6753
▁യെദിയൂരപ്പ	-10.6753
▁ലഘുജീവചരിത്രം	-10.6753
▁വിശ്രുത	-10.6753
▁ശിപാർശ	-10.6753
▁സുഹ്റ	-10.6753
▁ഉരുവം	-10.6753
▁നിഗൂഢ	-10.6753
▁പഴഞ്ചൊല്ല	-10.6753
▁അഹമ്മദ്	-10.6753
▁ഹോട്ടൽ	-10.6753
▁കൈരളി	-10.6753
▁ചങ്ങല	-10.6753
▁ചേക്കേറി	-10.6753
േടത്തോളം	-10.6753
▁ക്യൂബ	-10.6753
▁വിസ്തരിക്ക	-10.6753
▁തൊണ്ട	-10.6753
▁ക്ഷാമ	-10.6753
▁2007	-10.6753
▁ലാളിത്യ	-10.6753
▁ഹിമാലയ	-10.6753
▁അനുവാചക	-10.6754
▁മനുഷ്യസത്വ	-10.6754
▁ശാരി	-10.6754
▁സംഘർഷ	-10.6754
▁വൃത്തികെട്ട	-10.6754
▁ഇത്തരത്തിലുള്ള	-10.6755
▁പാത്രസൃഷ്ടി	-10.6755
▁നിർദ്ദേശിച്ച	-10.6756
▁നൂറ്റാണ്ടുകളായി	-10.6756
▁രാവണന്റെ	-10.6757
▁തോൽവി	-10.6757
▁ലീഡറുടെ	-10.6757
▁കണ്ണൂർ	-10.6758
▁ഇരുപതാം	-10.6758
ശീ	-10.6759
▁സ്വതേ	-10.676
▁കച്ചവടക്കാര	-10.6761
▁പരിശോധിച്ചാൽ	-10.6762
▁വല്ലപ്പോഴും	-10.6762
തിലധികം	-10.6762
▁പണിക്കരുടെ	-10.6763
▁പത്താം	-10.6765
േയ്ക്കാം	-10.6765
▁ചുഴി	-10.6766
▁തടഞ്ഞു	-10.6768
▁പെൺകുട്ടികൾ	-10.6768
ദൃശ്യ	-10.6768
▁ഹു	-10.6768
▁പ്ലേറ്റോ	-10.6768
സൺ	-10.677
ിലുമുള്ള	-10.6771
▁സ്മരിക്ക	-10.6776
െയാണു്	-10.6777
▁കേരളത്തെ	-10.6778
▁കാമം	-10.6779
▁നാവ	-10.678
▁ചരിത്രകാരന്മാർ	-10.6781
▁ബൗദ്ധിക	-10.6782
▁ദൂരം	-10.6782
▁എത്തിച്ചേർന്ന	-10.6783
െങ്കിലോ	-10.6783
▁വിലക്ക	-10.6783
▁നിയമസഭയിലേക്കു്	-10.6784
▁പരിഷ്കരണ	-10.6786
▁മനസ്സിനു	-10.6787
▁എനിക്കും	-10.6787
▁സഞ്ജയൻ	-10.6787
▁മകനു്	-10.6788
▁ഉദയ	-10.6788
▁എടാ	-10.6788
▁സാമ്യ	-10.679
▁ക്ഷീണ	-10.679
▁അടഞ്ഞ	-10.6791
our	-10.6791
im	-10.6791
ിട്ടുണ്ടെന്നും	-10.6792
▁മിക്കതും	-10.6792
ുവിൻ	-10.6793
▁കണ്ണി	-10.6793
▁മാതൃകാ	-10.6794
▁മനുഷ്യത്വ	-10.6796
▁വട്ടം	-10.6796
▁മുസ്ലിംകൾ	-10.6796
▁വാഗ്ദാനം	-10.6796
▁അഴി	-10.6797
▁പത്രപ്രവർത്തന	-10.6799
▁കൺ	-10.6803
▁സ്നേഹത്തിന്റെ	-10.6806
▁ദേവാലയ	-10.6806
▁അല്ലെങ്കിലും	-10.6809
▁വീതം	-10.6809
▁ഒഴിച്ചു	-10.6817
▁കഴിയുന്നില്ല	-10.6818
▁നോക്കാൻ	-10.6819
▁ഇതിലേക്കു്	-10.682
▁അനുമാനിക്ക	-10.6824
▁നൽകിയിരിക്കുന്ന	-10.6824
▁ശീലം	-10.6824
▁അടിമത്തം	-10.6826
▁കാണണം	-10.6828
▁ഇതുതന്നെയാണു്	-10.6828
▁നാട്ട	-10.683
▁യോഗത്തിൽ	-10.6832
നിധി	-10.6835
ാണിതു്	-10.6836
യുമായുള്ള	-10.684
ൻമാർ	-10.684
▁സ്വരത്തിൽ	-10.684
▁തുന്നി	-10.6841
▁വഹിച്ചിരുന്ന	-10.6843
▁ചെയ്യാത്ത	-10.6846
▁മ്യൂസിയ	-10.6847
▁ദൃഷ്ടി	-10.6847
▁ഭരിച്ച	-10.6848
▁ഉണർന്നു	-10.6849
▁പിറ്റേന്നു്	-10.685
▁പ്രവേശിച്ചു	-10.6851
▁അന്തര	-10.6852
▁എളുപ്പ	-10.6852
▁പരാജയപ്പെട്ട	-10.6852
വരുന്നുണ്ടു്	-10.6856
▁ആരംഭ	-10.6857
▁സ്തംഭ	-10.6859
ിയിരുന്നു	-10.6862
▁അമ്പരപ്പ	-10.6864
▁ഭാവിയിൽ	-10.6864
▁ഉത്തരവാദിത്വ	-10.6866
▁ഇവയ്ക്കു	-10.6874
▁രീതിയിലുള്ള	-10.6875
ുകയല്ലാതെ	-10.6875
▁കോലം	-10.6876
▁ദേഷ്യം	-10.6877
ൊഴിഞ്ഞ	-10.6878
▁ഇതിവൃത്തം	-10.6881
▁ശേഖര	-10.6881
▁കമ്യൂണിസ്റ്റു	-10.6882
▁കുറിച്ച	-10.6885
▁ദൃഷ്ടിയിൽ	-10.6887
▁വൈക	-10.689
▁കാടു	-10.6894
സാഹിത്യം	-10.6894
▁അപലപിച്ചു	-10.6896
വച	-10.6899
▁മൂലയിൽ	-10.69
▁ചോർ	-10.69
▁മൂള	-10.69
▁അനുഭാവ	-10.6901
▁ജീവിക്കുന്നു	-10.6901
▁ചെല്ലുന്ന	-10.6902
▁വികസിച്ചു	-10.6902
ഘട്ടത്തിൽ	-10.6905
▁സുഖമായി	-10.6906
▁കഷ്ടിച്ചു	-10.6907
മേറിയ	-10.691
▁ശരിയാണെന്നു	-10.6912
▁മൽസര	-10.6915
▁40	-10.6916
▁കയ്യില	-10.6921
നിർമ്മാണം	-10.6922
▁രാജ്യങ്ങളിൽ	-10.6924
▁പ്രാപിക്ക	-10.6924
▁ആദർശം	-10.6925
▁നഷ്ടം	-10.6926
▁ഒരിടത്തു	-10.6927
▁കലയ്ക്കു	-10.693
▁പാർപ്പ	-10.693
▁അമ്പരന്നു	-10.6931
യിരിക്ക	-10.6933
▁ആവശ്യപ്പെട	-10.6934
▁ഗണിക്കുന്ന	-10.6935
▁ഏറിയ	-10.6935
▁കരുണാകരന	-10.6938
▁സംഘടനാ	-10.6941
രുള	-10.6941
▁തീർപ്പു	-10.6942
▁കമ്പം	-10.6945
വർഗ്ഗം	-10.6946
യോടൊപ്പം	-10.6948
▁ഗോപാല	-10.6949
ന്നേ	-10.695
ങ്ങളെക്കുറിച്ചു്	-10.6952
▁നായരുടെ	-10.6954
േറിയ	-10.6956
▁സ്ഥാപിച്ചതു്	-10.6957
▁വ്യവസായി	-10.6958
▁വാങ്ങുന്ന	-10.696
സ്ഥാനത്തു്	-10.6961
▁തെളിവുകള	-10.6962
▁വന്നിട്ടുണ്ടു്	-10.6963
▁തൃപ്തിപ്പെട	-10.6966
▁ഞാനാണു്	-10.6969
ബോധത്തിന്റെ	-10.6971
വർമൻ	-10.6974
ന്റേയും	-10.6975
▁സംബന്ധിച്ചും	-10.6975
പ്പെട്ടിരുന്ന	-10.6976
▁പാന	-10.6977
▁ഒതുങ്ങി	-10.6987
▁സയൻസ	-10.6992
നിയമങ്ങൾ	-10.6998
▁ഇടവഴി	-10.6998
▁ആഗ്രഹം	-10.6999
സൗകര്യ	-10.7001
ക്കൂടാ	-10.7001
▁പരിഗണിച്ചു	-10.7004
▁ഉദ്യമ	-10.7005
തമ്പുരാന	-10.7006
മനഃസ്ഥിതി	-10.7006
▁പെറ്റ	-10.7009
വേളയിൽ	-10.701
ho	-10.7015
വനു	-10.7015
▁വാസ്തുശില്പ	-10.7016
▁നിരൂപക	-10.7016
ായതുകൊണ്ടു്	-10.7021
യിൽത്തന്നെ	-10.7022
▁രംഗങ്ങൾ	-10.7023
▁കൂറ	-10.7027
▁അനിയത്തി	-10.7028
▁വാദിച്ച	-10.7028
▁ശത്രുവ	-10.7028
▁സഹതാപ	-10.7033
▁പതിനെട്ടു	-10.7034
▁പ്രമാണം	-10.7036
▁പ്രകാശിപ്പിക്ക	-10.7036
ദർശനം	-10.7036
▁പാർട്ടിക്കു്	-10.7041
nt	-10.7042
ായിത്തീരുന്നു	-10.7045
▁പ്രഭാത	-10.7046
താണു	-10.7047
▁തോൽപിച്ചു	-10.7048
▁ബിരുദ	-10.7049
▁സ്ഥാപിതമായ	-10.7051
യാകും	-10.7051
ക്കൂട്ടി	-10.7054
ഗാ	-10.7055
പോലെയാണു്	-10.7059
ീയമായ	-10.706
▁ഉടമസ്ഥ	-10.7065
▁മന്ത്രിയായി	-10.7065
▁പക്ഷപാത	-10.707
വർത്തി	-10.707
▁കത്തു്	-10.707
▁ഭയങ്കരമായ	-10.7072
ക്കുവാനുള്ള	-10.7073
▁മൂക്കു	-10.708
▁പങ്കു്	-10.7081
▁മെമ്പർ	-10.7083
▁ഇസ്ലാമി	-10.7086
▁പ്രതിരോധ	-10.7086
▁നീതിന്യായ	-10.7089
സംരംഭ	-10.709
▁കണ്ടുപിടുത്ത	-10.709
▁വിമാന	-10.709
ാമെങ്കിലും	-10.7094
▁സന്മാർഗ	-10.7095
▁കഴിഞ്ഞാണു്	-10.7096
▁സ്വതന്ത്രര	-10.7103
▁പരിചയപ്പെടുത്ത	-10.7105
ഡു	-10.7108
▁കണ്ണട	-10.7108
ne	-10.7111
▁ആകർഷിച്ച	-10.7111
മുടി	-10.7112
▁തെറ്റാണെന്നു	-10.7118
▁ദുഷ്	-10.7118
▁തൊഴ	-10.7119
നിക്ക	-10.7124
▁നീട്ട	-10.7126
▁പരശുരാമ	-10.7128
▁സ്ഥിരമായി	-10.713
▁കഴുത	-10.7131
വെച്ചാണു്	-10.7131
▁ഏർപ്പാടു	-10.7132
മുണ്ടാകും	-10.7134
▁ബുദ്ധമുനി	-10.7136
▁നിഷ്പക്ഷ	-10.7136
▁ഗ്രാമീണ	-10.714
▁കടന്നുപോയി	-10.7143
▁ജാതിമത	-10.7147
▁സമസ്ത	-10.7148
▁മൃത	-10.7149
▁ആപത്തു	-10.715
▁കൊണ്ടുപോയ	-10.7153
ൈക്യ	-10.7153
▁യൂണിവേഴ്സിറ്റി	-10.7153
▁1959	-10.7153
▁അഹങ്കാര	-10.7153
▁ഗൊദാർദ്	-10.7153
▁ജോസഫേട്ടൻ	-10.7153
▁പാർവ്വതി	-10.7153
▁സത്യഗ്രഹ	-10.7153
▁സ്റ്റാലിൻ	-10.7153
▁ഒരക്ഷരം	-10.7153
▁ദേവസ്വം	-10.7153
▁ഇബ്നു	-10.7153
▁മുഖർജി	-10.7153
▁പ്രദാനം	-10.7153
▁തന്റേട	-10.7153
▁സൗഹൃദ	-10.7153
▁ദിവാകരൻ	-10.7153
▁ചെങ്കൊടി	-10.7153
▁വിഷകന്യക	-10.7153
▁ശുഷ്ക	-10.7153
▁ചേട്ടാ	-10.7153
▁പൊന്നാനി	-10.7154
▁പ്രൊഫസറ	-10.7154
സഞ്ചയ	-10.7155
▁രാമൻകുട്ടി	-10.7155
▁ഏകദേശം	-10.7156
▁ഇതിനിടയിൽ	-10.7156
▁തൊലി	-10.7156
▁ഴാങ്	-10.7157
▁ഇരട്ട	-10.7157
▁മാപ്പിളമാർ	-10.7157
▁കോളനി	-10.7157
▁അത്യുന്നത	-10.7158
ിക്കൊടുത്ത	-10.7158
▁ബെഞ്ച	-10.7159
▁മതത്തിൽ	-10.7159
▁ചെങ്ക	-10.7161
▁ലേഖകന്റെ	-10.7161
▁കിട്ടിയാൽ	-10.7161
▁സൂക്ഷിച്ച	-10.7162
▁സൂക്ഷ്മമായി	-10.7163
▁മിക്കവരും	-10.7164
▁80	-10.7164
ന്ദര്യ	-10.7164
▁കൂട്ടുകാര	-10.7165
ായിത്തീരുന്ന	-10.7166
വെന്നും	-10.7166
▁എപ്പോൾ	-10.7167
ാന്വേഷണ	-10.7167
▁യാഥാർത്ഥ്യം	-10.7167
▁അക്കാലം	-10.7168
▁വാദഗതി	-10.7169
▁ചെയ്വാൻ	-10.717
▁അതിയായ	-10.7173
▁പരാജയപ്പെട്ടു	-10.7174
▁സുന്ദരമായ	-10.7175
▁വകുപ്പിന്റെ	-10.7177
▁സാങ്കേതികമാർഗ്ഗ	-10.7177
▁രാഘവൻ	-10.7177
▁വീടിന്റെ	-10.718
ത്തിന്നും	-10.7182
▁പാടുന്ന	-10.7185
▁തിരിയുന്ന	-10.7185
▁ആനുകൂല്യം	-10.7186
രംഗത്തു	-10.7186
▁സത്യസന്ധത	-10.7187
▁എഴുത്തുകാരൻ	-10.7189
▁മർദ്ദ	-10.719
▁നിഷ	-10.7191
ാണെ	-10.7193
▁കാത	-10.7194
ാത്തവർ	-10.7196
▁പരിതസ്ഥിതി	-10.7199
മാക്കുന്നതു്	-10.72
▁അവാർഡ്	-10.72
െന്റ	-10.7201
ാണദ്ദേഹം	-10.7202
▁പണത്തിന്റെ	-10.7203
▁കഴിക്കാൻ	-10.7205
▁മനോഹര	-10.7205
▁പിളർപ്പ	-10.7211
പ്രസ്താവിക്കുന്ന	-10.7211
▁വ്യാപ്തി	-10.7212
▁രാജാക്കന്മാരുടെ	-10.7214
▁മാമ	-10.7215
▁തോന്നൽ	-10.7216
വുമായുള്ള	-10.7217
യ്ക്കായി	-10.7217
ിച്ചതും	-10.722
▁മരു	-10.722
▁സംബന്ധിച്ചുള്ള	-10.7221
▁നെടു	-10.7222
വരോ	-10.7225
▁കിട്ടിയപ്പോൾ	-10.7225
▁ബ്ല	-10.7226
പുസ്തക	-10.7227
▁ആനി	-10.723
▁പ്രസംഗങ്ങൾ	-10.7231
▁തളി	-10.7231
▁32	-10.7231
യെടുത്ത	-10.7232
▁ബാക്കിയ	-10.7233
▁സംബന്ധ	-10.7234
ുന്നതായാൽ	-10.7237
▁അസുഖം	-10.7238
▁ഗംഭീരമായ	-10.7238
യുണ്ടെങ്കിൽ	-10.7239
ങ്ങളല്ല	-10.724
▁പോയപ്പോൾ	-10.7244
▁പ്രസിഡന്റായി	-10.7247
▁ചിന്തകന്മാര	-10.7248
െന്തെങ്കിലും	-10.725
▁അറിവിന്റെ	-10.7252
▁താമസിച്ചിരുന്ന	-10.7252
▁എവിടെയാണു്	-10.7254
ക്കൊടി	-10.7254
▁മുൻപു്	-10.7258
▁തുടങ്ങും	-10.7261
കളിലാണു്	-10.7262
ിത്തുടങ്ങിയ	-10.7262
കേട	-10.7263
▁ശ്രദ്ധേയമായ	-10.727
ക്കെതിരായി	-10.7272
ീത	-10.7272
▁താഴത്ത	-10.7272
▁അഭിപ്രായത്തെ	-10.7272
▁എണീറ്റു	-10.7273
▁കൈകൾ	-10.7273
ംഭ	-10.7273
ദേവന്റെ	-10.7275
▁കലാപരമായ	-10.7277
▁വരവു്	-10.7279
▁ഭഗവാന	-10.7286
▁ഒന്നാണെന്നു	-10.7286
▁പരിണമിച്ച	-10.7288
▁മനസ്സില	-10.7289
നടന്ന	-10.7289
ാക്ഷേപ	-10.7289
മേയുള്ളു	-10.7291
▁കൂടിയുണ്ടു്	-10.7291
നുഭവ	-10.7293
▁ഭാഗത്തു്	-10.7294
▁അടക്കി	-10.73
▁പ്രഭ	-10.7301
▁കൊള്ളുന്ന	-10.7301
ദാഹ	-10.7304
▁വെളിപ്പെടുന്ന	-10.7304
▁നോക്കിനിന്നു	-10.7305
▁മുസ്ലിംലീഗ്	-10.7305
▁വരണം	-10.7311
ിലായി	-10.7312
▁സ്ത്രീകൾക്കു്	-10.7316
▁മറ്റേതു്	-10.7317
▁ശില്പി	-10.7317
▁വെളിച്ചവും	-10.7319
സഹ	-10.7319
▁മറയ്ക്ക	-10.732
▁നിലനില്ക്കുന്ന	-10.7321
ദേവത	-10.7323
▁ജനങ്ങൾക്കു്	-10.7323
പ്രത്യക്ഷപ്പെട്ട	-10.7324
▁സ്വാതന്ത്ര്യമ	-10.7326
മായിത്തീരുന്ന	-10.7327
▁പേരെ	-10.7327
ഫലം	-10.7327
▁കവിതയെഴുത	-10.7329
ജാത	-10.7329
ദേവി	-10.7332
▁ചാർ	-10.7334
▁സംസ്ഥാനത്തെ	-10.7336
▁തിരുവിതാംകൂറ	-10.734
വൃ	-10.7346
▁കീഴടക്ക	-10.7346
▁കൂട്ടിച്ചേർത്തു	-10.7347
െങ്കിലു	-10.7348
▁പരിഹസിച്ചു	-10.7349
വിഷയം	-10.7352
▁കുടുംബത്തിൽ	-10.7352
▁ഇല്ലെന്ന	-10.7354
▁തെറ്റിദ്ധരിക്ക	-10.7356
37	-10.7356
ുകയില്ലെന്നു്	-10.7357
▁ബുദ്ധിജീവികൾ	-10.736
▁സന്ദർഭങ്ങളിൽ	-10.7363
▁ഉണ്ടായതു്	-10.7364
▁കാണിക്കുന്നതു്	-10.7366
▁വാക്കുകളിൽ	-10.7366
▁ആള്	-10.737
▁ഇംഗ്ലീഷില	-10.7371
ന്നാ	-10.7372
▁അതിൽനിന്നു്	-10.7372
▁ലക്ഷണം	-10.7373
രാജാക്കന്മാർ	-10.7373
▁പ്രവൃത്തികൾ	-10.7374
▁വളർന്നുവന്ന	-10.7375
▁വാഴ്ത്ത	-10.7379
ത്തിലെത്തിയ	-10.7381
▁ക്ഷോഭ	-10.7382
ങ്ങളാൽ	-10.7385
▁വാചക	-10.7385
▁മനുഷ്യർക്കു്	-10.7388
▁അംഗങ്ങൾ	-10.7388
യിലേയ്ക്കു്	-10.7389
▁തോല	-10.7391
▁ചോദ്യങ്ങൾക്കു	-10.7392
ാനല്ല	-10.7392
▁ക്ഷണിക്ക	-10.7392
▁ഉണ്ടെന്ന	-10.7397
▁70	-10.7402
▁പരിശോധിച്ച	-10.7403
▁കത്തുകൾ	-10.7406
▁കാത്തിരുന്നു	-10.7406
▁മതിയാക	-10.7407
ച്ചെന്നു്	-10.741
ാഭ	-10.7411
ചെന്നു	-10.7414
▁മോഹം	-10.7418
▁അനുമാന	-10.7419
▁മാള	-10.742
പർവ്വത	-10.742
▁കാരണമായി	-10.7422
▁വസ്തുനിഷ്ഠമായ	-10.7424
ക്കോട്ട	-10.7424
▁കുഴിച്ച	-10.7424
ബ്രാഹ്മണ	-10.7424
പോലുള്ള	-10.7425
▁അടയാള	-10.7426
▁സരസ	-10.7426
▁കഴിവില്ല	-10.7428
▁സമ്പർക്ക	-10.743
▁വർഗീയ	-10.7437
▁ഏർപ്പാട	-10.7441
▁കുറി	-10.7443
ിനൊപ്പം	-10.7445
▁ചടങ്ങ	-10.7449
▁വാർദ്ധക്യ	-10.7451
കൃതിയിൽ	-10.7453
▁അംഗീകാര	-10.7453
▁വേണമെന്നു	-10.7459
ാവട്ടെ	-10.7463
▁മൽസരിച്ചു	-10.7466
▁വെളിപ്പെട	-10.7468
ിക്കരുതു്	-10.7469
▁കവിതയും	-10.747
ിലെയും	-10.747
▁കോൺഗ്രസിൽ	-10.7471
▁ഇളക്ക	-10.7474
▁ചാത്ത	-10.748
കൊട്ട	-10.7483
▁തരുന്ന	-10.7484
▁ദാമ്പത്യ	-10.7487
ുനിന്നു്	-10.7487
▁പൂണ്ട	-10.7491
▁അസാദ്ധ്യ	-10.7492
▁ഉമ്മറത്തു	-10.7493
ഭംഗ	-10.7494
മാക്കുന്നു	-10.7495
▁ആധുനികത	-10.7498
▁കാരണങ്ങൾ	-10.7499
പ്രശ്നങ്ങൾ	-10.7501
ടർന്ന	-10.7503
▁g	-10.7504
▁തിന്നു	-10.7505
െങ്ങനെ	-10.7507
ുണ്ടാവുക	-10.7507
▁കമ്യൂണിസ്റ്റ	-10.7514
▁അടക്ക	-10.7514
യുണ്ടെന്നു്	-10.7516
ക്കാരിൽ	-10.7516
സമ്പ്രദായം	-10.7517
▁ധർമ്മം	-10.7517
▁ശങ്കരാചാര്യ	-10.7517
ഴിഞ്ഞു	-10.7518
▁വെട്ട	-10.7521
ce	-10.7523
▁ഗവേഷണം	-10.7523
▁ഡാ	-10.7523
▁തിരിച്ചെത്ത	-10.7532
▁ചരിത്രകാര	-10.7535
▁യുവാവ	-10.7538
▁കീഴ	-10.7538
ടിച്ചു്	-10.7539
▁പ്രചാരത്തില	-10.7539
▁കൊടുങ്കാറ്റ	-10.7541
▁നട്ട	-10.7542
▁കഥാകൃത്ത	-10.7543
▁നാണയ	-10.7543
▁മാത്ത	-10.7543
▁അഭിഭാഷക	-10.7545
▁തങ്ങൾക്കു	-10.7546
▁അതിക്രമ	-10.7549
▁ബംഗ്ലാ	-10.7553
▁രാമകൃഷ്ണ	-10.7554
േദ	-10.7555
▁അച്ചടിക്ക	-10.7556
▁എവിടെനിന്ന	-10.7556
ിറക്കി	-10.7561
▁ലെനിന	-10.7562
കലയുടെ	-10.7562
▁ചെയ്തില്ല	-10.7562
▁റിപ്പോർട്ടു	-10.7563
▁വെളുപ്പ	-10.7565
▁നേട്ട	-10.7566
ുവാനോ	-10.7567
സാന്നിധ്യ	-10.7568
വൈദഗ്ദ്ധ്യ	-10.7568
▁ഉല്പത്തി	-10.7569
▁രാക്ഷസ	-10.7569
▁നിർഭാഗ്യ	-10.7569
▁ബാലാമണിയമ്മ	-10.757
▁1930	-10.757
▁1936	-10.757
▁1955	-10.757
▁1971	-10.757
▁1972	-10.757
▁1997	-10.757
▁2011	-10.757
▁ഞായറാഴ്ച	-10.757
▁ദൗത്യ	-10.757
▁പത്തനംതിട്ട	-10.757
▁പ്രതിപാദിച്ച	-10.757
▁മുസ്ല്യാര	-10.757
▁ഹരിശ്ചന്ദ്ര	-10.757
▁ഉത്സവ	-10.757
▁നൈരാശ്യ	-10.757
▁കൈകോർത്തു	-10.757
▁സിറ്റിംഗ്	-10.757
▁നാലുപാടും	-10.757
▁എല്ലായിടത്തും	-10.757
▁അച്യുതമേനോൻ	-10.757
▁1945	-10.757
▁1940	-10.757
▁വേഗത്തിൽ	-10.757
▁മൂർച്ച	-10.7571
▁ഇടത്തരക്കാര	-10.7571
▁not	-10.7571
▁ലൈറ്റ	-10.7571
▁ശര	-10.7572
▁വിളിച്ചുപറയുന്ന	-10.7573
▁മാറിമാറി	-10.7576
▁വാല്യ	-10.7576
▁എട്ടാം	-10.7577
ാണത്രെ	-10.7578
▁ചെന്നൈ	-10.7581
ക്രിയ	-10.7581
▁കാതൽ	-10.7582
ന്യാസ	-10.7582
▁പരമാണു	-10.7583
▁ആന്തരിക	-10.7586
▁നൂറ്റാണ്ടിൽ	-10.7588
▁മറുവശത്തു്	-10.7589
▁പാതി	-10.759
▁ധൃതിയിൽ	-10.7591
▁ഹൈ	-10.7592
▁ചേർത്തല	-10.7592
ക്കുണ്ടായിരുന്ന	-10.7597
ന്മാരുടെയും	-10.7599
യൊ	-10.7601
റിലെ	-10.7602
▁അമ്പ	-10.7602
▁തയാറ	-10.7602
കാര്യങ്ങളിൽ	-10.7603
▁തീർത്ത	-10.7603
▁ലക്ഷ്യമാക്കി	-10.7604
ഗ്ഗ	-10.7604
▁പുലർത്തി	-10.7605
കൽപ	-10.7605
▁ഇങ്ങനെയൊക്കെ	-10.7607
▁ന്യൂസ്	-10.7608
▁ഹോട്ടല	-10.761
▁രണ്ടാമതു്	-10.761
▁ക്ഷണിച്ചു	-10.7611
ങ്ങളോടുകൂടി	-10.7612
▁സദസ്സ	-10.7613
▁ആകർഷിച്ചു	-10.7614
ാവില്ല	-10.7614
▁ജോർജ	-10.7619
ാർക്കും	-10.7619
▁പാരീസ	-10.7619
▁ബ്രാഹ്മണന	-10.762
▁കയ്പ	-10.7622
▁ദശ	-10.7622
രൂപങ്ങൾ	-10.7624
▁ഗ്രൂപ്പിന്റെ	-10.7625
▁അയാളോടു്	-10.7628
ക്കൊണ്ടാണു്	-10.7629
▁വിമത	-10.7629
▁നീയ	-10.7631
രുതേ	-10.7632
▁കാലാവസ്ഥ	-10.7633
▁കുറച്ചുകൂടി	-10.7635
▁അദ്ഭുത	-10.7635
▁ചന്ദ്രൻ	-10.7635
▁ഒത്തു	-10.7636
ാലോചന	-10.7636
▁ഗ്ലാസ്	-10.7636
▁പ്രഖ്യാപനം	-10.7638
ക്ഷൻ	-10.7639
▁വിളിക്കുന്നതു്	-10.7644
▁പരമമായ	-10.7646
▁പശ്ചാത്തലത്തിൽ	-10.7648
▁മരണാനന്തരം	-10.7649
ക്രമം	-10.7649
▁വിശകലനം	-10.7649
▁വേർതിരിച്ചു	-10.7652
▁കിടന്നു്	-10.7654
രുതെന്നു	-10.7656
ഹരി	-10.7657
ാവുകയും	-10.7657
▁പണ്ഡിതന്മാരുടെ	-10.7659
ായിരിക്കുമോ	-10.7661
▁തൊഴിലാളിവർഗ്ഗ	-10.7664
▁കൊടുങ്ങല്ലൂര	-10.7665
▁രണ്ടാമത്തേതു്	-10.7669
▁പറയുന്നതുപോലെ	-10.767
▁പരിഷ	-10.7672
▁അന്നുതന്നെ	-10.7673
▁സാമാന്യം	-10.7673
▁എഴുതിവെച്ച	-10.7673
▁സാധിച്ചില്ല	-10.7679
▁ടു	-10.7679
▁സഹജമായ	-10.7681
▁കർത്താവു്	-10.7684
▁ജീവിതവും	-10.7684
▁ഘടകങ്ങള	-10.7684
പ്പേർ	-10.7686
പൂർ	-10.7686
ക്കൊണ്ടിരുന്ന	-10.7687
▁നേട്ടം	-10.7687
വയും	-10.7687
വത്രെ	-10.769
▁നിൽക്കാൻ	-10.7691
▁മുമ്പുള്ള	-10.7696
വിചാരം	-10.7696
ill	-10.7698
▁മെച്ചപ്പെട്ട	-10.7698
▁ആളുകൾക്കു്	-10.7701
▁സംസാരം	-10.7702
▁കേന്ദ്രത്തിൽ	-10.7703
▁തെറ്റിദ്ധരിച്ച	-10.7708
തന്ത്രം	-10.7711
ീവ	-10.7712
ച്ചിരുന്ന	-10.7714
▁രചനകൾ	-10.7714
▁വസന്ത	-10.7715
ചേതന	-10.7718
പ്പുകൾ	-10.7719
▁ഇരുപത	-10.7721
▁നിത്യവും	-10.7724
▁ചെയ്തപ്പോൾ	-10.7725
▁തിരക്കു	-10.7725
▁യുക്ത	-10.7727
▁സൗ	-10.7728
▁കൊല്ലത്തെ	-10.7728
▁അറിയാൻ	-10.7729
ാദ്ധ്യ	-10.773
▁കെട്ടിപ്പടുക്ക	-10.773
▁സ്പ	-10.7732
ിൽനിന്ന	-10.7734
▁കോളജിൽ	-10.7737
▁സീതയെ	-10.7738
▁സമ്പാദിച്ച	-10.7739
നോക്കുമ്പോൾ	-10.7739
മില്ലേ	-10.774
▁മുടക്ക	-10.7741
▁എന്താണെന്നു്	-10.7743
▁നരച്ച	-10.7743
▁ഗ്രീക്കു	-10.7746
▁പോകാതെ	-10.7753
▁തൊഴിലാളിയുടെ	-10.7753
▁വ്യാപ	-10.7753
▁വിവക്ഷ	-10.7758
▁കാർഡ	-10.7759
ച്ചിരി	-10.776
▁വരുന്നതു	-10.7762
▁സിനിമകൾ	-10.7764
▁e	-10.7768
▁ഭാവനാ	-10.7768
▁ജനിപ്പിക്ക	-10.777
▁എതിർപ്പ	-10.7771
▁അടുത്തു്	-10.7772
▁ഒന്നായ	-10.7774
▁ശാസന	-10.7775
▁പൊക്കി	-10.7776
▁സമുദായത്തിൽ	-10.7778
ണമെന്നുള്ള	-10.778
▁ശേഷ	-10.7782
വരെയുള്ള	-10.7783
പൂർണ്ണ	-10.7783
ാനുഭവങ്ങൾ	-10.7783
വർണ്ണന	-10.7785
▁പെണ്ണു	-10.7785
▁രസിക	-10.7785
ട്ടാണു്	-10.7786
▁അറിയില്ല	-10.7788
▁ആണു	-10.7791
▁കമ്യൂണിസ്റ്റുകാ	-10.7796
▁യുമായി	-10.7796
ുവെന്നാണു്	-10.7796
▁സ്ത്രീപുരുഷ	-10.78
▁നാടകത്തിന്റെ	-10.7801
▁തുടങ്ങിയാൽ	-10.7801
ച്ചെന്ന	-10.7804
▁പാൽ	-10.7809
▁ഉണ്ടാകും	-10.781
▁സമ്മതം	-10.781
▁നിസ്സഹായ	-10.7811
▁അതിനടുത്ത	-10.7814
▁മന്ത്രിയാക്ക	-10.7815
▁ചെയ്യുന്നതു	-10.7816
ബലം	-10.7817
കത്തു	-10.7817
▁കടന്നുവര	-10.7819
ത്തിൽനിന്നാണു്	-10.7819
▁ക്രിസ്ത്യാനികള	-10.782
▁തുര	-10.7822
ിക്കുവാനും	-10.7822
തലത്തിൽ	-10.7823
നോടൊപ്പം	-10.7826
▁രക്ഷപ്പെട്ടു	-10.7826
▁കഥാപാത്രങ്ങള	-10.7826
▁ദ്രോഹ	-10.7827
▁ക്ഷേത്രങ്ങൾ	-10.7828
▁രാജ്യസഭാ	-10.7832
മുള്ളതു്	-10.7834
▁വയസ്സു്	-10.7838
▁കളവു	-10.784
▁മറ്റുള്ളവർക്കു	-10.784
▁പ്രയോജനം	-10.7841
▁ആകാശം	-10.7842
▁നീളം	-10.7844
▁സങ്കല്പം	-10.7846
▁രാജാവായ	-10.7848
▁നാലും	-10.7849
ദുഃഖ	-10.785
നാകുന്നു	-10.785
ൊഴിച്ചു്	-10.7852
▁വടക്ക	-10.7852
▁ചെയ്തിട്ടില്ല	-10.7852
▁പത്രപ്രവർത്തക	-10.7853
പ്രതിഷ്ഠ	-10.7853
പ്രാപ്തി	-10.7854
സൈന്യ	-10.7854
▁ഉത്തരവ	-10.7854
മത്സര	-10.7855
സംഖ്യ	-10.7856
▁കൊടുത്തതു്	-10.7856
▁പലത	-10.7857
▁പാശ്ചാത്യകല	-10.7858
▁സാഹചര്യം	-10.7859
▁വായിൽ	-10.7859
പുരുഷൻ	-10.7862
▁ഇക്കാര്യ	-10.7862
▁പ്രസിഡന്റു	-10.7862
▁മറച്ചു	-10.7863
▁സ്റ്റേഷന	-10.7864
▁നടപ്പില	-10.7865
▁നന്ന	-10.7866
ക്കുറിച്ചു്	-10.7866
വരുണ്ടു്	-10.7868
▁വിശപ്പു	-10.7869
ല്ലാം	-10.787
▁മാംസ	-10.787
▁ഹൗസ	-10.7878
കാത്ത	-10.7878
▁ഹോസ്റ്റലിൽ	-10.7884
▁പ്രാബല്യ	-10.7886
▁അധ്യായ	-10.7887
▁മദ്രാസ	-10.7888
▁ദേവത	-10.7889
▁ഫിലി	-10.789
▁അനന്തമായ	-10.789
ദ്ദേഹം	-10.7893
▁കാര്യമല്ല	-10.7895
തത്വ	-10.7896
വരേയും	-10.7896
▁കീ	-10.7896
▁ശവം	-10.7897
▁ചെയ്യുകയും	-10.7899
▁വിറ്റ	-10.7899
നാണെന്നു്	-10.79
▁പള്ള	-10.7901
ൊഴികെ	-10.7905
ക്കട്ടെ	-10.7909
ഗു	-10.7909
▁വേണ്ടേ	-10.7912
art	-10.7913
നിറഞ്ഞ	-10.7917
▁തുടക്ക	-10.7918
പ്പോകുന്നു	-10.7919
▁വളർത്തി	-10.7919
▁സേന	-10.7919
ിവിടെ	-10.7921
ന്റേതു	-10.7926
ത്തേയ്ക്കു	-10.7926
▁അങ്ങനെയുള്ള	-10.7927
സാറ	-10.7927
▁കെട്ടിടം	-10.7928
▁അന്നുമുതൽ	-10.7928
▁വേണ്ടില്ല	-10.7928
ൂണ	-10.7935
▁നെയും	-10.7939
▁തത്വചിന്ത	-10.7939
▁36	-10.7939
ിലുമുണ്ടു്	-10.7941
▁അതെങ്ങനെ	-10.7941
▁കൂട്ടിക്കൊണ്ടു	-10.7941
യത്	-10.7946
െക്കുറിച്ചു്	-10.7952
▁മറന്നു്	-10.7952
▁ടാ	-10.7956
ir	-10.7957
▁ഗൗഡ	-10.7958
ഭ്രമം	-10.7958
▁അഗാധമായ	-10.7959
ടച്ചു	-10.7959
▁നിലയില	-10.7963
വളെ	-10.7963
▁ഉപദേശിച്ചു	-10.7965
▁മരം	-10.7967
▁തയ്യാറായ	-10.7968
▁രാധാകൃഷ്ണ	-10.797
▁പൊതുവായ	-10.7972
ുകാരൻ	-10.7974
സാഹ	-10.7975
▁ബാല്യ	-10.7978
▁ധൃതി	-10.7983
ികമായ	-10.7984
കൃതികളിൽ	-10.7985
▁സാംഖ്യ	-10.7986
▁ഒരാഴ്ച	-10.7987
ഗ്രന്ഥങ്ങൾ	-10.7987
മുട്ടി	-10.7987
▁അതത്ര	-10.7987
▁നശിപ്പിച്ച	-10.7991
▁ക്ഷയ	-10.7993
വിഹാര	-10.7994
ാബ്	-10.7996
▁കഴിയുമെന്ന	-10.7997
▁കവിതകള	-10.8
മുഹൂർത്ത	-10.8002
▁ജപ്പാൻ	-10.8004
▁വരവ	-10.8004
▁1946	-10.8004
▁അധഃകൃത	-10.8004
▁അന്തർഭവിച്ച	-10.8004
▁ഉത്പാദന	-10.8004
▁എഴുത്തച്ഛൻ	-10.8004
▁കരുണാനിധി	-10.8004
▁ചാതുർവർണ്യ	-10.8004
▁ചുവട്ടിൽ	-10.8004
▁നീതീകരിക്ക	-10.8004
▁പരിഷ്കരിക്ക	-10.8004
▁ബ്രിട്ടീഷുകാർ	-10.8004
▁മിസ്സിസ്	-10.8004
▁അത്യന്താപേക്ഷിത	-10.8004
▁കുമ്പസാര	-10.8004
▁തിങ്കളാഴ്ച	-10.8004
▁ദലിത്	-10.8004
▁പ്രോത്സാഹിപ്പി	-10.8004
▁വെള്ളപ്പൊക്ക	-10.8004
▁സർവ്വോപരി	-10.8004
▁ഉടനടി	-10.8004
▁കൃതജ്ഞത	-10.8004
▁പേപ്പർ	-10.8004
▁ബീഡി	-10.8004
▁ലീഗുകാർ	-10.8004
യുടനെ	-10.8004
▁മുഷിഞ്ഞ	-10.8004
▁വക്താവ	-10.8005
▁സംതൃപ്ത	-10.8005
▁ഓഹോ	-10.8005
▁അഭിമുഖീകരിക്ക	-10.8005
▁കൂട്ടായ്മ	-10.8005
▁മാലിക്ക്	-10.8005
▁മിഥ്യാബോധ	-10.8005
▁ആകുമ്പോഴേക്കും	-10.8005
▁തോല്പിക്ക	-10.8005
▁ഭഗവാൻ	-10.8005
▁പരിപാലിക്ക	-10.8005
▁അവതരിച്ച	-10.8005
▁മഹാത്മാവ	-10.8005
▁കുട്ടപ്പൻ	-10.8005
▁നനഞ്ഞ	-10.8005
▁മറ്റേതെങ്കിലും	-10.8006
▁പകർപ്പ	-10.8006
▁വിലയേറിയ	-10.8006
▁കലാസ്വാദന	-10.8006
മീമാംസ	-10.8006
▁വീട്ടുകാർ	-10.8006
▁സംഹാര	-10.8006
▁ഭേദഗതി	-10.8006
▁അശ്രു	-10.8006
▁നടപ്പിൽ	-10.8006
▁പണ്ഡിതന	-10.8007
▁ബന്ധുക്കള	-10.8008
▁മെത്രാന	-10.8008
▁ഒരേയൊരു	-10.8009
▁സ്വർഗ	-10.8009
▁നടപ്പായ	-10.8009
▁തായാട്ടു്	-10.801
▁ആരൊക്കെ	-10.801
▁ഗ്രന്ഥശാല	-10.801
▁നിഷാദ	-10.8011
▁ഉണ്ടാകുന്നതല്ല	-10.8012
▁പ്രതിഫലന	-10.8012
▁മാർച്ചിൽ	-10.8012
▁കാരൂരിന്റെ	-10.8012
▁അമര	-10.8012
▁മനോധർമ്മ	-10.8013
▁ഇരുവരും	-10.8013
▁അച്യുതാനന്ദന	-10.8014
▁പറ്റുമോ	-10.8014
▁അഭി	-10.8016
▁റാണി	-10.8016
▁പലതവണ	-10.8017
ഭാണ്ഡ	-10.8017
▁മേരി	-10.8018
▁വഴിപാട	-10.8019
▁പിന്താങ്ങി	-10.8019
▁നിലവിലുണ്ട	-10.8019
▁ഭാഗത്തു	-10.802
പൂജ	-10.8025
ചേഷ്ട	-10.8025
▁നേരു	-10.8026
ടുന്ന	-10.8027
ചലന	-10.8027
േക	-10.8027
▁വിശ്വസിക്കാം	-10.8029
▁വായിക്കുമ്പോൾ	-10.8029
▁യഥാ	-10.8031
▁വിസ്തരിച്ചു	-10.8031
ry	-10.8032
▁സമൂഹത്തിലെ	-10.8032
▁ആയാളുടെ	-10.8033
▁പുറപ്പെടുവിച്ചു	-10.8035
▁അനാവശ്യ	-10.8036
▁ക്ഷണിക	-10.8036
▁സോവിയറ്റു	-10.8036
▁അപ്രസക്ത	-10.8037
▁പറഞ്ഞുകൂടാ	-10.8037
▁കേരളോല്പത്തിയിൽ	-10.8037
▁തീരൂ	-10.8039
ണ്ടായിട്ടുള്ള	-10.8039
▁ലഘുവായ	-10.804
▁എന്നുമാത്രമല്ല	-10.8041
▁സംസാരിക്കാൻ	-10.8042
▁രണ്ടിലും	-10.8043
▁സമ്പത്തു്	-10.8043
▁വഴങ്ങി	-10.8045
▁പോലീസും	-10.8045
▁കഷണ	-10.8045
▁പ്രതീതി	-10.8048
▁വെടിഞ്ഞ	-10.8052
▁മാധ്യമങ്ങളും	-10.8053
▁പരിചയമുള്ള	-10.8053
▁സഭയിൽ	-10.8057
സംബന്ധിയായ	-10.8057
▁സഹിക്കാൻ	-10.8058
▁ലൈബ്രറി	-10.8058
വെള്ളം	-10.8059
▁ഈശ്വരാ	-10.8059
മാരായ	-10.8061
ങ്ങളേ	-10.8061
▁മധുരകവി	-10.8062
ിഴ	-10.8062
▁ഹിംസാ	-10.8063
മുണ്ടായതു്	-10.8063
▁ചെയ്യേണ്ടതു്	-10.8063
▁തലയ്ക്കു	-10.8063
ഭാവത്തിൽ	-10.8064
▁എന്നിവരുടെ	-10.8066
la	-10.8066
▁സാദ്ധ്യത	-10.8067
▁ചേരി	-10.8068
▁വേരു	-10.8074
സുര	-10.8074
കേട്ടു	-10.8076
ശേഷവും	-10.8077
▁മീശ	-10.8077
▁കർത്താവായ	-10.8078
▁സാന്നിദ്ധ്യം	-10.8079
▁നടക്കുകയാണു്	-10.808
▁കവിതയിലും	-10.8081
റുപ്പിക	-10.8082
▁നെല്ല	-10.8084
▁ഉപകരിക്കുന്ന	-10.8087
▁യുവജന	-10.8087
▁നേതാവും	-10.8088
▁കലയെ	-10.8088
▁ബാവ	-10.8093
ഭരിത	-10.8094
▁നൽകാൻ	-10.8096
ക്കയറി	-10.8097
ൊടി	-10.8098
ില്ലായിരുന്നു	-10.81
▁പരിമിത	-10.8101
▁ഇദംപ്രഥമമായി	-10.8103
▁വയ്യാ	-10.8104
▁ബിംബ	-10.8104
▁എഫ	-10.8107
▁എഴുതാൻ	-10.811
▁മുസ്ലീംലീഗ്	-10.8113
▁മുമ്പാണു്	-10.8114
▁സാധിക്കുന്ന	-10.8118
▁ചിരിച്ച	-10.8118
▁ആക്കി	-10.8119
▁പ്രവേശനം	-10.8119
▁അപൂർവ്വമായി	-10.812
▁ആടി	-10.8121
ാകുന്നതു്	-10.8124
▁മേലെ	-10.8125
▁വിചാരിക്കേണ്ട	-10.8127
▁മനുഷ്യസ്നേഹ	-10.8127
▁അംഗീകാരം	-10.8128
▁ആശയവാദ	-10.8129
▁ശിഷ്യന്മാർ	-10.813
▁പുരോഹിതന്മാർ	-10.8134
ക്കളി	-10.8134
▁പ്രപഞ്ചത്തിന്റെ	-10.8136
▁പൂത	-10.8136
▁കർത്താവ	-10.8136
വ്വ	-10.8137
▁ഒരിടത്തും	-10.8139
▁തുടങ്ങുന്നു	-10.8143
ോളാം	-10.8144
വനുമായ	-10.815
▁ജയിച്ചതു്	-10.815
▁സാധിക്കും	-10.8152
ശാസന	-10.8152
▁പന	-10.8152
▁കഴിയുക	-10.8153
യാവാം	-10.8154
▁ആർഷ	-10.8154
▁ഇതിൽനിന്നു്	-10.8157
തെന്തും	-10.8157
▁കൊത്തിയ	-10.8158
▁എന്നിവയിൽ	-10.816
▁കളഞ്ഞു	-10.8162
ഭട	-10.8163
ത്തിന്റെയോ	-10.8163
ശക്തിയും	-10.8164
ക്കുണ്ടായ	-10.8167
വണ്ണം	-10.8168
▁പേരില	-10.8169
▁വച്ചു്	-10.8172
ുവിന്റെ	-10.8172
▁പെണ്ണു്	-10.8172
▁വില്ക്ക	-10.8173
കളിൽനിന്നും	-10.8173
▁എങ്ങനെയോ	-10.8178
▁no	-10.8181
▁സംശയിച്ചു	-10.8184
മുണ്ടാക്കിയ	-10.8185
▁പട്ടം	-10.8185
▁അറസ്റ്റ്	-10.8186
▁നൽകിയതു്	-10.8187
▁തളർന്നു	-10.8188
▁ജനസമുദായ	-10.8191
▁എടുക്കുക	-10.8192
▁കാരുണ്യ	-10.8193
കാരനു	-10.8193
വീഴുന്ന	-10.8196
പുരുഷ	-10.8197
▁56	-10.8203
ിനെപ്പോലെ	-10.8206
വെങ്കിലും	-10.8208
ക്ഷേത്രം	-10.8212
▁അയാളും	-10.8214
▁കാണുകയും	-10.8214
▁മുന്നണിയിൽ	-10.8218
▁ആവേശം	-10.8218
▁പ്രസിഡന്റ	-10.8221
▁കല്പിക്കുന്ന	-10.8222
ക്കെട്ടു	-10.8223
െന്നല്ല	-10.8224
▁അവൾക്ക	-10.8226
യില്ലല്ലോ	-10.8226
▁ഹൈക്കോടതിയിൽ	-10.8226
▁സത്യമാണു്	-10.8229
▁അത്ഭുതപ്പെട്ടു	-10.823
▁പുല്ല	-10.8231
▁ബിൽ	-10.8231
▁പിന്തുടർന്നു	-10.8232
തിലെ	-10.8232
▁സഹോദരന	-10.8233
▁വിഴുങ്ങ	-10.8234
▁പൊലീസ	-10.8235
▁വിളിച്ചു്	-10.8235
▁തോക്ക	-10.8235
▁34	-10.8236
സംരക്ഷണ	-10.8238
കൊണ്ടായിരിക്കാം	-10.8239
▁വിവേചന	-10.824
▁തൃപ്തിപ്പെടുത്ത	-10.8241
▁ഐക്യജനാധിപത്യ	-10.8241
▁വീക്ഷണം	-10.8242
▁മട്ടില	-10.8243
ങ്ങൾക്കിടയിൽ	-10.8245
▁ചെറുകഥകൾ	-10.8246
ജനാധിപത്യമുന്നണി	-10.8249
▁മാപ്പു	-10.8249
▁വിഷയങ്ങൾ	-10.8252
മാക്കുക	-10.8254
യാകാൻ	-10.8256
▁അസാധാരണമായ	-10.8259
▁മർമ്മ	-10.8262
കൂടേ	-10.8264
ദത്ത	-10.8274
▁കരു	-10.8278
സ്സ്	-10.828
▁താങ്ങ	-10.8281
▁ആശുപത്രിയിൽ	-10.8281
▁പരമ്പരാഗത	-10.8283
om	-10.8284
▁അഭിമാനം	-10.8287
▁പണിയിച്ച	-10.8288
▁അത്യു	-10.8289
▁ചിലതു	-10.8293
▁വസ്തുവ	-10.8293
▁അറബികൾ	-10.8298
ചാരി	-10.8301
ിലുണ്ടു്	-10.8303
▁കാരണവും	-10.8304
വുമില്ലാത്ത	-10.8305
▁കാട്ടു	-10.8305
പരീക്ഷ	-10.8307
▁വാൽ	-10.8307
▁സംസ്കൃതത്തിൽ	-10.8308
തരത്തിൽ	-10.8308
റപ്പിച്ച	-10.8308
▁ഭാവവും	-10.8311
▁മാതൃ	-10.8311
പ്പെടാതെ	-10.8312
മഹിമ	-10.8312
▁ചുറ്റ	-10.8313
▁ഉത	-10.8313
▁തുള്ളി	-10.8313
ലക്ഷം	-10.8314
ക്കെതിരായ	-10.8316
▁സഞ്ചരിച്ച	-10.8317
▁പദാർത്ഥ	-10.8317
lo	-10.8317
വിശ	-10.8318
▁നടപടികൾ	-10.832
പ്രവൃത്തി	-10.8322
▁വെടിയ	-10.8323
▁ആരാധിക്ക	-10.8323
▁ഉള്ളില	-10.8323
▁ഒരാൾക്കു	-10.8325
പതിറ്റാണ്ട	-10.8325
▁പെരുമാറിയ	-10.8326
▁ഇടത്തെ	-10.8329
▁ഹാസ	-10.8332
▁തലസ്ഥാന	-10.8333
▁മുക്കി	-10.8334
▁സഞ്ചരിച്ചു	-10.8335
▁പോകേണ്ട	-10.8336
▁നില്ക്കുന്നു	-10.8336
▁ഭൂകമ്പ	-10.834
െണ്ണം	-10.8341
മധുരമായ	-10.8343
▁സ്വാഗത	-10.8343
▁കൈവിട്ടു	-10.8347
വരികയാണു്	-10.8347
ല്ല്യ	-10.8348
താവാം	-10.8348
▁പോകുന്നില്ല	-10.8349
ിനുള്ളിൽ	-10.8352
കളല്ല	-10.8354
▁കോണ	-10.8354
▁ചിന്തകന്മാർ	-10.8355
രാക്കി	-10.8356
▁ആർക്കു	-10.836
ോർട്ട	-10.8363
െപ്പോലെയുള്ള	-10.8363
▁അൽപ	-10.8363
▁ചിറ	-10.8364
ത്വത്തിനു	-10.8366
▁സഭാ	-10.8366
▁ഏർപ്പെട്ട	-10.8366
▁അങ്ങനെതന്നെ	-10.8368
▁മദ്ധ്യ	-10.837
▁ഇന്ദ്ര	-10.837
▁പരന്നു	-10.837
▁പുസ്തകവും	-10.8371
രോടും	-10.8372
▁ചില്ല	-10.8373
▁നഷ്ടമായി	-10.8376
▁ആന്റണിയുടെ	-10.8376
പ്രകാരമുള്ള	-10.8379
വരി	-10.838
▁അതിലേക്കു	-10.8381
▁സഖാക്കള	-10.8388
തത്രേ	-10.839
യില്ലെങ്കിൽ	-10.8395
മാകട്ടെ	-10.84
▁ജർമ്മനി	-10.8401
ോളു	-10.8403
േഴ്സ	-10.8404
▁പ്രവേശന	-10.8407
ീകരണം	-10.841
▁അധികാരികൾ	-10.8411
▁ചേർത്തു്	-10.8411
▁പതിവില്ല	-10.8412
▁കുറയ്ക്ക	-10.8412
▁ഷർട്ട	-10.8413
ാനിടയില്ല	-10.8413
▁അബ്ദുല്ല	-10.8415
ിനോടുള്ള	-10.8418
▁വേർതിരിക്ക	-10.8419
ുപയോഗിച്ചു	-10.8419
▁പ്രഭാഷണ	-10.8421
ാത്തതും	-10.8421
▁വൈരുദ്ധ്യം	-10.8422
ോളൂ	-10.8422
▁വിശ്വനാഥ	-10.8426
▁മനോരോഗ	-10.8426
▁പ്രതിഫലിച്ച	-10.8428
▁മൂഷികവംശ	-10.8428
▁കുഞ്ഞുണ്ണി	-10.8432
▁ഇതൊന്നു	-10.8434
ൊക്ക	-10.8434
▁അകന്നു	-10.8435
▁ചുണ്ടു	-10.8437
▁ആറു്	-10.8438
▁മരണത്തെ	-10.8445
▁ഭാസ്കരരവി	-10.845
▁സപ്ത	-10.8456
▁ബഷീറ	-10.8456
▁അന്തിമ	-10.8457
കണ്ഠ	-10.8457
വൈപരീത്യ	-10.8458
▁ഏല	-10.8459
▁സുപ്രീം	-10.8459
▁മീനാക്ഷി	-10.8459
▁കേരളകൗമുദി	-10.8459
▁ജിജ്ഞാസ	-10.8459
▁മബൂസെ	-10.8459
▁വിംസീ	-10.8459
▁സത്യപ്രതിജ്ഞ	-10.8459
▁സൊസൈറ്റി	-10.8459
▁സ്പീക്കർ	-10.8459
▁അധിനിവേശ	-10.8459
▁അശ്ലീല	-10.8459
▁ഉൽപാദന	-10.8459
▁ഏഴിമല	-10.8459
▁കുമാരനാശാന	-10.8459
▁ഗസറ്റിയർ	-10.8459
▁ദൗർബല്യ	-10.8459
▁പാക്കിസ്ഥാന	-10.8459
▁മുസ്ല്യാർ	-10.8459
▁വെന്റേഴ്സ്	-10.8459
▁വെറുതേ	-10.8459
▁വേലായുധൻ	-10.8459
▁വ്യതിയാന	-10.8459
▁സുധാകരൻ	-10.8459
▁സെപ്തംബർ	-10.8459
▁ഇംപ്രഷണിസ്റ്റ്	-10.8459
▁ഒരുദാഹരണം	-10.8459
▁മുഹമ്മദ്കോയ	-10.8459
▁ഐശ്വര്യ	-10.8459
▁കടവൂർ	-10.8459
▁ഭാഗത്ത	-10.8459
▁പൊരുതി	-10.8459
▁സൗഹാർദ്ദ	-10.8459
▁നിർഭാഗ്യവശാൽ	-10.8459
▁തപാൽ	-10.8459
▁പോരാട്ടം	-10.8459
▁1975	-10.8459
▁1976	-10.8459
▁സുകുമാരൻ	-10.846
▁പിറ്റെ	-10.846
വേഗം	-10.846
ോദ്ദേശ്യ	-10.846
▁പാസ്സായ	-10.846
▁ആദിവാസി	-10.8461
▁കാരണങ്ങളാൽ	-10.8461
ism	-10.8461
▁മുഴങ്ങി	-10.8461
▁സമ്മതിക്കുന്നു	-10.8461
ുമ്പോലെ	-10.8462
▁ഇരുമ്പു	-10.8462
▁അനുമതി	-10.8462
▁കന്നി	-10.8463
▁ആനുകൂല്യങ്ങളുടെ	-10.8463
▁പ്രതിജ്ഞ	-10.8464
▁ശശി	-10.8466
▁ദാനം	-10.8467
▁പൂക്കള	-10.8467
▁കലാകാരന്മാര	-10.8467
▁കൂട്ടുകാർ	-10.8467
▁പറഞ്ഞുകൊള്ളട്ടെ	-10.8468
▁ഇന്ദ്രിയ	-10.8469
▁വേണ്ടിവന്നാൽ	-10.847
▁ഒരുത്തന	-10.847
▁താച്ചു	-10.8471
▁സമാന	-10.8471
മെത്ര	-10.8472
▁കുഞ്ഞാപ്പ	-10.8473
▁രക്ഷിക്കാൻ	-10.8473
▁വ്യത്യാസങ്ങള	-10.8473
▁ആക്ഷേപിക്ക	-10.8473
▁വെണ്ണ	-10.8474
▁പ്രയോഗങ്ങൾ	-10.8474
ങ്ങളിൽക്കൂടി	-10.8476
ിരിക്കുകയും	-10.8477
▁മഷി	-10.8478
▁വിശദമായി	-10.8478
സ്ഥലത്തു	-10.8479
▁ബ്രിട്ട	-10.8479
▁അഴീക്കോട്	-10.8479
▁ഇറക്കി	-10.8479
▁നടത്തുക	-10.848
▁ലോഹ	-10.8482
▁പ്രേരിപ്പിച്ച	-10.8482
▁തലക്കെട്ട	-10.8483
▁ബൈ	-10.8483
▁മംഗല	-10.8484
▁രാഷ്ട്രീയമായ	-10.8484
ാണാവോ	-10.8484
▁ഓർമ്മയിൽ	-10.8485
▁എന്നൊര	-10.8486
▁അരങ്ങ	-10.8487
▁സർക്കാറിനെ	-10.8487
▁പെരുകി	-10.8489
▁വരുമോ	-10.8489
▁മനഃപൂർവ്വം	-10.849
▁നിർണ്ണയിക്കുന്ന	-10.8491
▁പര്യാപ്ത	-10.8492
മെന്താണു്	-10.8495
▁നിഷേധിച്ച	-10.8496
▁താഴ്ത്തി	-10.8497
പോലൊരു	-10.8498
ങ്ങളിലൊന്നു്	-10.8498
പിന്ന	-10.85
▁വോട്ടെടുപ്പ	-10.85
▁പിടിക്കുന്ന	-10.85
▁വിശദീകരണം	-10.85
▁ചിട്ട	-10.8502
▁പോലീസിന്റെ	-10.8503
▁സാഹിത്യകാരന	-10.8503
പെരു	-10.8503
കളിലേക്കു	-10.8505
വന്നിരുന്നു	-10.8505
▁വെടിപ്പ	-10.8505
▁വെള്ളത്തിൽ	-10.8506
പ്പെടാത്ത	-10.8506
▁തങ്ക	-10.8508
▁അധ്യക്ഷൻ	-10.8508
യർന്നു	-10.8509
▁കൊണ്ടുവരാൻ	-10.8511
കളോടെ	-10.8516
▁വിശ്വസാഹിത്യ	-10.8516
▁ഘോഷയാത്ര	-10.8519
ിരിക്കുന്നതിനാൽ	-10.8519
▁ബേ	-10.8519
▁സ്ഥലങ്ങളിൽ	-10.852
▁ആപത്ത	-10.8522
മാനുഷ	-10.8522
മില്ലെങ്കിൽ	-10.8523
നന്ദ	-10.8524
▁ഉപാധി	-10.8526
▁കമ്മ	-10.8528
▁മാതൃഭൂമിയിൽ	-10.8528
▁ധാർമ്മിക	-10.8529
▁ഇസ്ലാംമതം	-10.8529
▁തീരും	-10.8529
▁മരിക്കാൻ	-10.8529
▁തെളിയിച്ച	-10.853
ാവസ്ഥയിൽ	-10.8531
▁പള്ളിയിൽ	-10.8533
നിയമം	-10.8534
▁വിശപ്പ	-10.8536
▁ധരിച്ചു	-10.8538
▁91	-10.854
▁കവിതകളിൽ	-10.854
▁നാട്ടിലേക്കു	-10.8543
▁തുടരുന്നു	-10.8543
▁ഇംഗ്ലണ്ടിൽ	-10.8543
▁രുദ്രാക്ഷം	-10.8544
▁മലയാളഭാഷ	-10.8549
▁77	-10.855
▁വാക്കിന്റെ	-10.8552
▁മലയാളത്തില	-10.8553
▁നോക്കിക്കാണ	-10.8554
▁നിരത്തി	-10.8555
▁അതോടുകൂടി	-10.8561
തായാലും	-10.8561
▁വേണ്ടിവന്ന	-10.8562
▁വാക്കിനു്	-10.8562
യാക്കുന്ന	-10.8565
▁രാജീവ്	-10.8567
▁ചൊടി	-10.8569
▁ഈജിപ്ത	-10.857
▁കേസ്സ	-10.857
▁മന്ത്രിസഭയെ	-10.8573
▁അവിവാഹിത	-10.8574
പ്പെട്ടിരുന്നു	-10.8575
▁ഈശ്വരനും	-10.8575
▁വിഷമമാണു്	-10.8576
▁കുത്തിയ	-10.8576
▁പദാർത്ഥം	-10.8579
▁അവനവനെ	-10.8582
▁മദ്രാസ്	-10.8583
▁പാർട്ടിയും	-10.8584
▁സ്ഥാനമില്ല	-10.8587
യർന്ന	-10.8591
യാർ	-10.8591
▁അട്ടിമറി	-10.8593
▁വിട്ടുകൊടുക്ക	-10.8595
ഭ്രമ	-10.86
യായിത്തീർന്നു	-10.8601
▁കേരളത്തിലും	-10.8606
▁മുണ്ടു	-10.8609
ുകയുണ്ടായില്ല	-10.861
▁മറ്റൊന്നും	-10.861
▁ഭൗതികവാദം	-10.861
▁കൃഷിക്കാര	-10.8611
▁കാണാനും	-10.8611
▁കൂടാ	-10.8614
▁തെക്കേ	-10.8616
ന്നതുപോലെ	-10.8616
▁വരുന്നില്ല	-10.8617
പ്പെട്ടില്ല	-10.8618
▁ചിത്രങ്ങളും	-10.862
▁മുഖഭാവ	-10.8622
▁വായനക്കാര	-10.8622
ുമെങ്കിലും	-10.8625
▁അറിയാമായിരുന്നു	-10.8625
▁96	-10.8625
▁ഇദ്ദേഹത്തിനു	-10.8625
▁പോവുക	-10.8627
▁ഒന്നിനും	-10.8628
▁പ്രസിഡന്റും	-10.8631
▁മുൻകാല	-10.8632
▁മറന്ന	-10.8636
പ്പിന്നെ	-10.8638
▁മാസത്തിൽ	-10.8638
▁തലച്ചോറ	-10.864
ുവെങ്കിലും	-10.864
▁ഉൾപ്പെട്ടിരുന്ന	-10.8642
േയ്	-10.8643
▁പ്രസവിച്ച	-10.8644
▁പുറത്തിറങ്ങി	-10.8644
▁സ്വാർത്ഥത	-10.8644
▁തെരഞ്ഞെടുപ്പിനു	-10.8647
▁ഒറ്റക്കു്	-10.8649
▁ചോറു	-10.8653
▁പടിഞ്ഞാറ	-10.8655
ിട്ടുപോലും	-10.8658
▁പ്രത്യക്ഷത്തിൽ	-10.866
▁പരിഭവ	-10.8662
ങ്ങളോടെ	-10.8663
▁കവർ	-10.8665
▁കവികളും	-10.8668
▁വെളിപ്പെടുത്തി	-10.8669
▁മലയാളിയുടെ	-10.8672
വിജയ	-10.8672
സ്വര	-10.8673
▁തീരുമാനിച്ച	-10.8675
മല്ലെന്നു	-10.8678
▁എടുക്കുന്ന	-10.868
▁ശാസ്ത്രത്തിന്റെ	-10.8682
▁കാട്ടിൽ	-10.8683
▁മലയ	-10.8685
▁ഡെ	-10.8687
▁ലാഭം	-10.8688
ാനുള്ളതു്	-10.8689
ുന്നതിനായി	-10.8689
▁അടിമകള	-10.8692
▁വർഗ്ഗം	-10.8692
ലം	-10.8692
▁വേണ	-10.8695
▁ഉര	-10.8698
▁വീട്ടു	-10.8698
ൊലി	-10.8699
ിരിക്കണമെന്നു	-10.8704
▁ജീവനക്കാര	-10.8704
▁ക്കാർ	-10.8705
▁പറഞ്ഞിരുന്നു	-10.8706
▁പ്രപഞ്ചത്തെ	-10.8714
▁താല്പര്യം	-10.8718
▁കമ്യൂണിസ	-10.872
▁കൈമാറ	-10.8725
ക്ഷേപ	-10.8725
▁വിട്ടുപോക	-10.8727
▁പെരുമ	-10.8729
കിട്ടി	-10.873
▁ആശ്വാസം	-10.8732
▁ആവിഷ്കരിക്ക	-10.8733
രണ്ടു	-10.8733
വയ്യ	-10.8734
▁സുരക്ഷിത	-10.8735
▁ബഹുമാനം	-10.8737
ിലേയും	-10.874
നഗരം	-10.8742
▁സഹായിച്ചു	-10.8746
ോർമ്മ	-10.8747
▁പറയാറുള്ള	-10.8747
▁ഭൂമിശാസ്ത്ര	-10.8747
േണ്ടതായ	-10.8749
സൗ	-10.875
▁രചനാ	-10.875
▁ഇദ്ദേഹ	-10.8754
▁46	-10.8755
▁ജന്മനാ	-10.8756
▁ആഗ്രഹിച്ച	-10.8759
ങ്കി	-10.8759
▁ഒന്നിന്റെ	-10.876
ശക്തികളുടെ	-10.8762
▁കുടുംബജീവിത	-10.8764
▁പുത്രന	-10.8764
▁സാദ്ധ്യ	-10.8764
ങ്ങളൊക്കെ	-10.8767
▁വിശ്വാസവും	-10.877
▁നൂറ്റാണ്ട	-10.8771
▁കടലാസ്സ	-10.8772
▁ശ്രദ്ധേയ	-10.8773
▁കിഴക്കു	-10.8774
▁വർഗ്ഗീയത	-10.8776
ിരുന്നാലും	-10.8778
വിഷയങ്ങളെപ്പറ്റി	-10.8781
▁ശമ്പള	-10.8786
ഗർഭ	-10.8787
പരിസര	-10.8787
▁പോരാട	-10.8788
നിമിഷം	-10.8789
▁വ്രണ	-10.8789
പരിധി	-10.879
കൊണ്ടുവന്നു	-10.8791
▁എഴുതുക	-10.8792
േയോ	-10.8794
▁ഷെ	-10.8795
വരല്ല	-10.8795
പ്പിടിച്ചു്	-10.8798
▁പേടിച്ച	-10.8799
▁ഉപകരിക്ക	-10.8799
▁പേടിച്ചു	-10.8801
▁സ്നേഹിതന്മാര	-10.8801
▁മുസ്ലീംലീഗ	-10.8801
▁കവിയെ	-10.8803
▁എനിയ്ക്കു	-10.8804
▁മാധ്യമങ്ങളുടെ	-10.8805
▁കുട്ടികൾക്കു	-10.8806
▁ഒന്നിൽ	-10.881
▁വചന	-10.8815
▁പങ്കെടുക്ക	-10.8815
▁പതിയ	-10.8816
▁അനുരാഗ	-10.8817
▁ബിഷപ്പ	-10.8817
▁അവ്യക്ത	-10.8818
മാക്കിത്തീർക്ക	-10.8819
▁ഗൃഹം	-10.8821
▁പറയുന്നതിൽ	-10.8821
തിർ	-10.8822
ച്ചേർന്നു	-10.8822
▁മിടുക്ക	-10.8822
▁പിറ്റേന്നു	-10.8829
▁എന്നൊന്നും	-10.883
▁കൂട്ടത്തില	-10.8833
ത്തിൽക്കൂടി	-10.8834
ിച്ചിട്ടുള്ള	-10.8839
ിടയ്ക്കു	-10.8841
േണ്ടതായി	-10.8842
▁സിംഹാസന	-10.8843
▁ഉണർത്ത	-10.8843
▁നിരീക്ഷണം	-10.8844
▁വശത്തു	-10.8847
തിൽനിന്നു	-10.8849
ിക്കാറുണ്ടു്	-10.8851
▁മക്കളെ	-10.8852
▁എന്നായി	-10.8854
▁സായ്പ	-10.8859
▁തുറന്നു്	-10.8862
▁മറ്റൊരാള	-10.8862
ിരുന്നെങ്കിലും	-10.8863
▁മൂലധന	-10.8867
ിട്ടില്ലേ	-10.887
▁ഭർത്താവിനെ	-10.887
▁നിനക്കു	-10.887
ശക്തിയെ	-10.8871
▁നീണ്ടുനിന്ന	-10.8877
കല്പ	-10.8879
▁ചിത്ത	-10.8881
▁നിലാവ	-10.8881
▁അറിയിച്ച	-10.8886
▁അന്നും	-10.8886
▁അതാണു	-10.8887
▁ബാലകൃഷ്ണ	-10.8892
▁ഒറ്റയ്ക്ക	-10.8896
െങ്കില	-10.8901
വേഗ	-10.8904
▁സംസാരിക്കുക	-10.8906
▁നോക്കിയിട്ട	-10.8907
ലോകത്തിലെ	-10.891
മുമ്പു	-10.8914
ഭോഗ	-10.8918
▁കബീറ	-10.8921
▁ചാർവാക	-10.8924
▁ഉറ്റ	-10.8927
▁നിയമസഭാംഗ	-10.8929
▁നൂറ്റാണ്ടുകൾ	-10.8929
ാതിരിക്കുന്ന	-10.8929
▁മംഗള	-10.8929
▁അർദ്ധ	-10.893
ടിസ്ഥാന	-10.8933
പരിശീലന	-10.8933
▁തദ	-10.8933
▁മുഷിപ്പ	-10.8933
നങ്ങൾ	-10.8934
▁ശുഭ	-10.8935
▁പ്ലേറ്റ	-10.8935
▁പ്രത്യാശ	-10.8935
▁മർത്ത്യ	-10.8935
വർദ്ധന	-10.8935
▁ബ്യൂറോ	-10.8935
▁വേവലാതി	-10.8935
▁1950	-10.8935
▁അത്തരമൊരു	-10.8935
▁ഉത്പാദിപ്പിക്ക	-10.8935
▁ഏൽപിക്ക	-10.8935
▁കുചേല	-10.8935
▁ഗൗനിക്ക	-10.8935
▁ടോളമി	-10.8935
▁നാഴിക	-10.8935
▁നാഷനൽ	-10.8935
▁പാർലമെന്റംഗ	-10.8935
▁വൈരാഗ്യ	-10.8935
▁സ്പീക്കറ	-10.8935
▁ആസ്വാദന	-10.8935
▁ഗരുഡ	-10.8935
▁അധീന	-10.8935
▁ശിപായി	-10.8935
▁അകൽച്ച	-10.8935
▁ഉറൂബ	-10.8935
▁കന്യാകുമാരി	-10.8935
▁കോമാളി	-10.8935
▁ബദൽ	-10.8935
▁കൂറ്റൻ	-10.8935
▁സൗമ്യ	-10.8935
▁മെല്ലെ	-10.8935
▁അത്യധികം	-10.8935
▁വികസിക്ക	-10.8935
▁ഇല്ലായ്മ	-10.8935
▁ജോസ്	-10.8935
▁വലുപ്പ	-10.8935
▁യഥാക്രമം	-10.8935
▁സംഘടിപ്പിക്ക	-10.8936
▁ദുരവസ്ഥ	-10.8936
▁ചുരുക്കിപ്പറഞ്ഞ	-10.8936
▁ന്യായീകരിക്ക	-10.8936
▁കേന്ദ്രീകരിക്ക	-10.8936
▁പൗരാവകാശ	-10.8936
▁സിറിയൻ	-10.8936
▁സ്റ്റേഷൻ	-10.8936
▁തിയോ	-10.8936
▁കുഞ്ഞൂസ	-10.8936
▁പഞ്ചസാര	-10.8936
ക്കുന്നില്ല	-10.8936
▁ഇന്ദിരാജി	-10.8937
▁അഡ്വ	-10.8937
▁പത്തൊമ്പതാം	-10.8937
തിമിര	-10.8938
▁ബുക്ക്	-10.8938
▁പൂക്കൾ	-10.8938
▁വായനശാല	-10.8939
▁വരമൊഴി	-10.8939
▁ജ്യോതിശ്ശാസ്ത്ര	-10.894
▁ടാഗോറിന്റെ	-10.894
▁ഫോൺ	-10.894
▁ഭൂരിഭാഗവും	-10.894
▁കൃത്യം	-10.8941
▁അതേപടി	-10.8941
▁പേജു	-10.8942
ിയതും	-10.8943
▁ഇത്തരമൊരു	-10.8943
▁താലൂക്കിലെ	-10.8944
▁നേരത്തു്	-10.8944
▁വിലപിടിച്ച	-10.8944
▁ചിന്തകൻ	-10.8944
▁വീട്ടിലേയ്ക്കു	-10.8946
▁ജീവിതവീക്ഷണ	-10.8946
▁വളർത്തിക്കൊണ്ടു	-10.8946
▁ഒമ്പതാം	-10.8947
▁ഭരതൻ	-10.8948
▁പേരിലുള്ള	-10.8948
റ്റു്	-10.8948
▁സസ്യ	-10.8949
ിപ്പിക്കുക	-10.8949
▁ഇത്രയൊക്കെ	-10.8949
▁സംയുക്ത	-10.895
▁പോലെയാണു്	-10.895
▁ചിത്രമെഴുത്തു	-10.895
▁എല്ലാത്തരം	-10.8951
▁മാരെ	-10.8952
▁രീതിയില	-10.8952
▁അകല	-10.8954
ക്കാണാം	-10.8954
▁അതിനോടു	-10.8954
▁വശം	-10.8956
▁ഉല്പാദന	-10.8957
▁വള്ളത്തോളിന്റെ	-10.8957
▁പതിറ്റാണ്ടു	-10.8958
▁പറയാനുണ്ടു്	-10.896
▁അഭിഷേക	-10.8961
▁മടിച്ചു	-10.8963
▁എന്നെങ്കിലും	-10.8966
▁കാളിദാസന്റെ	-10.8966
▁പാണ്ഡവ	-10.8966
▁തൽസ്ഥാനത്തു്	-10.8967
▁അവ്യക്തമായ	-10.8968
താല്പര്യ	-10.8969
▁വരട്ടെ	-10.8969
▁പൊന്ന	-10.897
ge	-10.8971
▁മൂപ്പർക്കു്	-10.8972
ചെന്നു്	-10.8973
▁ജനങ്ങള	-10.8974
▁താങ്ങി	-10.8975
▁ചിരിക്കുന്ന	-10.8975
▁തോന്നാം	-10.8975
▁പതിനൊന്നു	-10.8976
▁മഞ്ഞു	-10.8976
▁കുരങ്ങ	-10.8979
▁വന്നെത്തിയ	-10.898
▁ഉപായ	-10.898
▁രംഗത്തു	-10.8981
▁ചെലവു	-10.8982
▁ബുദ്ധനെ	-10.8982
▁എന്നതിലെ	-10.8983
▁വൃദ്ധൻ	-10.8984
▁ട്രസ്റ്റ	-10.8984
▁മാരാർക്കു	-10.8986
▁ഭരണഘടനാ	-10.8986
വുമൊക്കെ	-10.8987
▁രഹസ്യമായി	-10.8988
▁ഒരാളാണു്	-10.8988
കർമ്മം	-10.899
▁പത്തര	-10.899
▁ഘടിപ്പിച്ച	-10.899
▁യുവാവു്	-10.8991
▁ഒഴിയ	-10.8992
▁ചിരിയും	-10.8993
▁സൂര്യൻ	-10.8994
▁പരസ്യമായി	-10.8994
▁വായനക്കാരെ	-10.8996
▁വ്യാപകമായ	-10.8999
▁സമ്പൂർണ്ണ	-10.8999
▁സ്റ്റേ	-10.8999
▁തത്വജ്ഞാനി	-10.9001
▁മട്ടിലുള്ള	-10.9002
▁ചെയ്യണമെന്ന	-10.9002
▁വിറ്റു	-10.9004
▁കൃത്യമായ	-10.9004
▁എന്നല്ലേ	-10.9004
▁മമ്മി	-10.9006
▁ചെക്ക്	-10.9008
▁മന്ത്രിയാക	-10.9012
▁ആധുനികതയുടെ	-10.9013
▁പഞ്ചായത്ത്	-10.9017
▁ഉണ്ടായിരിക്കും	-10.902
▁അസ്വസ്ഥത	-10.9021
▁ബഹുമാനിക്ക	-10.9025
▁കിടപ്പുണ്ടു്	-10.9026
▁ആവശ്യമുള്ള	-10.9026
▁കണ്ടിട്ടു്	-10.9027
നുവേണ്ടി	-10.903
▁രാജാവിനെ	-10.9031
നെന്നും	-10.9032
▁സ്ക്കൂളിൽ	-10.9033
യ്ക്കുന്നതു്	-10.9034
▁കഴിച്ചുകൂട്ട	-10.9036
കയില്ല	-10.9037
▁പ്രവർത്തനങ്ങൾ	-10.9038
▁എന്തിനെ	-10.904
▁ചെമ്പ	-10.904
▁അടങ്ങ	-10.9043
▁എന്നതുകൊണ്ടു്	-10.9045
▁പുരോഗമിക്ക	-10.9045
▁ഉച്ചത്തിൽ	-10.9046
പാരമ്പര്യം	-10.9047
▁ചോദിക്കാൻ	-10.9047
ുന്നതെങ്ങനെ	-10.9048
▁ശ്രദ്ധയെ	-10.9048
▁പൂജ്യ	-10.9049
▁98	-10.9051
യ്ക്കുവാൻ	-10.9052
▁പ്രാതിനിധ്യം	-10.9054
▁നിരന്തരമായ	-10.9055
▁കുലുക്ക	-10.9055
▁സേ	-10.9056
ോട്ടെ	-10.9058
കളാകുന്നു	-10.9062
▁തൊഴിലാളികളുടെ	-10.9064
ലിസ്റ്റ	-10.9067
▁പോലീസ	-10.9068
▁എന്നാണ	-10.9069
രൂപത്തിലുള്ള	-10.9071
▁ബോധ്യ	-10.9076
▁ആരംഭം	-10.9077
▁രാജ്യത്തു്	-10.9078
▁ലേഖനത്തിന്റെ	-10.9078
▁തുടങ്ങുന്നതു്	-10.9078
▁പരിമിതി	-10.908
▁വ്യവസ്ഥിതി	-10.9081
▁നിർദ്ദേശിക്ക	-10.9081
▁ആലോചിച്ചു്	-10.9081
ുണ്ടായിരിക്കും	-10.9082
▁പാർട്ടിയിലെ	-10.9082
90	-10.9083
▁പട്ടികജാതിക്കാർ	-10.9084
▁ഷായുടെ	-10.9084
പ്രഭാവ	-10.9086
▁ഒറ്റയ്ക്കു	-10.9086
▁രചിച്ചിട്ടുള്ള	-10.9086
▁മുണ്ട	-10.909
▁ദുസ്സഹ	-10.909
▁കാറ്റു	-10.9096
▁രാവു	-10.9102
▁ശ്രീരാമ	-10.9102
ക്കുന്നതു	-10.9106
▁പാണ്ഡിത്യം	-10.9107
▁പൊട്ടിച്ചിരി	-10.911
ദശയിൽ	-10.9112
▁മാനസികരോഗ	-10.9114
▁ഭൂമിയുടെ	-10.9114
▁അതുപോലെതന്നെ	-10.9115
▁പിടിച്ചടക്കിയ	-10.9117
ന്റോ	-10.9117
ാടു്	-10.9118
രാജാവു്	-10.9118
▁തുടങ്ങിയപ്പോൾ	-10.912
യുമല്ല	-10.912
▁ന്യൂ	-10.9124
േണ്ടതായിരുന്നു	-10.9126
▁നിർവഹിച്ച	-10.9131
▁അനുവദിക്കുന്ന	-10.9133
▁പഠിയ്ക്ക	-10.9139
െങ്ങും	-10.914
▁ഇൻഡ്യയിൽ	-10.914
▁നിഷേധിക്കുന്ന	-10.9142
▁വാർഡ്	-10.9144
▁അവിടെനിന്നും	-10.9144
▁കൊണ്ടുതന്നെ	-10.9146
സുന്ദര	-10.9146
▁ഉദയം	-10.9147
▁ചൂടു	-10.9149
▁ശേഷവും	-10.9149
▁കഴുകി	-10.9151
പ്പിക്കാൻ	-10.9153
▁പരിഹസിക്ക	-10.9156
▁സാധനം	-10.9156
▁ചുരുക്കി	-10.9157
▁ശിഷ്യന	-10.9157
▁ആശയത്തിന്റെ	-10.9159
വയാണെന്നു	-10.9163
ാഘോഷ	-10.9164
ly	-10.9165
▁നാടകത്തിൽ	-10.9165
▁സമ്മാനം	-10.917
▁വർഷത്തെ	-10.917
െന്നതു	-10.917
▁മൽസരിക്കാൻ	-10.917
▁മുദ്രാവാക്യ	-10.9171
▁പതിവുള്ള	-10.9171
കൊടുത്തു്	-10.9172
▁സമാ	-10.9174
▁മൂക	-10.9175
▁പറ്റാത്ത	-10.9177
▁ചെന്നെത്ത	-10.9178
തരത്തിലുള്ള	-10.9179
▁സൈബീരിയ	-10.918
ക്കുറിച്ചു	-10.918
കുറി	-10.9182
ിനടുത്ത	-10.9185
▁നേ	-10.9187
▁നാണു	-10.9188
▁പട്ടാളക്കാര	-10.9189
▁തോന്നല	-10.919
▁അകത്തുനിന്നു	-10.9195
▁നിയന്ത്രണം	-10.9198
▁കീഴടക്കി	-10.9199
മായിരിക്കാം	-10.92
▁സമീപിക്ക	-10.9202
▁ഇതിൽനിന്നു	-10.9204
▁പൊള്ള	-10.9204
ത്തിനെതിരെ	-10.9205
▁സാമൂഹികജീവിത	-10.9217
▁ചാടിയ	-10.9218
▁ആരാധിക്കുന്ന	-10.9223
ഗ്രാ	-10.9223
മുണ്ടാകുന്ന	-10.9226
ന്മാരെയും	-10.9227
ക്കിന്റെ	-10.9229
▁സമർപ്പിച്ച	-10.923
▁തുല്യം	-10.9232
▁സ്നേഹിക്ക	-10.9233
യാളെ	-10.9238
റൈ	-10.9239
ഭദ്ര	-10.9241
▁അന്തരീക്ഷത്തിൽ	-10.9243
ശൂന്യമായ	-10.9244
െക്കുറിച്ചും	-10.9244
നായിത്തീർന്ന	-10.9244
നേതാവു്	-10.9248
▁ആകുന്ന	-10.9249
▁കണ	-10.9254
ദാസ്	-10.9255
സന്ദർഭ	-10.9257
▁സാധ്യ	-10.9259
ക്കാരാണു്	-10.926
▁അനുയായികള	-10.926
▁ശാസ്ത്രീയമായി	-10.9265
▁പരാതികൾ	-10.9265
▁ബൈബിള	-10.9265
▁കവിഞ്ഞ	-10.9266
▁പലവിധ	-10.927
▁തലയ്ക്ക	-10.927
ിത്ര	-10.9274
▁മുറയ്ക്കു	-10.9276
▁കവികളുടെ	-10.9276
▁തയ്യാറായി	-10.9279
▁കഷ്ടപ്പാട	-10.9279
▁ജിന്ന	-10.928
കൃതിയായ	-10.9281
▁ഭവിച്ച	-10.9285
പ്രളയ	-10.9286
തെന്നോ	-10.9286
വിഗ്രഹ	-10.9286
▁അവതരിപ്പിച്ചു	-10.9287
▁കലാകാരന	-10.9289
ചർച്ച	-10.9291
▁രാജാവും	-10.9293
▁വീട്ടിലെ	-10.9294
ാശ്രമ	-10.9295
▁വരുമെന്നു	-10.9297
▁മുസ്ലി	-10.9297
യല്ലെന്നു	-10.9297
ട്ടുണ്ടു്	-10.93
▁ഇതുകൊണ്ടു്	-10.9301
▁പാപം	-10.9303
▁ഐക്യം	-10.9308
ear	-10.9308
▁വ്യാസ	-10.9309
▁ശല്യ	-10.9309
ഫ്ര	-10.931
▁ജയിലില	-10.931
▁മുറിവു	-10.9311
▁അതായതു	-10.932
▁മന്ദ	-10.9323
▁നടത്തിയിരുന്ന	-10.9324
▁ധൈര്യപ്പെട	-10.9328
ാചാര്യന	-10.933
▁രാജീവ	-10.933
മുണ്ടെങ്കിലും	-10.9335
▁കുടില	-10.9335
▁നേടിയിരുന്നു	-10.9339
വിഭാഗങ്ങൾ	-10.934
കളിൽക്കൂടി	-10.9348
▁വിജയിക്ക	-10.9348
ത്തിന്റേത	-10.9349
▁ജ്യോതി	-10.9349
പ്രവർത്തക	-10.9352
▁വിതരണം	-10.9352
രാഗ	-10.9353
▁എത്തുന്ന	-10.9354
ത്തോടുകൂടിയ	-10.9355
▁അഭ്യാസ	-10.9358
▁മുഖ്യമന്ത്രിയായ	-10.9358
▁മിശ്രവിവാഹ	-10.9359
▁മുപ്പത	-10.9364
▁കുറ്റി	-10.9366
▁നയിച്ച	-10.9367
▁ബുദ്ധിയും	-10.9367
ുകയാണെന്നു്	-10.9367
▁ഹൈക്കമാന്റ	-10.9368
▁കുടുംബവും	-10.9369
▁കേൾക്കുക	-10.9372
▁കാലമാണു്	-10.9373
▁ഈശ്വരവിശ്വാസ	-10.9374
58	-10.9374
▁സമുദായത്തിലെ	-10.9383
പുത്രനായ	-10.9384
▁ജ്യേഷ്ഠ	-10.9388
▁ഗോദ	-10.9393
ുന്നതല്ല	-10.9396
▁തലവേദന	-10.94
ികളായി	-10.94
▁കാലത്തേ	-10.94
▁പുലർത്തുന്ന	-10.9404
▁എങ്ങോട്ട	-10.9405
▁തിരുവമ്പാടി	-10.9406
▁ഭഗവതി	-10.9407
▁മുഖവുര	-10.9413
ീശ്വര	-10.9417
▁യാതന	-10.9417
▁ഇപ്പോ	-10.9418
▁വാസ്തു	-10.942
▁സമാന്തര	-10.942
▁കിരാത	-10.9423
▁ഇതിനൊരു	-10.9424
▁ദുർഘട	-10.9425
▁തോന്നുക	-10.9426
▁54	-10.9426
ശ്ശേരി	-10.9427
▁പ്രഗല്ഭ	-10.9428
▁ഇഷ്ടപ്പെടുന്ന	-10.9428
സംഗ്രഹ	-10.9428
▁57	-10.9429
▁ലീഡറ	-10.943
▁മെമ്പറ	-10.943
▁ആവില്ല	-10.9431
സാഹോദര്യ	-10.9431
▁കപട	-10.9433
▁സ്നേഹിതന	-10.9433
കീ	-10.9434
▁ശുപാർശ	-10.9435
▁റിയലിസ	-10.9435
ാഭിലാഷ	-10.9435
▁പ്രലോഭന	-10.9435
▁പ്രസിഡണ്ട	-10.9435
▁1942	-10.9435
▁1979	-10.9435
▁അചിരേണ	-10.9435
▁അപലപിക്ക	-10.9435
▁ആർഭാട	-10.9435
▁ഉരുത്തിരി	-10.9435
▁ഒന്നടങ്കം	-10.9435
▁കാർത്തികേയൻ	-10.9435
▁കീമണ്ടാനി	-10.9435
▁കോടീശ്വര	-10.9435
▁ജനതാദൾ	-10.9435
▁ജയലളിത	-10.9435
▁ടീച്ചർ	-10.9435
▁താക്കീതു	-10.9435
▁തെമ്മാടി	-10.9435
▁നിരീക്ഷക	-10.9435
▁നിശ്ശേഷം	-10.9435
▁പെറുക്കി	-10.9435
▁മുസ്തഫ	-10.9435
▁യാത്രാവിവരണ	-10.9435
▁വെള്ളാപ്പള്ളി	-10.9435
▁ശരീഅത്ത	-10.9435
▁സുധാകരന	-10.9435
▁സൈദ്ധാന്തിക	-10.9435
▁സോഷ്യോളജി	-10.9435
▁ടൈഗർ	-10.9435
▁സ്ത്രീലിംഗ	-10.9435
▁കൊത്തുചിത്രങ്ങള	-10.9435
▁കഷണ്ടി	-10.9435
▁പൊരുൾ	-10.9435
▁ഗൃഹസ്ഥാശ്രമ	-10.9435
▁1931	-10.9435
▁അശ്വ	-10.9435
▁യോജിപ്പ	-10.9436
▁വേണമെങ്കിലും	-10.9436
▁1937	-10.9436
▁ചോദ്യക്കടലാസ	-10.9436
▁മരണഭീതി	-10.9436
▁സേസന്റെ	-10.9436
▁പൂമുഖത്തു	-10.9436
▁ഭാവഗീത	-10.9437
▁കൈവശം	-10.9437
▁കാച്ച	-10.9437
▁പാവങ്ങളുടെ	-10.9437
▁അത്തരത്തിലുള്ള	-10.9437
▁അവയവ	-10.9438
▁കുറേക്കാലം	-10.9438
▁സംവിധാനം	-10.9438
▁പരക്കെ	-10.9438
▁ദിയോനീസസ്	-10.9438
▁സുകുമാർ	-10.9439
▁രമണി	-10.9439
▁കുര്യന	-10.9439
▁പന്നി	-10.9439
▁അഭിമുഖ	-10.9439
▁നിലനില്പ	-10.944
▁ഹേതുവായി	-10.944
▁ഭവതി	-10.9442
▁അത്രത്തോളം	-10.9443
▁നിരോധിക്ക	-10.9443
▁അജന്ത	-10.9443
▁അങ്ങാടി	-10.9443
▁എനിക്കറിയാം	-10.9444
▁അപരാധ	-10.9444
▁അതിന്മേൽ	-10.9444
കയറിയ	-10.9445
▁കുത്തനെ	-10.9445
▁മാർഗ്ഗങ്ങൾ	-10.9445
▁കേകയ	-10.9445
▁ജമാഅത്തെ	-10.9445
രുതെന്നും	-10.9445
▁ശക്തമായി	-10.9446
▁പദപ്രയോഗ	-10.9446
▁അപരിചിത	-10.9448
▁ഗുജറാത്തിലെ	-10.9448
▁രണ്ടുപേർക്കും	-10.9448
▁പിന്തിരിപ്പൻ	-10.945
▁വലിച്ചെറിഞ്ഞ	-10.945
▁തെളി	-10.9451
▁അളവിൽ	-10.9453
▁സത്	-10.9453
▁വിചാരിക്കാം	-10.9455
ാവുമ്പോൾ	-10.9456
▁സാധാരണക്കാരന്റെ	-10.9457
ുകയല്ലേ	-10.9459
▁സുമേറിയൻ	-10.9459
▁ഗുരുവ	-10.9459
▁മുഖ്യമായ	-10.9459
▁ആഴ്ചപ്പതിപ്പു്	-10.9459
▁ഉപേക്ഷിച്ച	-10.946
▁അവജ്ഞ	-10.9461
▁ഗുരുവായ	-10.9462
▁റോഡിൽ	-10.9463
▁എസും	-10.9464
ക്കേസിൽ	-10.9465
▁തപ്പി	-10.9465
▁ദൈവമേ	-10.9466
▁അടുത്തകാലത്തു്	-10.9466
ിക്കുകയുണ്ടായി	-10.9466
▁h	-10.9466
▁അതിനേക്കാൾ	-10.9466
▁പ്രൗഢ	-10.9468
ുള്ളവർ	-10.9468
▁ഭാരിച്ച	-10.9469
▁ഭാഷയ്ക്കു	-10.9469
▁രോഗികൾക്കു്	-10.947
▁കാര്യങ്ങള	-10.947
യാവും	-10.947
▁മരിച്ചുപോയി	-10.9471
▁പ്രാധാന്യവും	-10.9471
▁രജ	-10.9472
▁അട്ട	-10.9472
▁പറവ	-10.9472
▁പുറകോട്ടു	-10.9473
▁പണിക്കര	-10.9473
▁സമീപ	-10.9474
ടഞ്ഞ	-10.9474
▁പതിനെട്ടാം	-10.9475
▁തിരുവല്ല	-10.9475
▁അംഗങ്ങള	-10.9476
▁കലിവർഷ	-10.9476
▁മുഴ	-10.9477
▁കോൺഗ്രസ്സുകാര	-10.9477
▁ഡ്ര	-10.948
▁കുന്നിൽ	-10.9481
മാരെയും	-10.9482
▁പ്രസംഗിച്ച	-10.9482
▁എന്തുകൊണ്ടാണു്	-10.9483
▁ഉയരുന്ന	-10.9483
▁എക്സ	-10.9483
▁തന്നോടു	-10.9483
▁ജീവനുള്ള	-10.9484
▁വിഷയമായ	-10.9484
▁പുരോഹിതന	-10.9484
▁ഇഷ്ടം	-10.9485
▁അണു	-10.9486
▁തനിയെ	-10.9486
▁ഫീസ്	-10.9487
▁മനുഷ്യത്വത്തെ	-10.9488
▁പോണ	-10.9488
▁തുമ്പ	-10.9489
41	-10.949
രിയുന്ന	-10.9492
▁അന്യന	-10.9493
വംശത്തിൽപ്പെട്ട	-10.9493
▁നന്നു്	-10.9495
▁ഇംഗ്ലണ്ട	-10.9496
▁ഈശ്വരന്റെ	-10.9497
രോഷ	-10.9498
▁പോകണം	-10.9498
▁you	-10.9499
▁അംബ	-10.9501
▁സബ്	-10.9501
▁നേതാക്കന്മാര	-10.9501
▁വാര്യർ	-10.9501
പോലത്തെ	-10.9505
▁കഴിയുമ്പോൾ	-10.9507
▁കേറ	-10.9508
▁ഗ്രാൻപായുടെ	-10.9508
▁78	-10.951
▁ചിത്രത്തിലെ	-10.9512
▁കല്പിച്ചു	-10.9512
▁മാനേ	-10.9513
യുടേതു്	-10.9515
▁പൊതുയോഗ	-10.9515
▁മനസ്സിലായതു്	-10.9516
▁പകർത്ത	-10.9517
▁സാമൂതിരിയുടെ	-10.9518
▁man	-10.9518
▁ശ്രമിക്കുന്നതു്	-10.952
ാരതമ്യപ്പെടുത്തി	-10.9521
▁പ്രണയകഥ	-10.9521
66	-10.9522
▁വിനിമയ	-10.9524
▁അതിലുള്ള	-10.9525
▁അഭിനയിച്ച	-10.9526
രിക്കുന്നു	-10.9526
▁പരിണാമവാദ	-10.9527
യാണെന്നുള്ള	-10.9527
▁മാനുഷികപ്രശ്ന	-10.9529
▁മറ്റൊന്നു്	-10.9529
പ്പോകും	-10.9531
▁അപൂർവ്വ	-10.9531
▁മഹാവിഷ്ണു	-10.9533
▁ധർമം	-10.9533
▁സ്വീകരിക്കാൻ	-10.9534
▁ഭാഗമാണു്	-10.9534
▁തെരുവ	-10.9535
▁കോമ	-10.9535
▁ബഷീറിനു്	-10.9536
ുന്നതോടെ	-10.9537
▁ഹോട്ടലിൽ	-10.9538
▁ഗുരുശിഷ്യ	-10.9539
കാരനും	-10.9541
▁വൈചിത്ര്യ	-10.9541
▁പൂട്ട	-10.9542
യ്യാ	-10.9547
▁പേരുണ്ടു്	-10.9548
▁തീരുമാനിക്കുന്ന	-10.9548
▁ഒരാളായ	-10.9549
▁കൊതി	-10.955
▁ഇന്ദിരാ	-10.9554
▁നിവർത്തി	-10.9558
▁വിശേഷം	-10.9561
▁അനുവദിച്ച	-10.9563
ുണ്ടായിരുന്നതു്	-10.9564
ത്തോടെയാണു്	-10.9566
▁ശബ്ദങ്ങൾ	-10.9567
വയല്ല	-10.9567
▁ഈജിപ്ത്	-10.9569
▁കൂവ	-10.9571
നിഷ്ഠമായ	-10.9571
▁നേർക്കു്	-10.9572
▁വികൃത	-10.9572
േന്തി	-10.9573
▁തിരഞ്ഞെടുക്ക	-10.9574
ക്കുടി	-10.9574
കാവ്യം	-10.9575
▁അതായിരുന്നു	-10.9577
പറഞ്ഞാൽ	-10.9579
▁ദേവിന്റെ	-10.9581
▁പ്രചരണ	-10.9581
▁രസിച്ച	-10.9582
ൻഡ്	-10.9584
▁അസാമാന്യമായ	-10.9585
▁സ്വാഭാവികമായ	-10.9585
▁പുറത്തെ	-10.9586
▁പ്രവേശിക്കുന്ന	-10.9587
▁പേരിനു	-10.9588
▁ആവോ	-10.9592
മസ്	-10.9592
ാവുന്നതല്ല	-10.9594
ിട്ടില്ലെന്നു	-10.9594
▁അവയിലെ	-10.9595
▁ക്ഷണം	-10.9595
▁കിടക്കുകയാണു്	-10.9596
ക്കോടി	-10.9597
സിദ്ധ	-10.9598
▁കൊടുത്താൽ	-10.9598
▁അയൽ	-10.9599
രംഗം	-10.96
▁വസ്ത്രങ്ങൾ	-10.9601
▁ചിത്രമെഴുത	-10.9602
താണെങ്കിലും	-10.9602
▁വീട്ടിലേക്കു്	-10.9602
▁അമ്മൂ	-10.9603
പ്പോഴോ	-10.9605
▁ധനശക്തി	-10.9605
▁ചിത്രീകരണം	-10.9606
▁സന്ദർശന	-10.9616
▁രസിക്കുന്ന	-10.9617
ങ്ങളുമുണ്ടു്	-10.9618
▁മാണിഗ്രൂപ്പ	-10.9619
ുകയായി	-10.9619
▁ദേശത്തിന്റെ	-10.9621
▁മനുഷ്യത്വം	-10.9623
ന്റേതു്	-10.9623
▁നിന്നാൽ	-10.9625
▁ബുദ്ധദേവ	-10.9628
▁രേഖകൾ	-10.9632
േഴ	-10.9633
▁വീക്ക	-10.9638
▁കാത്തുനിൽക്ക	-10.9639
കാണിക്കുന്ന	-10.9639
▁വക്കം	-10.9639
▁ഇന്നുള്ള	-10.964
▁ചവിട്ടി	-10.9641
▁എഴുത്തുകൾ	-10.9643
▁അറുപതു	-10.9644
ിതു	-10.9645
▁മുഖ്യൻ	-10.9646
▁നിങ്ങളോടു	-10.9647
▁കാടു്	-10.9648
▁കോളജ	-10.9649
▁ക്ഷേമ	-10.965
▁വിശദീകരിച്ച	-10.9652
ത്തുമ്പോൾ	-10.9654
പ്രശ്നങ്ങള	-10.9654
മാണുള്ളതു്	-10.966
മാസ്റ്റർ	-10.9662
▁എനിയ്ക്ക	-10.9662
▁ശകാര	-10.9662
▁എതിർപ്പു	-10.9664
▁അധികാരത്തിന്റെ	-10.9664
▁87	-10.9669
▁നടപ്പിലാക്ക	-10.9673
um	-10.9674
▁കടന്നുവരുന്ന	-10.9674
സന്ദേശ	-10.9677
▁അവലംബിച്ച	-10.9678
▁ഉത്	-10.968
▁കാറ്റു്	-10.9681
▁പിന്തുണച്ചു	-10.9682
▁സാഹിത്യവും	-10.9685
യന്ത്ര	-10.9686
▁പരിഭാഷപ്പെടുത്ത	-10.9686
െക്കാളും	-10.969
▁രാഷ്ട്രങ്ങൾ	-10.969
▁തെളിവു്	-10.9692
മുമ്പേ	-10.9693
▁ശിശു	-10.9694
ലോണ	-10.9695
ou	-10.9695
▁സാധൂകരിക്ക	-10.9695
▁തിരുവിതാംകൂറിൽ	-10.9695
▁60	-10.9696
▁പൊന്നു	-10.9697
▁ആരാധനാ	-10.9698
ിക്കളഞ്ഞു	-10.9703
ക്കരി	-10.9709
▁കഴിക്കുക	-10.9709
▁ജോർജി	-10.9715
▁വിഷയത്തെപ്പറ്റി	-10.9716
▁വരവു	-10.9717
പക്ഷത്തു	-10.9718
ായിരിക്കുകയില്ല	-10.9722
▁വൈകിയ	-10.9722
െടുക്കാം	-10.9722
പൂർണ്ണമായ	-10.9722
▁ഹാജരാക്ക	-10.9723
▁സ്ക്കൂള	-10.9723
▁സുപ്രസിദ്ധനായ	-10.9724
കാണുന്ന	-10.9724
▁തിരി	-10.9725
▁സാഹിത്യകാരനു	-10.9725
ക്കഴിഞ്ഞിരുന്നു	-10.9727
▁ആവർത്തിച്ച	-10.9731
കാന്ത	-10.9731
▁വിധിയെ	-10.9732
▁കടന്നുവന്ന	-10.9733
▁മന്ത്രിയുടെ	-10.9736
ത്തുന്നതു്	-10.9737
▁വിഷം	-10.974
▁രാഷ്ട്രത്തിന്റെ	-10.9741
ധീ	-10.9742
▁ഇന്ത്യയില	-10.9743
▁മുഴു	-10.9744
▁പ്രസ്താവ	-10.9745
▁മാട	-10.9746
▁ചാല	-10.9749
ക്കുഴ	-10.9755
▁ചങ്ങമ്പുഴയെ	-10.9755
▁പിന്താങ്ങുന്ന	-10.976
വിഭാഗം	-10.976
ക്കാരനാണു്	-10.9763
പുത്രൻ	-10.9763
ായിരിക്കണമെന്ന	-10.9764
ജീവിതത്തെ	-10.9767
▁കക്ഷികൾ	-10.9767
▁വർണ്ണിക്കുന്ന	-10.9768
രെപ്പോലെ	-10.977
▁വന്നിരുന്ന	-10.9772
ക്കളായ	-10.9774
▁നിന്നില്ല	-10.9775
▁കഴിഞ്ഞിട്ട	-10.9778
▁വിളക്ക	-10.978
▁ഉദ്യോഗം	-10.9782
▁കുന്ത	-10.9782
▁തൃപ്തി	-10.9783
സത്യം	-10.9783
▁ഫോറ	-10.9784
ക്കേസ	-10.9784
▁എളുപ്പമ	-10.9785
▁നശിപ്പിക്കുന്ന	-10.9786
▁സാധിക്കുകയില്ല	-10.9786
ാണ്ടു	-10.9789
▁പാലം	-10.9794
യിലേക്കുള്ള	-10.9795
▁പറയത്തക്ക	-10.9796
ശിഷ്യ	-10.9799
ജോണിക്കുട്ടാട്ടൻ	-10.9801
പ്പെടുത്താൻ	-10.9801
▁ബോറ്	-10.9805
▁വരവും	-10.9807
ക്കുനേരെ	-10.9807
ദൈവ	-10.9812
നിഷേധ	-10.9812
ശേഖര	-10.9813
ചൈതന്യ	-10.9813
ചുര	-10.9817
▁ദുഃഖം	-10.9821
▁കത്തോലിക്കർ	-10.9822
ധാ	-10.9823
യിന്മേൽ	-10.9824
▁ഉത്തമമായ	-10.9832
ശ്രീ	-10.9832
▁സ്വാതന്ത്ര്യവും	-10.9833
▁ഒരുവൻ	-10.9834
▁അനുഭവപ്പെട്ട	-10.9835
ളിച്ചു	-10.9836
▁കൈക്കൊള്ള	-10.9839
ിരുന്നുവെന്നു്	-10.9842
യിടയിൽ	-10.9842
▁പ്രതിപാദ്യ	-10.9842
▁നിലവാര	-10.9844
▁പ്രാതിനിധ്യ	-10.9844
▁സംശയിക്കുന്ന	-10.9845
▁മേൽവിലാസ	-10.9845
▁വയറു	-10.9845
വരില്ല	-10.9846
▁ദർശിക്ക	-10.9848
▁സമ്മതിക്കില്ല	-10.9849
▁ഭാഷാസാഹിത്യ	-10.985
▁റൊ	-10.985
▁75	-10.9852
▁മലർ	-10.9855
ത്തിനെതിരായി	-10.9856
▁ഫലിതം	-10.9857
▁സങ്കീർണ്ണ	-10.986
▁വേണ്ടെന്നു	-10.9865
▁കാറിൽ	-10.9866
▁രാജ്യങ്ങളിലെ	-10.9867
▁തത്വം	-10.9868
▁കണ്ടുമുട്ട	-10.9872
▁കത്തുന്ന	-10.9874
▁വിഷയങ്ങളെ	-10.9874
▁രത്ന	-10.9875
മെടുത്തു്	-10.9877
പ്രസാദ	-10.9879
▁മാനസികാരോഗ്യ	-10.988
▁ചിത്രകലാ	-10.988
▁കൊള്ളില്ല	-10.9881
അക്കിത്തത്തിന്റെ	-10.9881
ക്കുകയില്ല	-10.9881
▁നിലനിർത്തി	-10.9882
▁പറഞ്ഞിരുന്ന	-10.9882
െന്നുള്ളതാണു്	-10.9883
ാനിടയായ	-10.9889
▁പത	-10.989
▁അമ്പു	-10.989
രൂപമായ	-10.9892
ൊരിക്കലും	-10.9894
▁മരുന്ന	-10.9899
▁കഴിവുണ്ട	-10.9899
▁നിശ്ചയമില്ല	-10.9899
▁കുടുംബത്തിന്റെ	-10.99
▁ഭദ്ര	-10.9901
▁നിറയ	-10.9902
▁വികൃതി	-10.9903
▁കോൺഗ്രസിനെ	-10.9903
▁ശീലിച്ച	-10.9906
രീതിയിലുള്ള	-10.9907
▁മതിപ്പ	-10.9908
▁ഇതായിരുന്നു	-10.9909
▁സമീപിച്ച	-10.9909
▁തത്വജ്ഞാന	-10.9911
സ്റ്റർ	-10.9911
▁കഴിച്ചുകൂട്ടി	-10.9913
സങ്കേത	-10.9916
പഠനം	-10.9917
▁പട്ടു	-10.9918
▁അലഞ്ഞു	-10.9919
വിജയം	-10.9919
ഭാഷാ	-10.992
ുള്ളപ്പോൾ	-10.992
▁ആത്യന്തിക	-10.9922
▁ഛ	-10.9923
▁ചിന്തകൾ	-10.9923
▁തീവ്രവാദ	-10.9923
▁പുലരുന്ന	-10.9923
▁പ്രസാധക	-10.9924
▁സ്തുതിക്ക	-10.9924
▁മീ	-10.9924
▁ചിരിച്ചുകൊണ്ടു	-10.9928
▁സയൻസിന	-10.993
▁he	-10.9932
ത്തിനൊരു	-10.9934
▁അടിസ്ഥാനപരമായ	-10.9934
ഹീന	-10.9939
▁ചടങ്ങു	-10.9939
വീഴ	-10.994
നായിത്തീർന്നു	-10.9941
▁വിനെ	-10.9942
▁തീവ്രമായ	-10.9944
ക്കകത്തു	-10.9944
▁കുറുക്ക	-10.9945
▁മഹർഷി	-10.9946
▁ശിക്ഷിക്ക	-10.9947
▁വ്യാഖ്യാനം	-10.9948
▁അതൊന്നു	-10.9948
ങ്ങളുണ്ടായി	-10.9949
▁പ്രശംസ	-10.995
▁കടലാസു	-10.995
സ്തംഭ	-10.9951
വിസ്മയ	-10.9952
▁ചിറകു	-10.9952
▁അടിയന്തിര	-10.9953
▁മുഴുവന	-10.9955
▁പോയില്ല	-10.9955
▁വാട	-10.9956
ുകൂട്ട	-10.9956
▁മഹാത്മജി	-10.9958
▁ഭർത്തൃ	-10.996
▁ഇല്ലാതാക	-10.996
ക്കടലാസ	-10.9961
▁പുനഃ	-10.9961
ക്കുന്നതിൽ	-10.9961
ക്കാളധികം	-10.9961
▁നിസ്സംഗ	-10.9962
▁നിർണായക	-10.9962
പതുക്കെപ്പതുക്കെ	-10.9962
▁1962	-10.9962
▁have	-10.9962
▁അസംബ്ലി	-10.9962
▁ഉത്തരേന്ത്യ	-10.9962
▁ഐസ്ക്രീം	-10.9962
▁കമീഷൻ	-10.9962
▁ജവഹർലാൽ	-10.9962
▁ജാബാലി	-10.9962
▁നാഷണൽ	-10.9962
▁പതിനേഴ	-10.9962
▁പശ്ചാത്താപ	-10.9962
▁പാത്തുമ്മയുടെ	-10.9962
▁പ്രോത്സാഹന	-10.9962
▁ബയസ്ക്കോപ്	-10.9962
▁മുസ്ലീമ	-10.9962
▁മോഡേൺ	-10.9962
▁യഥേഷ്ടം	-10.9962
▁റവന്യൂ	-10.9962
▁വാണിജ്യ	-10.9962
▁ശനിയാഴ്ച	-10.9962
▁താക്കോൽ	-10.9962
▁പെൻഷൻ	-10.9962
▁യഹൂദ	-10.9962
▁വക്കീൽ	-10.9962
▁മുഹമ്മദാലി	-10.9962
▁കാലക്രമത്തിൽ	-10.9962
▁ഇൻസ്പെക്ടർ	-10.9962
▁ഒന്നാമൻ	-10.9962
▁ക്രോധ	-10.9962
▁വീഴ്ച	-10.9962
▁മൊത്തത്തിൽ	-10.9962
▁വജ്ര	-10.9962
▁അവഗണിച്ചു	-10.9962
▁ഖദർ	-10.9962
▁ഓരോന്നായി	-10.9962
▁രാജീവ്ഗാന്ധി	-10.9962
▁വിഭാവനം	-10.9962
▁ഇടുക്കി	-10.9962
▁പതിനാറ	-10.9962
▁ഉപകരിച്ച	-10.9962
▁2002	-10.9962
▁ഇത്തരത്തിൽ	-10.9962
▁കോലത്തിരി	-10.9962
▁കർണ	-10.9962
▁തത്ത്വസംഹിത	-10.9962
ാലങ്കാര	-10.9962
▁കമൽ	-10.9962
▁പുക്കാറ	-10.9963
▁വിദ്വാന	-10.9963
▁നിർമിച്ച	-10.9963
▁നിശ്ചയമായും	-10.9963
▁for	-10.9963
▁തെണ്ടി	-10.9963
▁വാൻഗോഗിന്റെ	-10.9964
▁ആശംസ	-10.9964
▁സൗജന്യ	-10.9964
▁ഇടപ്പള്ളി	-10.9964
ഖ്	-10.9964
▁കുരുവിള	-10.9964
▁നോട്ടീസ്	-10.9964
▁പ്രജാ	-10.9965
▁റെംബ്രാൻഡിന്റെ	-10.9965
▁സംബന്ധിക്കുന്ന	-10.9965
▁മനുഷ്യാവകാശ	-10.9965
▁അത്ഭുതകരമായ	-10.9965
ായിത്തീരും	-10.9966
▁അങ്ങോര	-10.997
▁ധനശാസ്ത്ര	-10.997
ങ്ങളിലൊക്കെ	-10.997
▁യൂറോപ്പിലെ	-10.997
▁അമ്മുവിന്റെ	-10.997
▁ധാരാളമുണ്ടു്	-10.997
ഗ്രന്ഥങ്ങളിൽ	-10.9971
▁ചെളി	-10.9971
▁കോളേജിലെ	-10.9971
▁തുടങ്ങുമ്പോൾ	-10.9972
▁യുധിഷ്ഠിരൻ	-10.9972
▁ദാമോദരൻ	-10.9974
▁നള	-10.9975
▁പല്ല	-10.9975
▁അടക്കമുള്ള	-10.9976
നിർമ്മ	-10.9977
▁മന്ത്രിമാര	-10.9977
▁വിധവ	-10.9978
▁സഖാക്കളുടെ	-10.9978
▁സായാഹ്ന	-10.9979
▁പെൺകുട്ടിയെ	-10.9979
▁ബഹുവിധ	-10.998
▁വനവാസ	-10.998
▁പോട്ടെ	-10.9981
▁ക്ഷയിച്ചു	-10.9983
▁നിർവ്വ	-10.9983
▁വോട്ടിനു്	-10.9983
▁വാക്യങ്ങൾ	-10.9983
▁എൺപതു	-10.9983
▁മഹാരാജാവ	-10.9984
▁രണ്ടുതരം	-10.9984
▁പതിവായിരുന്നു	-10.9986
മാന്യ	-10.9988
▁അനാഥ	-10.9988
▁ഇച്ഛ	-10.999
േട്ടൻ	-10.999
▁പിൻവാങ്ങി	-10.999
▁കായിക	-10.999
▁സ്ഥാനാർഥിയായി	-10.999
▁ചളി	-10.9992
▁പത്രാധിപര	-10.9993
▁കളിക്കാൻ	-10.9993
▁കവന	-10.9994
▁ഭാഗമായ	-10.9995
▁ദിവസത്തെ	-10.9996
▁പോവുകയാണു്	-10.9998
▁ആരംഭിക്കുന്നതു്	-10.9998
▁എമ്മിന്റെ	-10.9999
ളേ	-11
▁മാരാരു്	-11
▁നോടു്	-11.0001
▁എങ്ങും	-11.0002
▁കൃത്രിമമായി	-11.0003
▁യോഗി	-11.0006
▁അടുത്തുചെന്നു	-11.0006
▁ഏകാന്തത	-11.0007
▁പതിപ്പിച്ച	-11.0007
▁ചെവിയിൽ	-11.0007
മ്മേ	-11.0007
▁ജീവിതകാലം	-11.0008
▁an	-11.0008
▁ആശങ്ക	-11.0009
▁മനസ്സിലാക്കുവാൻ	-11.001
▁കോട്ടയത്തു്	-11.0011
▁ശോഭ	-11.0011
▁പ്രശാന്ത	-11.0011
▁കൃഷ്ണൻകുട്ടി	-11.0012
▁എളുപ്പമാണു്	-11.0013
▁വലുതായ	-11.0014
▁എന്തുമാത്രം	-11.0014
▁ബോംബ	-11.0014
▁പ്രത്യ	-11.0014
▁ഒറീസ	-11.0015
ചരിതം	-11.0015
▁പങ്കെടുത്തു	-11.0015
വെച്ചിട്ടുള്ള	-11.0016
▁ഭാഷ്യ	-11.0016
▁നൽകുകയും	-11.0016
ചെയ്യുക	-11.0017
▁സുഹൃത്തു്	-11.002
▁കോൺഗ്രസു	-11.0021
▁ദശക	-11.0021
മഹത്വ	-11.0022
▁പ്രതിഷ്ഠിക്ക	-11.0022
വിവരിച്ചിട്ടുള്ള	-11.0022
▁വേണമെന്ന	-11.0023
▁വൈകി	-11.0024
▁വായിച്ചാൽ	-11.0024
▁ഒന്നിലും	-11.0024
കൊണ്ടുമാത്രം	-11.0026
▁വകുപ്പുകൾ	-11.0027
▁തരണം	-11.0027
▁മന്ത്രിസ്ഥാന	-11.0028
ക്കാരെയും	-11.0029
▁നയിച്ചു	-11.003
▁നീതിപീഠ	-11.003
▁പുരോഹിതനും	-11.003
▁ഇൻഡ്യ	-11.003
▁ആയുധങ്ങൾ	-11.003
▁പാടേ	-11.0031
യനുസരിച്ചു്	-11.0033
ല്ലല്ലോ	-11.0034
മുന്നണി	-11.0034
രേയും	-11.0035
പ്രയോഗം	-11.0036
വെച്ചിട്ടുണ്ടു്	-11.0038
മാണെന്നുള്ള	-11.004
▁രൂക്ഷ	-11.0041
▁ഇതിനും	-11.0043
▁നോവലുകളും	-11.0044
ിപ്പിക്കാൻ	-11.0044
ിന്നും	-11.0047
▁മാത്രമെ	-11.0051
▁നായകന	-11.0054
▁പത്രങ്ങളും	-11.0055
യുമെല്ലാം	-11.0056
▁അന്ധമായി	-11.0059
▁സത്യത്തെ	-11.0059
മാനം	-11.006
▁ഗ്രൂപ്പിൽ	-11.006
▁കുഞ്ഞാ	-11.006
▁സാധിക്കാത്ത	-11.006
▁അവിശ്വാസ	-11.0061
▁എറണാകുളത്തു്	-11.0062
▁ശിവൻ	-11.0063
▁ശിഷ്യനായ	-11.0063
▁ബോംബെ	-11.0063
▁ഗണിത	-11.0065
▁കാണാനില്ല	-11.0065
▁അത്യാവശ്യമായ	-11.0065
▁മനസ്സിലാക്കുക	-11.0066
▁അവർക്കും	-11.0067
മേറ്റു	-11.0069
▁ചോദിക്കുക	-11.007
▁ഡോക്ടർമാർ	-11.007
യൽ	-11.007
▁മുരളീധരന	-11.007
ിരുന്നതും	-11.0071
ാഗ്നി	-11.0072
▁മാപ്പ	-11.0072
▁തൃഷ്ണ	-11.0072
▁മനോരമയുടെ	-11.0073
▁അതിനകത്തു്	-11.0073
▁ആദ്യത്തേത	-11.0073
▁കർത്തവ്യം	-11.0074
▁പോളി	-11.0076
പ്പറ്റിയുള്ള	-11.0077
▁ശക്തിയും	-11.0079
▁കമ്പനിയുടെ	-11.0079
▁മലയാളത്തിന്റെ	-11.0082
▁പന്തല	-11.0085
▁കോരി	-11.0087
▁വിഷമിച്ചു	-11.0088
സ്വാതന്ത്ര്യത്തെ	-11.0088
▁ഉന്നയിക്കുന്ന	-11.009
▁അതിന്ന	-11.0094
▁വന്നുചേരുന്ന	-11.0097
ിലേ	-11.0099
▁സംഭവിച്ചതു്	-11.0102
▁ഉണ്ടാകുന്നതു്	-11.0103
ാറു്	-11.0104
▁അറിഞ്ഞുകൂടാത്ത	-11.0105
ുകാരും	-11.0107
▁ചുമന്നു	-11.0108
▁ഗായക	-11.0111
വിളിച്ചു	-11.0113
ാനൊന്നും	-11.0113
▁പകർത്തിയ	-11.0115
▁നായരും	-11.0115
വിരുദ്ധമായ	-11.0115
▁അതുതന്നെയാണു്	-11.0119
▁മ്യൂസിയം	-11.012
▁ഉള്ളടക്കം	-11.0121
▁മുഖപ്രസംഗം	-11.0124
▁തദ്	-11.0127
▁ഭൂമിയെ	-11.0128
▁ചോറും	-11.0128
കൂടിയാണു്	-11.0128
▁മറ്റുമുള്ള	-11.0129
▁വ്യാഖ്യാനിച്ചു	-11.0129
▁ഇളകി	-11.0135
േഷ്യ	-11.0136
▁സംഘത്തിന്റെ	-11.0137
▁വിറ്റു്	-11.0139
▁രാമായണ	-11.0144
▁വ്യവഹാരം	-11.0146
▁പറയാനും	-11.0147
▁പറയില്ല	-11.015
▁സ്വഭാവവിശേഷ	-11.0153
ക്കകത്തു്	-11.0153
മെന്തു്	-11.0153
▁ഒറ്റപ്പെട്ട	-11.0154
രോടു്	-11.0155
▁സൈന്യം	-11.0156
▁അറിഞ്ഞുകൂട	-11.0156
▁ഉമ	-11.0156
▁ഈയൊരു	-11.0157
▁പുസ്തകങ്ങളും	-11.0157
▁രണ്ടുപേര	-11.0159
▁ഉപകാരം	-11.0159
▁കൊടുക്കുന്നതു്	-11.016
▁ഭരണകൂട	-11.0162
▁കണ്ടറിഞ്ഞ	-11.0163
▁സമയവും	-11.0165
▁മൊക്കെ	-11.017
▁പോലുമ	-11.0173
▁പരിപൂർണ്ണ	-11.0173
നിൽക്കുന്നതു്	-11.0173
പേരും	-11.0173
വിരാമ	-11.0174
▁അവസരത്തിൽ	-11.0174
▁വാക്കും	-11.0174
▁ജയം	-11.0175
▁വലതു	-11.018
▁ഭർത്	-11.0181
▁കഥയെഴുത	-11.0182
പ്രേരക	-11.0183
▁ഡയ	-11.0186
▁നേർക്കു	-11.0188
▁നിബന്ധന	-11.0189
ക്കുതന്നെ	-11.0189
▁ഉയർന്നുവന്ന	-11.019
▁കാലമായി	-11.0191
പ്പിള്ള	-11.0191
ുകയാണെന്ന	-11.0193
▁ആത്മാവിനെ	-11.0198
▁ചിലർക്കു്	-11.0199
െല്ലാവരും	-11.0199
▁ശ്രദ്ധിച്ചില്ല	-11.0199
▁കൈകൊണ്ടു്	-11.0199
ശീലം	-11.0201
▁വിഷയങ്ങള	-11.0201
▁സമത്വം	-11.0201
▁ചൊ	-11.0203
പരിവർത്തന	-11.0206
▁ശങ്കറി	-11.0209
▁കാരണവർ	-11.0209
▁മാനേജര	-11.021
ക്കിലെ	-11.0211
▁വേര	-11.0212
▁പ്രാധാന്യ	-11.0215
▁വനം	-11.0216
▁പടിഞ്ഞാറു	-11.0217
▁ചിന്തകന	-11.0221
കൊണ്ടുപോകാൻ	-11.0222
ോടോ	-11.0225
▁63	-11.0226
▁എന്നിവയെ	-11.0226
ച്ചുകളയ	-11.0227
▁അവസാനിക്കുന്നു	-11.0228
തെന്നാണു്	-11.0229
▁അടിയ	-11.023
▁പദത്തിന്റെ	-11.023
▁നടിച്ചു	-11.023
▁നടപ്പു	-11.0231
ത്തിലായിരുന്നു	-11.0232
▁ഗിരി	-11.0234
▁മുഖ്യമന്ത്രിയാക	-11.0236
▁മനു	-11.0238
▁ലേഖക	-11.0242
▁മതഗ്രന്ഥ	-11.0244
മാരുടെയും	-11.0245
▁ഹിന്ദുക്കള	-11.0248
▁തത്ത്വശാസ്ത്രം	-11.0249
വുമുണ്ടോ	-11.0252
പ്പുര	-11.0252
ത്തിലധികം	-11.0255
ത്തെക്കുറിച്ചും	-11.0255
▁പ്രസിദ്ധനായ	-11.0259
▁ഒരുദിവസം	-11.026
▁കൽപിച്ചു	-11.026
▁കൈക്കൊണ്ട	-11.0261
കളോടുള്ള	-11.0267
▁മുളച്ചു	-11.0268
▁മുഴക്ക	-11.027
പ്പെട്ടിട്ടുള്ള	-11.027
▁ഭാരതത്തിന്റെ	-11.027
▁മുങ്ങിയ	-11.0272
▁നഷ്ടമായ	-11.0273
▁ഗോവ	-11.0273
▁രാജ്യങ്ങൾ	-11.0277
▁വഴിക്ക	-11.0278
▁കനക	-11.028
ത്താലും	-11.0283
▁വളർത്തിയ	-11.0284
▁സ്ഥൂല	-11.029
▁കഴിയുന്നു	-11.0292
താക	-11.0293
▁അമിത	-11.0293
▁ചോദിക്കും	-11.0294
ിത്തീർന്നു	-11.0296
▁പറങ്കികൾ	-11.0301
▁പിന്താങ്ങ	-11.0303
▁അവലോകിതേശ്വര	-11.0305
വാക്ക	-11.0305
▁തന്നു	-11.0306
▁പൊതിഞ്ഞു	-11.0306
ോടാണു്	-11.0308
▁r	-11.031
യൊന്നുമില്ല	-11.0314
▁കൂടുന്ന	-11.0315
ത്തിലുമ	-11.0316
▁കൃത	-11.0317
ാറുണ്ടെന്നു	-11.0318
▁ഡേ	-11.0322
രീതിയുടെ	-11.0322
മൂല്യങ്ങൾ	-11.0324
▁കീഴില	-11.0326
കണ്ടുപിടിക്കുവാൻ	-11.0328
▁കീറി	-11.033
ുവെന്നതു്	-11.033
▁തപസ്സു	-11.0331
സമരം	-11.0331
പുറത്ത	-11.0334
വംശം	-11.0336
▁പ്രഭാ	-11.0337
വ്യത്യാസം	-11.0338
ുന്നതെന്നു്	-11.0338
വസ്തുക്കള	-11.0339
േറ്റ്	-11.0339
ഭഗവ	-11.034
കണക്ക	-11.0344
ാറുണ്ടായിരുന്ന	-11.0347
▁ഭാരവാഹി	-11.0347
▁ഇരുള	-11.0348
കളിലെല്ലാം	-11.0353
ിനെക്കുറിച്ചു്	-11.0354
▁82	-11.0355
ുമുണ്ടായിരുന്നു	-11.0357
▁കുറ്റവാളി	-11.0359
ഗീത	-11.0361
പറഞ്ഞു്	-11.0362
▁അഞ്ചു്	-11.0363
ലംഘന	-11.0364
▁വഴിതെളി	-11.0364
മിട്ടു	-11.0365
▁അഭിനന്ദന	-11.0365
▁അതെന്ത	-11.0366
▁കാരണമായ	-11.0367
ായിരുന്നെങ്കിലും	-11.0367
സീറ്റ	-11.0368
ഡർ	-11.0369
വ്യവഹാര	-11.0369
ധ്വനി	-11.037
മര്യാദ	-11.037
നടപടി	-11.0371
ഹിന്ദു	-11.0371
ഗാന്ധി	-11.0371
മലയാള	-11.0372
ബീജ	-11.0373
▁വിട്ടുകൊടുത്ത	-11.0378
▁വ്യക്തിയെ	-11.0379
▁ഉന്നയിക്ക	-11.0383
▁ഗവണ്മെന്റ	-11.0385
▁മൂർത്തി	-11.0385
രാജാവിന	-11.0385
▁നാവു	-11.0386
ാനുണ്ടു്	-11.0388
ദേവന	-11.0388
ിനെപ്പറ്റിയുള്ള	-11.0389
▁ബഹ	-11.0389
▁അസംബന്ധ	-11.0394
▁വിമർശിച്ച	-11.0394
▁കവിക്കു	-11.0396
▁പഴം	-11.0397
▁മേനോന	-11.0398
▁ശിവനു	-11.0399
▁കർത്തവ്യ	-11.04
▁അന്യോന്യ	-11.04
▁പിൻബല	-11.04
▁വള്ള	-11.04
▁പ്രത്യക്ഷമായ	-11.0401
▁കുട്ടികൃഷ്ണമാരാ	-11.0401
▁അഭയ	-11.0401
▁നീങ്ങുന്ന	-11.0406
ാഭിപ്രായ	-11.0407
▁വികസനം	-11.0408
▁അനുവാദ	-11.0408
വ്യവസ്ഥിതി	-11.0409
െപ്പോലുള്ള	-11.0412
▁72	-11.0414
▁സുവ്യക്ത	-11.0415
▁ചേരരാജാവ	-11.0418
▁വിധിച്ചു	-11.0426
▁ഒതുക്ക	-11.043
ശതാബ്ദ	-11.0431
▁പറ്റുന്ന	-11.0433
ത്രയ	-11.0435
ക്കുമെതിരെ	-11.0437
▁പിടികൂട	-11.0438
യിലായിരുന്നു	-11.0439
▁അഭിനയിക്ക	-11.0441
▁വഴിതെറ്റി	-11.0444
▁ബന്ധുവ	-11.0448
▁മനുഷ്യരിൽ	-11.0449
കാരന്മാർ	-11.045
തായിട്ട	-11.0452
▁തുച്ഛ	-11.0454
▁പുറത്തിറങ്ങ	-11.0454
▁കവിയും	-11.0459
▁അറ്റത്തു	-11.0462
റ്റിക്	-11.0463
▁തുടങ്ങുക	-11.0463
സിനു്	-11.0463
ക്കണമെന്ന	-11.0464
െറിഞ്ഞു	-11.0464
▁മാഹാത്മ്യ	-11.0464
▁പറയപ്പെടുന്ന	-11.0465
▁വേട്ടയാട	-11.0467
പ്പുറവും	-11.0467
▁ദൃശ്യം	-11.0469
▁ആഴ്ചപ്പതിപ്പ	-11.047
▁ചിര	-11.047
▁വാർത്തകൾ	-11.0472
ുയർത്തി	-11.0475
▁ഊന്നി	-11.0478
ചെയ്തിട്ടുള്ളതു്	-11.048
▁പിറവി	-11.0481
▁ഭീഷ്മ	-11.0484
▁ഉടുപ്പ	-11.0486
▁സ്പിനോസ	-11.0489
ാദികൾ	-11.0492
▁ഗംഗാധര	-11.0493
▁ഡയറക്ടറ	-11.0493
ാക്കുന്നതു്	-11.0494
ാരോപ	-11.0494
▁ശിവഗിരി	-11.0496
▁അസ്ഥി	-11.0498
തെന്തിനു്	-11.05
കാണും	-11.0502
നാർ	-11.0504
സ്റ്റോ	-11.0505
▁ആഗോള	-11.0506
യുണ്ടാകുന്ന	-11.0508
പ്പോഴേയ്ക്കും	-11.0509
മാകുമ്പോൾ	-11.051
▁ഇടപെടുന്ന	-11.0512
▁കക്കാട	-11.0512
▁കരിങ്ക	-11.0512
▁മനുഷ്യരാശി	-11.0514
▁അല്ലാഹു	-11.0516
▁പൃഥ	-11.0516
▁1992	-11.0517
▁അനേകായിരം	-11.0517
▁അഭിലാഷ	-11.0517
▁ആകർഷണ	-11.0517
▁ആർകൈവ്	-11.0517
▁ഇടനാഴി	-11.0517
▁ഇടുങ്ങിയ	-11.0517
▁ഉസാമ	-11.0517
▁ഏജന്റ	-11.0517
▁ഗാന്ധാര	-11.0517
▁നിരാകരിച്ചു	-11.0517
▁പംക്തി	-11.0517
▁പെരുന്തച്ചൻ	-11.0517
▁പ്രൈവറ്റ്	-11.0517
▁ബിയനാലെയിൽ	-11.0517
▁മറികടക്ക	-11.0517
▁മുനിസിപ്പൽ	-11.0517
▁യാഥാർഥ്യ	-11.0517
▁വിവേകാനന്ദൻ	-11.0517
▁വെറുമൊരു	-11.0517
▁വെള്ളിയാഴ്ച	-11.0517
▁ശിവദാസൻ	-11.0517
▁ശ്രുതി	-11.0517
▁സോമബ്രഹ്മാവ	-11.0517
▁സ്തൂപ	-11.0517
▁ഉദാഹരിക്കുന്ന	-11.0517
▁കാപട്യ	-11.0517
▁ചെട്ടിച്ച	-11.0517
▁പറയിപെറ്റ	-11.0517
▁മാലാഖ	-11.0517
▁റബ്ബർ	-11.0517
▁എപ്പോഴെങ്കിലും	-11.0517
▁മുറുകെ	-11.0517
▁കൂട്ടാക്കിയില്ല	-11.0517
▁ഇറ്റലി	-11.0517
▁കൊള്ളരുതാത്ത	-11.0517
▁മുന്തിയ	-11.0517
▁ഒന്നാന്തരം	-11.0517
▁അടിത്തറ	-11.0517
▁സ്ഥിതിഗതികൾ	-11.0517
▁അച്ഛാ	-11.0517
▁അങ്ങനെയെങ്കിൽ	-11.0517
▁ഉത്കൃഷ്ട	-11.0517
▁കുരിശുമുടി	-11.0517
▁ഗൂഢാലോചന	-11.0517
▁മരുമകന	-11.0518
▁1938	-11.0518
▁വെളിപാട	-11.0518
▁വൃത്തികേട	-11.0518
▁മഴനൃത്ത	-11.0518
▁ആശ്രിത	-11.0518
▁വോട്ടെണ്ണ	-11.0518
▁കിണറ്റ	-11.0518
▁പഴമൊഴി	-11.0518
▁ഈജിപ്തുകാർ	-11.0518
▁ആദർശശാലി	-11.0518
▁ശകലം	-11.0519
▁ചേച്ചി	-11.0519
▁ശാസ്ത്രജ്ഞൻ	-11.0519
▁ഉഷ്ണ	-11.0519
▁റബർ	-11.0519
▁നൂല	-11.052
▁പെരുമാറുന്ന	-11.052
▁ഒരത്ഭുത	-11.052
▁മൂന്നുപേരും	-11.052
▁ഗോകർണ	-11.052
▁മന്ത്രവാദി	-11.0521
▁ജാഥ	-11.0521
മായിത്തോന്നി	-11.0521
പുസ്തകം	-11.0521
പോകുന്നതു്	-11.0522
▁നിരോധിച്ച	-11.0522
▁മൈസൂരിലെ	-11.0522
▁യജ്ഞ	-11.0522
▁മുഹമ്മദലി	-11.0522
▁സന്ദേശകാവ്യ	-11.0522
വിതരണ	-11.0523
▁സെന്റർ	-11.0523
▁തിരക്കഥ	-11.0523
▁മാത്രമാകുന്നു	-11.0523
▁ഫാഷിസ	-11.0523
▁മറ്റൊരാളുടെ	-11.0524
▁ഉണ്ടല്ലോ	-11.0524
▁വീക്ഷണകോടി	-11.0524
ക്കുന്നതിനു്	-11.0526
▁ഉമാർ	-11.0526
▁അക്കാര്യം	-11.0526
ായിരുന്നല്ലോ	-11.0527
▁മതിലുകൾ	-11.0527
▁ഇരട്ടി	-11.0528
▁ആധാരമാക്കി	-11.0529
▁ജോസഫിന്റെ	-11.0529
ശൂന്യത	-11.0529
▁പുഞ്ചിരിച്ചു	-11.0529
നെന്നു	-11.053
▁അയ്യപ്പൻ	-11.0531
▁മയങ്ങി	-11.0531
▁ശതാബ്ദത്തിലെ	-11.0532
▁പറയുകയാണെങ്കിൽ	-11.0532
▁കൽപിക്ക	-11.0533
▁കുടികൊള്ളുന്ന	-11.0533
▁തപാല	-11.0534
▁ആദ്യകാലത്തു്	-11.0534
▁വീ	-11.0534
▁പത്മനാഭൻ	-11.0534
▁രംഗപ്രവേശം	-11.0535
▁സന്തതി	-11.0535
▁നോക്കുന്നു	-11.0537
▁ചികിത്സാ	-11.0538
▁വിഭാഗത്തിന്റെ	-11.0541
▁കണ്ടുകിട്ട	-11.0542
േണ്ടതും	-11.0543
ുകകൂടി	-11.0543
തിനുള്ള	-11.0543
▁ആദ്യമേ	-11.0543
▁നൃപ	-11.0544
രൂപേണ	-11.0545
▁കോൺഗ്രസ്സിന്റെ	-11.0545
▁എന്തൊക്കെയോ	-11.0545
▁ഇവിട	-11.0546
▁പറ്റിയുള്ള	-11.0547
▁അവരെല്ലാം	-11.0548
▁നേതാവിന്റെ	-11.0548
▁റെംബ്രാൻഡ്	-11.0548
▁അത്രമാത്രം	-11.0548
▁മനുഷ്യസ്വഭാവത്ത	-11.0549
▁തെറ്റും	-11.055
▁ശേഖരിക്ക	-11.055
പാടവം	-11.055
▁ചാത്തൻ	-11.0551
▁നന്നെ	-11.0551
▁ഗുജറാത്തിൽ	-11.0552
▁പാർലമെന്റിലേക്ക	-11.0553
▁പഠിച്ചു്	-11.0553
ോന്മുഖമായ	-11.0553
▁തോമസും	-11.0554
ുന്നവരാണു്	-11.0554
▁ഏഴു്	-11.0556
▁ചുണ്ട	-11.0557
പത്രിക	-11.0558
മായിട്ടും	-11.0559
ക്കുകയോ	-11.0561
76	-11.0561
▁സ്പോർട്സ്	-11.0562
▁ചിരകാല	-11.0563
▁റോമാ	-11.0564
▁ഭരിക്കാൻ	-11.0564
▁ധ്രുവ	-11.0565
▁വില്പന	-11.0565
▁രൂപങ്ങൾ	-11.0565
▁്യാര	-11.0566
▁അംഗീകരിച്ചു	-11.0568
▁വ്യാപിച്ച	-11.0568
▁ഡൽഹിയിൽ	-11.0568
▁ഉദ്ധരിച്ചു	-11.0569
▁വിമല	-11.057
▁കയർ	-11.0571
▁തലയും	-11.0571
▁110	-11.0571
▁ഭയപ്പെട്ടു	-11.0571
▁യാത്രാ	-11.0572
▁വിഷാദാത്മകത്വ	-11.0574
▁കൃതികളും	-11.0575
▁മംഗളപത്ര	-11.0576
▁അച്ചടിച്ചു	-11.0576
കാണുന്നു	-11.0578
▁സൊ	-11.0579
▁de	-11.0582
▁ഭൃത്യ	-11.0583
▁വഷള	-11.0584
▁സൂക്ഷ്മമായ	-11.0584
▁വിലപ്പെട്ട	-11.0585
▁ഭാഷാരീതി	-11.0587
▁ഇല്ലല്ലോ	-11.0588
നോടും	-11.0588
▁പതിവാണു്	-11.0589
▁പരീക്ഷയ്ക്കു	-11.059
മുണ്ടാവില്ല	-11.0591
▁സർഗ്ഗ	-11.0592
▁തിരിച്ചറിഞ്ഞു	-11.0593
▁ആനയെ	-11.0594
ണ്ടാവില്ല	-11.0594
▁നിലയ്ക്കു	-11.0596
▁മാർക്സിസ്റ്റു	-11.0598
▁ആരംഭിച്ചതു്	-11.0598
▁രക്ഷിച്ചു	-11.0599
▁പേരുകളിൽ	-11.0602
തുകൊണ്ടുമാത്രം	-11.0602
▁കുടുംബത്തിലെ	-11.0603
▁നാട്ടു	-11.0605
▁ആലുവായിൽ	-11.0607
▁ഉന്നയിച്ച	-11.0607
തല്ലാതെ	-11.0608
▁സഞ്ചി	-11.0611
▁ഗ്രാമത്തിൽ	-11.0613
▁ദണ്ഡ	-11.0615
▁പുൽ	-11.0615
▁കാറു	-11.0615
▁la	-11.0618
▁രണ്ടെണ്ണം	-11.0618
▁റോള	-11.0619
▁ക്ഷണിച്ച	-11.0621
▁ഗത്യന്തരമില്ല	-11.0623
▁ചക്രവർത്തിയുടെ	-11.0623
▁ഒത്ത	-11.0625
▁സന്ധി	-11.0625
യുമുണ്ടായി	-11.0626
▁നോക്കിക്കൊണ്ടു്	-11.0628
▁പാത്രം	-11.0629
▁ഒരവസര	-11.0629
▁നിറയെ	-11.0632
▁വ്യത്യസ്തമായി	-11.0633
▁ഗ്രന്ഥങ്ങളിൽ	-11.0634
▁വായിക്കുന്നതു്	-11.0634
▁സാധാരണക്കാര	-11.0635
▁പ്രതിഷ്ഠിച്ച	-11.0636
▁ഉറപ്പിക്ക	-11.0636
▁ഏർപ്പെടുന്ന	-11.0637
തിനുശേഷമാണു്	-11.0638
▁പാതിരി	-11.0638
▁വേണ്ടാത്ത	-11.0638
▁ഇല്ലായിരുന്നു	-11.064
▁ഗ്രന്ഥകർത്താ	-11.064
▁പതിനെട്ട	-11.0642
സമ്പർക്കം	-11.0642
▁മുന്നേറ്റ	-11.0644
▁വിളിച്ചതു്	-11.0644
▁മുന്നേറ	-11.0646
▁പിൻഗാമിയായ	-11.0646
▁അക്കിത്ത	-11.0648
▁ഗണിക്കപ്പെടുന്ന	-11.0648
നാണെന്നും	-11.0649
▁കരഞ്ഞ	-11.0651
▁നടത്തുകയും	-11.0653
▁വരമ്പ	-11.0655
▁പരിശ്രമം	-11.066
▁മാറാട്	-11.066
െക്കുറിച്ചുള്ള	-11.0661
▁വ്യക്തമല്ല	-11.0663
▁വൈഷമ്യ	-11.0666
▁രാജ്യത്തു	-11.0666
▁ഈമാതിരി	-11.0666
▁അഗ	-11.0668
വേഷം	-11.0668
▁പദത്തിനു്	-11.0671
▁പ്രവചിച്ച	-11.0672
▁പേരിട	-11.0673
▁കാര്യങ്ങളും	-11.0674
▁സമ്മതിക്കും	-11.0674
▁വീണു്	-11.0675
▁ഊരി	-11.0676
▁മുറിയില	-11.0676
▁പ്രതിഭാ	-11.0676
▁ചോദിച്ചതു്	-11.0677
▁പ്രവർത്തിക്കാൻ	-11.0678
ക്രീ	-11.0679
▁കരാറ	-11.068
▁രാഗ	-11.0684
▁ബംഗാളിൽ	-11.0685
റുകൾ	-11.0687
▁പൊൻ	-11.0687
▁o	-11.0688
▁ഉത്തരവാദിത്തം	-11.069
▁സമ്മർദ്ദം	-11.069
▁ബഷീറി	-11.0693
▁വ്യക്തം	-11.0695
▁മറഞ്ഞ	-11.0698
▁ശ്രദ്ധയിൽ	-11.0699
▁പറയേണ്ടതു്	-11.0702
കാട്ട	-11.0705
പ്പറ്റിയും	-11.0707
രാണെന്ന	-11.071
▁രണ്ടാഴ്ച	-11.071
▁കഴിയാതെ	-11.0714
▁150	-11.0716
▁കഥാപാത്രങ്ങളെ	-11.0717
വന്നിരുന്ന	-11.0719
▁ഗുജറാത്ത്	-11.072
▁ഗോൾ	-11.0721
▁വട	-11.0721
▁ഫലമാണു്	-11.0723
▁അതിര	-11.0724
▁ഇംഗ്ലീഷു	-11.0725
▁നിലവാരം	-11.0726
മെന്നുള്ള	-11.0728
▁പാടെ	-11.0728
▁ഭിക്ഷു	-11.0729
▁നേടിയതു്	-11.0729
▁ഇരമ്പ	-11.073
യെന്നപോലെ	-11.0731
▁ചൈനയിൽ	-11.0732
▁വഴിയില്ല	-11.0737
▁ശഠിച്ചു	-11.074
▁സംകല്പം	-11.0741
▁തിരിഞ്ഞുനോക്ക	-11.0742
പോകാൻ	-11.0742
ക്കാരനായിരുന്നു	-11.0742
▁പരലോക	-11.0743
▁വെല്ല	-11.0743
▁കെട്ടിടങ്ങൾ	-11.0743
▁രാഷ്ട്രീയവും	-11.0744
▁കഴിവു്	-11.0745
▁മാഡ	-11.0745
▁അസ്ഥാനത്ത	-11.0751
ഘോഷ	-11.0754
▁ചിന്താശീല	-11.0754
മേയുള്ളൂ	-11.0755
▁മാഹാത്മ്യം	-11.0756
▁ഇംഗ്ലീഷുകാര	-11.0757
തിന്നുശേഷം	-11.0758
▁ജയിച്ചു്	-11.0761
▁കുമാരി	-11.0763
ന്നൂർ	-11.0763
▁ഒന്നിനു്	-11.0764
▁പരീക്ഷിച്ചു	-11.0765
ിലധികം	-11.0768
രുപ	-11.0769
▁പിതാവായ	-11.0769
▁ആണോ	-11.0769
▁കാണണമെന്ന	-11.077
▁ആനന്ദം	-11.0771
▁ജനങ്ങളിൽ	-11.0773
▁പരിമിതികള	-11.0774
▁ാമത്തെ	-11.0777
ea	-11.0782
നിരത	-11.0784
ശാന്തി	-11.0786
രീതിയും	-11.0788
▁വ്യക്തിത്വം	-11.0789
▁ധാരാളമ	-11.0791
▁കേട്ടതു്	-11.0792
ാഹാര	-11.0795
▁ഒരർത്ഥ	-11.0795
കേൾ	-11.0801
▁ലോകത്തിനു	-11.0802
▁തൂക്ക	-11.0805
▁കാവി	-11.0805
ങ്ങളാകുന്നു	-11.0814
▁യുദ്ധത്തിന്റെ	-11.0816
ിക്കുന്നവർ	-11.0817
▁ബാഹ്യവൃത്തി	-11.0818
▁പ്രേമത്തിന്റെ	-11.082
▁കർത്താവു	-11.082
തന്നു	-11.082
പഠന	-11.0821
കളുമായ	-11.0822
▁ഇണ	-11.0824
കുമായിരുന്നു	-11.0824
രാമൻ	-11.0825
▁സാമ	-11.0825
▁വോട്ടുകൾ	-11.0826
▁ഇവർക്കു	-11.0827
▁പുറത്തുവന്നു	-11.0828
▁പുകഴ്ത്ത	-11.0831
▁ഇന്ത്യയ്ക്കു	-11.0831
▁വിസ്മരിക്ക	-11.0833
കാലഘട്ട	-11.0834
▁അവകാശവാദ	-11.0836
▁നന്മയുടെ	-11.0838
▁ദ്രോഹി	-11.0838
▁കഴുക	-11.0838
▁ചോപ്പ	-11.084
ലൂടെ	-11.0842
▁കേരളത്തിലേക്കു	-11.0843
ായിട്ടും	-11.0844
▁കാലിൽ	-11.0846
പ്പിച്ചതു്	-11.0846
കളിലൊന്നായ	-11.0853
ചിഹ്ന	-11.0854
▁രാമന	-11.0856
▁കാലുകൾ	-11.0856
▁കളിക്കുന്ന	-11.0856
▁ലാവണ്യ	-11.0858
▁വാസു	-11.0859
▁യോജിച്ചു	-11.0865
▁ശിൽപ	-11.0865
▁വിവേകം	-11.0869
▁പ്രാണി	-11.0872
ിനുശേഷം	-11.0874
ക്കൊണ്ടുള്ള	-11.0879
▁വാക്കുകൊണ്ടു	-11.088
വസ്ത്ര	-11.088
▁രാജാവിനു	-11.088
തുകൊണ്ടാവാം	-11.0881
മാരിൽ	-11.0882
▁എന്നുമുള്ള	-11.0882
▁ബസ്സിൽ	-11.0887
▁പരിണമിക്ക	-11.0888
▁കാലമായിരുന്നു	-11.0888
പ്പോഴേ	-11.089
▁രക്ഷപ്പെടാൻ	-11.0891
▁ഉപയോഗിച്ചിരുന്ന	-11.0892
▁മാർഗം	-11.0893
▁പ്ലാന	-11.0894
▁എഴുതും	-11.0896
ുണർന്ന	-11.0897
ല്ലാതാ	-11.0898
▁പരാമർശ	-11.0899
▁ചാനല	-11.09
▁പരീക്ഷണം	-11.0901
േനേ	-11.0903
▁വ്രത	-11.0907
▁എച്ചി	-11.0908
▁വർഗ്ഗത്തിന്റെ	-11.0908
▁തടയാൻ	-11.091
▁ചെയ്യുന്നതും	-11.0911
കളേക്കാൾ	-11.0911
▁ഇദ്ദേഹത്തെ	-11.0911
ഗ്രന്ഥങ്ങളുടെ	-11.0912
▁കരുണാകരനു	-11.0913
▁മിസ്റ്റി	-11.0915
ിരുന്നാൽ	-11.0916
▁പ്രാധാന്യമ	-11.0918
▁ചിന്തയുടെ	-11.0922
▁തീറ്റ	-11.0923
ിരിയ്ക്കുന്ന	-11.093
▁ഗുണവും	-11.0931
ുന്നുള്ളു	-11.0932
▁പ്രതികരണ	-11.0933
ഛ	-11.0937
▁അളവ	-11.0942
ിരുന്നതുകൊണ്ടു്	-11.0943
വേലി	-11.0943
▁ഉള്ളടക്ക	-11.0943
▁ബന്ധവും	-11.0944
▁മീന	-11.0945
ന്മാരോടു	-11.0945
▁ചായം	-11.0947
യെന്നോ	-11.0948
സഹജമായ	-11.095
▁മുരളീധരനെ	-11.0951
ക്കാലത്തു്	-11.0954
ിട്ടുണ്ടെന്ന	-11.0954
▁ഫ്രാൻസ	-11.0954
ുണ്ടെന്നുള്ള	-11.0954
▁നിഴലിക്കുന്ന	-11.0955
▁മോശമായി	-11.0956
തലമുറ	-11.0956
▁കൊൽക്കത്ത	-11.0957
▁കോര	-11.0958
▁അകത്തെ	-11.0958
പ്രണയ	-11.0958
▁മണിയുടെ	-11.0958
പരാജയ	-11.0959
മുഴുവൻ	-11.0959
▁ഭിന്നമായ	-11.0963
വീട്ടിൽ	-11.0963
▁ആകൃതി	-11.0964
വരായ	-11.0964
യായിട്ടും	-11.0965
▁സമ്പാദിച്ചു	-11.0971
വിശേഷം	-11.0972
▁ബുദ്ധമതം	-11.0975
ാസക്തി	-11.0975
▁ഗ്രാമം	-11.0981
▁കണ്ടോ	-11.0981
ഭിപ്രായ	-11.0981
▁വന്നിട്ടില്ല	-11.0982
▁തിരിച്ചുപോക	-11.0982
▁പിൽക്കാല	-11.0985
കൊള്ളാം	-11.0985
▁ശാകുന്തള	-11.0986
▁പ്രദേശം	-11.0988
▁എഴുപതു	-11.0988
▁പ്രചോദന	-11.0989
ക്കാണു	-11.0989
▁പ്രക്രിയ	-11.099
▁സ്വര	-11.0995
▁ദിനപത്ര	-11.0999
▁ശാന്തമായ	-11.0999
▁ബാബിലോണിയ	-11.1002
ക്കുമെന്നു	-11.1003
ിലല്ല	-11.1006
▁അസുഖ	-11.1007
▁ബാർ	-11.1011
തുകൊണ്ടല്ല	-11.1012
ോടുകൂടിയ	-11.1014
▁ലൈംഗികത	-11.1015
▁മനോരാജ്യ	-11.1018
▁പരിണാമം	-11.1019
ണമോ	-11.1019
ലിനു്	-11.1022
▁ദൈനംദിന	-11.1023
▁പറങ്കി	-11.1024
▁ഉറപ്പുവരുത്ത	-11.1027
▁മുഖ്യമന്ത്രിപദ	-11.1029
▁ഇണക്ക	-11.103
▁പങ്കാളി	-11.1032
▁ചക്ക	-11.1033
ത്തോടൊപ്പം	-11.1033
▁ഭാഗങ്ങള	-11.1035
പോവുകയും	-11.1036
▁വൈഭവ	-11.1038
ത്തൊഴിലാളി	-11.1039
▁പാട്ടിൽ	-11.1045
▁സ്ഥാനാർത്ഥികൾ	-11.1046
▁വിഷമിക്ക	-11.1048
▁വിഭജന	-11.1049
▁കോവില	-11.105
കൊള്ളുക	-11.1052
ായിട്ടുണ്ടു്	-11.1052
▁കുറിച്ചു	-11.1053
▁മതഭ്രാന്ത	-11.1057
▁ചെയ്യുന്നതിൽ	-11.1059
▁സ്ഥിരമായ	-11.1059
ബോധമുള്ള	-11.106
▁ശാസ	-11.1061
▁മൂർച്ഛ	-11.1062
▁രക്ഷപ്പെട്ട	-11.1066
▁രൂപമാണു്	-11.1067
▁അവരോധ	-11.1069
▁വ്യക്തമാക്ക	-11.107
▁ബാല്യകാല	-11.107
▁അവതാരിക	-11.1071
▁പഠനം	-11.1072
▁മുന്നേറി	-11.1072
▁സമയമില്ല	-11.1074
▁പിക്കാസോ	-11.1077
▁ഈഴവർ	-11.1079
▁തടവി	-11.1079
വസ്ത്രം	-11.1079
▁അദ്ദേഹത്തിനുള്ള	-11.1079
ിരുന്നുള്ളൂ	-11.108
▁വയനാട	-11.108
▁സച്ചിദാനന്ദ	-11.1081
▁മാർക്സ	-11.1081
▁കല്പന	-11.1085
▁ഹാസ്യം	-11.1087
▁രൂപാന്തരപ്പെട	-11.1089
▁പിറ്റേ	-11.1089
മ്പാടും	-11.1091
ോവ്	-11.1091
നിരോധ	-11.1092
ാവതാര	-11.1094
▁ഭക്ഷ്യ	-11.1095
▁എന്തിനാ	-11.1096
▁പാഴാക്ക	-11.1098
▁അനന്യ	-11.1098
▁ചെറുപ്പക്കാരന	-11.1098
▁പവിത്ര	-11.1099
▁ജനതതി	-11.11
▁ജോസഫേട്ടന	-11.1102
▁നിരപരാധി	-11.1103
▁ശ്രീകൃഷ്ണ	-11.1103
▁തുനിയ	-11.1104
ഗാംഭീര്യ	-11.1104
▁വീക്ഷിക്ക	-11.1105
ie	-11.1105
ഗ്വേദ	-11.1105
▁ദ്വൈത	-11.1105
▁ബഹൻജി	-11.1105
orld	-11.1105
▁1928	-11.1105
▁life	-11.1105
▁അകൃത്രിമ	-11.1105
▁അഡ്വക്കേറ്റ്	-11.1105
▁അപ്പേട്ടനു	-11.1105
▁ആറന്മുള	-11.1105
▁ആവിർഭവിച്ച	-11.1105
▁ഉപരിപ്ലവ	-11.1105
▁ജുഡീഷ്യൽ	-11.1105
▁താൽക്കാലിക	-11.1105
▁തിരുമങ്കൈ	-11.1105
▁ദലേലാമ	-11.1105
▁നരബലി	-11.1105
▁നൈതിക	-11.1105
▁പിറകെ	-11.1105
▁പെരിന്തൽമണ്ണ	-11.1105
▁പ്രത്യുപകാരം	-11.1105
▁മോഡൽ	-11.1105
▁ലാഞ്ഛന	-11.1105
▁വേണ്ടുവോളം	-11.1105
▁ശസ്ത്രക്രിയ	-11.1105
▁ഹ്രസ്വ	-11.1105
▁അടിച്ചമർത്ത	-11.1105
▁കാർത്തികേയന	-11.1105
▁ദുർബ്ബല	-11.1105
▁പ്രസാധന	-11.1105
▁മെന്റൽ	-11.1105
▁സർവോപരി	-11.1105
▁കൽക്കത്ത	-11.1105
▁കാലാന്തരത്തിൽ	-11.1105
▁ഫാസിസ	-11.1105
▁ന്യൂനത	-11.1105
▁മോഷ്ടിക്ക	-11.1105
▁നായിഡു	-11.1105
▁സ്വസ്ഥത	-11.1105
▁കേന്ദ്രീകരിച്ച	-11.1105
▁സങ്കൽപ്പ	-11.1105
▁കരച്ചിൽ	-11.1105
▁ലക്ഷ്മണൻ	-11.1106
▁വർക്കല	-11.1106
▁സരള	-11.1106
▁നോവലിസ്റ്റ	-11.1106
▁കൊടുമുടി	-11.1106
▁നിർവ്വചിക്ക	-11.1106
▁1994	-11.1106
▁1949	-11.1106
▁സലാം	-11.1106
▁2005	-11.1106
▁ഉച്ചാരണ	-11.1106
▁യാതൊന്നുമില്ല	-11.1106
▁പ്രതിസന്ധി	-11.1106
▁ഹെറാക്ലിസ്സ	-11.1106
▁വെണ്മണി	-11.1107
▁പോളിറ്റ്	-11.1107
▁ഫയൽ	-11.1107
▁പത്മിനി	-11.1107
▁ശത്രുക്കൾ	-11.1107
▁ഫ്രീ	-11.1108
▁വിഷ്ണുവിന്റെ	-11.1108
▁പ്രസരിപ്പ	-11.1108
▁തോന്നിപ്പോകും	-11.1108
▁നമുക്കറിയാം	-11.1108
ായ്കയാൽ	-11.1108
▁അപരനാമ	-11.1108
▁മഞ്ചേരി	-11.1108
▁കൊച്ചച്ഛന്റെ	-11.1108
▁എന്തുചെയ്യും	-11.1109
▁ഷോട്ട	-11.1109
▁ലീഗുകാര	-11.1109
▁അതീവ	-11.111
▁ഉപനിഷത്തുകള	-11.111
▁പാഠശാല	-11.111
▁ആൾവാർമാരുടെ	-11.111
▁സാധിക്കുന്നതല്ല	-11.111
▁തണല	-11.111
▁കുതിച്ചു	-11.111
▁000	-11.1111
▁ഹെഡ്	-11.1111
ചര്യ	-11.1111
▁ഒരവസ്ഥ	-11.1112
▁ചർച്ചാവിഷയ	-11.1113
▁അസഹ്യമായ	-11.1113
▁അന്തരിച്ചു	-11.1113
േയ്ക്കും	-11.1113
▁ഹർഷ	-11.1113
▁ഭാനു	-11.1113
▁മൂപ്പരുടെ	-11.1113
▁മേയ്	-11.1114
▁ആനുകൂല്യങ്ങൾ	-11.1114
▁കുറെനേരം	-11.1115
▁അവിടെയുള്ള	-11.1116
▁എമ്മിലെ	-11.1117
▁കലർപ്പ	-11.1117
▁അനങ്ങാതെ	-11.1117
▁പരിചയമില്ലാത്ത	-11.1118
▁മാർത്തോമാ	-11.1118
▁ശരിയാണോ	-11.1118
കാരനാണു്	-11.1119
▁വെടിയേറ്റു	-11.1119
▁പലതുണ്ടു്	-11.1119
ാഖ്യാ	-11.112
▁രാജ്യസഭയിലേക്കു	-11.112
▁കഴിയുന്നത്ര	-11.1121
▁കലർത്തി	-11.1122
▁സപ്തർഷികൾ	-11.1122
▁ഇവയൊക്കെ	-11.1122
▁സിദ്ധാന്തങ്ങൾ	-11.1123
▁ഹാസ്യസാഹിത്യ	-11.1126
▁അപ്രതീക്ഷിതമായ	-11.1126
രുമായി	-11.1127
മാണെന്നാണു്	-11.1127
ഷധ	-11.1127
കാട്ടി	-11.1127
▁സൂചക	-11.1127
▁ചെണ്ട	-11.1127
▁നോവലിലെ	-11.1128
വരെല്ലാം	-11.1129
▁സമ്മതിക്കാം	-11.1129
▁കാറൽ	-11.1129
▁കുറിപ്പു്	-11.113
▁രാജ്യസഭാംഗ	-11.1131
▁പ്രാമുഖ്യം	-11.1131
▁നാല്പതു	-11.1131
മാർക്കറ്റ	-11.1132
▁ഇക്കാലത്തെ	-11.1132
ല്ലെങ്കിലും	-11.1132
▁പാഴ്	-11.1133
കോശ	-11.1134
ക്കിടന്നു	-11.1134
ായിരുന്നുവെന്നു്	-11.1134
▁പരത്തുന്ന	-11.1134
▁ആരാധ്യ	-11.1134
▁ഓരോരുത്തരും	-11.1135
▁ജീവിക്കുക	-11.1135
▁എങ്ങനെയെങ്കിലും	-11.1135
▁സാധിക്കാതെ	-11.1135
▁ധനകാര്യ	-11.1136
ിരുത്തി	-11.1136
▁ചോദ്യത്തിനു	-11.1136
യെത്തന്നെ	-11.1137
▁ജഡ	-11.1137
▁വല്ലവരും	-11.1138
▁കപ്പലിൽ	-11.1139
▁ജീവിതചിന്ത	-11.114
▁അപ്പുറത്തു	-11.114
▁അതിലൂടെ	-11.1141
▁ആവാം	-11.1141
▁സഹായത്തോടെ	-11.1142
▁നിർബന്ധം	-11.1143
▁യുക്തിക്കു	-11.1143
▁സിദ്ധിക്കുന്ന	-11.1143
▁അനാചാര	-11.1145
▁നിർവ്വഹിക്കുന്ന	-11.1145
▁പാമ്പു	-11.1145
ായിരുന്നോ	-11.1145
▁പ്രതിപാദനം	-11.1147
▁കാഴ്ചപ്പാടു്	-11.1148
തരും	-11.115
▁തെളിയിക്കാൻ	-11.115
▁നാട്ടുകാരുടെ	-11.1151
▁പാർട്ടികൾ	-11.1152
മനോഭാവം	-11.1153
▁അശുദ്ധ	-11.1153
▁മറ്റൊരാളെ	-11.1153
യെപ്പോലുള്ള	-11.1154
സമാജ	-11.1154
▁ചോദിക്കാം	-11.1155
▁പ്രസംഗിക്കാൻ	-11.1155
ക്കാര്യം	-11.1156
▁സമകാല	-11.1157
▁കാണേണ്ടതു്	-11.1157
▁എതിർക്കാൻ	-11.1158
▁വേണ്ടിവരും	-11.1158
▁ലക്ഷണങ്ങൾ	-11.1159
▁തല്ക്കാലം	-11.116
▁വിശദമാക്ക	-11.116
▁തൈ	-11.1161
▁മരിച്ചപ്പോൾ	-11.1161
▁ചുമരിൽ	-11.1161
▁ചങ്ങനാശ്ശേരി	-11.1162
ങ്ങളെക്കൊണ്ടു	-11.1162
▁അവളൊന്നും	-11.1163
▁ഞാനിതു	-11.1164
▁തരാം	-11.1165
▁വരുത്താൻ	-11.1165
▁രസിക്കാൻ	-11.1165
▁നീളെ	-11.1166
ക്കുളം	-11.1168
വുമെല്ലാം	-11.1168
▁നമ്മളെ	-11.1169
ായിപ്പോയി	-11.1169
▁കാലടി	-11.1172
▁ശക്തിയെ	-11.1172
▁ചോദിയ്ക്ക	-11.1173
▁ലക്ഷ്മി	-11.1174
▁ശിരസ്സ	-11.1174
▁പോയിട്ടു്	-11.1175
▁ദീക്ഷി	-11.1175
▁അടച്ച	-11.1175
▁ബന്ധമുള്ള	-11.1176
▁രൂപഭേദമ	-11.1177
ലേഖനം	-11.1178
▁ഗീതയിൽ	-11.1178
▁ചൊല്ലു്	-11.1182
▁സിൻഡിക്കേറ്റ്	-11.1182
ണിക്ക	-11.1183
▁മതിയായിരുന്നു	-11.1183
▁വാദിക്കുന്നതു്	-11.1183
▁കഥാപാത്രങ്ങളുടെ	-11.1183
▁പ്രത്യേകതകൾ	-11.1183
ായിത്തന്നെ	-11.1184
▁നിലച്ചു	-11.1186
▁തിരുത്തി	-11.1187
▁ഇരിക്കുന്നു	-11.1188
▁കൺഫ്യുഷ്യസ്	-11.1188
▁ഉപമാന	-11.1189
▁മൂന്നോ	-11.1191
▁കവിക്കു്	-11.1192
സ്കി	-11.1193
▁വിജയനെ	-11.1194
▁മാത്രമാണെന്നും	-11.1194
▁മീൻ	-11.1196
▁രാമനും	-11.1196
▁ജനസംഘ	-11.1199
▁ശാസ്ത്രജ്ഞന്മാര	-11.1201
തിലൂടെ	-11.1202
▁വാസ്തവമാണു്	-11.1203
▁രോഗിയുടെ	-11.1204
▁എഴുത്തുകാരും	-11.1205
▁ആശ്രയിക്ക	-11.1206
▁അൽ	-11.1208
പൊട്ടി	-11.1208
▁അകാലി	-11.1208
▁തെറ്റാണു്	-11.1208
un	-11.1209
▁തമിഴു്	-11.1209
▁സമീപന	-11.1212
ക്കപ്പെട്ട	-11.1212
ിരിക്കില്ല	-11.1212
സുന്ദരമായ	-11.1212
▁മഹത്വം	-11.1218
▁വേട	-11.1219
▁മുല	-11.1219
▁വ്യത്യസ്തമാണു്	-11.122
▁വിധത്തില	-11.1221
and	-11.1221
▁ഒഴിഞ്ഞുമാറ	-11.1222
▁സമയത്തും	-11.1226
▁കഴിഞ്ഞിട്ടും	-11.1227
▁എന്തേ	-11.123
▁ആവരണ	-11.1231
▁അന്യോന്യം	-11.1231
▁വ്യവസ്ഥകൾ	-11.1232
▁ലൊ	-11.1232
▁നമുക്കുള്ള	-11.1233
▁ഭരണകൂടം	-11.1235
▁അഴിമതിക്കാര	-11.1237
ിക്കുമോ	-11.1238
ent	-11.124
ാനന്തരം	-11.124
▁പ്രസ്സ	-11.124
▁പറഞ്ഞപോലെ	-11.1242
▁വിശകലന	-11.1244
▁പരാമർശിക്ക	-11.1244
▁രേഖപ്പെടുത്തി	-11.1246
കൊണ്ടിരിക്കുക	-11.1247
▁പറഞ്ഞില്ലേ	-11.125
▁തേച്ചു	-11.1251
ിലുമൊക്കെ	-11.1252
▁പ്രാസ	-11.1252
▁ആക്ഷേപിക്കുന്ന	-11.1253
▁പരിചയക്കാര	-11.1253
▁മൂലധനം	-11.1253
ക്ട്	-11.1254
▁വ്യത്യാസത്തിൽ	-11.1257
ver	-11.1257
▁കടലാസ്സിൽ	-11.1258
തിനാണു്	-11.1259
▁സാധനങ്ങളുടെ	-11.1261
▁മന്ത്രിയെ	-11.1262
▁കുണ്ട	-11.1264
▁അധ്യായം	-11.1267
▁കൊണ്ടുവന്നതു്	-11.1268
▁അടങ്ങിയിരിക്ക	-11.1268
▁ഹാസം	-11.1268
▁ചരിത്രത്തിന്റെ	-11.1272
▁കൊടുക്കണം	-11.1272
▁പ്രാധാന്യമുള്ള	-11.1273
▁കൂട്ടിയ	-11.1275
▁മാർക്സിന	-11.1276
[...]
