<unk>	0
<s>	0
</s>	0
ം	-3.83845
▁	-4.16873
്	-4.33643
ു	-4.5131
▁ഒരു	-4.83823
യ	-5.04749
ി	-5.08143
മ	-5.25126
▁ആ	-5.34983
▁ഈ	-5.36734
ാ	-5.37734
ൻ	-5.39599
യും	-5.46054
വും	-5.47537
ത്തിൽ	-5.47815
ത	-5.48238
ക	-5.49818
ര	-5.50252
വ	-5.52972
▁എന്ന	-5.57835
ും	-5.59335
ന	-5.60897
േ	-5.61032
ക്ക	-5.61352
മായ	-5.6625
ങ്ങൾ	-5.72639
യിൽ	-5.73191
തു്	-5.76299
ത്തിന്റെ	-5.76708
ോ	-5.8141
യുടെ	-5.81413
ത്ത	-5.82191
ു്	-5.83458
▁അ	-5.86923
ർ	-5.89231
ാൻ	-5.95671
ിൽ	-5.99213
െ	-6.00734
മാണു്	-6.01563
ുന്ന	-6.03195
ത്തെ	-6.0321
മായി	-6.04843
സ	-6.08641
ല	-6.11024
കൾ	-6.1211
ൽ	-6.20005
ില്ല	-6.23007
പ	-6.23515
ണ	-6.2616
ട	-6.26751
യാണു്	-6.29587
റ	-6.31495
സ്	-6.31775
യെ	-6.33024
▁പി	-6.33194
ാണു്	-6.36406
ിന്റെ	-6.3675
ള	-6.37997
▁എന്നു	-6.39266
പ്പ	-6.39294
ിച്ചു	-6.40553
ീ	-6.41337
തു	-6.43802
ക്കു	-6.4477
ന്റെ	-6.47736
▁എ	-6.49365
ച്ച	-6.50292
▁അദ്ദേഹം	-6.50473
▁വി	-6.52737
▁ഞാൻ	-6.53353
ക്കു്	-6.55472
▁സി	-6.5565
▁ക	-6.59029
▁എന്നു്	-6.59886
ിയ	-6.62765
ുക	-6.64172
ിച്ച	-6.64588
ല്ല	-6.64604
ാൽ	-6.64755
ൂ	-6.65146
ന്ന	-6.6546
ായ	-6.66865
▁മ	-6.67379
യോ	-6.69305
ങ്ങളും	-6.70735
ായി	-6.72552
ശ	-6.72595
ദ	-6.7415
▁ത	-6.74837
▁ഇ	-6.75096
▁സ	-6.77927
ഹ	-6.80674
തന്നെ	-6.80919
ങ്ങളിൽ	-6.82765
ട്ട	-6.82816
്യ	-6.83859
▁അവർ	-6.84212
ണ്ട	-6.86724
▁അതു	-6.87837
▁തന്നെ	-6.88631
ത്തിലെ	-6.88693
ാം	-6.89311
നും	-6.91536
ുന്നു	-6.91628
▁ച	-6.91825
ച	-6.91889
▁കെ	-6.91891
ുന്നതു്	-6.92112
▁അതു്	-6.92875
ിക്ക	-6.92987
വി	-6.94572
ഗ	-6.95868
യിലെ	-6.9589
പ്പോൾ	-6.95944
റ്റ	-6.96279
ണം	-6.96487
മ്പ	-6.97192
ത്തിനു	-6.97562
ഴ	-6.98617
ത്തിനു്	-6.98742
▁പക്ഷേ	-6.9975
നായ	-7.00112
▁ചില	-7.00229
▁പ	-7.00749
ാതെ	-7.00981
നെ	-7.0146
▁പറഞ്ഞു	-7.02089
നി	-7.02126
▁അവൾ	-7.02561
പ്പെട്ട	-7.03093
ജ	-7.03098
ിലെ	-7.03636
ച്ചു	-7.0364
▁തന്റെ	-7.04232
ിട്ടുണ്ടു്	-7.05015
▁എം	-7.05365
ാന	-7.05524
ിക	-7.06852
ത്തു	-7.06935
ങ്ങളുടെ	-7.07438
ുകയും	-7.0744
തി	-7.0759
▁ന	-7.08201
ലി	-7.08577
ാവ	-7.08744
ുള്ള	-7.0932
കള	-7.0933
മുള്ള	-7.10109
ാത്ത	-7.10616
ുണ്ടു്	-7.1073
ിക്കുന്ന	-7.10848
▁പല	-7.12134
യുള്ള	-7.13778
ിരിക്കുന്നു	-7.14446
യായി	-7.15007
കളും	-7.15558
ിരുന്നു	-7.15936
വര	-7.16815
വർ	-7.17085
ുവാൻ	-7.17289
ിനെ	-7.18184
ൊരു	-7.18382
ിട്ടുള്ള	-7.18917
തും	-7.19841
യ്ക്ക	-7.19973
▁കഥ	-7.20134
ഭ	-7.20775
ങ്ങള	-7.21164
പ്ര	-7.22047
ഷ	-7.22058
▁പ്ര	-7.22894
ക്ഷ	-7.24487
ുമ്പോൾ	-7.24606
മാ	-7.25162
▁സാഹിത്യ	-7.27054
കളുടെ	-7.28178
ിരുന്ന	-7.28252
ങ്ങളെ	-7.28275
ുകൾ	-7.28605
▁പറഞ്ഞ	-7.29015
▁ഇവിടെ	-7.29227
▁ബി	-7.30589
മോ	-7.31118
ബ	-7.31124
രി	-7.31311
▁ജീവിത	-7.31554
താണു്	-7.31746
▁ചെയ്തു	-7.31831
കളിൽ	-7.3206
▁മത	-7.32919
▁ഒര	-7.33449
യായ	-7.33733
▁കാണ	-7.33915
▁അതിന്റെ	-7.33919
ക്	-7.34123
▁അയാൾ	-7.34524
▁അവിടെ	-7.34584
▁അവ	-7.3508
ായിരുന്നു	-7.35258
ഞ്ഞ	-7.3675
▁നമ്മുടെ	-7.36761
ങ്ങ	-7.36792
▁എസ്	-7.37276
▁രണ്ടു	-7.3819
▁ൽ	-7.38516
▁ഡി	-7.38605
റി	-7.38855
▁എന്റെ	-7.38941
▁അദ്ദേഹത്തിന്റെ	-7.39375
▁അങ്ങനെ	-7.39481
ക്കും	-7.39508
ിത	-7.39637
കര	-7.40736
ള്ള	-7.41287
▁രാഷ്ട്രീയ	-7.41537
▁വ	-7.41992
ൈ	-7.42339
▁ഇട	-7.43031
ൊ	-7.43515
ത്തി	-7.4359
ത്തു്	-7.43638
ത്തിലും	-7.43674
▁കാല	-7.43853
▁അവരുടെ	-7.44144
കൂടി	-7.44228
▁അത	-7.44838
▁വര	-7.45293
▁ബ	-7.45479
മില്ല	-7.45675
▁ഇങ്ങനെ	-7.46124
▁കവി	-7.46388
െങ്കിലും	-7.4651
ിനു്	-7.46584
▁ശ	-7.46963
ത്ര	-7.47162
ഡ	-7.47564
▁കൈ	-7.4823
ിലും	-7.48391
കളെ	-7.48518
ന്ത	-7.48838
▁നിന്നു്	-7.49365
▁എന്നാൽ	-7.51028
രു	-7.51277
ില	-7.51673
▁തല	-7.51914
▁പിന്നെ	-7.52133
വാ	-7.52164
▁ജന	-7.52236
▁നല്ല	-7.5265
ത്തില	-7.52919
▁ജ	-7.52945
മ്മ	-7.53054
ിട്ട	-7.53304
▁പറയ	-7.53671
സി	-7.54225
▁ചെയ്ത	-7.54317
▁നി	-7.54353
ിട്ടില്ല	-7.54703
▁കേരള	-7.54986
യില	-7.55228
▁കൂടി	-7.55905
പോലെ	-7.55989
യ്ക്കു	-7.56334
ുകയാണു്	-7.56402
▁വലിയ	-7.56905
ടി	-7.57515
നം	-7.57684
▁നിന്നു	-7.57803
▁കാര്യ	-7.5836
കൊണ്ടു്	-7.58469
ങ്ക	-7.58634
▁വളരെ	-7.58986
▁ചെയ്യ	-7.59253
▁മു	-7.59392
▁എല്ലാ	-7.59453
ിച്ചു്	-7.60012
സ്സ	-7.6071
രുടെ	-7.61015
മല്ല	-7.61813
ന്നു	-7.62095
ത്	-7.62332
ൾ	-7.62978
നു	-7.63092
മേ	-7.63207
യിലും	-7.63573
▁വന്നു	-7.63956
ത്തന്നെ	-7.64802
▁സ്വ	-7.65726
ഞ്ച	-7.66257
നാ	-7.66423
▁സ്ത്രീ	-7.6664
റിയ	-7.66803
ന്മാർ	-7.66818
▁ലോക	-7.66912
യ്ക്കു്	-7.68047
e	-7.68316
യാ	-7.68475
ക്കാര	-7.68663
▁തുടങ്ങിയ	-7.68744
▁ഒന്ന	-7.68746
ധ	-7.68924
▁വന്ന	-7.69578
▁നില	-7.69774
ളി	-7.69994
▁ഏറ്റവും	-7.70086
▁എന്നും	-7.70163
▁കല	-7.70614
ാർ	-7.70959
▁അമ്മ	-7.71597
ഞ്ഞു	-7.71605
ുടെ	-7.7165
ിനു	-7.72723
ിക്കാൻ	-7.73153
മുണ്ടു്	-7.73307
സ്റ്റ	-7.74077
യില്ല	-7.74214
▁എന്തു	-7.74448
▁വഴി	-7.74856
ൗ	-7.75371
▁മാത്രം	-7.75372
കൊണ്ടു	-7.75727
ാലും	-7.7598
ിരിക്കുന്ന	-7.76208
കാര	-7.76285
▁അനു	-7.76317
▁മാ	-7.76321
▁കണ്ട	-7.76633
ഗ്ര	-7.76889
▁സ്വന്തം	-7.77079
ാനുള്ള	-7.77133
നായി	-7.77209
ാവുന്ന	-7.77693
േണ്ട	-7.77789
▁പാർട്ടി	-7.778
്യം	-7.778
പോലും	-7.78068
▁ഓരോ	-7.78277
ാര	-7.78456
ഡ്	-7.78499
▁പാ	-7.78765
▁ഗ	-7.78818
▁രൂപ	-7.79011
ത്തിനും	-7.79172
ൃ	-7.79432
▁ഇതു	-7.79566
▁ഇനി	-7.79765
▁വേണ്ട	-7.80132
▁എത്ര	-7.80789
വരെ	-7.80814
▁രാജ്യ	-7.80981
▁കഴിഞ്ഞ	-7.81066
▁കവിത	-7.81434
▁മറ്റൊരു	-7.81564
ാല	-7.81639
▁നാം	-7.81776
▁സു	-7.8252
നോ	-7.83766
▁ഉള്ള	-7.84
▁പുതിയ	-7.84031
റ്റി	-7.84983
രാ	-7.85587
ഥ	-7.86113
തായി	-7.8615
t	-7.8616
▁അറിയ	-7.86347
▁മഹാ	-7.86543
ക്കാർ	-7.86708
ംഗ	-7.87676
▁പ്രധാന	-7.88129
ാദ	-7.88385
▁ഹ	-7.88536
▁കോൺഗ്രസ്	-7.88596
ുന്നുണ്ടു്	-7.88787
മാന	-7.88852
ൊക്കെ	-7.88864
▁അതി	-7.88952
▁ആർ	-7.89046
▁ജെ	-7.89268
▁യുടെ	-7.89661
▁വില	-7.90079
▁ചിത്ര	-7.90198
ഫ	-7.90638
ിട	-7.90669
▁ഐ	-7.90896
▁ശക്തി	-7.91454
കാല	-7.91674
▁ചരിത്ര	-7.91761
s	-7.91799
▁ചെയ്യുന്ന	-7.92121
▁ഫ	-7.92477
ങ്ങളായ	-7.92869
ാസ	-7.93166
മു	-7.93549
മായിരുന്നു	-7.93822
▁ഇല്ല	-7.94038
▁മറ്റു	-7.94178
ൂർ	-7.94252
▁എന്നാണു്	-7.94417
▁മാത്രമേ	-7.94764
ത്വ	-7.94819
▁കു	-7.9483
ാനും	-7.94957
▁ഇപ്പോൾ	-7.9502
▁ഇതു്	-7.95181
നിന്നു	-7.95272
ാമ	-7.95602
▁ഇന്നത്തെ	-7.96032
▁നീ	-7.96133
▁വാ	-7.96176
കു	-7.96176
▁പോയ	-7.96335
▁ദ	-7.96342
ാള	-7.96376
ിട്ടു	-7.96549
താ	-7.96685
▁അടുത്ത	-7.96731
▁ഒന്നു	-7.97041
രായ	-7.98249
പ്പെട്ടു	-7.98358
▁അതിൽ	-7.98361
▁മലയാള	-7.98493
ത്തിന	-7.98515
▁ഓ	-7.9852
▁ശ്രീ	-7.99042
ട്ടി	-7.99132
▁സാധാരണ	-7.99258
ാക	-7.9942
ക്കി	-7.99445
ശക്തി	-7.99653
▁സാ	-7.99866
രണ	-8.00081
യു	-8.00606
ല്ലോ	-8.00692
▁ല	-8.00734
▁പര	-8.00987
ുവ	-8.01064
▁മനുഷ്യ	-8.0156
മി	-8.01678
▁ടി	-8.01697
ട്ടെ	-8.01924
0	-8.02212
▁മതി	-8.02255
ക്കുന്ന	-8.02652
ിട്ടു്	-8.02762
നു്	-8.02936
പ്പു	-8.0305
▁ഒന്നും	-8.03086
രെ	-8.0333
ൺ	-8.03454
▁കണ്ടു	-8.03856
▁ചെ	-8.04229
▁മന്ത്രി	-8.04382
റു	-8.04475
▁19	-8.04746
ത്തെപ്പറ്റി	-8.05097
▁കാര്യം	-8.05292
യായിരുന്നു	-8.05533
ീയ	-8.05873
ാക്ക	-8.06819
ാപ	-8.07078
പ്പെട	-8.0711
▁പ്രസ്തുത	-8.07112
രും	-8.07648
▁വിജയ	-8.07666
▁അവൻ	-8.07841
▁സ്നേഹ	-8.07887
സാ	-8.07957
▁നോക്കി	-8.08028
തിൽ	-8.08064
നാണു്	-8.08101
▁പറയുന്ന	-8.0811
▁കട	-8.08213
ാണു	-8.08245
▁നിയമ	-8.08385
മാർ	-8.08453
പോ	-8.09014
▁എല്ലാം	-8.09244
▁കുട്ടി	-8.09271
▁ആയ	-8.09305
▁ഏക	-8.09549
▁എൻ	-8.09766
o	-8.09975
ികൾ	-8.10151
െടുത്ത	-8.10587
ത്വം	-8.11147
ർത്ത	-8.11201
▁രസ	-8.11296
ിക്കുന്നു	-8.11538
i	-8.11631
വുമായ	-8.11673
ാണ	-8.11936
▁നാടക	-8.12051
▁കുറെ	-8.12145
▁എങ്ങനെ	-8.12179
▁പത്ര	-8.12288
▁വ്യക്തി	-8.12313
ിരിക്കുന്നതു്	-8.12633
ന്ദ	-8.12704
▁അതിനു	-8.12957
യല്ല	-8.12965
▁കാരണം	-8.13039
▁അഥവാ	-8.13236
ക്കാൻ	-8.13309
▁കര	-8.13504
ങ്ങളിലും	-8.13574
സ്ത	-8.13663
▁കുടുംബ	-8.13918
റ്റ്	-8.13995
▁ആവശ്യ	-8.14006
▁ബന്ധ	-8.1403
2	-8.14037
കൊണ്ട	-8.14087
വാദ	-8.14594
▁പുസ്തക	-8.14603
▁കോ	-8.14806
▁കൂടുതൽ	-8.14887
ലാ	-8.15048
▁മാറ്റ	-8.15151
്റെ	-8.15541
വു	-8.15621
▁സത്യ	-8.15638
ിയുടെ	-8.15678
▁കാരണ	-8.15701
▁കലാ	-8.15973
ജി	-8.16078
തിന്റെ	-8.16338
▁മുതൽ	-8.16427
▁രാജ	-8.16493
▁അന	-8.16526
മത	-8.16626
സ്ഥ	-8.16902
▁ചിന്ത	-8.17125
▁കാ	-8.17174
▁ഞാന	-8.17399
▁പ്രസംഗ	-8.17444
തുപോലെ	-8.17471
▁പൂ	-8.17836
സം	-8.17871
കല	-8.17912
▁കൊണ്ടു	-8.17994
ാട	-8.18058
ിട്ടും	-8.18107
▁സിനിമ	-8.1819
ിന	-8.18394
▁മൂന്നു	-8.1857
രം	-8.18868
▁മുഴുവൻ	-8.19082
▁കിട്ട	-8.19257
സമ	-8.19362
▁പോക	-8.19411
▁സമുദായ	-8.19641
വരും	-8.19678
തല്ല	-8.19702
രൂപ	-8.1972
▁പഴയ	-8.19907
വിന്റെ	-8.2015
പ്	-8.2036
▁നടത്ത	-8.20479
നീ	-8.20851
ങ്ങി	-8.21012
ണി	-8.21038
കൾക്കു്	-8.21056
ങ്ങൾക്കു്	-8.21232
▁ഇത്തരം	-8.21299
1	-8.21492
▁കാണാം	-8.2153
▁മര	-8.21627
▁മി	-8.21768
▁തമ്മിൽ	-8.21778
െന്ന	-8.21834
▁ഇത	-8.21938
നേ	-8.22067
▁സമ	-8.22154
▁മറ്റും	-8.22211
▁എഴുതിയ	-8.22212
▁ശരി	-8.22431
▁അത്ര	-8.22452
▁അപ്പോൾ	-8.22504
ഖ	-8.22616
തുകൊണ്ടു്	-8.22645
▁ഭാഗ	-8.22896
ൂര	-8.23009
▁ഞങ്ങൾ	-8.23106
▁പേര	-8.23239
ട്ടു	-8.23457
▁ഭാഷ	-8.23535
▁ഏതു	-8.23589
ബ്	-8.23786
ാക്കി	-8.23798
ിക്കുന്നതു്	-8.24214
▁പോയി	-8.24223
വെ	-8.24417
ുകയില്ല	-8.24606
▁മാത്രമല്ല	-8.24988
ുന്നില്ല	-8.25188
പ്പെടുന്ന	-8.25252
▁ജാതി	-8.25342
▁ഇവ	-8.25361
▁കൂട്ട	-8.25422
്യാ	-8.25449
▁പ്രത്യേക	-8.2559
െല്ലാം	-8.25593
▁പ്രതി	-8.2595
6	-8.26493
▁ഉപ	-8.2661
▁വെ	-8.26625
▁താൻ	-8.26642
ിപ്പ	-8.2685
പ്പി	-8.26853
▁പോലെ	-8.26872
▁നിന്ന	-8.26893
ുമോ	-8.27031
യി	-8.27048
▁വേണ്ടി	-8.271
▁പ്രസിദ്ധ	-8.27219
▁നടന്ന	-8.27573
▁പരി	-8.27712
▁കൊ	-8.27719
▁ആശയ	-8.28054
ുണ്ടായ	-8.28097
ദ്	-8.28604
ഷ്	-8.28611
▁ചാ	-8.28731
▁ഒറ്റ	-8.28851
▁വിഷയ	-8.28988
▁നടക്ക	-8.29163
▁മനുഷ്യൻ	-8.29228
പോയി	-8.29381
▁കാണുന്ന	-8.29457
▁കാലം	-8.29591
▁അതുകൊണ്ടു്	-8.29603
വെച്ച	-8.2996
▁എന്നിവ	-8.30042
ഭാഷ	-8.30109
ൊന്നും	-8.30163
ജന	-8.30194
▁അടി	-8.30406
▁നിങ്ങൾ	-8.30413
▁വരുന്ന	-8.3082
▁നടന്നു	-8.30822
▁വീണ്ടും	-8.30839
▁ആണു്	-8.31257
ന്നു്	-8.31266
ഡി	-8.31401
▁ലെ	-8.31797
ക്കൂടി	-8.31986
▁എന്നെ	-8.32408
▁തോന്ന	-8.32609
യേ	-8.3265
▁എഴുത	-8.32906
▁അധികാര	-8.32939
ിക്കുകയും	-8.3297
▁കൊല്ല	-8.32987
▁മണി	-8.33237
െന്നു	-8.33448
ത്തിന്റെയും	-8.335
▁എന്നൊരു	-8.33579
▁തുടങ്ങി	-8.3362
▁തര	-8.33783
▁മറ	-8.33972
▁ഗുണ	-8.3401
▁ഇന്നു്	-8.34041
ങ്ങളാണു്	-8.34474
ന്മാരുടെ	-8.3459
▁യാതൊരു	-8.34632
ദ്ധ	-8.34643
ോട്ട	-8.34777
▁മാറ	-8.34929
▁കുറച്ചു	-8.35056
യുണ്ടു്	-8.35101
▁വാദ	-8.35217
മെന്ന	-8.35227
9	-8.35234
▁നിർ	-8.35264
▁പ്രാചീന	-8.35404
വൻ	-8.35519
▁സംബന്ധിച്ച	-8.35602
ിയും	-8.35748
▁ഭാര്യ	-8.36464
▁ആന്റണി	-8.36579
മില്ലാത്ത	-8.36742
▁ആത്മ	-8.36763
▁നട	-8.37033
▁വല്ല	-8.3706
▁നു്	-8.37498
മാത്രം	-8.37662
▁എനിക്കു്	-8.37731
പി	-8.38032
▁8	-8.38093
▁തീ	-8.38128
▁ചോദിച്ചു	-8.38136
സ്ഥാന	-8.38201
▁ഭരണ	-8.38219
3	-8.38295
▁ഭ	-8.38408
▁യും	-8.38427
ക്കോ	-8.38455
▁മൂ	-8.38546
പ്പോ	-8.38585
ുകളിൽ	-8.38663
▁അവളുടെ	-8.38687
▁ആര	-8.38693
▁സം	-8.38699
തോ	-8.3872
ടു	-8.38959
▁സാമൂഹ്യ	-8.39093
മാര	-8.39127
▁ഹൃദയ	-8.39189
▁സുഖ	-8.39228
യ്യ	-8.39413
▁കൊടുത്ത	-8.39529
▁അതിനെ	-8.39534
▁വിശ്വാസ	-8.39583
▁മുഖ്യമന്ത്രി	-8.39587
ിരിക്ക	-8.39922
▁അവരെ	-8.40101
▁പോ	-8.40227
മാകുന്നു	-8.40447
▁സ്വയം	-8.40556
േറ്റ	-8.4059
▁തിരിച്ചു	-8.40628
▁മരണ	-8.40727
ശാല	-8.40843
വന്ന	-8.41026
മുഖ	-8.41246
▁ഇത്ര	-8.41295
▁അംഗ	-8.41312
ലോക	-8.41413
ല്പ	-8.41417
ധി	-8.41625
▁ഭാവ	-8.41677
ുമ	-8.41907
കാ	-8.41935
▁ഗ്രന്ഥ	-8.41979
▁ദൈവ	-8.42026
▁ചെറിയ	-8.42373
▁ദിവസം	-8.42396
▁അല്ല	-8.42422
▁വൈ	-8.42434
▁നോക്ക	-8.42448
▁അയാളുടെ	-8.42693
▁കയറി	-8.42849
▁രക്ഷ	-8.43
▁ജീവിതം	-8.43058
▁എനിക്കു	-8.43138
കഥ	-8.43212
▁സംഗതി	-8.43319
ിക്കുക	-8.43469
▁കിട്ടിയ	-8.43507
▁കൊണ്ടു്	-8.4358
തിനു	-8.43773
െന്നു്	-8.43815
ക്ത	-8.43914
▁ബഷീർ	-8.43933
രീതി	-8.44132
▁എന്നീ	-8.44181
▁പു	-8.44209
ുള്ളു	-8.44388
ുന്നതു	-8.4439
ത്തിലാണു്	-8.44475
▁കൊടുക്ക	-8.44697
▁റ	-8.44811
ബോധ	-8.44899
▁വികാര	-8.45184
▁അല	-8.45362
പരമായ	-8.4538
ണ്ഡ	-8.45541
ിച്ചതു്	-8.45783
▁നടത്തിയ	-8.45992
▁പരീക്ഷ	-8.4606
വേ	-8.46288
ാനു	-8.46381
▁എടുത്തു	-8.46566
വുമായി	-8.46605
▁പറയുന്നതു്	-8.46751
രാജ	-8.46958
▁രാമ	-8.47093
ിട്ടുള്ളതു്	-8.47255
ത്തോടെ	-8.47429
കർ	-8.47667
ത്തിലുള്ള	-8.47679
പദ	-8.47796
▁മാത്രമ	-8.47804
ന്തി	-8.47812
▁കടന്നു	-8.47818
വിധ	-8.47931
a	-8.48149
ജ്ഞ	-8.48222
▁അഭിപ്രായ	-8.48285
▁ന്റെ	-8.48287
ച്ഛ	-8.48428
▁ഉണ്ടായ	-8.48471
ോടു്	-8.48505
ശി	-8.48539
സാഹിത്യ	-8.48561
▁വേ	-8.48633
▁ദേവ	-8.48828
ാറ	-8.49074
ോട	-8.4925
▁യുദ്ധ	-8.49479
▁കേട്ട	-8.49524
▁വിളിച്ചു	-8.49562
▁അല്ലെങ്കിൽ	-8.49581
▁മാത്രമാണു്	-8.49628
▁ഗോ	-8.49794
▁നഗര	-8.49835
വരുന്ന	-8.49899
▁പുറത്തു	-8.50022
▁നാലു	-8.50024
▁പാട	-8.50062
ാണെന്നു്	-8.50091
▁ചോദിക്ക	-8.50217
ദേശ	-8.50288
▁കൂടെ	-8.50326
▁സർവ	-8.50345
യെപ്പറ്റി	-8.50395
▁മാറി	-8.50503
▁ജോലി	-8.50504
നിൽ	-8.50574
▁മുതലായ	-8.50685
ല്ലേ	-8.50694
▁പ്രകൃതി	-8.50797
ാദി	-8.50986
▁ഗുരു	-8.5108
▁വെള്ള	-8.5123
യുടെയും	-8.51409
▁ഓർമ്മ	-8.51435
ഴി	-8.51511
യർ	-8.5155
▁സ്ഥാന	-8.519
ിൽനിന്നു്	-8.51918
▁രണ്ട	-8.52012
▁സംസ്ഥാന	-8.52048
▁എന്ത	-8.52175
തിനാൽ	-8.52274
▁എവിടെ	-8.52277
ന്റ	-8.523
ുന്നതും	-8.52331
▁സ്വാമി	-8.52339
▁മല	-8.52349
▁സകല	-8.52386
തിനു്	-8.5241
▁കേന്ദ്ര	-8.52464
ാന്ത	-8.5248
▁എങ്കിലും	-8.52562
▁കഴിഞ്ഞു	-8.52591
▁ആധുനിക	-8.52591
▁കൊള്ള	-8.52642
▁ഇതിൽ	-8.52678
▁തമ്മിലുള്ള	-8.52942
▁സ്ഥല	-8.53044
വന്നു	-8.53055
▁ബല	-8.53073
▁ചിരി	-8.5326
▁യാത്ര	-8.53528
ക്കാ	-8.5361
▁പിടിച്ചു	-8.5365
▁പട	-8.53789
ിയായ	-8.53795
▁നിറ	-8.53917
▁വേറെ	-8.54019
യ്ക്കും	-8.54099
▁അവര	-8.54296
വന	-8.54732
d	-8.54737
▁പറയാം	-8.54964
െടുക്ക	-8.54992
4	-8.55168
▁സാധിക്ക	-8.55394
▁അങ്ങ	-8.55537
▁സ്ഥിതി	-8.55624
▁കുറ്റ	-8.55672
▁യഥാർത്ഥ	-8.55734
ിരുന്നതു്	-8.55772
ാട്ട	-8.55804
നിന്ന	-8.55888
▁അർത്ഥ	-8.55911
▁മുഖ	-8.5598
ഭാവ	-8.55999
▁പദ	-8.56035
ന്മാരെ	-8.56085
▁മനുഷ്യന്റെ	-8.56094
കാലം	-8.56132
കോ	-8.56179
▁ഇരു	-8.56374
▁സഹ	-8.56593
▁നടക്കുന്ന	-8.56659
u	-8.56677
മാണെന്നു	-8.56807
▁മറുപടി	-8.56813
▁പേരു	-8.56828
▁അതായതു്	-8.57175
▁വായിക്ക	-8.57288
ലു	-8.57292
കളാണു്	-8.57537
ുണ്ടായിരുന്നു	-8.57609
ശ്ര	-8.5763
കളിലും	-8.57689
ക്കര	-8.57714
ണ്ണ	-8.57786
5	-8.57888
▁മുഖ്യ	-8.57963
▁അനുഭവ	-8.58149
ുകളും	-8.58225
▁വിട്ടു	-8.58239
▁അതേ	-8.58244
ത്യ	-8.58311
▁വരെ	-8.5836
ച്ചു്	-8.58469
രംഗ	-8.58826
▁ഡ	-8.58876
▁ക്ഷേത്ര	-8.59141
▁മുറി	-8.59215
ക്രമ	-8.59243
ത്തെയും	-8.59335
▁ബുദ്ധി	-8.59431
▁പൊ	-8.59503
യിലേക്കു്	-8.5952
ക്കള	-8.59557
പര	-8.5962
റ്റു	-8.59652
▁1	-8.59676
ോടു	-8.59853
▁തൊഴിലാളി	-8.59873
▁നേരെ	-8.59971
ാകുന്നു	-8.60038
▁അന്നു	-8.60101
ടിച്ചു	-8.60155
ല്ലാതെ	-8.6024
ചെയ്യ	-8.60453
▁ആള	-8.60522
ങ്ങൾക്കു	-8.60522
രോ	-8.60629
▁ഗാന്ധി	-8.60701
യോടെ	-8.60901
▁അന്നു്	-8.60922
▁നേര	-8.6121
▁മുൻ	-8.61314
▁ജനാധിപത്യ	-8.61393
ടങ്ങ	-8.61401
വഴി	-8.61494
യുമായി	-8.61554
ബന്ധ	-8.61675
രുതു്	-8.61829
▁സാമ്പത്തിക	-8.62006
▁എന്നതു്	-8.62207
െങ്കിൽ	-8.62254
തര	-8.62292
▁വർഷ	-8.62326
പരി	-8.62331
ുമെന്നു്	-8.62449
▁കാലത്തു്	-8.62574
g	-8.62763
▁ലഭിച്ച	-8.6278
ാണി	-8.62922
േണ്ടതു്	-8.62924
7	-8.63031
▁കേൾക്ക	-8.63031
ില്ലേ	-8.63093
ാത	-8.63099
കൃത	-8.63138
▁അദ്ദേഹത്തെ	-8.63257
▁ശാസ്ത്ര	-8.63303
പു	-8.63359
ക്കൊണ്ടു	-8.63457
▁പ്രശ്ന	-8.6353
ുമായി	-8.63557
ങ്ങളിലെ	-8.63634
▁മന്ത്രിസഭ	-8.63791
▁നിര	-8.63827
▁വേണം	-8.63847
▁എന്താണു്	-8.63877
n	-8.63957
▁വിപ്ലവ	-8.63983
ഘ	-8.64038
വരുടെ	-8.64061
▁ആദ്യ	-8.64223
ുള്ളൂ	-8.64268
▁ാം	-8.64458
▁തോന്നി	-8.64559
▁പേരിൽ	-8.64615
രാജ്യ	-8.64698
▁മേ	-8.649
▁സംശയ	-8.6521
മന	-8.65423
▁പണി	-8.65432
▁ഭൂമി	-8.65505
▁നെ	-8.65662
▁എൽ	-8.65669
▁ബ്രാഹ്മണ	-8.65695
ക്കാരുടെ	-8.65768
▁യു	-8.65876
▁ഫല	-8.66075
തെന്നു്	-8.66107
▁ജി	-8.66228
▁ബാ	-8.66302
▁പിന്നീടു്	-8.66326
▁കൊണ്ട	-8.66436
മായും	-8.66467
മാണെന്നു്	-8.66468
▁വക	-8.66515
▁സ്വാതന്ത്ര്യ	-8.66641
▁അടിസ്ഥാന	-8.66875
കൂട	-8.6691
ത്തും	-8.66985
യിലേക്കു	-8.67082
▁തുടർന്നു	-8.67087
▁മനസ്സിലാക്ക	-8.671
▁പറഞ്ഞാൽ	-8.67201
ലും	-8.67212
യിൽനിന്നു്	-8.67234
▁അന്യ	-8.67257
ത്തിലേക്കു	-8.67292
▁ആരും	-8.67323
▁കൂടിയ	-8.6735
▁കൃതി	-8.67365
▁ശ്രദ്ധ	-8.6767
▁സെ	-8.677
ത്തര	-8.67717
8	-8.67781
ഹാര	-8.67812
▁സാമൂഹിക	-8.6789
▁നിൽക്കുന്ന	-8.67899
▁വോട്ട	-8.67917
മാക്കി	-8.67938
ഭേദ	-8.67977
ക്കുള്ള	-8.68021
ബി	-8.6807
▁ആദ്യം	-8.68107
▁പ്രേമ	-8.6812
കൃതി	-8.68148
▁സൗന്ദര്യ	-8.68193
▁ആദ്യമായി	-8.68202
▁ഉണ്ടായിരുന്ന	-8.68381
▁ബാല	-8.68406
▁കൃഷ്ണ	-8.68468
ൊര	-8.68495
▁പറയാൻ	-8.687
ിനി	-8.68742
െടുത്തു	-8.68817
▁അധികം	-8.68863
ുണ്ടോ	-8.68935
▁ധന	-8.68988
▁യെ	-8.69013
er	-8.69048
ശാസ്ത്ര	-8.69129
▁ഇന്നു	-8.69503
▁സ്വതന്ത്ര	-8.69537
▁പ്രവർത്തന	-8.69572
ഗതി	-8.69588
ീസ്	-8.69629
▁മെ	-8.69813
▁കേരളീയ	-8.70092
ലോ	-8.70221
▁വിഷമ	-8.70329
▁സമൂഹ	-8.70423
p	-8.70459
▁വിചാര	-8.70466
▁ആദ്യത്തെ	-8.70603
▁പ്രസ്താവിച്ച	-8.70675
ിനും	-8.70676
ൊന്ന	-8.70868
▁ദിവസ	-8.70962
ഷി	-8.71067
▁കണ്ണ	-8.71146
▁കളി	-8.71187
▁വെറും	-8.71195
▁വിധി	-8.71208
ാറുണ്ടു്	-8.71336
തീ	-8.71434
കൊണ്ടാണു്	-8.71494
▁ഏത	-8.71502
▁അധിക	-8.71564
▁ആർക്കും	-8.71578
▁സ്ഥാപിച്ച	-8.71625
▁നമ്പൂതിരി	-8.71652
ാർത്ഥ	-8.71899
ർത്ഥ	-8.71929
ക്കാണ	-8.72141
▁പതിവ	-8.72213
▁രീതി	-8.72241
യാണെന്നു	-8.72339
ഭാഗ	-8.72415
▁അവകാശ	-8.72437
▁അച്ഛൻ	-8.72438
▁അവസാന	-8.72514
▁സർവ്വ	-8.72551
▁കാണാൻ	-8.72575
ാനാണു്	-8.72667
ത്രേ	-8.7293
ാണോ	-8.72942
▁പേർ	-8.72987
▁പ്രയോഗ	-8.73362
▁എനിക്ക	-8.73436
▁ദേശ	-8.73473
ിക്കുവാൻ	-8.73572
▁അവന്റെ	-8.73622
▁നിൽക്ക	-8.73687
▁ജയ	-8.73704
▁ഇതിന്റെ	-8.73833
▁നമുക്കു്	-8.73861
▁അതിനു്	-8.74063
▁എന്തോ	-8.74135
▁ഗ്രാമ	-8.74155
െന്നും	-8.74206
▁മുമ്പു്	-8.74231
▁കരുണാകരൻ	-8.74255
വെച്ചു	-8.74264
▁സിദ്ധാന്ത	-8.74363
▁നീതി	-8.7441
കാര്യ	-8.74565
ർഷ	-8.74646
▁കള	-8.74827
▁പരിചയ	-8.74872
▁ഇഷ്ട	-8.749
▁പ്രസ്ഥാന	-8.74963
al	-8.75039
ുകയുണ്ടായി	-8.7505
ധ്യ	-8.75105
▁തെ	-8.75139
യൊക്കെ	-8.75167
▁തിരു	-8.75268
▁രംഗ	-8.75275
▁മാന	-8.75337
ിയതു്	-8.75464
▁നിങ്ങളുടെ	-8.7554
▁കേ	-8.75593
ിക്കും	-8.75631
▁മാറ്റി	-8.75859
ക്ക്	-8.75888
ജ്ജ	-8.75943
▁ഒരേ	-8.76
ന്മാ	-8.76008
ഠ	-8.76042
വെച്ചു്	-8.76067
▁ബോധ	-8.76109
ാണല്ലോ	-8.76201
ണമെന്ന	-8.76275
ിലാണു്	-8.76498
▁18	-8.76685
നിന്നു്	-8.76826
▁പണ	-8.76858
പാ	-8.7687
ുകാർ	-8.7689
▁സ്ഥാപന	-8.76912
ശ്	-8.76977
▁ലോ	-8.76989
ാണെന്നു	-8.77038
ഗോ	-8.77058
ക്കൊണ്ടു്	-8.77099
▁സെക്രട്ടറി	-8.77199
▁തോ	-8.77239
▁എന്തെങ്കിലും	-8.77275
▁വെളിച്ച	-8.77284
തയുടെ	-8.77343
▁നമുക്കു	-8.77345
കൾക്കു	-8.77398
▁ഇന്ന	-8.774
▁ചെയ്യുന്നു	-8.77408
ില്ലാത്ത	-8.77462
ിലുള്ള	-8.77463
▁പരാജയ	-8.77514
പ്പാ	-8.77823
▁ചോദ്യം	-8.77891
▁സംസ്കാര	-8.77939
▁സ്വഭാവ	-8.78177
▁ചിലർ	-8.78181
▁സ്	-8.78314
ഷ്ട	-8.78337
ിലേക്കു്	-8.78341
ത്രെ	-8.78422
പോയ	-8.78431
▁അറബി	-8.78539
ക്കാരൻ	-8.78608
▁തുറന്നു	-8.78613
ിഷ്ട	-8.78623
▁ഉത്തര	-8.78653
▁ചെന്നു	-8.78909
▁കേരളത്തിലെ	-8.79219
c	-8.79295
▁വ്യത്യാസ	-8.79452
ജ്	-8.79519
ുമുണ്ടു്	-8.79533
നില	-8.79575
ക്കാല	-8.79584
▁കഴിയ	-8.79701
▁നിറഞ്ഞ	-8.79839
ഫ്	-8.79877
▁പള്ളി	-8.7998
ിടത്തോളം	-8.79985
▁ചേര	-8.80014
കൊടുക്ക	-8.80084
▁അദ്ദേഹ	-8.80182
▁എഴുതി	-8.80184
▁ഇവർ	-8.8024
▁ഒരാൾ	-8.80259
▁പൊതു	-8.80278
മാവ	-8.80294
▁അതിന	-8.80342
▁നോക്കുക	-8.80367
▁ശിവ	-8.80466
യിലാണു്	-8.80473
▁കഷ്ട	-8.80489
ായിത്തീര	-8.80542
▁ഉദ	-8.80571
▁കള്ള	-8.80664
ായിരുന്ന	-8.80793
▁നടത്തുന്ന	-8.80868
▁ദേശീയ	-8.80878
y	-8.80959
▁കണ്ണു	-8.81044
▁പറയുന്നു	-8.81098
▁ഇതിനു	-8.81099
ീകരി	-8.81128
ർച്ച	-8.81387
ിൻ	-8.81458
▁മതം	-8.8156
▁ശരീര	-8.81653
ുകയായിരുന്നു	-8.81665
▁വള	-8.81751
▁ചോദ്യ	-8.81857
ത്തിലേക്കു്	-8.81964
ങ്ങളില	-8.82016
▁6	-8.82023
ദർശന	-8.82089
പ്പിക്ക	-8.82169
വാദി	-8.82184
▁താ	-8.82242
▁ശബ്ദ	-8.82277
യാൽ	-8.82381
യാക	-8.82459
വർഗ്ഗ	-8.82522
ത്തിൽനിന്നു്	-8.8259
▁സംഭവ	-8.82788
▁പോലും	-8.82869
വീ	-8.82999
പാട	-8.83044
വിൽ	-8.8316
▁കി	-8.83277
കൊള്ള	-8.83376
▁പെ	-8.83391
▁യുക്തി	-8.83414
▁ജീവ	-8.83508
യെങ്കിലും	-8.8355
ർപ്പ	-8.83633
▁ചെറു	-8.838
▁പുരുഷ	-8.83883
▁ഇതിന	-8.83946
ദ്ര	-8.83981
▁പഠിക്ക	-8.83985
▁ഖ	-8.84038
▁ന്യായ	-8.84091
വസ	-8.84115
ുന്നതിൽ	-8.84352
▁ഒന്നു്	-8.84358
▁രണ്ടു്	-8.84439
വുമില്ല	-8.84447
െപ്പറ്റി	-8.84513
▁ചെന്ന	-8.84626
▁ഗ്രൂപ്പ	-8.84676
വംശ	-8.84803
വ്യ	-8.84957
▁കൊടുത്തു	-8.85006
▁കിടക്കുന്ന	-8.85122
▁മൂല	-8.85141
ാഹ	-8.85209
▁ലേഖന	-8.85238
യെന്ന	-8.85337
▁പ്രത്യക്ഷ	-8.8544
ഃ	-8.85508
▁മാധ്യമ	-8.85519
ക്കിട	-8.85542
▁മനസ്സ	-8.85571
മുണ്ട	-8.85588
വല	-8.85681
▁തെരഞ്ഞെടുപ്പിൽ	-8.85699
▁തന്നെയാണു്	-8.85758
▁അന്നത്തെ	-8.85764
ിപ്പിക്കുന്ന	-8.85856
ചരിത്ര	-8.85886
സ്യ	-8.8599
ക്കൽ	-8.86078
▁പ്രകാശ	-8.86254
ിപ്പിച്ചു	-8.86259
കം	-8.86267
വോ	-8.86325
▁ബുദ്ധ	-8.86366
ഭി	-8.86413
▁ഒരിക്കൽ	-8.86488
പിള്ള	-8.86545
വരാണു്	-8.86673
▁ഭയ	-8.8668
▁മാണി	-8.86779
കൻ	-8.86814
▁അന്ന	-8.86888
യം	-8.86898
▁ഉച്ച	-8.86975
▁പാശ്ചാത്യ	-8.86975
ണമെന്നു്	-8.87025
ട്ര	-8.872
ഗ്രന്ഥ	-8.87304
▁എത്രയോ	-8.87343
▁ഭാരത	-8.87366
▁പ്രപഞ്ച	-8.87465
▁വാങ്ങ	-8.87541
▁തെറ്റ	-8.87542
ാണെങ്കിൽ	-8.87552
▁കുഞ്ഞ	-8.87572
▁ആളുകൾ	-8.87606
▁ഉണ്ടു്	-8.87641
▁തത്ത്വ	-8.87717
▁വിദ്യാഭ്യാസം	-8.87734
ില്ലെങ്കിൽ	-8.87871
▁സംസ്കൃത	-8.87958
ദ്യ	-8.87977
▁അവർക്കു്	-8.88046
ിപ്പിച്ച	-8.88124
▁പാല	-8.88212
ാവശ്യ	-8.88423
▁തീര	-8.8845
▁വീട്ടിൽ	-8.88454
ജീവിത	-8.88477
കാലത്തു്	-8.88599
▁കൂ	-8.88684
പക്ഷ	-8.88727
▁ആയി	-8.88766
മെന്നു	-8.88834
▁ആദി	-8.88894
▁പ്രവൃത്തി	-8.89018
▁എണ്ണ	-8.8905
ുമായിരുന്നു	-8.89065
▁സഹായ	-8.8914
പ്പാട	-8.89186
▁കാമ	-8.89214
ദി	-8.89361
രിയ	-8.89393
▁അവയുടെ	-8.89394
▁സംഘ	-8.89401
▁തിര	-8.89415
▁കേരളത്തിൽ	-8.89433
ദേവ	-8.89454
ാണെന്ന	-8.89464
▁നോവല	-8.89479
▁ദുർ	-8.89532
ദ്ദ	-8.89541
തോടെ	-8.89648
ാറില്ല	-8.89752
▁അര	-8.89859
▁വിശ്വസിക്ക	-8.89873
െയും	-8.89952
▁of	-8.89953
▁ഭിന്ന	-8.89956
തായ	-8.9016
ിന്റെയും	-8.9017
▁ജനനം	-8.90189
▁പിന്തുണ	-8.90439
ായിരിക്കും	-8.90516
▁മുമ്പ	-8.90535
നോക്കി	-8.9068
യിട	-8.90741
▁ഇന്ത്യ	-8.90764
ൽക്ക	-8.9079
ന്മാരും	-8.90812
ങ്ങളായി	-8.90854
▁കോൺഗ്രസ	-8.90905
വിട	-8.90927
▁തങ്ങളുടെ	-8.90944
▁ഇന്നും	-8.91108
യെല്ലാം	-8.91162
▁വ്യ	-8.91184
▁ഹിന്ദു	-8.91256
ിക്	-8.91383
▁വിദ്യാഭ്യാസ	-8.91392
▁ചെയ്യും	-8.91414
ോടും	-8.91521
▁കാവ്യ	-8.91575
ങ്ങളുടെയും	-8.91667
▁രാത്രി	-8.91704
ക്കൾ	-8.91996
▁പിന്നെയും	-8.92211
ുണ്ടായിരുന്ന	-8.92236
പ്പുറത്ത	-8.92255
▁5	-8.92273
▁നാട	-8.92308
▁കുറേ	-8.92371
▁നായർ	-8.924
▁തുട	-8.92417
യിലുള്ള	-8.92421
▁സ്ഥാപിക്ക	-8.92616
▁സന്ദർഭ	-8.92678
▁നടത്തി	-8.92736
മണി	-8.92751
യോടു്	-8.92828
▁ധർമ്മ	-8.92906
▁പോകുന്ന	-8.93013
തിനെ	-8.93033
▁നമ്മൾ	-8.9304
ിരുന്നില്ല	-8.93044
▁ഏതെങ്കിലും	-8.93093
▁പറ്റ	-8.93105
▁മുമ്പിൽ	-8.93208
ഹി	-8.93219
▁ചെയ്യുന്നതു്	-8.93249
ഴുത	-8.93295
▁മുസ്ലിം	-8.93409
▁മാനസിക	-8.93537
▁ചന്ദ്ര	-8.9357
▁പിതാവു്	-8.93709
▁ശിഷ്യ	-8.9383
സ്റ്റ്	-8.93839
മാരുടെ	-8.93883
ാകട്ടെ	-8.93886
ുമെന്നു	-8.93952
▁അച്ഛന	-8.94051
▁ഒരിക്കലും	-8.94066
▁നാട്ടിൽ	-8.94146
▁കഥാ	-8.94328
▁പറ	-8.94363
ുവാനുള്ള	-8.94371
ർമ്മ	-8.94418
▁കൂടാതെ	-8.94571
സു	-8.94656
തേ	-8.94704
▁ആശ	-8.94834
ക്കൂട്ട	-8.94883
▁നാമ	-8.94904
h	-8.94922
സിന്റെ	-8.95007
ഹിത	-8.95063
▁എളുപ്പ	-8.95122
▁അവളെ	-8.95133
ത്തിനുവേണ്ടി	-8.9515
▁കൂട്ടി	-8.95163
ിയെ	-8.95199
േക്ക	-8.95261
ാവസ്ഥ	-8.9528
▁യുവ	-8.95313
▁പ്രവർത്തിക്ക	-8.95373
▁ഇറങ്ങി	-8.95532
ുപോയ	-8.95598
വിശേഷ	-8.95625
ാശ	-8.95629
re	-8.9563
▁സ്വീകരിക്ക	-8.95668
യേയും	-8.95716
▁വിര	-8.95743
ല്യ	-8.95779
▁സർ	-8.95864
ണ്ടു്	-8.95866
▁ശങ്കരൻ	-8.95919
▁വല	-8.95972
മൊഴി	-8.96026
ഫല	-8.96061
തയും	-8.96083
an	-8.9621
▁സമര	-8.96277
▁വയ്യ	-8.96339
മ്പി	-8.96364
▁പഴ	-8.96372
ങ്ങളെപ്പറ്റി	-8.96385
▁രോഗ	-8.96386
ീസ	-8.96473
▁എന്നതാണു്	-8.96569
ുന്നതിനു്	-8.96627
▁ഉട	-8.96706
കാരൻ	-8.96784
▁നൽക	-8.96844
▁നേടിയ	-8.96906
▁തോന്നിയ	-8.9697
വസ്തു	-8.97099
ൊന്നു	-8.97221
▁അതില	-8.97295
▁ഉണ്ടാക	-8.97298
ുമെന്ന	-8.97305
ചിന്ത	-8.97317
▁മാർഗ്ഗ	-8.97328
▁ഉടനെ	-8.97357
▁ഭൂ	-8.97414
ഞ്ജ	-8.97584
ന്ധ	-8.97832
▁കോടതി	-8.97859
ഭരണ	-8.97955
▁കാഴ്ച	-8.9796
▁ആൾ	-8.97962
ട്ട്	-8.97981
വുമാണു്	-8.98007
▁ഡോ	-8.98029
▁ചെറുകഥ	-8.98039
▁ബ്ര	-8.98046
▁ഭാഷാ	-8.98053
കേ	-8.98135
ചിത്ര	-8.98144
▁നേട	-8.98155
േക്കു	-8.9816
ോദ	-8.98355
▁അപ	-8.98428
റിഞ്ഞു	-8.98463
സൂ	-8.9849
വിനെ	-8.98524
കളിലെ	-8.9854
വള	-8.98791
ുകയോ	-8.98896
▁സർക്കാർ	-8.98948
▁മൈ	-8.98974
▁പക്ഷ	-8.99162
കളായി	-8.99208
തെന്നു	-8.99244
▁പറഞ്ഞതു്	-8.99542
▁കഴിയുന്ന	-8.99546
ശേഷം	-8.9956
സ്ഥിതി	-8.99574
▁ഞങ്ങളുടെ	-8.99582
▁അത്തരം	-8.99614
ങ്ങൾക്കും	-8.99696
▁സമീപ	-8.99697
മാകുന്ന	-8.99746
വാദം	-8.99831
ാസ്	-8.99837
▁മാർ	-8.99893
▁മഹ	-8.99992
▁രവി	-9.00068
വിധം	-9.00104
▁എന്നുള്ള	-9.00134
തിന	-9.00144
▁ഈശ്വര	-9.00153
▁കുറ	-9.00178
പ്രതി	-9.00206
ക്കേ	-9.00239
റാ	-9.0028
▁മുതലായവ	-9.00301
▁വാക്കു	-9.00312
ധർമ്മ	-9.00324
▁വിചാരിക്ക	-9.00381
യുന്ന	-9.00399
ികളുടെ	-9.00491
കളില	-9.00505
ംകൊണ്ടു്	-9.00528
കുട്ടി	-9.00571
▁വർഗ്ഗ	-9.00699
വായ	-9.00702
വിരുദ്ധ	-9.00712
വൃത്തി	-9.00712
▁അവർക്കു	-9.00723
മെ	-9.00754
▁അഭിപ്രായം	-9.00798
ങ്ങളെയും	-9.00894
പതി	-9.00971
▁വെളി	-9.01104
▁വിട	-9.01137
ോടൊപ്പം	-9.01142
ോടെ	-9.01151
▁കൊല്ലം	-9.01215
▁കേട്ടു	-9.01229
▁വിള	-9.01359
ങ്ങനെ	-9.01421
▁പിടി	-9.01485
▁നിന്നും	-9.01492
ധാന	-9.01517
▁മുകളിൽ	-9.01572
▁റോ	-9.01623
യാള	-9.01665
▁പച്ച	-9.0169
▁താമസ	-9.01743
കൾക്കും	-9.01817
▁നന്ന	-9.01866
▁പരമ	-9.01879
▁മുന്നണി	-9.01948
ലിൽ	-9.02036
്യൂ	-9.02127
ുകൊണ്ടു്	-9.02147
▁നാല	-9.02156
ലേ	-9.02217
▁ഹെ	-9.0222
▁പോവ	-9.02232
▁സന്തോഷ	-9.02268
വിശ്വാസ	-9.02281
െഴുതിയ	-9.02313
തല	-9.02327
▁ചിന്താ	-9.02388
ാന്തര	-9.02399
▁സമാധാന	-9.02404
▁ജനിച്ച	-9.02423
ാൾ	-9.02435
▁ചിത്രം	-9.02507
▁കുറഞ്ഞ	-9.02639
▁കാണിക്കുന്ന	-9.0271
▁ഇതാണു്	-9.02728
▁നീല	-9.02737
▁ദുഃഖ	-9.02792
▁പലതും	-9.0281
▁അത്ഭുത	-9.02838
ത്തിലൂടെ	-9.03054
▁ചെയ്തതു്	-9.03108
ാക്	-9.03191
ർത്തി	-9.03257
തന്നെയാണു്	-9.03383
▁പാട്ടു	-9.03388
▁വിദ്വാൻ	-9.03414
ക്കുവേണ്ടി	-9.03561
വയ	-9.03637
▁പിന്ന	-9.03777
രായി	-9.03854
ിട്ടുണ്ടെന്നു	-9.03871
▁ഉണ്ടാക്ക	-9.0397
ില്ലെന്നു	-9.04023
▁മുഖം	-9.0404
▁ചർച്ച	-9.04116
▁മിക്ക	-9.04208
▁അദ്ദേഹത്തിനു്	-9.04222
▁കണ്ടെത്ത	-9.04293
▁സാമാന്യ	-9.04333
തെ	-9.04387
നാഥ	-9.04413
മൂ	-9.0442
ൊട്ട	-9.04421
ള്ളി	-9.04442
▁ബഹു	-9.04459
▁പതി	-9.04469
ടിയ	-9.04551
െന്തു	-9.04557
▁മാതൃഭൂമി	-9.04573
▁ഉത്തമ	-9.04575
▁ചായ	-9.04579
▁ഉറപ്പ	-9.04579
▁ഏതായാലും	-9.04587
▁വായിച്ച	-9.04672
രണം	-9.04708
പ്രകാരം	-9.04709
ാടി	-9.04724
േക്കാം	-9.04729
ുണ്ടെന്നു	-9.04861
ിലേക്കു	-9.0487
ണമെങ്കിൽ	-9.04898
ാറുള്ള	-9.04966
പ്രസ്ഥാന	-9.04975
ക്ര	-9.05085
വു്	-9.05086
▁വാക്യ	-9.05178
▁കാണുന്നതു്	-9.05221
▁ജ്ഞാന	-9.05229
▁കാര്യങ്ങൾ	-9.05231
ാതിരിക്ക	-9.05317
▁അങ്ങിനെ	-9.05393
മതി	-9.05403
▁ശ്രമ	-9.05429
▁ചോദിച്ച	-9.05499
▁പേരു്	-9.05632
▁സൂക്ഷ്മ	-9.05688
▁സംഗീത	-9.0575
▁സമയം	-9.05927
▁പണം	-9.06144
ിയിൽ	-9.06188
ുന്നതിനു	-9.06201
ങ്	-9.06208
▁പാർ	-9.06274
പാല	-9.06275
▁ഭാരതീയ	-9.0635
▁മേൽ	-9.06402
▁ക്ഷണ	-9.0641
ഹാ	-9.06528
▁ചങ്ങമ്പുഴ	-9.06546
▁നോട്ട	-9.06564
ഗ്	-9.06603
പറയ	-9.06765
ശീല	-9.06778
▁നൽകിയ	-9.06799
ക്കുക	-9.06869
▁നിലയിൽ	-9.06886
▁ചൂണ്ടിക്കാണിച്ച	-9.06933
▁മുന്നോട്ടു	-9.06935
▁പലപ്പോഴും	-9.07004
ഹ്	-9.07041
ാതിരുന്ന	-9.07042
▁കഴിക്ക	-9.07103
ാഴ്ച	-9.07179
ാക്കിയ	-9.07188
▁7	-9.07276
▁തന്ന	-9.07277
ുണ്ടല്ലോ	-9.07305
യിലൂടെ	-9.07327
m	-9.0745
▁ചരിത്രം	-9.07625
▁കണ്ടുപിടിച്ച	-9.07669
▁ബാക്കി	-9.0772
▁വീര	-9.07749
വേഷ	-9.07813
പ്പേ	-9.07862
ാധ	-9.07943
സ്വ	-9.07968
വർക്കു്	-9.07995
▁തുടര	-9.083
വിഷയ	-9.08334
ണമെന്നു	-9.08435
▁അയാള	-9.08436
െണ്ണ	-9.08437
ുവാനും	-9.08451
പുത്ര	-9.08453
ശേഷ	-9.08587
സഭ	-9.08682
ാലോ	-9.08693
ഭ്യ	-9.0874
▁തീയതി	-9.08742
▁പോരാ	-9.08814
▁ഷാ	-9.0886
▁കാര	-9.08889
▁ചിലപ്പോൾ	-9.08898
വകുപ്പ	-9.08961
റോ	-9.09033
▁ഇത്രയും	-9.09046
പ്പോയി	-9.09053
▁ജാ	-9.09059
▁കഴിഞ്ഞു്	-9.09131
സംഘ	-9.09162
പ്പു്	-9.09282
▁ദീർഘ	-9.0935
▁പറഞ്ഞു്	-9.09382
പ്പെടുന്നു	-9.09393
▁മനോ	-9.09394
▁പിടിച്ച	-9.09577
മന്ത്രി	-9.09604
▁വെച്ച	-9.09625
▁ശരിയായ	-9.09643
▁രാജാവ	-9.09672
▁സിദ്ധ	-9.09733
▁തോന്നുന്നു	-9.09744
▁ശിക്ഷ	-9.09763
▁ഒന്നാം	-9.09804
▁വിരുദ്ധ	-9.09812
▁ആവ	-9.09871
ുകളുടെ	-9.09912
ങ്ങളു	-9.09967
▁പരാതി	-9.0997
▁വെച്ചു	-9.10176
▁അന്ധ	-9.10185
▁ജന്മ	-9.10188
▁സ്വപ്ന	-9.1019
െന്നോ	-9.10215
▁പൂർവ്വ	-9.10224
▁ഷ	-9.10273
സിദ്ധാന്ത	-9.10297
കെട്ട	-9.10334
▁ആദർശ	-9.10348
▁പഠിച്ച	-9.10356
▁രാഷ്ട്ര	-9.10391
ർക്കു്	-9.1063
ar	-9.10747
▁വാസ്തവ	-9.10783
യോടു	-9.1106
കൃത്യ	-9.111
പ്പോലെ	-9.11104
▁നായ	-9.11224
മായിരുന്ന	-9.11294
▁നിത്യ	-9.11313
പുര	-9.11517
▁ചെയ്യാൻ	-9.116
ങ്കര	-9.11616
ന്യ	-9.11676
▁ലക്ഷ്യ	-9.11757
▁മറ്റ	-9.11805
▁വ്യത്യസ്ത	-9.11827
▁പ്രണയ	-9.11855
▁മേല	-9.11913
യെയും	-9.11929
▁എപ്പോഴും	-9.11967
ായിരിക്കാം	-9.12015
▁പകരം	-9.12048
▁കരുണാകരന	-9.12071
ടുത്ത	-9.12115
▁അനേകം	-9.12127
▁ഐതിഹ്യ	-9.12199
▁വിവാഹ	-9.12225
ാത്മക	-9.1228
മല	-9.12353
ഴ്	-9.12364
ിതമായ	-9.12401
വരു	-9.1246
▁സോ	-9.12469
െത്തിയ	-9.12489
▁ചാക്കോ	-9.12514
▁മഹാകവി	-9.12537
▁അറിഞ്ഞ	-9.12622
▁വ്യവസായ	-9.12659
േയും	-9.12681
ുമൊക്കെ	-9.12762
വില	-9.12814
ലാണു്	-9.12829
▁പുസ്തകം	-9.12844
ക്കാലം	-9.12875
▁ചെലവ	-9.12875
പ്പെടുത്തി	-9.1291
▁ലളിത	-9.13095
▁ഇതൊക്കെ	-9.13244
ിലൂടെ	-9.13333
ദാസ	-9.13357
യുമ	-9.13518
കളായ	-9.13559
▁അഞ്ചു	-9.1357
▁പുത്ര	-9.13594
▁പറ്റിയ	-9.13609
െയ്	-9.13679
▁മരിച്ച	-9.13699
▁സ്ഥാനാർഥി	-9.13726
▁വർണ്ണ	-9.13766
▁കിട്ടി	-9.13838
കരമായ	-9.13891
▁അയാളെ	-9.13937
മാറ്റ	-9.1397
▁വിശ്വ	-9.13982
▁യോഗ	-9.1424
ിരിക്കണം	-9.14262
▁വാർത്ത	-9.14302
ബുദ്ധി	-9.14315
▁ലഭിക്ക	-9.14385
▁അതും	-9.14396
▁അതാണു്	-9.1447
▁സ്വീകരിച്ച	-9.14482
▁ആയിരുന്നു	-9.14549
▁തിരിച്ചറിയ	-9.14572
▁രണ്ടാം	-9.14573
ാവുന്നതാണു്	-9.14662
കൊണ്ടിരിക്കുന്ന	-9.14731
ഗണ	-9.14757
▁വാക്ക	-9.14802
▁പേടി	-9.14862
മെങ്കിലും	-9.15001
▁കുറവ	-9.15006
▁സാംസ്കാരിക	-9.15012
▁കഥാപാത്ര	-9.15032
▁മാതാവു്	-9.15073
▁ആനന്ദ	-9.15201
ുണ്ടെങ്കിൽ	-9.15221
ഷ്ഠ	-9.15224
▁അടുത്തു	-9.15401
ക്ഷേത്ര	-9.15421
ത്തിനുള്ള	-9.15431
കിട	-9.15488
പത്	-9.15497
▁ജീവന	-9.15558
പെട്ട	-9.15617
▁ചേ	-9.15629
▁ഉമ്മൻചാണ്ടി	-9.15661
▁ദേവകി	-9.15667
▁ശ്ലോക	-9.15687
▁ഭേദ	-9.15753
മാക്കുന്ന	-9.15856
ത്തോടു	-9.15946
രിക്ക	-9.1598
ബല	-9.16025
▁കയ്യ	-9.16062
ര്‍	-9.16112
ദു	-9.16113
ട്ടിൽ	-9.16128
തന്ത്ര	-9.16238
▁ദേഹ	-9.16318
▁പുറത്ത	-9.16378
ിക്കാം	-9.16415
▁ക്ര	-9.16462
▁റി	-9.16565
ന്മ	-9.16596
ാധി	-9.16625
ഘടന	-9.16669
▁വീട്ട	-9.16772
ഷ്ണ	-9.16817
ാചാര	-9.1682
▁സൂര്യ	-9.16973
▁അർത്ഥം	-9.17115
കൊടുത്തു	-9.17126
▁10	-9.17143
▁ഉൾ	-9.17187
ത്തോടുകൂടി	-9.17245
ായാലും	-9.17251
▁അദ്ദേഹത്തിനു	-9.17305
മേൽ	-9.17386
ിരിക്കും	-9.17401
ക്കൊ	-9.17419
▁കുടി	-9.17492
▁ഇതുപോലെ	-9.17496
▁മുസ്ലീം	-9.1763
▁ക്രിസ്ത്യാനി	-9.17635
▁ബ്രഹ്മ	-9.17636
▁ആരോഗ്യ	-9.17638
ബാ	-9.17646
നിയമ	-9.17661
▁ഏതാനും	-9.17693
▁കുമാര	-9.17709
ോടുള്ള	-9.17755
▁കൊച്ചു	-9.17804
പ്പോലും	-9.17807
▁ഇംഗ്ലീഷ്	-9.17946
ികളായ	-9.18003
▁തീരെ	-9.18096
യാൾ	-9.18173
വാസി	-9.18215
▁മനുഷ്യർ	-9.18225
ിയൻ	-9.18268
▁ധ	-9.18274
▁ആലോചിക്ക	-9.18302
▁ആകാശ	-9.18306
▁പാരമ്പര്യ	-9.18321
▁1900	-9.18326
തിനുശേഷം	-9.18443
കാണ	-9.18481
▁കണ്ടു്	-9.185
ക്കാരന	-9.18621
▁അക	-9.18666
▁തീരുമാന	-9.18732
വ്യവസ്ഥ	-9.18771
റും	-9.18828
v	-9.18843
▁പറയും	-9.18882
▁എഴു	-9.18932
▁വ്യവസ്ഥ	-9.19096
ചാര	-9.19098
▁ഇതര	-9.1911
നിൽക്കുന്ന	-9.19115
▁ലാ	-9.19144
▁അപ്പ	-9.19148
▁തമിഴ്	-9.19163
ട്ടു്	-9.19178
▁സഹോദര	-9.19206
▁ഏറെ	-9.19224
▁കോട്ട	-9.19238
മുറി	-9.19316
ിച്ചിരുന്ന	-9.19328
കൂ	-9.19366
തിരി	-9.19472
▁നേരം	-9.19473
▁മുഹമ്മദ്	-9.19498
▁സത്യം	-9.19616
▁ഒപ്പ	-9.19649
▁ഡോക്ടർ	-9.19649
▁തയ്യാറ	-9.19696
ക്കുന്നു	-9.19703
യാണ	-9.19744
ിക്കേണ്ട	-9.19762
▁വായിച്ചു	-9.19776
▁പുരോഹിത	-9.19801
▁രചന	-9.19806
▁ശത്രു	-9.19858
തുമായ	-9.19868
വിടെ	-9.19942
▁മനുഷ്യന	-9.19958
▁ആക്ഷേപ	-9.19964
ചെയ്ത	-9.19974
പോകുന്ന	-9.20047
പ്പോഴും	-9.20087
കൊണ്ടും	-9.20122
സ്ഥാനം	-9.20244
▁ആണ	-9.20308
▁വിളിക്ക	-9.20311
ഘോഷ	-9.2033
▁9	-9.20431
യറ്റ	-9.20488
▁ലേഖകൻ	-9.20501
▁അമേരിക്ക	-9.20558
▁പ്രദേശ	-9.20611
▁കിടക്ക	-9.20631
ടെ	-9.20744
▁പണ്ഡിത	-9.20764
യാണെന്നു്	-9.20769
ോളം	-9.20773
ോൺ	-9.20799
▁കഴിയും	-9.20928
▁അഞ്ച	-9.20939
പ്പോഴ	-9.2094
▁മോഹ	-9.20957
▁ജോസഫ്	-9.21014
▁സ്ഥലം	-9.21069
▁ഭൗതിക	-9.21088
നായിരുന്നു	-9.21143
തെന്നും	-9.21151
ന്ദ്	-9.21154
ന്റേ	-9.21175
ുമ്പോഴും	-9.21263
▁കമ്മിറ്റി	-9.21343
▁വാങ്ങി	-9.21349
▁രൂപം	-9.21385
ടാ	-9.21406
രുത	-9.21437
▁ആയിര	-9.21448
▁മടി	-9.21451
▁പടി	-9.21486
ൃഷ്ട	-9.21649
▁അതിലെ	-9.21699
▁ഒടുവിൽ	-9.21703
സ്വഭാവ	-9.21703
▁തർക്ക	-9.21793
ഗിരി	-9.21895
വുമ	-9.21905
▁തെരഞ്ഞെടുപ്പു്	-9.21969
▁വാസ്തവത്തിൽ	-9.22172
▁നിരൂപണ	-9.22174
റിഞ്ഞ	-9.22199
▁3	-9.22207
▁ശുദ്ധ	-9.2231
പുരുഷ	-9.22318
ുവാന	-9.22354
മാണല്ലോ	-9.22376
▁ഊരുമനയ്ക്കൽ	-9.22398
▁കുറുങ്ങാട്ടു്	-9.22398
▁ലഘു	-9.22404
▁അവസര	-9.22421
▁ശാസ്ത്രീയ	-9.22461
▁വീ	-9.22551
▁അവസ്ഥ	-9.22589
വർത്ത	-9.22599
▁മടങ്ങി	-9.22695
ഞ്ഞു്	-9.22751
▁ഭർത്താവ	-9.22788
പ്രശ്ന	-9.2296
▁ഇന്ത്യൻ	-9.23021
▁അല്പം	-9.23042
▁പലരും	-9.23382
▁രോഗി	-9.23432
മായിട്ട	-9.2366
▁പാത്ര	-9.23711
▁ഓടി	-9.23713
▁സാഹചര്യ	-9.23801
▁തുടങ്ങ	-9.23805
▁പുറപ്പെട്ട	-9.23897
▁ഒന്നാണു്	-9.23907
ലിന്റെ	-9.23915
ത്തോടു്	-9.23926
▁എടുക്ക	-9.23961
▁വിശ്വസിക്കുന്ന	-9.23962
▁ഇല്ലാത്ത	-9.23982
പര്യ	-9.24026
കളുടെയും	-9.2404
പൊ	-9.24074
▁മണ്ണ	-9.24104
▁രണ്ടും	-9.24107
▁പുല	-9.24142
▁കല്പ	-9.24305
▁സമയ	-9.24305
▁വെടി	-9.24391
മില്ലാതെ	-9.24436
ത്തിൽനിന്നു	-9.24479
ികളും	-9.24483
▁the	-9.24512
പൂർവ്വം	-9.24522
▁പട്ട	-9.24542
▁പ്രമാണ	-9.24543
യുക്ത	-9.24569
ത്താൽ	-9.24574
ുന്നതാണു്	-9.24577
ഷ്യ	-9.24587
▁ജീവി	-9.24627
he	-9.24689
ിൽനിന്നു	-9.24741
▁ജീവിതത്തിന്റെ	-9.24805
▁ഇപ്പോഴും	-9.24834
േശ	-9.24871
കളെയും	-9.24884
പ്പെടുത്തിയ	-9.24942
▁വായ	-9.2506
രേ	-9.25074
▁അവനെ	-9.25089
നുമായ	-9.25168
ചെയ്തു	-9.25174
▁സംഭാഷണ	-9.25226
▁ജനത	-9.253
▁തനി	-9.25326
▁ക്കു്	-9.25334
▁ചെറിയമ്മ	-9.25349
ാനന്ദ	-9.25372
ിയിരുന്ന	-9.25413
▁സഖാവു്	-9.25426
▁ടെ	-9.25445
▁പാവ	-9.25494
▁പണിയ	-9.25521
▁പ്രശ്നം	-9.25634
മാറ	-9.25648
▁ലോകം	-9.2575
▁സമ്മതിക്ക	-9.25865
ിറങ്ങി	-9.25943
▁ഹാ	-9.2602
ലീ	-9.26095
▁വർഷം	-9.26127
▁കെട്ടി	-9.26156
▁പത്തു	-9.26167
ിച്ചിട്ടുണ്ടു്	-9.26169
ക്കുറിച്ചു	-9.26178
▁എഴുത്തുകാര	-9.26211
ക്കുട്ടി	-9.26229
▁ബഷീറിന്റെ	-9.26237
▁ചുരുക്ക	-9.26249
യാണു	-9.26278
മുണ്ടായ	-9.26353
ാമെന്നു	-9.26357
▁തി	-9.2636
്യമായ	-9.26414
▁കുട	-9.26501
കഴിഞ്ഞ	-9.26513
നിര	-9.26539
പ്രവർത്തന	-9.26592
ലെ	-9.26611
കവിത	-9.26612
▁കൊച്ചി	-9.26614
▁കൈയ	-9.26616
▁ധൈര്യ	-9.26669
▁ഉൽ	-9.26669
ജീവി	-9.26695
▁ചീന	-9.2671
▁ഉദാഹരണ	-9.26713
ൻസ്	-9.26819
▁മണ്ഡല	-9.26834
▁ഭൂരിപക്ഷം	-9.26854
ഗത	-9.26888
ക്കിടയിൽ	-9.26906
▁വടക്ക	-9.26926
▁എതിര	-9.2696
രിപ്പ	-9.27058
ിച്ചാൽ	-9.27065
▁നേതാവ	-9.2709
▁കാണിച്ചു	-9.27109
▁പ്രചാര	-9.27155
ജ്ഞാന	-9.27168
മാർഗ്ഗ	-9.27175
▁വശ	-9.27235
▁വണ്ടി	-9.27244
▁എന്താ	-9.27255
തത്ത്വ	-9.27376
▁അക്കാദമി	-9.27399
▁രഹസ്യ	-9.27435
▁മന	-9.2748
കോടി	-9.2748
▁ധർമ	-9.27523
ില്ലല്ലോ	-9.27577
▁സ്വാധീന	-9.2767
▁വിദേശ	-9.27721
▁വ്യാഖ്യാന	-9.2783
തിര	-9.27965
▁വസ്ത്ര	-9.28135
ിയായി	-9.28224
▁കക്ഷി	-9.28233
▁ഇര	-9.28253
▁മനഃ	-9.28304
ബോധം	-9.284
▁നു	-9.28558
കാരി	-9.28569
▁കമ്യൂണിസ്റ്റ്	-9.2857
▁കാണിച്ച	-9.28608
▁ഉപദേശ	-9.28651
▁പ്രായ	-9.28661
മുണ്ടെന്നു	-9.287
▁സൃഷ്ടി	-9.28708
പൂ	-9.28829
ാണെന്നും	-9.28843
ഢ	-9.28852
▁നോക്കിയ	-9.28855
▁മനോരമ	-9.28877
ികമായ	-9.2888
ദ്ധ്യ	-9.28886
▁നഷ്ട	-9.28929
▁11	-9.28931
▁പരസ്യ	-9.2894
ച്ചെ	-9.29066
▁ഭാവി	-9.29096
കക്ഷി	-9.29099
മാത്ര	-9.29128
▁ദോഷ	-9.29148
വിഭാഗ	-9.29165
ങ്ങളെല്ലാം	-9.292
പിടിച്ച	-9.29304
▁ഭവ	-9.29326
▁സ്വാതന്ത്ര്യം	-9.29388
▁വേദന	-9.29415
▁യുദ്ധം	-9.29416
ുണ്ടായി	-9.29422
ദ്വ	-9.29433
▁കുത്തി	-9.29456
▁മാസ	-9.2955
▁രചിച്ച	-9.29624
▁കണ്ടുപിടിക്ക	-9.29624
▁കേസ	-9.29648
▁ചുമ	-9.29656
▁സുന്ദര	-9.2971
▁സംഘടന	-9.29724
▁ചേർക്ക	-9.29742
റിന്റെ	-9.29798
മാരും	-9.29878
▁തൂ	-9.29882
▁മറ്റൊന്ന	-9.2993
പ്പെടുന്നതു്	-9.29957
▁ബഷീറ	-9.30068
ൃത	-9.30077
നിറ	-9.30078
▁പറയാന	-9.30087
പ്പറ്റി	-9.30139
കണ്ട	-9.30151
▁മനസ്സിൽ	-9.30185
▁തർജ്ജമ	-9.30373
▁പ്രയോജന	-9.30373
▁20	-9.30384
▁കുന്ന	-9.30448
▁അവള	-9.3045
▁ആലോചിച്ചു	-9.306
െന്നാണു്	-9.30621
ക്കാണു്	-9.30624
സർ	-9.30706
ന്റ്	-9.30708
▁നദി	-9.30791
▁പെരു	-9.30794
▁ജനങ്ങൾ	-9.30821
▁മകന	-9.30883
▁ഞ	-9.30914
രസ	-9.30936
വചന	-9.30977
▁മഴ	-9.30983
▁ആരോ	-9.30986
യൊന്നും	-9.30991
▁മനുഷ്യനെ	-9.30995
▁വിദ്യാർത്ഥി	-9.31032
ശാസ്ത്രജ്ഞ	-9.31057
▁തുല്യ	-9.31137
▁സാധന	-9.31165
ിയാണു്	-9.31178
▁വകുപ്പു	-9.31179
on	-9.31233
ബർ	-9.31273
ിനെയും	-9.31283
േയുള്ളൂ	-9.31296
▁രണ്ടാമത്തെ	-9.31422
▁മനഃസ്ഥിതി	-9.31472
ക്കഴിഞ്ഞ	-9.31587
ുണ്ടാകുന്ന	-9.31611
▁തേ	-9.31628
▁മൊ	-9.31667
▁കുട്ട	-9.31669
ക്കാരും	-9.31736
െടുത്തു്	-9.31775
▁രീതിയിൽ	-9.3186
ിലേയ്ക്കു	-9.31867
▁ഉര	-9.31892
▁സ്ഥിര	-9.31894
മാറി	-9.32059
▁ദി	-9.32118
▁ശീല	-9.32355
▁പ്രവേശ	-9.32379
കവി	-9.32393
തരം	-9.32415
▁പത്ത	-9.32419
▁കൂട്ടത്തിൽ	-9.32454
ിച്ചിരുന്നു	-9.32455
▁മുന്നിൽ	-9.32578
▁ചിരിച്ചു	-9.32588
▁മൃഗ	-9.32664
ന്മാരായ	-9.32671
േയുള്ളു	-9.32681
▁സയൻസ	-9.32684
▁പ്രത്യേകം	-9.32701
▁മലയാളത്തിൽ	-9.32735
യുമാണു്	-9.32807
▁താഴെ	-9.32833
ിട്ടുണ്ടോ	-9.32856
കർത്ത	-9.32891
▁മകൻ	-9.32901
▁വിവരിച്ച	-9.32912
▁പുതു	-9.32948
ച്ചി	-9.32978
മാക്കിയ	-9.33156
▁അതൊരു	-9.33159
ക്സ	-9.33214
▁പുര	-9.33236
▁വെളിച്ചം	-9.33249
▁വരുത്ത	-9.33285
▁സംഭവിച്ച	-9.33404
▁പിണറായി	-9.33439
▁ബേബി	-9.33439
▁15	-9.3348
വാക്യ	-9.33526
ത്തേക്കു്	-9.33538
▁അവിടത്തെ	-9.33628
പറഞ്ഞ	-9.3364
നോടു്	-9.33744
െന്റ	-9.33782
▁ഉപയോഗിച്ച	-9.33858
▁ഇനിയും	-9.33907
▁നമുക്ക	-9.3394
▁മുമ്പു	-9.33943
▁നവ	-9.33966
തായിരുന്നു	-9.34146
താവ	-9.34166
മാണോ	-9.34171
നെപ്പോലെ	-9.3434
▁കൃഷി	-9.34349
▁പാറ	-9.34468
ിനെപ്പറ്റി	-9.3452
പ്പിച്ചു	-9.34558
▁ഭാഗം	-9.34573
▁ഒരാള	-9.34611
▁ചേർന്ന	-9.34663
▁സങ്കല്പ	-9.34783
▁വിവര	-9.34793
▁രാമൻ	-9.34863
▁തട്ടി	-9.34866
യാക്കി	-9.34886
തിന്നു	-9.34922
▁4	-9.34926
ത്തോ	-9.34974
വൈ	-9.35046
▁വീക്ഷണ	-9.35055
▁വോട്ടു	-9.35161
യാണെങ്കിൽ	-9.35162
▁എല്ലാവരും	-9.35169
ിക്കുന്നതു	-9.35185
▁മദ്യ	-9.35232
▁അവയിൽ	-9.35246
▁ഉണ്ടായിരുന്നു	-9.35281
▁അവയെ	-9.35282
ക്കുന്നതു്	-9.35287
മാരെ	-9.35304
▁പരിണാമ	-9.3535
ലുകൾ	-9.35379
▁ജീവിച്ചിരുന്ന	-9.35424
യിൽനിന്നു	-9.35481
നഗ	-9.3553
▁മറ്റേ	-9.35532
കിട്ട	-9.35538
▁നയ	-9.35543
ാനായി	-9.35554
ടേ	-9.35574
▁അകത്തു	-9.35726
at	-9.3577
▁നോക്കിയാൽ	-9.35778
▁സമകാലീന	-9.35801
▁തോമസ്	-9.35806
▁പെൺകുട്ടി	-9.35807
യായിരുന്ന	-9.35811
യെന്നു്	-9.35908
▁ആത്മാവ	-9.35993
▁പ്രസിഡന്റ്	-9.36038
▁ജയിച്ച	-9.36044
▁നീണ്ട	-9.36056
യൊരു	-9.36149
ക്കുകയും	-9.36162
ുണ്ടെന്നു്	-9.3619
▁തരം	-9.36193
പ്പൻ	-9.3628
▁ഇരിക്ക	-9.36338
▁തിരിഞ്ഞു	-9.36345
ാലു	-9.36425
▁ഉത്	-9.36557
ൊന്നുമില്ല	-9.36574
▁ഒക്കെ	-9.36601
▁സുപ്രസിദ്ധ	-9.36601
റിൽ	-9.36636
▁മലയാളി	-9.36638
െല്ലാ	-9.36642
ാകും	-9.3667
ിംഗ്	-9.367
കൊടുത്ത	-9.36705
▁വയസ്സ	-9.36775
▁കാണിക്ക	-9.3679
▁അത്യ	-9.36806
▁ചെല്ല	-9.36821
ക്കൂട	-9.36939
▁സാധിച്ച	-9.36976
ർക്കു	-9.37009
▁ട്ര	-9.37123
നാള	-9.37142
▁കിടന്നു	-9.37177
▁വായനക്കാര	-9.37188
മുണ്ടായി	-9.37206
െഴുതി	-9.37249
ിക്കുന്നുണ്ടു്	-9.37269
▁അതുപോലെ	-9.37352
▁പേ	-9.37368
▁കുത്ത	-9.3737
▁സമ്മേളന	-9.37373
യല്ലേ	-9.37383
▁ധാരാളം	-9.37407
▁ആലോചന	-9.37407
▁ഐക്യ	-9.37416
▁ഗൃഹ	-9.3742
▁പ്രധാനമന്ത്രി	-9.37457
െപ്പോലെ	-9.37464
ർക്കും	-9.37488
വാൻ	-9.37505
▁നിർബന്ധ	-9.37563
▁അരി	-9.3761
▁ധരിച്ച	-9.37613
▁അപേക്ഷ	-9.37618
ൂഹ	-9.3764
▁ഉണ്ടാവ	-9.37681
നാമ	-9.37729
നിർ	-9.37784
മുമ്പു്	-9.37784
▁a	-9.3791
▁മൂന്ന	-9.37914
മുണ്ടോ	-9.37953
ടുക്ക	-9.37995
▁പ്രാധാന്യം	-9.38023
ാകുന്ന	-9.38079
▁പരിവർത്തന	-9.38085
്വാ	-9.38098
▁ഇവിടത്തെ	-9.38221
▁പൗര	-9.38225
▁ചൈന	-9.38228
▁മാതൃക	-9.3823
▁ബുദ്ധിജീവി	-9.38241
▁കാര്യത്തിൽ	-9.38276
▁s	-9.38294
▁പൊട്ടി	-9.38307
ിക്കൊണ്ടിരിക്ക	-9.38315
ൊടി	-9.38356
ുവെന്ന	-9.38384
കാവ്യ	-9.3839
▁ഇതുവരെ	-9.38426
▁അച്ചടി	-9.38455
മെന്നും	-9.38485
▁ഉറക്ക	-9.38517
▁അയാൾക്കു്	-9.38556
ധികം	-9.38618
▁കാലഘട്ട	-9.38626
ന്റെയും	-9.38644
▁നമ്മെ	-9.38662
ക്കെതിരെ	-9.38677
▁സ്ഥാനം	-9.38714
ക്കിയ	-9.38718
മൊന്നും	-9.38773
▁എഴുത്തു	-9.38831
▁ക്ല	-9.38857
▁ആശുപത്രി	-9.3904
▁സാമുദായിക	-9.3904
▁ഹൈക്കോടതി	-9.3904
▁അറിവ	-9.39083
▁എതിർ	-9.39086
▁അതെ	-9.39168
ടിച്ച	-9.39227
ഘട	-9.39314
▁മധുര	-9.39409
▁കൂട	-9.39538
പറ്റി	-9.39581
▁ഉത്തരം	-9.39639
▁മാന്യ	-9.39728
കൂടാ	-9.3973
▁രണ്ടാമ	-9.39756
മാണിതു്	-9.39812
പ്പിൽ	-9.39835
യെന്നു	-9.39836
▁ലൈംഗിക	-9.39866
▁നിരൂപക	-9.3987
ic	-9.3992
രാഷ്ട്ര	-9.39965
ക്കായി	-9.40005
ഷൻ	-9.40044
▁ഗുഹ	-9.40261
ിട്ടാണു്	-9.40355
▁ഉമ്മ	-9.40605
▁പറ്റി	-9.40629
▁വിജ്ഞാന	-9.40631
വിരോധ	-9.408
▁ഇപ്രകാരം	-9.40868
▁അതുകൊണ്ടു	-9.40887
നുസരിച്ചു്	-9.40908
▁തവണ	-9.40962
നാൾ	-9.41042
ധന	-9.41078
▁എന്താണ	-9.4108
ിയ്ക്കുന്ന	-9.41095
▁ഇവരുടെ	-9.41112
ലൈ	-9.41215
▁പ്രതിഫല	-9.41231
▁ബന്ധപ്പെട്ട	-9.41308
▁കാലത്തു	-9.41319
വൃത്ത	-9.41319
▁നേർ	-9.41331
ാവാം	-9.41353
പ്പിച്ച	-9.41355
മായിരിക്കും	-9.41475
▁കന	-9.41505
മുണ്ടായിരുന്നു	-9.41513
▁പ്രഥമ	-9.41546
▁നടപടി	-9.41565
▁എഫ്	-9.41567
▁കൊണ്ടുവര	-9.41578
ുമ്പോഴാണു്	-9.41673
▁സീറ്റ	-9.41687
▁മുറ	-9.41768
▁ഉണ്ട	-9.41771
▁കയറ	-9.41777
▁ഇതിനെ	-9.41821
ിയിരിക്കുന്നു	-9.41837
▁പ്രാ	-9.41858
▁ജല	-9.4192
▁മറന്നു	-9.41933
▁വേല	-9.41974
ടുത്തു	-9.41998
▁ചെയ്യുക	-9.42079
റിയാം	-9.42086
▁പരിഭാഷ	-9.42092
കാരണ	-9.42127
ക്കാരെ	-9.42189
വിഷ	-9.4225
▁ചേർത്ത	-9.42298
▁സാര	-9.42343
ിക്കപ്പെട്ട	-9.4237
ിയിരുന്നു	-9.42374
ഛ	-9.42383
▁അംഗീകരിക്ക	-9.4239
പ്പണി	-9.42401
▁ജീവചരിത്ര	-9.42413
▁സ്വാഭാവിക	-9.42421
▁വേദ	-9.42427
യിരിക്ക	-9.42431
▁ജയിച്ചു	-9.42473
▁കരി	-9.42532
തെല്ലാം	-9.42605
▁ഇതേ	-9.42644
▁പാട്ട	-9.42672
▁മട്ടിൽ	-9.42684
▁കഥകൾ	-9.42745
ശ്ശ	-9.42817
or	-9.42817
▁സീറ്റ്	-9.42878
ിക്കാനും	-9.42959
▁ജീവിക്ക	-9.43034
ന്നും	-9.43034
▁സംസാരിക്ക	-9.43037
മൂലം	-9.43083
യിട്ടു	-9.43134
രിൽ	-9.43167
ക്കണ്ട	-9.43187
ാനുഭവ	-9.43189
▁പ്രതിഷേധ	-9.43242
▁തികച്ചും	-9.43243
▁ശില്പ	-9.43244
▁തെറ്റു	-9.43314
ിരിക്കാം	-9.43325
▁നന്മ	-9.43359
▁പറയുന്നതു	-9.43372
es	-9.4343
ത്തിരി	-9.43443
സിദ്ധ	-9.43474
▁ശവ	-9.43517
യാണോ	-9.43581
▁വരി	-9.43659
ന്തു	-9.438
തെന്ന	-9.43801
▁കുരു	-9.43834
▁രംഗത്ത	-9.43838
ക്കുറിച്ചുള്ള	-9.43901
▁കത്തി	-9.44028
▁ശാന്ത	-9.44057
▁ജഡ്ജി	-9.44104
▁ചിത്രീകരിക്ക	-9.44109
▁ബഹുമാന	-9.44161
ഭാവം	-9.44162
▁ഇതില	-9.44178
യില്ലാത്ത	-9.4419
പടി	-9.44255
ഹരി	-9.44293
ങ്ങു	-9.44304
ക്കുമ്പോൾ	-9.44305
▁വിശേഷ	-9.44369
യുമായ	-9.44384
▁വിവാഹം	-9.44446
ൊന്നു്	-9.44496
▁ഇന്ത്യയിൽ	-9.44515
മായിത്തീർന്ന	-9.44581
▁ശബ്ദം	-9.44611
രുടെയും	-9.44614
ാംശ	-9.44653
നെയും	-9.44754
ാകാം	-9.44805
▁മനുഷ്യര	-9.4482
▁സൗകര്യ	-9.44821
▁അവസാനം	-9.44861
ീർ	-9.44864
▁കൈയിൽ	-9.44889
ുകയുള്ളു	-9.44938
േയ്ക്ക	-9.44942
▁പതുക്കെ	-9.44974
▁സ്ഥാനാർത്ഥി	-9.44977
ുമെന്നും	-9.44982
▁കിഴക്ക	-9.44984
▁നിങ്ങളെ	-9.45005
▁തിരുവ	-9.45009
▁ബോറ	-9.45032
മെന്നു്	-9.45049
▁കാത്തു	-9.45074
▁m	-9.45089
സാഹ	-9.45116
▁അടുപ്പ	-9.45183
സത്യ	-9.45205
ോടി	-9.45236
ുമെല്ലാം	-9.45259
▁പൊടി	-9.45261
ണ്ടായ	-9.45389
പിടിച്ചു	-9.45517
തില	-9.45533
കൊല്ലം	-9.45596
▁വിളി	-9.45632
in	-9.45649
▁വിചാരിച്ച	-9.4565
ധാര	-9.45659
▁കണ്ടാൽ	-9.45691
▁ഇരുട്ട	-9.45696
▁ഭ്രാന്ത	-9.45787
▁പുറ	-9.45794
▁കെട്ട	-9.45801
▁പങ്കു	-9.45814
▁എന്നിങ്ങനെ	-9.45855
▁കാട്ട	-9.4589
യുണ്ടാ	-9.45946
▁ഒരുതരം	-9.45952
ങ്ങളിലൂടെ	-9.45953
▁ശേഷം	-9.45966
▁ചുറ്റി	-9.45975
▁കുഴപ്പ	-9.45995
മാല	-9.46008
▁നീട്ടി	-9.46032
▁മുറിയിൽ	-9.46086
▁ചാര	-9.46092
▁കാള	-9.46135
ുമില്ല	-9.46157
▁ഇംഗ്ലീഷ	-9.46171
▁വർഗ	-9.46179
ാധികാര	-9.46204
▁വിളിച്ച	-9.46215
▁വേഷ	-9.46244
▁വീണു	-9.46258
▁പരസ്പര	-9.46363
00	-9.46464
▁ഏതോ	-9.46472
യാകുന്നു	-9.46487
ത്തേയും	-9.46795
▁വ്യക്ത	-9.46804
▁വേണ്ടതു്	-9.46806
▁വർത്തമാനം	-9.46818
▁ദൃശ്യ	-9.46822
കാലത്തു	-9.46835
വിള	-9.46893
▁മധ്യ	-9.46954
നില്ക്കുന്ന	-9.46964
ർഥ	-9.47077
▁വിവിധ	-9.47122
▁വധ	-9.4713
▁ഫലം	-9.47148
▁പ്രസംഗം	-9.47154
▁തോന്നുന്നില്ല	-9.47195
േയ്ക്കു	-9.47229
രൂപം	-9.47238
▁സഭ	-9.4724
ിക്കണം	-9.47336
▁കമ്പ	-9.47338
ത്തുള്ള	-9.47381
en	-9.47417
▁മൂന്നാം	-9.47489
▁കുളി	-9.47493
മൊക്കെ	-9.47611
മാതിരി	-9.47622
▁താൽപര്യ	-9.47629
▁നോവൽ	-9.47631
▁തമാശ	-9.47634
വിട്ടു	-9.47649
▁പാടില്ല	-9.47667
▁ബുദ്ധമത	-9.47685
ില്ലെന്നു്	-9.4769
ിരിക്കുന്നതു	-9.47704
ുവെന്നു്	-9.47709
▁കാർ	-9.47721
▁സ്വകാര്യ	-9.47728
കേന്ദ്ര	-9.4788
കാലത്തെ	-9.47959
▁ഭരണം	-9.47988
ുകയാണെങ്കിൽ	-9.47997
വൾ	-9.48018
▁അടക്ക	-9.48158
▁പറയേണ്ട	-9.48159
രാണു്	-9.48225
▁പൈ	-9.48359
ിനോടു്	-9.48372
ാകെ	-9.48499
▁സാങ്കേതിക	-9.4853
▁പ്രശസ്ത	-9.4853
ാവകാശ	-9.48531
▁സ്ഥിതിചെയ്യുന്ന	-9.48552
കൊണ്ടിരിക്ക	-9.48579
ാർഥ	-9.48625
സ്ഥല	-9.4871
ർഡ	-9.48718
ുകളെ	-9.48718
കുല	-9.48772
▁കാമുക	-9.48795
▁കുള	-9.48823
ഹൃദയ	-9.48865
th	-9.48866
വശത്ത	-9.48896
▁ഇരുപത	-9.48903
▁നിമിഷ	-9.4893
▁പ്രിയ	-9.48958
വിദ്യ	-9.4909
▁തെളിഞ്ഞു	-9.49112
▁ചോ	-9.49217
യാത്ര	-9.4922
▁മൂന്നു്	-9.49239
പ്രകാര	-9.49263
യോഗ്യ	-9.49316
കഴിഞ്ഞു	-9.49323
ഗുണ	-9.4933
▁വെള്ളം	-9.4939
▁വെളിപ്പെടുത്ത	-9.49411
▁വൃത്തി	-9.49436
▁ഈയിടെ	-9.49441
ാംഗ	-9.49475
ദൃഷ്ടി	-9.49518
▁അപര	-9.49531
പ്പൂ	-9.49539
ിന്മേൽ	-9.49593
▁ജീവിക്കുന്ന	-9.49662
f	-9.49722
▁ശങ്കര	-9.49733
ക്കാരി	-9.49762
ഭാഗത്തു	-9.4988
▁ഒട്ട	-9.49948
▁പൊറ്റെക്കാട്ട	-9.50004
തുകൊണ്ടാണു്	-9.501
കൊണ്ടിരുന്നു	-9.50146
തിനെപ്പറ്റി	-9.50157
▁ആന	-9.50163
▁ഏതു്	-9.50164
▁കുല	-9.50188
പ്രഭ	-9.50249
▁പൂർണ്ണ	-9.50286
▁ഭാഗ്യ	-9.50319
▁പോലീസ	-9.50321
▁തനിക്കു	-9.50344
ക്കളുടെ	-9.50348
വർഷം	-9.50367
▁അതിനാൽ	-9.50446
റപ്പ	-9.5055
▁ചികിത്സ	-9.50596
▁നിമിത്തം	-9.50915
▁പുലർത്ത	-9.50944
▁വൈക	-9.50963
ത്തിലേയ്ക്കു	-9.5097
▁ദൂര	-9.50981
പ്പോകുന്ന	-9.50988
▁ക്ലാസ്സ	-9.51038
▁ചക്രവർത്തി	-9.51046
തയെ	-9.51114
▁മതത്തിന്റെ	-9.51235
▁മനസ്സിലാക	-9.51278
▁വിധേയ	-9.51282
▁ഇടയ്ക്കു	-9.513
▁മാധവ	-9.51304
▁സാദൃശ്യ	-9.51304
ത്തിനായി	-9.51306
▁പുറമേ	-9.51339
തീര	-9.51416
പീഡ	-9.51421
▁നില്ക്കുന്ന	-9.51422
▁വിശ്വാസം	-9.51504
▁വല്ലതും	-9.51537
▁വിചിത്ര	-9.51537
▁ബു	-9.51539
▁ആഗ്രഹ	-9.5154
▁കിട്ടുന്ന	-9.51583
സംസ്കാര	-9.51597
▁പാഠ	-9.51622
▁പരസ്പരം	-9.51674
▁നൽകുന്ന	-9.51685
▁നായക	-9.51716
െത്തി	-9.51738
ുകൊണ്ടു	-9.51751
▁നൽകി	-9.51771
▁മണ	-9.51843
ർവ്വ	-9.51848
▁മനസ്സിലായ	-9.51862
▁ശേഷ	-9.51873
▁സ്ത്രീകൾ	-9.51885
▁പ്രത്യക്ഷപ്പെട	-9.51904
▁അക്കിത്തം	-9.51956
▁റഷ്യ	-9.52033
സ്മരണ	-9.52033
▁ഭാവന	-9.52034
▁വരും	-9.5207
വർഷ	-9.52082
ുണ്ടെന്ന	-9.52096
പ്രയോഗ	-9.52103
ങ്ങളുണ്ടു്	-9.52145
ിരുന്നെങ്കിൽ	-9.52158
▁തിരക്ക	-9.52235
മുണ്ടാക	-9.52242
▁മനുഷ്യരുടെ	-9.52276
ദ്ദേശ	-9.52303
▁വിട്ട	-9.5232
▁അമ്പ	-9.52327
കൊണ്ടുള്ള	-9.52473
ുന്നതിന്റെ	-9.52475
▁വെച്ചു്	-9.5249
യാണല്ലോ	-9.52572
മാൻ	-9.52575
▁അവരിൽ	-9.52588
▁പ്രചാരണ	-9.52632
▁മുന്ന	-9.52642
▁ഗണിക്ക	-9.52658
േണ്ടതാണു്	-9.52673
▁പ്രധാനപ്പെട്ട	-9.52675
വിചാര	-9.52745
ക്കൂ	-9.52786
ാണെങ്കിലും	-9.52989
ായിരിക്കണം	-9.53024
ീഷ	-9.53086
മാണെന്ന	-9.53149
▁നന്ദി	-9.53185
േഷൻ	-9.53278
▁ഇതിലെ	-9.5329
▁ബെ	-9.53292
കളിലൂടെ	-9.53294
▁തള്ളി	-9.5331
നായിരുന്ന	-9.53322
▁കുട്ടികൾ	-9.53337
▁മൽസരിച്ച	-9.53387
▁വസ്തുത	-9.53412
▁ദർശന	-9.53413
ഗ്ഗ	-9.53417
▁കെട്ടിട	-9.53458
▁എന്നോ	-9.53514
▁ഒളി	-9.53608
▁താന	-9.53638
▁പിന്നിൽ	-9.53642
▁കോളേജ	-9.53738
▁ശ്രദ്ധിക്ക	-9.53746
▁ഘടക	-9.5392
▁കോല	-9.53933
▁എന്തിന	-9.53991
▁പിടിക്ക	-9.54022
▁നിർത്തി	-9.54027
ത്തിന്നു	-9.54074
▁ഒമ്പത	-9.54112
▁ആയുധ	-9.54116
▁രക്ത	-9.54131
▁ഭയങ്കര	-9.54135
▁14	-9.54153
▁എച്ച്	-9.54155
മൂല്യ	-9.54177
▁അടുക്കള	-9.54212
ിക്കുകയാണു്	-9.5423
പൊളി	-9.54245
▁കോണ	-9.54262
▁വരുത്തി	-9.54402
▁പോര	-9.54409
▁വേണ	-9.54457
▁കറ	-9.54509
തുതന്നെ	-9.54513
l	-9.5452
▁മത്സര	-9.54588
▁ഏഴ	-9.54594
പ്പെടുത്തുന്ന	-9.54599
▁കാറ	-9.5463
▁കത്തു	-9.54661
ുണ്ടാക്കിയ	-9.54757
▁മഞ്ഞ	-9.54773
ാക്കുന്ന	-9.5478
▁ലക്ഷ	-9.54831
യുദ്ധ	-9.5492
▁ആരംഭിച്ച	-9.54997
▁മരിച്ചു	-9.55005
ക്കാരനായ	-9.55029
▁നാരായണ	-9.55064
▁ട്രാട്സ്കി	-9.55074
▁നിരവധി	-9.55074
▁ഉപയോഗിക്ക	-9.55102
▁അനന്തര	-9.55132
▁ചര	-9.55143
സാര	-9.55154
രോഗ	-9.5516
▁തെളിവു	-9.55171
▁ഇന്ത്യാ	-9.55219
▁സ്വഭാവം	-9.55296
▁വിമർശന	-9.55298
ീയമായ	-9.55317
▁നിർത്ത	-9.55341
▁യാ	-9.5539
▁നാടു	-9.55408
▁കരുത	-9.55465
▁എതിർക്ക	-9.55508
▁വെട്ടി	-9.55563
▁ക്ഷമ	-9.55575
വേണ്ടി	-9.55642
ത്തോളം	-9.55648
ായിരിക്ക	-9.55763
ങ്ങളിൽനിന്നു	-9.55785
കയറി	-9.55836
▁പൂജ	-9.55847
▁നീങ്ങി	-9.55972
ത്താൻ	-9.55988
▁വളർത്ത	-9.55992
പോന്ന	-9.55997
▁നെഹ്റു	-9.56045
▁പെരുമാള	-9.56045
▁ഭക്ഷണ	-9.5605
േക്കാൾ	-9.5605
▁അക്ഷര	-9.56074
ക്കഥ	-9.56103
ിനോടു	-9.56119
ോടുകൂടി	-9.56253
▁പേരിട്ട	-9.56259
▁ഭാഷയിൽ	-9.5632
▁പിതാവ	-9.56324
െന്നപോലെ	-9.56345
നേരം	-9.56365
▁നായര	-9.56388
▁ഏഴു	-9.56419
സംഭവ	-9.56453
സ്വാതന്ത്ര്യ	-9.56458
▁മരിക്ക	-9.56465
നായർ	-9.56703
▁ഞാനും	-9.56764
▁ചിത്രങ്ങൾ	-9.56876
▁ആശയം	-9.56884
▁നിവൃത്തിയില്ല	-9.56885
യ്ക്കാൻ	-9.56912
▁എത്തി	-9.56996
▁മാർക്സിസ്റ്റ്	-9.57025
പ്പുറം	-9.57026
▁സൃഷ്ടിക്ക	-9.57027
▁ലക്ഷണ	-9.57034
▁അഭിമാന	-9.57059
▁ഇങ്ങിനെ	-9.57087
▁കേവലം	-9.5711
ട്	-9.57123
▁കമ്പനി	-9.57142
▁ആരാധ	-9.5715
ചേ	-9.57156
▁ഇന്ത്യയിലെ	-9.57216
▁എടുത്ത	-9.57233
▁അവനു	-9.57256
▁ഈഴവ	-9.57525
▁ഉറച്ച	-9.57569
ചെ	-9.57619
▁പാത	-9.57622
ടഞ്ഞു	-9.57678
ാനോ	-9.57682
▁ആണെന്നു	-9.57736
▁സമ്മത	-9.57779
▁വിചാരിച്ചു	-9.57849
▁യുക്തിവാദ	-9.5785
ാകാൻ	-9.57876
▁മനോഭാവ	-9.5796
▁നിങ്ങള	-9.5799
▁പശ്ചിമ	-9.58015
▁ചിത്രീകരിച്ച	-9.58016
▁കൊടുക്കുന്ന	-9.58064
▁പ്രയോഗിച്ച	-9.58074
▁അന്ധവിശ്വാസ	-9.58101
▁പ്രസ്താവന	-9.5811
▁മുഴുവനും	-9.58129
▁വന്നതു്	-9.58166
നുസരിച്ച	-9.58293
▁കൊണ്ടുവന്ന	-9.58354
▁തുടങ്ങുന്ന	-9.58398
▁നിശ്ചയ	-9.58409
▁ഹോ	-9.58435
▁ലക്ഷ്യം	-9.58455
▁ഇവയിൽ	-9.58549
മുദ്ര	-9.58578
▁ആത്മീയ	-9.58578
r	-9.58626
▁വീട്ടില	-9.58651
കളുണ്ടു്	-9.58654
െടുക്കുന്ന	-9.58661
ിക്കാനുള്ള	-9.58661
േറ്റു	-9.58683
മൂർത്തി	-9.58699
▁ലോകത്തിലെ	-9.58727
ദാഹ	-9.58732
▁കച്ചവട	-9.58799
▁in	-9.58839
സോ	-9.58855
▁ഗവൺമെന്റ	-9.59015
▁സൂചിപ്പിക്കുന്ന	-9.59015
▁ഒരുപക്ഷേ	-9.59021
▁പരിശ്രമ	-9.59033
▁തുറന്ന	-9.59037
▁ചിന്താഗതി	-9.59046
സിംഗ്	-9.59051
▁അവിട	-9.59126
കാരനായ	-9.59146
▁ഓർക്ക	-9.59151
▁കാൽ	-9.5923
▁മുതല	-9.59305
നിഷ്ഠ	-9.59376
▁യാഥാർത്ഥ്യ	-9.59387
മായിരുന്നില്ല	-9.59418
സമുദായ	-9.59462
െന്താണു്	-9.59466
▁നാനാ	-9.59534
▁മരണം	-9.59556
ാമായിരുന്നു	-9.59565
▁കണക്ക	-9.59588
▁എന്നിട്ടും	-9.59623
▁പ്രസിഡന്റ	-9.59656
വനും	-9.59658
▁ചട്ട	-9.59705
▁വളർന്നു	-9.59721
ുക്കൾ	-9.59735
▁ഭൂരിപക്ഷ	-9.59746
ിരിക്കുകയാണു്	-9.59768
പാത്ര	-9.59849
ർജ	-9.5986
▁പ്രകൃത	-9.599
▁സീത	-9.59916
ൂരി	-9.59966
▁വീടു	-9.59998
▁മാപ്പിള	-9.6002
▁വെറുതെ	-9.60025
▁ഈജിപ്ത	-9.60026
▁പരിഹാസ	-9.60027
പത്തി	-9.60034
▁ശാരദ	-9.6004
യെപ്പോലെ	-9.60042
▁കഴുത്ത	-9.60043
▁പരിശോധിക്ക	-9.60048
▁മോശ	-9.60051
▁നിർദ്ദേശ	-9.60051
▁വിദ്യ	-9.60062
▁ഓഫ്	-9.60104
▁ജീവിതത്തിൽ	-9.60105
ബുദ്ധ	-9.60118
▁കരുതി	-9.60141
പട	-9.60146
▁പെരുമാറ	-9.60223
le	-9.6032
▁എന്നാലും	-9.60404
▁കോളേജ്	-9.60408
▁തോന്നും	-9.60437
▁ഉണ്ടായി	-9.60441
മാണു	-9.60456
മാണെങ്കിൽ	-9.60517
ദിവസം	-9.60528
ജാതി	-9.60551
▁മാറിയ	-9.60561
ിരു	-9.60619
കട	-9.60693
▁റെ	-9.6072
▁അന്വേഷണ	-9.60738
▁തമിഴ	-9.60758
▁നേതാവു്	-9.60818
▁ഉമ	-9.60829
▁കവിതയിൽ	-9.60837
ങ്ങും	-9.60909
പോലുള്ള	-9.60913
▁കാട	-9.60921
്യവും	-9.60924
▁വർത്തമാന	-9.60952
കളോടു	-9.60972
ഫി	-9.61002
▁കാശ	-9.61005
പ്രദ	-9.61026
ടർന്ന	-9.61034
▁ലും	-9.6104
▁സഖ്യ	-9.6105
▁കറുത്ത	-9.61077
വന്റെ	-9.61133
ുണ്ടെങ്കിലും	-9.61189
▁കാലത്തെ	-9.61216
▁സന്ദേശ	-9.61222
▁പോക്ക	-9.61248
▁ഇതുതന്നെ	-9.61282
▁ടാ	-9.61314
is	-9.61355
പ്പള്ളി	-9.61369
▁ഹാസ്യ	-9.61391
ഫ്ര	-9.61437
▁പുരോഗതി	-9.61474
സ്ഥാനത്തു	-9.61571
ക്ഷേപ	-9.61604
കൊള്ളുന്ന	-9.61677
ക്കൊണ്ട	-9.61684
▁തൊട്ടു	-9.61698
ക്കെട്ട	-9.61712
▁കർമ്മ	-9.6174
▁പന്ത	-9.61756
▁പെരുമാൾ	-9.61806
▁ഭാര	-9.61854
ുകയല്ല	-9.61863
മായിത്തീരുന്ന	-9.61962
▁കവിതാ	-9.62015
▁വരുന്നു	-9.62017
▁പുരോഗമന	-9.62064
▁ഓർമ	-9.62076
▁ഗുജറാത്ത	-9.62077
▁ദാരിദ്ര്യ	-9.62077
▁കാളിദാസ	-9.62077
▁പിന്നാലെ	-9.62077
▁ഇത്തവണ	-9.62077
▁ഗവേഷണ	-9.62078
▁ജനറൽ	-9.6208
ing	-9.62099
▁വളർച്ച	-9.62109
▁എന്നൊക്കെ	-9.62121
▁കാണുന്നു	-9.62152
▁കുറഞ്ഞു	-9.62174
▁പ്രവർത്തക	-9.6224
ക്കണം	-9.62253
പേർ	-9.62406
▁കുഴ	-9.62412
വച്ചു	-9.62444
തെങ്ങനെ	-9.62445
▁ഓട	-9.6247
▁ഗോപു	-9.62554
▁ചുരുക്കത്തിൽ	-9.62678
ഖണ്ഡ	-9.62697
▁ചിര	-9.62802
നസ്സ	-9.62843
▁പിള്ള	-9.62864
▁വീട	-9.62942
▁സർക്കാറ	-9.62946
▁ദൈവം	-9.62967
ിച്ചുകൊണ്ടു്	-9.62982
ിക്കുമ്പോൾ	-9.63092
▁ഇന്ദിര	-9.63118
▁അന്തരീക്ഷ	-9.63119
▁കമ്മ്യൂണിസ്റ്റ	-9.63126
▁പരമാർത്ഥ	-9.63151
▁പ്രത്യേകത	-9.63176
▁ഗാന്ധിജി	-9.63207
▁വരച്ച	-9.63257
▁അടങ്ങിയ	-9.63303
സിൽ	-9.63322
▁ഫലിത	-9.63409
▁മാല	-9.63415
▁ബന്ധം	-9.6345
▁പഞ്ച	-9.63578
കൊ	-9.6362
േണ്ടി	-9.63652
▁സ്പ	-9.63701
മൂല	-9.63772
▁ഹി	-9.63803
▁സൗ	-9.63886
▁സംഖ്യ	-9.63954
ജീവിതം	-9.64027
▁ഫാ	-9.64145
ാണെന്നുള്ള	-9.64166
▁മിക്കവാറും	-9.64171
▁വികസന	-9.64171
▁and	-9.6418
▁അല്ലേ	-9.64187
▁ചുമതല	-9.6419
▁വൈദ്യ	-9.64221
▁പ്രതിപക്ഷ	-9.64228
▁നേടി	-9.64238
▁ഗദ്യ	-9.64269
▁ഉണ്ടാകുന്ന	-9.64295
▁അവൾക്കു	-9.64298
▁തോൽ	-9.64344
മാണെന്നും	-9.64374
▁കടുത്ത	-9.64432
▁തറ	-9.64443
▁യൂ	-9.64448
▁കല്യാണം	-9.64448
▁ഹൈ	-9.64532
ചെയ്യുന്ന	-9.64554
▁ഉണ്ടെന്നു	-9.64576
കെട്ടി	-9.64615
ില്ലെന്ന	-9.64624
▁പുറം	-9.64633
▁നൂറ്റാണ്ടു	-9.64704
▁പീ	-9.64787
കൊണ്ടിരുന്ന	-9.64815
▁ലോകത്തിൽ	-9.64816
▁പ്രതിഷ്ഠ	-9.64946
വാരി	-9.64992
▁പരിപാടി	-9.65034
▁മൂപ്പ	-9.6509
▁കീഴ്	-9.65162
ാമെന്നു്	-9.65165
▁അദ്വൈത	-9.65235
▁അറേബ്യ	-9.65235
▁പ്രായോഗിക	-9.65235
▁സാമൂതിരി	-9.65235
▁ആത്മഹത്യ	-9.65235
▁മുരളി	-9.65237
▁എട്ടു	-9.65302
മാത്രമേ	-9.6537
▁നീള	-9.65403
▁ആരെങ്കിലും	-9.65441
ൊഴി	-9.65552
▁ചെറുപ്പക്കാര	-9.65563
▁കണ്ണുകൾ	-9.65599
ിക്കാതെ	-9.65624
േറെ	-9.6567
▁ഒട്ടും	-9.65703
▁മീ	-9.65705
▁അമ്മു	-9.65741
▁ഉല	-9.65761
േറിയ	-9.65804
കളെപ്പറ്റി	-9.65898
▁വന്നപ്പോൾ	-9.65919
▁നിയമസഭ	-9.65962
ക്കുവാൻ	-9.65986
▁കാണും	-9.65996
▁പത്രാധിപ	-9.66034
പേക്ഷ	-9.6605
നുഭവ	-9.66072
മല്ലേ	-9.66081
ഗംഭീര	-9.6631
▁തിരുവനന്തപുരത്ത	-9.6631
ുണ്ടാക്കുന്ന	-9.66311
▁ഛായ	-9.66313
▁അത്യാവശ്യ	-9.66329
▁ദിവ്യ	-9.66333
▁കല്ല	-9.66338
▁തത്ത്വചിന്ത	-9.66339
▁പട്ടാള	-9.66367
▁വർഗ്ഗീയ	-9.66375
▁12	-9.66399
▁സമ്പ്രദായ	-9.6642
▁അവൾക്കു്	-9.66459
▁ന്യൂ	-9.66483
▁അണ	-9.66485
▁കഴിവ	-9.6653
തുകൊണ്ടു	-9.6658
▁ആറു	-9.66593
യാർ	-9.66665
ക്രിയ	-9.66752
▁പൊലീസ്	-9.66837
ത്വവും	-9.66885
ത്തരം	-9.6689
▁കർഷക	-9.66908
മുതൽ	-9.6695
ുവെന്നും	-9.67028
യോടും	-9.67063
▁കൃതികൾ	-9.67095
▁കീ	-9.67114
താനും	-9.67137
▁കടന്ന	-9.67146
ിതാ	-9.67197
നാട്ട	-9.67241
ായിട്ടാണു്	-9.67299
▁കൃത്രിമ	-9.67397
▁പശ്ചാത്തല	-9.67397
▁യേശു	-9.67397
▁ബിരുദ	-9.67398
റുപ്പ	-9.67403
▁വേദാന്ത	-9.67423
▁പറയുക	-9.67429
▁ഉയർന്നു	-9.67434
▁പട്ടിണി	-9.67438
▁അവന	-9.67449
▁അനുകൂല	-9.67463
▁താഴ്	-9.6749
▁സഹൃദയ	-9.67541
മ്പോ	-9.67546
▁തകഴി	-9.67613
▁എന്തൊരു	-9.67643
ാവൂ	-9.67688
▁പങ്ക	-9.67691
വിട്ട	-9.67706
ുമ്പോഴ	-9.67777
ാത്മാവ	-9.6781
▁എത്ത	-9.6786
കൊണ്ടുതന്നെ	-9.67904
വിനു	-9.67905
രുചി	-9.67907
പ്പുഴ	-9.68013
▁അഭി	-9.68053
പാഠ	-9.68161
രക്ഷ	-9.68167
▁സഖാവ	-9.68187
▁ചൊല്ല	-9.68213
▁പ്രതിഭ	-9.68228
ക്കിടക്കുന്ന	-9.68327
▁വാഴ	-9.68329
ത്തുനിന്നു്	-9.68369
▁ഉയർന്ന	-9.68459
ഗാ	-9.68472
േണ്ടിവന്നു	-9.68493
▁ഒച്ച	-9.68496
▁നക്ഷത്ര	-9.68497
▁എല്ലാവർക്കും	-9.68536
▁മൂത്ത	-9.68537
▁കലാപ	-9.68561
വർഗ	-9.68574
▁വിജയിച്ചു	-9.68579
കേട	-9.68597
▁ധാരണ	-9.68608
▁തടയ	-9.68611
▁വായന	-9.68611
ല്ലാത്ത	-9.68648
ടഞ്ഞ	-9.68672
▁മദ്ധ്യ	-9.68692
കാർ	-9.68696
▁ദാ	-9.68699
▁ചീത്ത	-9.68739
താര	-9.68747
▁സമ്മതിച്ച	-9.68752
കുമാർ	-9.68795
▁വാക്കുകൾ	-9.68906
▁തെരഞ്ഞെടുപ്പ	-9.68953
▁തത്വ	-9.68954
▁തിരിയ	-9.68983
▁അന്ത	-9.69052
▁വന്നു്	-9.6909
▁പണ്ടു	-9.69223
▁ജനങ്ങളുടെ	-9.69241
▁f	-9.69261
ങ്ങളോ	-9.69301
▁കവിയുടെ	-9.69408
▁ഇടയ്ക്കു്	-9.69414
ാത്മ	-9.69478
പോകും	-9.69513
▁ആഭ്യന്തര	-9.69605
▁ടോൾസ്റ്റോയി	-9.69607
▁വെളുത്ത	-9.69607
▁അധ്യക്ഷ	-9.69608
▁സങ്കട	-9.69609
▁ബോർഡ	-9.69619
ാബ്	-9.69637
▁ഗ്രന്ഥകാരൻ	-9.69654
▁13	-9.69679
ിലോ	-9.69708
▁ചിന്തിക്ക	-9.69753
▁ഘട്ട	-9.69777
▁ചേർത്തു	-9.69793
കർമ്മ	-9.69819
ചരണ	-9.69872
▁ഇക്കാര്യത്തിൽ	-9.69898
ശാസ്ത്രം	-9.69919
ത്തിനുശേഷം	-9.69975
▁നിന്റെ	-9.70054
ാനാ	-9.70058
▁കൊടി	-9.70137
▁അന്ത്യ	-9.70138
▁അവസാനിക്ക	-9.70149
▁തീർച്ച	-9.70167
കളിൽനിന്നു	-9.70188
യ്ക്കുള്ള	-9.70203
ed	-9.7022
▁അനുഭവം	-9.70278
▁അതോടെ	-9.70355
ർഗ	-9.70374
▁പറയുന്നുണ്ടു്	-9.70388
ൊലി	-9.70419
ാരും	-9.70441
ക്കാരന്റെ	-9.7045
▁തെറി	-9.70451
െന്താ	-9.70497
▁തനിക്കു്	-9.70504
▁രമ	-9.70531
ശ്ശേരി	-9.70672
ിയാൽ	-9.70707
സേവ	-9.70707
▁പ്രവർത്തിച്ച	-9.70729
▁ഒഴിഞ്ഞ	-9.70731
▁വള്ളത്തോൾ	-9.70731
▁ജനുവരി	-9.70731
▁അല്പ	-9.70735
▁ഇടതുപക്ഷ	-9.7074
▁തെരുവ	-9.70744
▁ചീഫ്	-9.70744
ശ്വര	-9.70768
ാങ്ക	-9.70778
▁ആകെ	-9.70808
ലേഖന	-9.70854
▁കൃഷ്ണൻ	-9.70857
സ്ഥാപ	-9.70909
▁പിളർ	-9.70943
സമയത്ത	-9.70992
▁ആലുവാ	-9.7101
ദാന	-9.7104
ദോഷ	-9.71046
േണ്ടിവരും	-9.71046
▁തൊഴില	-9.71134
ുന്നതുപോലെ	-9.7128
▁കാത	-9.713
▁വീണ	-9.71318
▁ഇദ്ദേഹം	-9.71382
ുമായുള്ള	-9.71427
▁നിയമം	-9.71432
ിട്ടില്ലാത്ത	-9.71434
▁ഉറങ്ങ	-9.715
▁നിങ്ങൾക്കു്	-9.7153
▁വ്യത്യാസം	-9.7157
സാമ	-9.71616
▁വൈകുന്നേരം	-9.7164
▁റിപ്പോർട്ട	-9.71692
ത്തിലേ	-9.71762
nd	-9.71764
▁ഗു	-9.71765
ത്രയും	-9.71803
ിനുള്ള	-9.71823
ഭംഗ	-9.71827
ദ്യോഗിക	-9.71867
▁ഒടുക്കം	-9.71867
▁പത്മ	-9.71873
▁നിഴല	-9.7189
▁പാര	-9.71939
▁ജോൺ	-9.71957
േണ്ടതുണ്ടു്	-9.71994
▁പ്രബല	-9.72
▁രേഖ	-9.72022
▁രണ്ടുപേരും	-9.72066
▁കരുണാകരന്റെ	-9.72081
െടുപ്പ	-9.72084
വരുന്നു	-9.72114
ുവാനായി	-9.72143
▁ത്രി	-9.7221
▁ആവശ്യമില്ല	-9.72216
േണ്ടതില്ല	-9.72247
▁അനുവദിക്ക	-9.72317
▁മറിച്ചു്	-9.72366
ബ്ബ	-9.72381
▁കുഴി	-9.72434
▁പോസ്റ്റ	-9.72488
▁കയറിയ	-9.72526
താണെന്നു	-9.7255
യുമില്ല	-9.7262
സ്വാമി	-9.72623
▁ഇൻ	-9.72807
▁അഭിപ്രായപ്പെട്ട	-9.72824
▁മുതലാളി	-9.72966
പ്പിടിച്ചു	-9.72983
▁വൃദ്ധ	-9.73017
മംഗല	-9.7303
▁അപകട	-9.73033
ra	-9.73072
ുണ്ടായിരുന്നില്ല	-9.73114
▁ബംഗാളി	-9.73118
▁പൊന്തി	-9.73167
▁വരുന്നതു്	-9.73218
ാശയ	-9.73226
▁അധികാരം	-9.73363
സ്ഥാപന	-9.73386
▁നിയമസഭാ	-9.73424
▁പാപ	-9.73475
▁ചലന	-9.73597
ഘട്ടത്തിൽ	-9.73615
▁ഗതി	-9.73687
▁മറു	-9.73755
▁ഉദ്യോഗസ്ഥ	-9.73762
നിർമ്മാണ	-9.73799
▁രാജി	-9.73849
▁മെയ്	-9.73855
▁പണ്ട	-9.73867
ക്കാർക്കു്	-9.73896
പ്പെട്ടു്	-9.73941
▁2	-9.74081
ാട്ടി	-9.74107
▁മാരാര	-9.74124
▁ദിന	-9.74135
▁രാജാവു്	-9.7415
ക്കാരായ	-9.74169
▁ഉയര	-9.74179
▁ദരിദ്ര	-9.74179
▁ഒരൊറ്റ	-9.7418
പുസ്തക	-9.74187
▁സമ്പ്രദായം	-9.74189
▁ഫിലി	-9.74199
▁വലിച്ചു	-9.74199
▁ഒന്നാമത്തെ	-9.74221
പാർട്ടി	-9.74221
ാറു	-9.74262
▁വൈരുദ്ധ്യ	-9.74301
▁തൊഴിൽ	-9.74312
▁ഏറ	-9.74353
ശ്ച	-9.74456
വയാണു്	-9.74542
▁അടിമ	-9.74557
▁മിണ്ട	-9.74589
▁വ്യാപ	-9.74675
▁is	-9.74782
ിണി	-9.74795
മത്രേ	-9.74798
റെ	-9.74832
ൂണ	-9.74905
വേല	-9.74936
▁നാട്ടിലെ	-9.75006
ിങ്	-9.75054
▁മൂല്യ	-9.75055
ഭൂത	-9.75124
▁സഞ്ജയ	-9.7513
മായിട്ടുള്ള	-9.75148
▁തോറ്റു	-9.75296
ാലേ	-9.75298
▁മൗലിക	-9.75356
▁ചുവടെ	-9.75356
▁നവീന	-9.75361
▁ധീര	-9.75365
▁മികച്ച	-9.7538
▁ദുരന്ത	-9.75399
ണീ	-9.75403
▁മഹാഭാരത	-9.75439
▁ദീപ	-9.75464
▁സ്വന്ത	-9.75499
ബന്ധം	-9.75506
▁നിലനിന്ന	-9.75544
▁നിഷേധിക്ക	-9.75552
താണ	-9.75614
▁ഭക്തി	-9.75616
ൊന്നുമല്ല	-9.75672
▁സൃഷ്ടിച്ച	-9.75683
കുഞ്ഞാലിക്കുട്ടി	-9.75778
ക്കാത്ത	-9.75802
▁പെണ്ണു	-9.75909
ിയിട്ടുണ്ടു്	-9.7593
▁ഖണ്ഡ	-9.75987
▁രാജ്യം	-9.76067
▁കേസ്	-9.7609
▁പണ്ടു്	-9.76103
▁കുറവു	-9.76115
▁ആയിരുന്ന	-9.7618
ുന്നതിലും	-9.7622
വേദന	-9.76231
▁ഗീത	-9.76275
▁ജന്മി	-9.76285
ണിയ	-9.76299
തവണ	-9.7631
യിലേയ്ക്കു	-9.76359
മല്ലാത്ത	-9.76375
ർത്ഥം	-9.76507
നദി	-9.76509
വർണ്ണ	-9.76545
▁ഇംഗ്ലണ്ട	-9.76546
▁ഫോട്ടോ	-9.76547
▁വമ്പിച്ച	-9.76548
▁പടിഞ്ഞാറ	-9.76549
▁സമ്മാന	-9.7655
▁ബാലകൃഷ്ണപിള്ള	-9.76554
▁റാ	-9.76575
▁അച്ഛന്റെ	-9.76615
▁16	-9.76633
▁തെരഞ്ഞെടുപ്പു	-9.76649
നല്ല	-9.76676
▁വാദം	-9.76676
▁പൊട്ട	-9.76703
▁ജസ്റ്റിസ്	-9.76762
▁നശിക്ക	-9.76792
▁സുഹൃത്ത	-9.76848
വ്രത	-9.76868
▁ചാടി	-9.76882
പ്പാട്ടു	-9.76925
▁പരിശോധിച്ച	-9.76993
▁സിനിമാ	-9.76994
സ്വരൂപ	-9.77073
ത്തക്ക	-9.77079
▁ചോര	-9.77105
▁ശങ്ക	-9.77114
▁നാട്ടുകാര	-9.7724
▁ഉള്ളൂ	-9.7725
▁പ്രശ്നങ്ങൾ	-9.77337
▁പതിവു്	-9.77449
പ്പോയ	-9.7749
ഭാവന	-9.77504
▁മറ്റുള്ളവർ	-9.77505
▁നഷ്ടപ്പെട്ട	-9.77524
ിപ്പിക്കുക	-9.77578
▁ശ്രമിച്ച	-9.77677
ശൂന്യ	-9.77739
▁ദക്ഷിണ	-9.77751
▁യൂറോപ്പ	-9.77751
▁ആനുകൂല്യ	-9.77752
▁ലഹള	-9.77752
▁ആരോപണ	-9.77757
ില്ലായ്മ	-9.77761
▁എത്തിയ	-9.77774
▁സമാഹാര	-9.77775
വേണം	-9.7783
▁വിജയം	-9.77858
▁കണക്കാക്ക	-9.7787
ാമെന്ന	-9.77877
▁ആചാര്യ	-9.7788
▁17	-9.77898
▁ഇറക്ക	-9.77921
▁താമസിച്ച	-9.77925
▁ഉദാഹരണം	-9.77934
▁മുട്ട	-9.77956
േണ്ടിവന്ന	-9.77996
▁കാറ്റ	-9.78004
▁p	-9.78059
▁പെട്ടി	-9.78084
തിനേക്കാൾ	-9.78104
ത്വത്തെ	-9.78176
▁ഉദ്യോഗ	-9.78187
ക്കണ്ണ	-9.78257
ന്മാരിൽ	-9.78315
ങ്ങളേയും	-9.78458
▁നാട്ടില	-9.7849
തൊക്കെ	-9.78498
▁തൊട്ട	-9.785
▁വരുമ്പോൾ	-9.78505
▁മനുഷ്യരെ	-9.78538
ഭൂ	-9.78589
▁തോന്നുന്ന	-9.78598
▁കാക്ക	-9.78638
▁കുടിയ	-9.78648
ക്കാൾ	-9.78651
▁റോഡ	-9.78657
പൂർ	-9.78659
▁തെളിവ	-9.78659
▁പട്ടണ	-9.78707
▁ബാധിച്ച	-9.78729
▁വരിക	-9.78753
▁പുസ്തകങ്ങൾ	-9.78807
▁താഴ	-9.7885
▁പുരാണ	-9.78887
▁നേരിട്ട	-9.78919
▁തൃപ്ത	-9.78945
▁തിരുവനന്തപുരം	-9.78971
▁നൃത്ത	-9.78973
▁ജനകീയ	-9.78976
▁രണ്ടാമത്തേത	-9.78991
▁സഹിക്ക	-9.79053
▁പൊക്ക	-9.79105
▁ബോധം	-9.79105
▁സദ	-9.79129
▁ബോ	-9.79147
▁കാപ്പി	-9.79164
▁പഞ്ചാബ	-9.7917
▁ചുറ്റും	-9.79192
▁നേരത്തെ	-9.79199
മുണ്ടായിരുന്ന	-9.79236
▁കാലത്ത	-9.7926
▁തള	-9.79262
▁ചൂഷണ	-9.79271
പരമ്പര	-9.79278
▁നീണ്ടു	-9.79296
▁നേതാക്കള	-9.79309
▁ഭക്ത	-9.79403
▁മറിച്ച	-9.79443
▁ഐതിഹ്യം	-9.79472
ക്കാതെ	-9.79511
▁പ്രകടന	-9.7953
▁മാറ്റം	-9.79631
▁കൂട്ടു	-9.79634
▁ഉള്ളിൽ	-9.79687
▁സാധ്യത	-9.79701
രൂപത്തിൽ	-9.79703
▁ശ്രമിക്ക	-9.79727
താണെന്നു്	-9.798
പാത	-9.79878
▁വൻ	-9.79889
▁കടക്ക	-9.799
▁സദാ	-9.79922
ാമോ	-9.79951
▁സ്വീകരിച്ചു	-9.79991
കൈ	-9.80008
ണ്ടാക	-9.8006
▁നില്ക്ക	-9.80146
യായിരിക്കും	-9.802
▁അഴിമതി	-9.80205
▁വൃക്ഷ	-9.80205
▁സോഷ്യലിസ	-9.80211
ിൽനിന്നും	-9.80215
▁സാധു	-9.80225
മായിട്ടാണു്	-9.80258
▁ഇരുന്നു	-9.80258
▁വാഗ്	-9.80287
▁ഇതിനു്	-9.80304
▁മനസ്സു	-9.80402
▁അറ്റ	-9.80414
വാസന	-9.80477
▁മുൻപ	-9.80486
▁പറഞ്ഞില്ല	-9.80502
▁പണ്ടത്തെ	-9.80505
▁കുറച്ച	-9.80527
ീട്ട	-9.80551
ന്മാർക്കു്	-9.80575
യെന്നും	-9.80622
നാണ	-9.80669
തരത്തിലുള്ള	-9.80731
▁ജീവിതത്തെ	-9.80842
ത്തിൽനിന്നും	-9.80853
▁നിലനിർത്ത	-9.80906
▁ഭരിക്ക	-9.8092
▁ആചാര	-9.80958
▁ഉദ്ദേശ്യ	-9.81019
▁സഞ്ചാര	-9.8102
മായിരിക്കുന്ന	-9.8106
75	-9.81072
പ്രകാശ	-9.81167
ിത്തീര	-9.81193
▁ഗാന	-9.81239
▁സാധാരണയായി	-9.81271
രചന	-9.81289
▁ഏറ്റ	-9.8134
പോന്നു	-9.81346
െക്കുറിച്ച	-9.81363
വേഗ	-9.8141
▁പ്രൊഫ	-9.81433
▁നിശ്ശബ്ദ	-9.81455
▁സുധീര	-9.81455
▁പുറമെ	-9.81475
▁നാഗ	-9.8148
▁അങ്ക	-9.81508
▁അന്വേഷിക്ക	-9.81521
▁കുതിര	-9.81524
ിനേയും	-9.81528
▁സ്ഥിതിചെയ്ത	-9.81532
▁ഉറ	-9.8154
▁തള്ള	-9.81566
▁പെട്ടെന്നു്	-9.81583
▁അംശ	-9.81586
ാനാവില്ല	-9.81588
▁സീറ്റു	-9.81609
▁എങ്ങിനെ	-9.8164
ിടത്തു	-9.81666
ചന്ദ്ര	-9.81667
വീണ	-9.81675
ച്ചതു്	-9.81725
▁ശങ്കർ	-9.81748
▁തൽ	-9.81749
▁മുതലാളിത്ത	-9.8178
ടുപ്പ	-9.81811
▁തേടി	-9.81821
▁പരിഷ്കാര	-9.81823
▁വിചാരിക്കുന്നു	-9.81953
▁ഇരുന്ന	-9.82091
▁അനുഭവിച്ച	-9.82125
▁വലിയൊരു	-9.82178
▁നേരത്തേ	-9.82264
▁സിദ്ധിച്ച	-9.823
▁സംസാര	-9.8232
▁വലുത	-9.82404
▁അയാൾക്കു	-9.82411
നിഷേധ	-9.82433
ുകൂട്ട	-9.82445
▁കൂട്ടുകാര	-9.82476
▁വിവാദ	-9.8248
▁മനസ്സിലാക്കിയ	-9.82512
▁പൂർവ	-9.8258
▁മാർക്സ	-9.82593
▁കാണാന	-9.82626
നെന്ന	-9.82705
▁ചെന്നു്	-9.82716
▁മാർച്ച്	-9.82727
▁പൂർണ	-9.82728
പറഞ്ഞു	-9.8273
▁പാവം	-9.82756
▁ഹിംസ	-9.82795
നൈ	-9.82796
ള്ളതു്	-9.82813
ലോകം	-9.82842
▁അഭിനയ	-9.82845
▁തിരുവിതാംകൂറ	-9.82888
ാനില്ല	-9.82977
വാഹന	-9.82983
▁ഇപ്പോഴത്തെ	-9.82997
▁നോക്കുമ്പോൾ	-9.83006
▁മൂന്നാ	-9.83092
ലീഗ	-9.83104
▁അർഥ	-9.83127
▁മാപ്പിളപ്പാട്ട	-9.83137
▁അസ	-9.83227
നാട	-9.83238
മാണതു്	-9.83279
ബോ	-9.83302
യിൻ	-9.83303
▁സമീപിച്ച	-9.83325
മിട	-9.83448
▁കിടപ്പ	-9.83461
▁കരുതുന്ന	-9.83532
▁യുക്തിവാദി	-9.83533
ക്കാനും	-9.83537
ശേഖര	-9.83591
തോടുകൂടി	-9.83638
▁പഠന	-9.8364
ോർത്തു	-9.8364
▁പെണ്ണ	-9.83687
െഴുത്തു	-9.83754
▁നേരിട	-9.83755
കലാ	-9.83837
▁ശൈലി	-9.83983
▁1958	-9.84003
▁ഇടതുമുന്നണി	-9.84004
▁ഓർത്തു	-9.84026
പ്രദേശ	-9.84034
▁ഭരണഘടന	-9.8405
▁കഴിഞ്ഞില്ല	-9.84056
കളെല്ലാം	-9.84089
വേണ്ട	-9.84108
▁അക്കാലത്തു്	-9.84185
േഴ്സ	-9.84262
ിലേക്ക	-9.84282
▁പ്രമുഖ	-9.84308
വാക്ക	-9.84342
▁മറ്റു്	-9.8436
▁വേണ്ടത്ര	-9.84441
യുണ്ടായിരുന്ന	-9.84539
പദേശ	-9.84552
▁തന്ത്ര	-9.84594
നാടക	-9.84695
▁ശ്രദ്ധിച്ച	-9.84708
▁വാക്കു്	-9.84771
▁നിഷ	-9.84771
റുടെ	-9.84815
ങ്ങളുള്ള	-9.84888
ിറങ്ങ	-9.84905
തിരിഞ്ഞ	-9.84974
ശാഖ	-9.85058
േക്കും	-9.8508
നായക	-9.85087
▁വിഷയം	-9.85101
▁ലേഖനം	-9.85123
▁മമത	-9.85174
നോടു	-9.85178
്യത	-9.85182
▁നൂറു	-9.85264
▁മാഷ	-9.85275
▁1996	-9.85302
▁മാനുഷിക	-9.85305
▁വിവേക	-9.85306
▁ആവർത്തിച്ചു	-9.8531
▁മൗന	-9.85323
ധർമ	-9.85332
പ്രവാഹ	-9.85335
▁ഇന്നലെ	-9.85335
▁ഗോപാല	-9.85348
as	-9.85356
യുണ്ടായി	-9.85381
▁തോമസിന്റെ	-9.85405
▁ക്രമ	-9.8544
▁തീവ്ര	-9.85464
▁നന്നായി	-9.85469
ഭാഗം	-9.85487
▁കർമ	-9.85676
▁ഇതൊരു	-9.85699
നിന്നാണു്	-9.857
▁പൊതി	-9.85773
നടന്ന	-9.8578
യോടുകൂടി	-9.85811
▁എന്നായിരുന്നു	-9.85958
ല്‍	-9.8597
▁ഫലമായി	-9.86034
▁പറഞ്ഞിട്ടുള്ള	-9.86055
പോല	-9.86062
ചേർന്ന	-9.86094
ങ്ങളിലൊന്ന	-9.86125
മാകും	-9.86146
ിപ്പോയ	-9.8624
വട്ടം	-9.86273
▁കായ	-9.86301
▁ബാധ	-9.86306
▁തെളിയ	-9.86335
സന്ദേശ	-9.86412
ല്ലെങ്കിൽ	-9.8643
▁ഭൗതികവാദ	-9.86474
ുന്നതുവരെ	-9.86503
ങ്ങളുമായി	-9.8655
▁തിന്ന	-9.86552
▁വിഡ്ഢി	-9.8656
▁വിമർശ	-9.86605
▁ദൽഹി	-9.86618
▁തീർച്ചയായും	-9.86618
▁വേറൊരു	-9.86618
▁വിഷ്ണു	-9.86624
▁വേർതിരി	-9.86624
▁നടപ്പാക്ക	-9.86636
▁ആവേശ	-9.86646
ാമത്തെ	-9.86651
▁വേഗം	-9.86661
▁തങ്ങൾ	-9.86709
▁ഇപ്പറഞ്ഞ	-9.86726
▁ആദര	-9.8677
▁സമുദ്ര	-9.86775
വെള്ള	-9.86782
യുടേയും	-9.86869
▁നിരീക്ഷണ	-9.86903
ന്ത്ര	-9.86918
▁ഇതെല്ലാം	-9.86938
▁ഉത്ഭവ	-9.86946
പ്പെടും	-9.86962
▁താല്പര്യ	-9.87067
▁ഒരിടത്തു	-9.87106
▁പഠിച്ചു	-9.87111
സ്റ്റോ	-9.87185
▁അതിനെപ്പറ്റി	-9.872
ശ്വാസ	-9.87338
▁മന്ദ	-9.87372
▁ഉദാഹരണങ്ങൾ	-9.87429
ക്കളെ	-9.87463
▁ഇടയിൽ	-9.87473
▁കൺ	-9.87504
▁തട്ട	-9.87602
▁മുടി	-9.8764
▁കോള	-9.87652
▁ജീവിച്ച	-9.87695
പരാമർശ	-9.87714
▁ഒന്നിച്ചു	-9.87788
വരുന്നതു്	-9.87805
ജാത	-9.87856
വിധി	-9.8786
ശിലാ	-9.87911
▁അവിടെനിന്നു	-9.8792
നേയും	-9.87927
▁എഴുന്നേറ്റു	-9.87951
▁കൗതുക	-9.87951
▁പ്രാദേശിക	-9.87951
▁മജീദ	-9.87951
▁മർദ്ദ	-9.87952
▁ബാഹ്യ	-9.87954
▁അഗ്നി	-9.87959
ഭീതി	-9.87972
▁പദ്ധതി	-9.87972
പർവ്വത	-9.87972
▁ലീഗ്	-9.87973
▁സ്വർഗ്ഗ	-9.88009
▁ക്രൂര	-9.88009
ur	-9.88023
▁നഗ്ന	-9.88026
▁ചെറുപ്പ	-9.88042
▁ശക്ത	-9.88122
ാവണം	-9.88123
▁പാർട്ടിയുടെ	-9.88198
സന്	-9.88203
▁എഴുതുന്ന	-9.88304
▁പ്രകടിപ്പിച്ച	-9.8833
ിക്കപ്പെടുന്ന	-9.88429
▁പേരും	-9.88632
▁ത്യാഗ	-9.88744
യാണെന്ന	-9.88764
ുകയെന്ന	-9.888
▁വാസന	-9.88824
ില്ലാതെ	-9.88824
▁ഭംഗി	-9.88846
▁പുരുഷന	-9.8889
ാകയാൽ	-9.88914
▁പുക	-9.89007
പ്രവർത്തക	-9.89068
▁നിന്നാണു്	-9.89074
▁ആരംഭ	-9.89148
ചര്യ	-9.89201
ുവെന്നു	-9.89255
▁വിശദീകരിക്ക	-9.89302
▁ഇസ്ലാമി	-9.89302
▁ഇൻഡ്യ	-9.89303
ത്തിലോ	-9.89304
▁വിശ്രമ	-9.89307
▁മുഖേന	-9.89307
▁ശ്രദ്ധേയ	-9.8931
ുടെയും	-9.89319
▁കടലാസ്സ	-9.89328
▁നരക	-9.89337
നാണെന്നു	-9.89341
▁തമ്മില	-9.89342
ാക്കാൻ	-9.89344
▁ഒടുവിലത്തെ	-9.89354
▁ഹിന്ദുമത	-9.89383
▁പൊതുവെ	-9.89386
പരമായി	-9.89394
▁വച്ചു	-9.89439
▁വാര	-9.89444
▁നമ്മള	-9.8949
▁സമരം	-9.89508
▁അങ്ങോട്ടു	-9.89522
▁മുക്ത	-9.89566
▁എമ്മ	-9.89569
▁മനസ്സിലാക്കി	-9.89578
▁ഇതാ	-9.89629
▁ഒഴിവാക്ക	-9.8964
▁അന്തര	-9.8966
▁മുള	-9.89666
▁തോറ്റ	-9.89741
▁ഈശ്വരന	-9.89757
▁മെച്ച	-9.89839
ത്തേയ്ക്കു	-9.89901
▁കഥകളി	-9.89906
ാത്തതു്	-9.89944
▁റഷ്യൻ	-9.89964
▁ശതമാനം	-9.90007
▁പണിക്കര	-9.90031
മാർഗ	-9.90073
▁സീ	-9.90089
▁കിടന്ന	-9.90093
▁സാദ്ധ്യ	-9.90105
▁കോൺഗ്രസിന്റെ	-9.90188
ുമല്ലോ	-9.90197
▁വിശ്വസിച്ച	-9.90224
▁ഗ്രൂപ്പു	-9.90283
▁c	-9.90316
െങ്കിലു	-9.90329
▁സമാധാനം	-9.90343
യിലോ	-9.90408
▁നിലപാട	-9.90497
കേരള	-9.90543
ത്തോടും	-9.90554
വർത്തി	-9.90633
തീർക്ക	-9.90659
▁ഉദ്ഘാടന	-9.90672
▁ഉന്നത	-9.90672
▁ഇസ്ലാം	-9.90672
▁വയലാർ	-9.90693
▁നശിപ്പിക്ക	-9.90702
▁കൊണ്ടുവന്നു	-9.90719
▁അലി	-9.90729
ാൻവേണ്ടി	-9.90743
▁മുഖത്തു	-9.90752
▁ഉത്തരവ	-9.90753
▁വാദിക്കുന്ന	-9.90838
േണ്ടിയിരിക്കുന്ന	-9.90843
പിടിക്ക	-9.9086
▁മതവിശ്വാസ	-9.90871
▁ആദ്യകാല	-9.91096
ങ്ങളെക്കുറിച്ച	-9.91105
▁അറിഞ്ഞു	-9.91113
ക്കാനുള്ള	-9.91151
മൊന്നുമില്ല	-9.91153
▁തടി	-9.91182
▁വഞ്ചി	-9.91245
▁ഉദയ	-9.9126
▁നല്ക	-9.91272
▁കണക്കു	-9.91286
പോകുന്നു	-9.91319
മിന	-9.91332
▁കുട്ടികളെ	-9.91365
▁പറയുമ്പോൾ	-9.9143
ച്ചില	-9.91471
പട്ട	-9.91477
▁കണ്ടപ്പോൾ	-9.91497
▁നല്ലൊരു	-9.91504
ക്കൊടുക്ക	-9.91507
▁കാവ	-9.9185
വയ്ക്ക	-9.91885
മേനോൻ	-9.91895
സമ്പ്രദായ	-9.91907
ണ്ടാക്ക	-9.9192
ദൃശ്യ	-9.91959
▁കൊണ്ടുപോയ	-9.91988
പ്പിടി	-9.92034
െവിടെ	-9.92039
▁1977	-9.92061
▁ഏപ്രിൽ	-9.92061
▁ഗ്രാൻപാ	-9.92061
▁ഭീഷണി	-9.92061
▁അവതരിപ്പിച്ച	-9.92062
▁ക്രമേണ	-9.92062
▁രാമായണ	-9.92067
▁നാളെ	-9.92073
el	-9.92081
▁അധ്യാപക	-9.92159
▁എന്തൊക്കെ	-9.92216
▁ആരാണു്	-9.92221
ാക്കിത്തീർക്ക	-9.92227
▁ചീ	-9.92259
െടുക്കാൻ	-9.92283
▁ബോധ്യ	-9.92331
▁ലേ	-9.92383
▁ഇദ്ദേഹ	-9.92404
▁ഇടപെട	-9.92425
▁പുഴ	-9.92496
ായിത്തീർന്നു	-9.92501
കാരന്മാർ	-9.92614
കളുമായി	-9.92672
▁ഇപ്പോഴ	-9.92683
ാഭിപ്രായ	-9.92701
▁സൃഷ്ടിച്ചു	-9.92704
ിടത്തു്	-9.92768
▁കത്തോലിക്ക	-9.92842
▁കഴിവു	-9.92848
വർക്കു	-9.92877
ിച്ചപ്പോൾ	-9.92925
ധാരണ	-9.92976
പ്പറഞ്ഞ	-9.92984
ാർഹ	-9.93
▁തൊട	-9.93001
▁അറിയാതെ	-9.93042
▁മനുഷ്യജീവിത	-9.93047
ിനടുത്ത	-9.93075
ിപ്പിക്കാൻ	-9.93082
ായിത്തീർന്ന	-9.93114
ിനെതിരെ	-9.93128
▁എങ്ങനെയാണു്	-9.932
ിറങ്ങിയ	-9.9322
രുടേയും	-9.93224
▁കേൾക്കുന്ന	-9.9327
ിലധികം	-9.9327
▁പറഞ്ഞിട്ടുണ്ടു്	-9.93277
▁നമ്മ	-9.93391
സ്ത്രീ	-9.93407
സംഘടന	-9.93431
▁ജൈന	-9.93441
ാകണം	-9.93456
രുതെന്ന	-9.93465
ണമെന്നും	-9.93468
▁മുദ്രാവാക്യ	-9.93469
ity	-9.9347
▁ടാഗോർ	-9.9347
▁ഓഫീസ	-9.9347
▁പകുതി	-9.9347
പറയുന്ന	-9.93471
▁പ്രസിദ്ധീകരിച്ച	-9.93472
▁പ്രയാസമ	-9.93474
▁യോജിക്ക	-9.93475
▁കീഴ	-9.93481
▁മുസ്ലിംലീഗ	-9.93484
▁തീവണ്ടി	-9.93486
▁കോളേജിൽ	-9.93492
▁ആദ്യത്തേത	-9.93493
ch	-9.93524
▁ചുവന്ന	-9.93532
▁മേഘ	-9.93539
▁നിർമ്മിക്ക	-9.9354
▁പൊതുജന	-9.93554
ജീവിതത്തിൽ	-9.93622
▁ഭീകര	-9.93626
ചിതമായ	-9.93664
▁കൊല	-9.93695
▁തികഞ്ഞ	-9.93705
▁ബാങ്ക	-9.93729
▁വിപരീത	-9.93772
▁പിന്നീടു	-9.93807
▁ചേർന്നു	-9.93878
▁പെട്ടെന്നു	-9.93936
വരിൽ	-9.93944
വിഭവ	-9.93945
രാജാവിന	-9.93971
▁ഏറ്റു	-9.93972
▁അധികാരി	-9.93973
ിരിക്കുക	-9.93981
▁വിഷ	-9.94022
▁പോലീസ്	-9.9408
▁ശാന്തി	-9.94153
▁അറിഞ്ഞുകൂടാ	-9.94156
▁നിരന്തര	-9.94215
മെന്റ്	-9.94228
▁അപവാദ	-9.94262
പിടിച്ചു്	-9.94309
▁സമയത്തു്	-9.94357
ന്തോ	-9.94439
പുരം	-9.94621
പിടി	-9.94622
▁സ്റ്റേ	-9.94626
സുഖ	-9.94633
ിരിക്കുമ്പോൾ	-9.94664
പ്രസംഗ	-9.94687
▁ജനിച്ചു	-9.94719
▁പ്രാധാന്യ	-9.94738
▁അതുതന്നെ	-9.94769
us	-9.94828
▁പത്രാധിപർ	-9.94888
▁സ്കൂൾ	-9.94898
മാഹാത്മ്യ	-9.94898
▁കസേര	-9.94898
▁നിസ്സാര	-9.94899
▁ബോംബ	-9.94906
▁കരുണ	-9.94914
▁നേട്ട	-9.94921
▁ചേരമാൻ	-9.94927
▁വിഷാദ	-9.9494
▁ചേട്ടൻ	-9.9495
െക്കാൾ	-9.94955
▁വിജയൻ	-9.94959
ണ്ണി	-9.94971
▁വാമൊഴി	-9.94994
തല്ലേ	-9.95133
▁ഡാ	-9.95227
▁വരെയുള്ള	-9.95229
▁ഉദ്ദേശ	-9.95268
▁അളവ	-9.95271
നാടു	-9.95314
▁വീഴ	-9.95327
▁മലയാളത്തിലെ	-9.95355
▁പണ്ടേ	-9.95359
സേന	-9.95372
▁നേരിട്ടു	-9.95379
ണമെന്നില്ല	-9.95422
▁വിനയ	-9.95506
▁കഴിച്ചു	-9.95539
കളഞ്ഞു	-9.95579
▁ഞങ്ങള	-9.95664
▁അനേക	-9.95682
വർക്കും	-9.95714
▁സംഭവം	-9.95735
▁കോൺഗ്രസുകാര	-9.95748
ഭ്രമ	-9.95775
▁പറയാതെ	-9.95899
▁ഉണ്ടായിരിക്ക	-9.95903
റായി	-9.95935
▁ആര്യ	-9.95984
▁കഥയിൽ	-9.9599
കളോ	-9.95992
▁നോവലുകള	-9.96008
▁വാസ	-9.96013
▁അൽപ	-9.96098
▁തെറ്റി	-9.96106
ുന്നതിനുള്ള	-9.96107
വീര	-9.96173
▁കഴിച്ച	-9.96182
▁മേഖല	-9.96187
മണ്ഡലത്തിൽ	-9.96253
വീക്ഷണ	-9.96266
ായ്ക	-9.96293
▁ചുമര	-9.9634
▁ചൂണ്ടിക്കാണിക്ക	-9.96347
▁കൊട്ടാര	-9.96348
▁എത്രയെത്ര	-9.96348
▁വൈദിക	-9.96348
▁പുറപ്പെടുവിച്ച	-9.96349
▁പുണ്യ	-9.96351
▁പുഞ്ചിരി	-9.96352
ത്തിര	-9.96352
▁സ്തുതി	-9.96361
ഗുപ്ത	-9.9637
▁കലർന്ന	-9.96378
പേരും	-9.96419
▁പരിഹാര	-9.9644
▁വിളിക്കുന്ന	-9.96459
▁അദ്ദേഹത്തിന	-9.96489
▁കോഴി	-9.96515
ിക്കണമെന്ന	-9.96571
▁വാതിൽ	-9.96579
▁ഏതാണ്ടു്	-9.96609
▁അതോ	-9.96694
▁സംശയം	-9.96697
▁നേരിട്ടു്	-9.96723
പ്പോഴാണു്	-9.96762
▁കവിതയുടെ	-9.96785
▁കനത്ത	-9.96806
▁പദ്യ	-9.96942
▁തലമുറ	-9.9696
▁പറ്റില്ല	-9.96989
കൊണ്ടോ	-9.97001
▁അവയ്ക്കു	-9.97112
▁കുഞ്ഞു	-9.9715
▁വീടു്	-9.97222
▁ഭരിച്ചിരുന്ന	-9.97232
▁അമേരിക്കൻ	-9.97322
മനുസരിച്ചു്	-9.97323
വ്വ	-9.97334
▁സേവന	-9.97356
▁ആലോചിച്ച	-9.97374
▁പണ്ഡിതന്മാർ	-9.97385
40	-9.97414
▁കണ്ടില്ല	-9.97417
▁അക്രമ	-9.9746
▁പട്ടിക	-9.97501
ുന്നുവെന്ന	-9.97531
▁തങ്ക	-9.97675
▁സൂക്ഷിച്ചു	-9.97735
ഭ്രാന്ത	-9.97752
▁ഉദ്ധരിച്ച	-9.97818
▁മുതിർന്ന	-9.97818
▁സെപ്റ്റംബർ	-9.97818
▁കഠിന	-9.97818
▁സ്വാഗത	-9.97818
▁സൂചിപ്പിച്ച	-9.97819
▁പൊരുത്ത	-9.97823
പ്പെടുക	-9.97834
▁നിർമ്മിച്ച	-9.97836
▁ആന്തര	-9.97849
വിഗ്രഹ	-9.97884
▁ഇടശ്ശേരി	-9.97896
ദീപ	-9.97914
പെരു	-9.97923
▁കർത്താവ	-9.98018
പ്രകൃതി	-9.98047
▁യോഗം	-9.98052
ുന്നതിനും	-9.9807
▁കെട്ടു	-9.98093
സമ്പത്ത	-9.98106
ചോദ	-9.98115
ശീ	-9.9828
▁വിവരണ	-9.98309
ാദ്ധ്യ	-9.98342
▁മനസ്സിലായി	-9.98382
േഷ്യ	-9.98388
റിയാതെ	-9.98441
▁രക്ഷപ്പെട	-9.98478
യിൽനിന്നും	-9.98564
▁മനസ്സിന്റെ	-9.98597
കളുള്ള	-9.98604
ങ്ങളോടു്	-9.98655
ങ്ങളിലേക്കു	-9.98662
▁24	-9.98826
▁ഹരി	-9.98848
ut	-9.98921
▁ആഴ	-9.9897
▁താമസിക്ക	-9.99008
▁ബസ്സ	-9.99048
മുമ്പു	-9.99086
▁വിൽ	-9.99123
▁ബുദ്ധൻ	-9.99219
ീകരണം	-9.9922
▁ജില്ലാ	-9.9922
▁മാസം	-9.99249
പാരമ്പര്യ	-9.99268
▁തിരുവിതാംകൂർ	-9.9931
▁പ്രദർശിപ്പിച്ച	-9.9931
▁ശബരിമല	-9.9931
▁ആത്മാർത്ഥത	-9.99311
▁ധാരാളമ	-9.99313
▁എതിരാളി	-9.99315
കണ്ഠ	-9.99319
▁ലഭിക്കുന്ന	-9.99325
▁കണ്ടതു്	-9.99326
കൂടെ	-9.99331
▁ആക്രമണ	-9.99335
▁അഭയ	-9.99356
▁യവന	-9.99357
▁സ്വതന്ത്രചിന്ത	-9.99357
▁ജയിക്ക	-9.99359
പണി	-9.99434
▁കാണുന്നില്ല	-9.99453
ത്തിന്റേയും	-9.99488
▁റിപ്പോർട്ട്	-9.99542
▁അതിനുള്ള	-9.99631
▁പഠിക്കുന്ന	-9.99658
കുറുപ്പ	-9.99717
▁സ്ഥലത്തു	-9.99728
ജീവിതത്തിന്റെ	-9.99766
ബിംബ	-9.9978
om	-9.99852
▁ആശ്വാസ	-9.99857
▁നിയന്ത്രണ	-9.9987
ഗ്രാമ	-9.9987
▁പഠിപ്പിച്ച	-10.0006
ുകാരുടെ	-10.0008
ാഹാര	-10.0009
ൊഴുക	-10.0014
യുമൊക്കെ	-10.0015
ത്തിന്റേത	-10.0018
▁മാത്രമായി	-10.0021
തുമില്ല	-10.003
▁ജോർജ്	-10.0035
▁ഭൂത	-10.0037
▁കലഹ	-10.0046
പൂർവ്വ	-10.0049
വിനു്	-10.005
ുളള	-10.0056
▁ആരാധന	-10.0061
രിയ്ക്ക	-10.0066
പദ്ധതി	-10.0081
ഗൃഹ	-10.0081
▁പ്രതീക	-10.0083
▁1967	-10.0083
▁ക്രിസ്ത്യൻ	-10.0083
▁ബ്രിട്ടീഷ്	-10.0083
▁ഏഷ്യ	-10.0083
▁തൃശൂർ	-10.0083
▁വള്ളത്തോള	-10.0083
▁മിണ്ടിയില്ല	-10.0083
▁സന്നദ്ധ	-10.0083
▁ഉദ്യമ	-10.0083
▁പരിഗണിക്ക	-10.0083
▁ധ്യാന	-10.0083
വ്യവഹാര	-10.0084
▁ഉത്സാഹ	-10.0084
▁സംവരണ	-10.0084
▁പെരുമാറ്റ	-10.0085
പ്രമാണ	-10.0086
▁22	-10.0087
ുമ്പോഴേക്കും	-10.0089
▁വർണ	-10.009
▁ആളുകള	-10.0091
▁വർദ്ധിച്ചു	-10.0093
▁അപമാന	-10.0094
▁വാതില	-10.0094
െന്നുള്ള	-10.0095
▁ബഹള	-10.0097
▁ഉൾക്കൊള്ള	-10.0102
▁അല്ലാതെ	-10.0102
കാരന്റെ	-10.011
േണ്ടതു	-10.0111
▁മറിയ	-10.0116
▁അനന്തരം	-10.012
▁സഹായിക്ക	-10.0129
▁വിശ്വസിച്ചു	-10.0137
ഭിപ്രായ	-10.0138
▁പ്ല	-10.0145
▁മേശ	-10.015
ുണ്ടാകും	-10.0159
െത്തുന്ന	-10.0159
▁നിലനിൽക്ക	-10.016
▁സാദ്ധ്യമല്ല	-10.0165
▁ധ്വനി	-10.0169
ിക്കൊടുത്ത	-10.017
▁തിരിച്ച	-10.0172
▁അതിന്നു	-10.0174
പ്പട	-10.0177
ാചാര്യന	-10.0187
▁മാപ്പിളപ്പാട്ടു	-10.0187
ശതാബ്ദ	-10.0191
▁പുറത്താക്ക	-10.0191
▁പ്ലാ	-10.0208
▁എന്നിട്ടു്	-10.0214
കൃതികൾ	-10.0231
ഗാന	-10.0235
▁1980	-10.0236
▁അതിശയോക്തി	-10.0236
▁ആദ്ധ്യാത്മിക	-10.0236
▁ഏർപ്പാട	-10.0236
▁പാണ്ഡിത്യ	-10.0236
▁ഫെബ്രുവരി	-10.0236
▁ഊഹ	-10.0236
▁ശ്രേഷ്ഠ	-10.0236
▁മതേതര	-10.0237
മനുഷ്യ	-10.0237
▁പ്രൊഫസർ	-10.0238
ക്ഷേമ	-10.024
തെങ്കിൽ	-10.0242
യൊന്നു	-10.0242
▁ലേഖനത്തിൽ	-10.0243
താണെന്നും	-10.0245
▁വാർഡ	-10.0246
കളെപ്പോലെ	-10.0247
▁സംബന്ധിച്ചു്	-10.025
▁തീരുമാനിച്ച	-10.0254
▁പ്രതീക്ഷിക്ക	-10.0255
ാമല്ലോ	-10.027
▁പ്രസക്തി	-10.0271
നോവ	-10.0272
▁ദൂരെ	-10.0278
▁അകത്ത	-10.0281
കൽപ	-10.0287
ടിക്കുന്ന	-10.0287
▁രാജാവിന്റെ	-10.0291
▁അന്വേഷണം	-10.0292
▁കൊടു	-10.0293
▁ശരിയല്ല	-10.0295
▁ഒന്നിനു	-10.0296
ിലെത്തി	-10.0301
▁മാസ്റ്റർ	-10.0307
തരംഗ	-10.0307
▁തകർന്നു	-10.0308
▁അതൊക്കെ	-10.0322
▁ആധാര	-10.0322
പ്പോള	-10.0328
താകുന്നു	-10.0336
▁വിവരം	-10.0345
ത്തെക്കുറിച്ചു്	-10.0346
വാല	-10.035
▁സംസാരിച്ചു	-10.0355
▁ആയാൾ	-10.0358
▁കഴിഞ്ഞാൽ	-10.0358
▁അതിൽനിന്നു	-10.0358
▁ആകുന്നു	-10.0359
▁മടങ്ങ	-10.036
കാണുന്ന	-10.0362
▁എസി	-10.0364
▁ചുട്ട	-10.0365
▁താള	-10.0375
▁നാടൻ	-10.0376
ിക്കാത്ത	-10.0377
കളിലൊന്ന	-10.038
▁ഹാസ	-10.0391
▁ക്രിസ്തു	-10.0392
▁ഗൗരവ	-10.0393
▁യാഥാസ്ഥിതിക	-10.0393
▁വാല്മീകി	-10.0393
▁വെല്ലുവിളി	-10.0393
▁സജീവ	-10.0393
▁ദാമോദര	-10.0393
▁സുരാസു	-10.0393
▁ആൾവാർ	-10.0393
▁അംഗീകരിച്ച	-10.0393
▁സന്താന	-10.0393
▁ദുര	-10.0395
സാന	-10.0395
▁25	-10.0395
ശൈലി	-10.0396
▁താമര	-10.0397
▁പാടി	-10.0401
▁വസ്തുക്കള	-10.0406
▁എത്രമാത്രം	-10.0415
പരിശോധന	-10.0417
▁പകർത്ത	-10.0418
▁ഇവരിൽ	-10.042
▁പേരുകൾ	-10.0425
▁കേരളത്തിന്റെ	-10.0425
▁അവശ	-10.043
▁കട്ടില	-10.0434
▁പ്രമേയം	-10.0435
▁കേട്ടു്	-10.0437
യേക്കാൾ	-10.0439
ുണ്ടാക്കി	-10.0443
▁ഒരാൾക്കു്	-10.0443
▁മുങ്ങി	-10.0445
▁പുള്ളി	-10.0446
▁ആളുകളെ	-10.0451
▁നോക്കുന്ന	-10.0456
▁തീർന്ന	-10.0456
ച്ചെന്നു	-10.0457
▁അതുകൊണ്ടുതന്നെ	-10.046
യാക്കിയ	-10.046
കണ്ടു്	-10.0468
▁കണ്ടിട്ടില്ല	-10.0468
▁സംകല്പ	-10.0469
ത്തിന്നു്	-10.0483
േഴ്സ്	-10.0487
▁അതുവരെ	-10.0492
തമ്പുരാന	-10.0498
▁ശ്രമിക്കുന്ന	-10.0499
ഭാരത	-10.0502
തുടങ്ങിയ	-10.0503
▁കുറിച്ച	-10.0509
ൊടു	-10.051
ാഭി	-10.0518
ദിന	-10.0518
▁ബൗദ്ധ	-10.0519
▁തത്ത്വശാസ്ത്ര	-10.0519
▁ചെയ്യാം	-10.052
▁ഈശ്വരൻ	-10.0524
▁ഉടൻ	-10.0526
▁വട്ട	-10.0531
▁സാഹിത്യകാരന	-10.0532
▁സഹോദരി	-10.0536
മെല്ലാം	-10.0543
▁വിളക്കു	-10.0543
▁1991	-10.0551
▁ഉണർന്ന	-10.0551
▁ചലച്ചിത്ര	-10.0551
▁സർവ്വകലാശാല	-10.0551
▁പ്രതിപാദിക്ക	-10.0551
▁ന്യായാധിപ	-10.0551
▁ഫ്രാൻസ	-10.0551
▁രാവണ	-10.0551
▁താരതമ്യേന	-10.0551
▁പാരസിക	-10.0552
▁മാത്യു	-10.0552
▁അനീതി	-10.0552
▁പതിനെട്ട	-10.0552
▁നിയന്ത്രിക്ക	-10.0552
▁പറങ്കി	-10.0552
▁പിതൃ	-10.0553
▁അയ്യപ്പ	-10.0553
▁മാരാർ	-10.0553
▁സോണിയ	-10.0553
രാജാക്കന്മാർ	-10.0554
▁സ്റ്റേറ്റ്	-10.0555
▁പഞ്ചായത്ത	-10.0558
▁പ്രഭു	-10.056
ശുദ്ധി	-10.0563
▁തുള	-10.0565
▁നിർണ്ണയിക്ക	-10.0565
▁സ്വാർത്ഥ	-10.057
െഴുതുന്ന	-10.0571
▁വേയി	-10.0574
▁പ്രത്യ	-10.0574
▁അദ്ധ്യാപകൻ	-10.0578
▁അർത്ഥത്തിൽ	-10.058
മാത്രമല്ല	-10.0581
▁ഉപയോഗിക്കുന്ന	-10.0581
▁സ്ഥാനത്തു്	-10.0584
▁നിലപാടു്	-10.0588
▁നേതാക്കൾ	-10.0591
▁മാർഗ	-10.0595
വേദി	-10.06
ാദർശ	-10.0608
▁വർഷങ്ങൾക്കു	-10.0615
ത്തേക്കാൾ	-10.0617
ുകിടക്കുന്ന	-10.0618
▁കാട്ടി	-10.0629
▁കരുതിയ	-10.0633
സന്ധി	-10.0643
▁സാമ്രാജ്യ	-10.0646
▁പ്രതിമ	-10.0648
ിട്ടുള്ളതും	-10.0648
▁അപ്പോഴും	-10.0648
▁മറ്റാര	-10.0656
▁സംഭവിക്ക	-10.0659
▁താണു	-10.0663
▁ഇക്കാര്യ	-10.0672
▁ഒഴിവ	-10.0672
മെങ്കിൽ	-10.0676
▁മൂപ്പർ	-10.0685
▁കോഴിക്കോട്	-10.069
▁പ്രയോഗിക്ക	-10.0692
യുടേത	-10.0695
▁ചെവി	-10.0696
▁സഖാക്കൾ	-10.0713
▁പിന്താങ്ങ	-10.0713
▁എന്തെന്നാൽ	-10.0713
▁ദേശാഭിമാനി	-10.0713
▁തലമുടി	-10.0713
▁അവതരിപ്പിക്ക	-10.0713
സ്തംഭ	-10.0714
കളോടു്	-10.0714
▁ദേഷ്യ	-10.0717
സമ്മേളന	-10.0719
▁മൂഷിക	-10.0729
▁ജന്തു	-10.0732
▁പോകുന്നു	-10.0733
▁മനുഷ്യത്വ	-10.0733
▁ധരിക്ക	-10.0735
▁അപൂർവ്വ	-10.0736
▁കല്ലു	-10.0739
ഗ്ന	-10.0743
▁ബുദ്ധിമുട്ട	-10.0743
ധീ	-10.0743
▁നിരാശ	-10.0749
▁ഇറങ്ങ	-10.075
നില്ക്ക	-10.0754
വാസം	-10.0755
▁വരാൻ	-10.0756
▁അടിമത്ത	-10.0758
കുട	-10.0758
▁കഴിയൂ	-10.0759
▁അന്തർ	-10.0761
▁അടുക്ക	-10.0764
▁കാത്തിരിക്ക	-10.0765
▁വിവരിക്കുന്ന	-10.0768
▁നോക്കൂ	-10.0778
▁ഇട്ട	-10.0791
▁പിഴ	-10.0799
▁പകര	-10.0799
▁ദശ	-10.0805
▁ഗർഭ	-10.0807
▁മുദ്ര	-10.082
സുര	-10.0827
▁ഉദ്ദേശിച്ച	-10.0833
▁30	-10.0842
▁യന്ത്ര	-10.0843
ാണ്ടി	-10.085
▁തിരുത്ത	-10.0855
▁വ്യാപാര	-10.0861
▁ജീവൻ	-10.087
ാവലി	-10.0872
കളുടേയും	-10.0874
▁ഗവണ്മെന്റ	-10.0877
▁തമ്പുരാൻ	-10.0877
▁മഅദനി	-10.0877
വിവേചന	-10.0877
▁ഇക്കാലത്തു	-10.0877
▁ആകർഷിക്ക	-10.0877
▁പന്ത്രണ്ട	-10.0877
▁സന്മാർഗ്ഗ	-10.0877
▁അനുകമ്പ	-10.0877
ത്തക്കവണ്ണം	-10.0877
▁മത്തായി	-10.0879
▁കടൽ	-10.088
മാതൃ	-10.0883
▁സദസ്സ	-10.0884
▁ഇങ്ങോട്ടു	-10.0887
▁പെൺ	-10.0887
▁സമർത്ഥ	-10.0888
ക്രീ	-10.0888
ഗീത	-10.0891
▁തീർത്തും	-10.0892
സൃഷ്ടി	-10.0893
▁കാണാവുന്നതാണു്	-10.0893
▁മുകളില	-10.0894
ിനേക്കാൾ	-10.0898
ഭൂമി	-10.0898
▁നെടു	-10.0903
▁ഇവയുടെ	-10.0905
▁എന്തിനു്	-10.0907
▁കൂലി	-10.091
നായകൻ	-10.0915
▁പ്രകട	-10.0917
▁നായിക	-10.0918
▁ചൊല്ലി	-10.0919
▁നബി	-10.0924
യുണ്ടാക്കി	-10.0925
ുന്നുണ്ടോ	-10.0932
ാത്മകമായ	-10.0942
ബോധവും	-10.0943
ക്കെല്ലാം	-10.0946
▁ഉണ്ണി	-10.0957
▁പുതുമ	-10.0971
മുട്ടി	-10.0981
ുമായിരുന്ന	-10.0982
െങ്കില	-10.0986
▁കാണുന്നുണ്ടു്	-10.0988
▁വന്നില്ല	-10.0988
▁കലയുടെ	-10.0991
▁നിങ്ങൾക്കു	-10.0991
ചെന്ന	-10.0992
പൂർവം	-10.0994
▁മനസ്സു്	-10.0995
ിട്ടുണ്ടല്ലോ	-10.0996
et	-10.0999
▁റൂ	-10.1
▁ഇക്കാല	-10.1001
▁ഒരാളെ	-10.1003
ദേവി	-10.1004
▁പ്രതീക്ഷ	-10.1005
സംബന്ധമായ	-10.1014
▁അയച്ചു	-10.1016
▁സാമൂഹ്യജീവിത	-10.1018
ഭദ്ര	-10.102
▁പൗരസ്ത്യ	-10.102
▁ഉപേക്ഷിച്ചു	-10.1022
▁പോളി	-10.1033
▁തൂക്ക	-10.1038
കളിലേക്കു്	-10.104
▁1957	-10.1043
▁2001	-10.1043
▁ലൗകിക	-10.1043
▁സൂചന	-10.1043
▁രാഘവ	-10.1043
▁ഇത്യാദി	-10.1043
▁ജൂൺ	-10.1043
▁നളിനി	-10.1043
▁ഭരണാധികാരി	-10.1044
▁മുസ്ലീംലീഗ	-10.1045
▁ഇന്ദ്ര	-10.1045
▁ഹാജരാ	-10.1046
▁ഒന്നുരണ്ടു	-10.1046
സഹ	-10.1046
▁26	-10.1047
▁ശോക	-10.1048
▁ശോഭന	-10.1048
▁കണ്ണാടി	-10.105
ങ്ങളൊന്നും	-10.1051
▁കേരളോല്പത്തി	-10.1051
ബീജ	-10.1052
▁മിണ്ടാതെ	-10.1056
ദുഃഖ	-10.1057
▁കമ്പോള	-10.1066
▁നർമ്മ	-10.1071
ന്മാർക്കും	-10.1072
▁കോൺഗ്രസിലെ	-10.1073
വരികയാണു്	-10.1074
▁സേവ	-10.1076
▁കടല	-10.1078
▁ഇരിപ്പ	-10.108
▁ലാഭ	-10.1082
▁മുഹമ്മദ	-10.1084
▁നേതൃത്വം	-10.1085
പ്രധാനമായ	-10.1088
▁വിദഗ്ദ്ധ	-10.1088
▁മുഴു	-10.1092
ിരിയ്ക്കുന്ന	-10.1094
▁വെട്ട	-10.1098
നിയോഗ	-10.11
▁ചിറ	-10.1102
▁പുറത്തുവന്ന	-10.1103
▁തെളിഞ്ഞ	-10.1104
▁കെട്ടിയ	-10.1106
▁കണ്ണിൽ	-10.112
▁വിചാരണ	-10.1122
▁വയസ്സു	-10.1123
▁നിരന്തരം	-10.1124
ion	-10.1135
▁അതുകൊണ്ടാണു്	-10.1137
▁നിലനിൽക്കുന്ന	-10.114
ോർട്ട	-10.1142
കാരനു	-10.1156
▁ശേഷിച്ച	-10.1157
▁ചവിട്ട	-10.1159
സാറ	-10.1163
▁കല്യാണ	-10.1169
se	-10.1174
രേയും	-10.1188
തുടങ്ങി	-10.1198
▁അനന്ത	-10.1203
▁വർദ്ധി	-10.1204
▁അമ്മയുടെ	-10.1205
പോരുന്ന	-10.1206
▁അസാധാരണ	-10.1208
▁മുല്ല	-10.1209
▁ദ്വീപ	-10.1213
▁രാമകൃഷ്ണ	-10.1213
▁കൊലപാതക	-10.1213
▁ശങ്കരാചാര്യ	-10.1213
▁എങ്കിൽ	-10.1213
ation	-10.1214
▁പഠിപ്പിക്ക	-10.1214
▁കണ്ണീര	-10.1215
▁സ്പഷ്ട	-10.1215
▁മഹത്തായ	-10.1215
▁മറ്റൊരാള	-10.1217
▁ടൈ	-10.1217
ദശ	-10.1217
ri	-10.1218
▁നശിച്ചു	-10.122
▁ശ്രമിച്ചു	-10.1222
▁കലാകാരൻ	-10.1222
ുകൊള്ളട്ടെ	-10.1223
▁പ്രാപിച്ച	-10.1223
▁മനുഷ്യവർഗ്ഗ	-10.1225
▁രൂപാന്തര	-10.1226
ro	-10.1228
പകര	-10.1229
കുടുംബ	-10.1229
സുന്ദര	-10.1229
മഹാ	-10.1234
▁ഇരിക്കുന്ന	-10.1234
▁അവസാനിച്ചു	-10.1237
▁മാന്യത	-10.1239
▁ചിത്രകല	-10.124
▁വിഭാഗം	-10.1241
സമ്മത	-10.1242
▁ശാഖ	-10.1246
മത്രെ	-10.1246
▁യുവതി	-10.1247
▁വെയ്ക്ക	-10.1251
ിറക്ക	-10.1252
തുകൊണ്ടും	-10.1254
▁ആത്മകഥ	-10.1255
▁എന്താണെന്നു	-10.1255
▁ഒന്നുപോലെ	-10.1258
▁മനസ്സിലാക്കാം	-10.126
▁ക്ലാസ്സിൽ	-10.1262
▁ക്ലാസ	-10.1267
▁കോപ	-10.127
ിട്ടുമുണ്ടു്	-10.1272
േടത്തു	-10.129
പ്പടി	-10.1293
നേരെ	-10.1293
ായിരുന്നില്ല	-10.1293
▁മട്ട	-10.1298
പെട	-10.1302
od	-10.1319
ക്കാർക്കും	-10.132
▁സ്ത്രീകളുടെ	-10.133
▁ഉണ്ടാക്കിയ	-10.1332
▁ലോകത്തെ	-10.1335
റാവു	-10.1335
▁വന	-10.1336
▁കണ്ടിട്ട	-10.1339
▁വരികൾ	-10.1342
▁എന്നിവര	-10.1355
▁പ്രകടിപ്പിക്ക	-10.1356
ബാധ	-10.1361
ൊയ്	-10.1364
▁നേതൃത്വ	-10.1376
▁അറിയാം	-10.1377
▁ഡയറക്ടർ	-10.1385
▁നാടുവാണിരുന്ന	-10.1385
▁സുപ്രീംകോടതി	-10.1385
▁അലങ്കാര	-10.1385
▁നാസ്തിക	-10.1385
▁സോഷ്യലിസ്റ്റ്	-10.1385
▁സൂക്ഷിക്ക	-10.1385
▁കോബദ	-10.1386
▁ഒട്ടേറെ	-10.1386
▁ക്ലേശ	-10.1387
▁കലാസൃഷ്ടി	-10.1388
ൊരാൾ	-10.1389
▁വെറുപ്പ	-10.139
▁വേണമെങ്കിൽ	-10.1392
വണ്ണം	-10.1393
▁കുറേക്കൂടി	-10.1394
▁ഏതാണ്ട	-10.1398
▁സ്ത്രീയുടെ	-10.1398
▁എന്തെല്ലാം	-10.1399
▁പ്രസ്താവിക്ക	-10.1401
മേഖല	-10.1405
▁നിലയ്ക്ക	-10.1405
▁ആക്രമിച്ച	-10.1406
ശോഭ	-10.1406
▁ഇളക്ക	-10.1407
▁വഹിച്ച	-10.141
▁മുമ്പുതന്നെ	-10.1411
la	-10.1411
പ്രാപ്തി	-10.1412
▁ചോഴ	-10.1416
▁മക്കള	-10.1419
▁തിക	-10.142
ച്ചിരി	-10.1424
നേര	-10.1426
▁യുവാവ	-10.143
▁എക്സ	-10.1433
▁പരിശുദ്ധ	-10.1436
▁ഷെ	-10.1437
യോഗി	-10.1437
▁മര്യാദ	-10.1439
▁പദവി	-10.1439
▁നിർമ്മാണ	-10.1442
ങ്ങളിലേക്കു്	-10.1451
ത്തെപ്പറ്റിയുള്ള	-10.1452
▁പിന്നില	-10.146
ലോകത്തിൽ	-10.1463
മാത്രമാണു്	-10.1464
▁മന്ന	-10.1465
രുതെന്നു്	-10.1465
▁നാരായണൻ	-10.1468
▁ഉണ്ണ	-10.1475
▁കഴിയാത്ത	-10.1477
▁ഭരിച്ച	-10.1479
ഘാത	-10.1479
▁ഇടതു	-10.1486
▁പെട്ടെന്ന	-10.149
രുള	-10.1497
▁കുഞ്ഞാലി	-10.1498
മോഹ	-10.1499
▁കാണുമ്പോൾ	-10.1502
▁മടക്കി	-10.1514
റപ്പിച്ച	-10.1533
താക	-10.1536
▁വന്നാൽ	-10.1539
ക്കൊണ്ടിരുന്ന	-10.1549
▁ചക്ര	-10.1554
▁വിമർശക	-10.1556
ന്വേഷിച്ച	-10.1559
▁1982	-10.1561
▁ആന്ധ്ര	-10.1561
▁അജ്ഞാത	-10.1561
▁പരിഗണന	-10.1561
▁മുണ്ടശ്ശേരി	-10.1561
▁സ്വീകാര്യ	-10.1561
▁സഞ്ചരിക്ക	-10.1561
▁ഫ്രഞ്ചു	-10.1561
കളേയും	-10.1561
▁ആശ്രമ	-10.1562
▁ശ്രീനാരായണ	-10.1562
▁അന്വേഷിച്ചു	-10.1563
▁രാഷ്ട്രപതി	-10.1564
▁ശേഷി	-10.1567
▁കുറിപ്പ	-10.1575
▁കിട്ടിയതു്	-10.1577
ല്ലെന്നും	-10.1578
ശങ്ക	-10.158
▁നേതൃത്വത്തിൽ	-10.1581
▁മുഖത്തു്	-10.1583
വനാണു്	-10.1586
ശിഷ്യ	-10.1589
▁കരുണാകര	-10.1589
ക്കേസ	-10.1592
▁താങ്ങ	-10.16
കിട്ടിയ	-10.1601
▁അമ്പല	-10.1605
▁അഹിംസ	-10.161
▁ഒരുപാടു	-10.1617
▁രണ്ടായി	-10.1622
യ്ക്കുവേണ്ടി	-10.1631
▁മാസിക	-10.1648
പ്രളയ	-10.165
▁മൽസരിക്ക	-10.165
▁തീർച്ചപ്പെടുത്ത	-10.1658
ത്തിനോ	-10.1658
▁തോട്ട	-10.1662
▁ചൂട	-10.1666
▁മൂടി	-10.167
പ്പെടുകയും	-10.1688
▁ലേഖക	-10.1694
ക്കുറവ	-10.1694
▁സാർ	-10.1702
ല്ലെന്നു്	-10.1714
ാവുന്നതു്	-10.1717
മാസം	-10.1725
▁സ്വാഭാവികമായി	-10.1728
▁ഒതുക്ക	-10.1739
▁തന്മൂലം	-10.1739
▁പ്രശംസ	-10.1739
▁ശ്രീകണ്ഠൻ	-10.1739
പരിഷ്കരണ	-10.1739
▁വിശിഷ്ട	-10.1739
▁ഭവഭൂതി	-10.1739
▁ആഗസ്റ്റ്	-10.1739
വിദ്വേഷ	-10.174
▁കൂടുതല	-10.174
▁ഭരത	-10.174
▁പ്രതിബിംബ	-10.1742
▁ക്രിസ്തുമത	-10.1743
▁എത്രത്തോളം	-10.1747
▁കോഴിക്കോട്ടു	-10.1748
▁അബദ്ധ	-10.175
▁സംസാരിക്കുന്ന	-10.1752
▁ഹേ	-10.1752
▁പത്മജ	-10.1753
▁ഒരാളുടെ	-10.1754
▁മേനോൻ	-10.1758
▁ക്ഷയ	-10.1759
▁ഉദാഹരണത്തിനു്	-10.1762
അ	-10.1763
▁ബഹ	-10.1765
വ്യാപാര	-10.1765
▁വിവരിക്ക	-10.1767
▁അറിവു	-10.177
37	-10.1771
▁പരിഷ	-10.1771
▁നടന്നതു്	-10.1776
▁ഭ്രമ	-10.1777
▁നീങ്ങ	-10.1782
ടങ്ങിയ	-10.1784
▁പേരുള്ള	-10.1785
▁മക്കൾ	-10.1792
▁to	-10.1796
▁മതപരമായ	-10.1801
രീതിയിൽ	-10.1815
കളഞ്ഞ	-10.1817
▁ഒന്നായി	-10.1827
▁അവളും	-10.1837
▁വലിച്ച	-10.1838
▁മറ്റെന്ത	-10.1843
▁പിന്നീട	-10.1848
▁സമത്വ	-10.185
▁കൊണ്ടുപോക	-10.1854
▁ഓട്ട	-10.1854
കൂട്ടി	-10.1854
▁ചൂടു	-10.1864
ോടോ	-10.1867
▁തെളിയിക്കുന്ന	-10.188
▁പതിപ്പ	-10.188
▁പങ്കെടുത്ത	-10.1882
▁ചിത്ത	-10.1884
▁അപഹ	-10.1886
▁കുലശേഖര	-10.1888
േണ്ടതായ	-10.189
ാതിരിക്കാൻ	-10.1892
▁മന്ത്രിമാര	-10.1893
▁പ്രാപ്ത	-10.1893
▁വ്യക്തമാക്ക	-10.1897
▁വിശുദ്ധ	-10.1911
▁മനോഹരമായ	-10.1913
▁പുറപ്പെടുന്ന	-10.1917
▁കൊടുങ്ങല്ലൂർ	-10.1921
▁പ്രവാചക	-10.1921
▁മഹാത്മാഗാന്ധി	-10.1921
▁ഒത്തു	-10.1921
▁അസ്വസ്ഥ	-10.1921
▁അനുവദിച്ച	-10.1921
▁സാക്ഷാൽ	-10.1921
▁കുരിശ	-10.1921
▁ഗ്രീക്കു	-10.1921
▁സന്ധ്യ	-10.1921
▁മനസ്സിലാവ	-10.1921
ാലോചന	-10.1921
▁ബാബു	-10.1921
▁പാണ്ഡ്യ	-10.1922
▁ചില്ലറ	-10.1922
▁സുഹൃത്തുക്കള	-10.1923
സംരക്ഷണ	-10.1923
▁ചുവപ്പ	-10.1923
ത്തക്കവിധം	-10.1923
▁സ്ഥാപക	-10.1925
യാണിതു്	-10.1925
▁കുറച്ചുനേരം	-10.1926
▁വൈക്കം	-10.1926
▁21	-10.1926
▁മേന്മ	-10.1926
▁മുഴക്ക	-10.1929
▁പദാർത്ഥ	-10.193
ങ്ങളാണെന്നു	-10.1931
▁പോകാൻ	-10.1931
▁ചെയ്തിരുന്നു	-10.1931
ാക്കിത്തീർത്ത	-10.1932
കൂടാതെ	-10.1932
▁പറയപ്പെടുന്ന	-10.1937
ശാസന	-10.1943
യാണെങ്കിലും	-10.1945
▁ഫോർ	-10.1946
▁മാള	-10.1948
▁അണി	-10.1949
▁ഉപകാര	-10.1951
▁പോൾ	-10.1951
വിളി	-10.1954
▁ആരംഭിക്ക	-10.1958
കളിലേക്കു	-10.1962
li	-10.1967
▁കോളജ	-10.1969
▁മറുവശ	-10.1973
▁ഉറക്കെ	-10.1977
▁നിങ്ങൾക്ക	-10.1977
▁ഉപരി	-10.1979
▁ചേർന്നു്	-10.1981
▁പരിസര	-10.1981
ുവാനാണു്	-10.1986
കീർത്തി	-10.1991
സ്റ്റേഷന	-10.1991
ക്കേടു	-10.1992
▁ദയ	-10.1994
▁ഭംഗിയായി	-10.1995
▁ഡ്ര	-10.1996
▁മഹിമ	-10.1997
മനുസരിച്ചു	-10.1999
മല്ലാതെ	-10.2005
▁മറ്റോ	-10.2008
▁സമിതി	-10.2017
വന്നിരുന്ന	-10.2018
കേട്ടു	-10.2026
കുടി	-10.2044
▁വെക്ക	-10.205
ങ്ങോട്ടു	-10.2058
▁ഗോവിന്ദ	-10.2061
▁തെളിയിക്ക	-10.2071
▁ഫോട്ടോഗ്രാഫ	-10.2088
ിറക്കി	-10.2089
ന്ത്യ	-10.2106
▁ഇംഗ്ലീഷിൽ	-10.2106
▁1987	-10.2106
▁നിർബ്ബന്ധ	-10.2106
▁കൊടുങ്ങല്ലൂര	-10.2106
▁മുകുന്ദ	-10.2106
▁പാർപ്പിട	-10.2106
▁ഇതിവൃത്ത	-10.2106
▁സംസ്ക്കാര	-10.2106
▁പുഷ്പ	-10.2106
പ്പിന്നെ	-10.2106
▁തടസ്സ	-10.2107
▁ജില്ലയിലെ	-10.2107
▁കുപ്പായ	-10.2107
▁അഭിനന്ദ	-10.2107
▁വേശ്യ	-10.2108
▁അവസാനത്തെ	-10.2109
▁മാർക്സ്	-10.211
▁അവരോടു	-10.2112
▁ഭീമ	-10.2114
മുണ്ടായില്ല	-10.2114
▁തനിക്ക	-10.2115
▁പാർക്ക	-10.2119
പോവുക	-10.2123
െക്കൊണ്ടു്	-10.2124
മുണ്ടാക്കി	-10.2126
▁ഏഴാം	-10.2128
പരിവർത്തന	-10.2137
നിരോധ	-10.2138
സൗകര്യ	-10.2139
ശരീര	-10.214
മായിത്തീർന്നു	-10.2141
▁കിട്ടും	-10.2146
കാട്ട	-10.2147
ക്കകത്തു	-10.2158
▁പഠിപ്പിക്കുന്ന	-10.216
▁ജോർജ	-10.2162
ന്മാരായി	-10.2167
▁ചെയ്യേണ്ട	-10.2169
▁വലതു	-10.218
▁ജനങ്ങളെ	-10.2187
▁ഉയർത്തി	-10.2193
▁മാനവ	-10.2199
▁തത്	-10.2206
യാണതു്	-10.2207
ങ്ങിനെ	-10.221
▁തുറ	-10.2213
തീർത്ത	-10.2213
▁മെത്രാന	-10.2219
▁കൊടുക്കാൻ	-10.2225
ിനുവേണ്ടി	-10.2227
▁പരിമിത	-10.2243
പ്പെടേണ്ട	-10.2246
▁മട്ടില	-10.2247
▁തുറക്ക	-10.2253
▁തൃശൂര	-10.2253
താണോ	-10.2255
മുണ്ടെങ്കിൽ	-10.2255
▁അയ്	-10.2255
▁പട്ടി	-10.2267
▁മുറ്റത്ത	-10.2274
യാളാണു്	-10.2276
▁കോടതിയിൽ	-10.2278
▁വച്ച	-10.2278
ത്തിന്ന	-10.2279
▁ടോ	-10.2287
▁തിരിച്ചുവര	-10.2289
▁പുനഃ	-10.2295
▁ഒതുങ്ങ	-10.2295
▁താത്പര്യ	-10.2295
▁ധാർമിക	-10.2295
▁ചുരുങ്ങിയ	-10.2295
▁പ്രാഥമിക	-10.2295
▁മുരളീധരന	-10.2295
▁ഉപേക്ഷിക്ക	-10.2295
▁ഡിസംബർ	-10.2295
▁റെയിൽവേ	-10.2295
▁സഖാക്കള	-10.2295
▁അവ്യക്ത	-10.2295
▁അനുഗ്രഹ	-10.2295
▁പ്രാർത്ഥന	-10.2295
▁വാചക	-10.2295
സംവിധാന	-10.2296
▁പ്രവർത്തിച്ചു	-10.2296
ക്കുറിപ്പു	-10.2297
▁സംഗീതനാടക	-10.2297
▁27	-10.2298
▁പുനർ	-10.2298
▁കളിയാക്ക	-10.23
▁പോകുന്നതു്	-10.2302
▁ഉപകരിക്ക	-10.2303
▁കോട്ടയം	-10.2303
▁പിറന്ന	-10.2305
▁രണ്ടുപേർ	-10.2307
▁അതിർത്തി	-10.2309
▁ദുരിത	-10.2309
▁ഇങ്ങനെയൊരു	-10.231
▁പരീക്ഷണ	-10.2311
▁നാലപ്പാട്ട	-10.2311
▁പ്രവേശിക്ക	-10.2312
▁പുറത്തിറങ്ങ	-10.2313
▁ഇതൊന്നും	-10.2314
▁പാമ്പ	-10.232
ഗ്ല	-10.2321
വിലാസ	-10.2321
പാണ്ഡ	-10.2323
▁കിട്ടിയില്ല	-10.2323
യോഗം	-10.2325
▁നിശ്ചയിച്ചു	-10.2329
ിപ്ല	-10.2331
▁സഞ്ജയന്റെ	-10.2332
പരിപാടി	-10.2332
▁പഠിപ്പ	-10.2335
▁ഞെട്ടി	-10.2335
▁വേണ്ടിവന്ന	-10.2339
▁എഫ	-10.2339
▁മറ്റൊര	-10.234
ാത്തതുകൊണ്ടു്	-10.234
കഥകൾ	-10.2342
▁കേട്ടിട്ടുണ്ടു്	-10.2345
പുരാണ	-10.2345
▁ഒന്നുമില്ല	-10.2346
ലംബ	-10.2346
ുകയുള്ളൂ	-10.2348
▁ചിഹ്ന	-10.235
ൊഴിച്ചു	-10.236
▁സാഹിത്യകാരന്മാര	-10.2372
ത്തന്നെയാണു്	-10.2372
ക്കഴിഞ്ഞു	-10.2389
▁പ്രഖ്യാപിച്ചു	-10.2405
ാണെന്നാണു്	-10.2411
▁കട്ട	-10.2417
ക്കെതിരായ	-10.2419
▁എന്തിനു	-10.2424
▁നേർത്ത	-10.243
▁പ്രമേയ	-10.2436
ലിസ്റ്റ	-10.244
ുണ്ടാവും	-10.2441
▁പറയണം	-10.2442
▁ആളെ	-10.2448
ol	-10.2462
▁നൂറ്റാണ്ട	-10.2463
▁വാരിക	-10.2464
▁വരച്ചു	-10.2468
▁കൊച്ച	-10.2478
▁വരാം	-10.2481
▁അവനവന	-10.2484
▁തെരഞ്ഞെടുക്ക	-10.2487
▁ആഹ്ലാദ	-10.2487
സഹിഷ്ണുത	-10.2487
▁താലൂക്ക	-10.2487
▁ജൂലൈ	-10.2487
▁ജോസഫി	-10.2487
▁വിലയിരുത്ത	-10.2487
▁ഹിന്ദി	-10.2487
സമൃദ്ധ	-10.2487
▁സൂപ്പി	-10.2488
▁ശ്രീനാരായണഗുരു	-10.2488
▁വ്യസന	-10.2488
▁ലിംഗ	-10.2489
▁വികാസ	-10.249
കുത്തി	-10.249
വിഭജന	-10.249
▁വഴങ്ങ	-10.2491
▁അമർ	-10.2492
▁ശ്വാസം	-10.2492
▁പ്രബന്ധ	-10.2493
▁വിശപ്പ	-10.2495
കൊണ്ടല്ല	-10.2501
ലക്ഷ്മി	-10.2501
ുമ്പോഴേ	-10.2506
▁വേണമെന്ന	-10.2507
▁കൂട്ടരും	-10.2512
▁ഇവരെ	-10.2516
മൊന്നു	-10.2519
▁സാരി	-10.252
▁നിറുത്ത	-10.252
സംഖ്യ	-10.2522
െപ്പോലുള്ള	-10.2534
പുറത്ത	-10.2535
▁പ്രസിദ്ധീകരണ	-10.2544
ദൂര	-10.2544
വാങ്ങി	-10.2548
▁താര	-10.2551
നിറുത്തി	-10.2556
▁സൈന്യ	-10.2556
im	-10.2558
▁അനുസരിച്ചു	-10.2562
ിക്കുവാനും	-10.2564
▁ആവശ്യപ്പെട്ടു	-10.2577
യില്ലാതെ	-10.2588
▁സഹായിച്ച	-10.2592
▁പുനര	-10.2593
▁ചാർ	-10.2597
▁നരവംശ	-10.2598
▁വിഭാഗത്ത	-10.2598
ങ്ങളിലാണു്	-10.2603
▁ഓണ	-10.2609
▁മനസ്സിലാക്കാൻ	-10.2615
▁ചെയ്തിട്ടുണ്ടു്	-10.262
▁വഴിക്കു	-10.2621
▁കലാകാരന	-10.2641
▁പരന്ന	-10.2656
▁വടക്കു	-10.2659
▁കല്പിച്ച	-10.266
▁പേരായ	-10.266
▁ദുഷ്	-10.2667
▁തോമസി	-10.2668
▁കേവല	-10.2674
▁പുരുഷൻ	-10.2675
▁തീർത്തു	-10.2678
ുകയാണു	-10.2679
▁അദ്വാനി	-10.2683
▁ആസ്പദിച്ചു	-10.2683
▁ജാനകിയമ്മ	-10.2683
▁തെരഞ്ഞെടുത്ത	-10.2683
▁പനമ്പിള്ളി	-10.2683
▁ക്ഷോഭ	-10.2683
▁സത്യസന്ധ	-10.2683
▁യാതൊന്നും	-10.2683
▁വിദ്യാലയ	-10.2683
▁സഞ്ചരിച്ച	-10.2683
▁സ്വാതന്ത്ര്യസമര	-10.2683
▁ആഴ്ചപ്പതിപ്പ	-10.2683
▁പ്രചോദന	-10.2683
▁പരിഹരിക്ക	-10.2684
▁സഹകരണ	-10.2684
▁സൂത്ര	-10.2684
▁രാജധാനി	-10.2684
▁ദാസ്	-10.2687
▁അസ്ഥി	-10.2688
▁വാഴ്ത്ത	-10.2688
പരിശീലന	-10.2689
▁കഞ്ഞി	-10.2689
യില്ലെന്നു	-10.2691
man	-10.2693
റിഞ്ഞുകൂടാ	-10.2693
ോടാണു്	-10.2696
യന്ത്ര	-10.2696
▁വരയ്ക്ക	-10.2697
▁ദുഷ്ട	-10.2703
വരിക	-10.2704
കന്യക	-10.2708
▁കപ്പല	-10.2709
▁കടലാസ	-10.2709
▁ണു്	-10.2709
▁സമീപമുള്ള	-10.2713
പോലുമില്ല	-10.2713
▁വട	-10.2717
▁എന്തിനാണു്	-10.272
▁മുമ്പേ	-10.2724
▁മൃത	-10.2726
▁മന്ത്രവാദ	-10.2728
▁വാള	-10.2729
▁വ്യക്തിത്വ	-10.2753
െന്തെന്ന	-10.276
▁ചൈതന്യ	-10.276
▁തദ	-10.2762
നായിത്തീർന്ന	-10.2773
െഴുത്ത	-10.2778
▁ബാല്യ	-10.2788
▁അഭിപ്രായങ്ങൾ	-10.2793
▁കഴിഞ്ഞപ്പോൾ	-10.2796
ായിരുന്നെങ്കിൽ	-10.2803
▁മനുഷ്യനു്	-10.2805
രാജാവായ	-10.2807
ിലേറെ	-10.282
താണല്ലോ	-10.2827
ണ്ടാവില്ല	-10.2827
▁തെളിയിച്ചു	-10.2829
▁സംസാരിച്ച	-10.2851
ക്കൊപ്പം	-10.2852
ുകയാണോ	-10.2852
▁ചെയ്തിരുന്ന	-10.2855
▁തുര	-10.2863
▁യുഗ	-10.2865
തായിരിക്കും	-10.2866
▁തെക്കു	-10.2867
▁പിൻഗാമി	-10.2883
▁ഗംഗാധര	-10.2883
▁വളരെയധികം	-10.2883
▁സ്പർശ	-10.2883
▁അഗാധ	-10.2883
ലംഘന	-10.2883
▁അബ്ദുൽ	-10.2883
▁അയോധ്യ	-10.2883
▁ശമ്പള	-10.2884
▁യോജിച്ച	-10.2884
▁തെക്കൻ	-10.2884
▁ക്ഷേത്രപ്രവേശന	-10.2884
ങ്ങളുടേയും	-10.2885
▁ദീന	-10.2886
▁രചിക്ക	-10.2886
▁പടർന്നു	-10.2887
▁23	-10.2888
▁ചെയ്യപ്പെട്ട	-10.2889
മഹർഷി	-10.2891
▁ബഹുജന	-10.2892
▁മനുഷ്യനും	-10.2897
▁പുച്ഛ	-10.2897
▁പ്രതീക്ഷിച്ച	-10.2906
പൂർണ്ണ	-10.2917
▁ഭവന	-10.292
ിത്തീർന്ന	-10.2922
▁നാട്ടു	-10.2928
വ്യത്യാസ	-10.2932
▁ഗോവിന്ദൻ	-10.2933
▁മറ്റെല്ലാ	-10.2939
ക്കാരനും	-10.2939
▁എന്നർത്ഥം	-10.2952
▁തിരിഞ്ഞുനോക്ക	-10.2958
ാത്തവിധം	-10.2965
▁ഭർത്താവു്	-10.2973
▁പേരില	-10.2975
▁ഉൾപ്പെടുത്ത	-10.2979
▁ആളാണു്	-10.2981
ാമെങ്കിൽ	-10.2985
▁ഗീതാ	-10.2996
യായിത്തീർന്ന	-10.3
▁വഴിക്കു്	-10.3006
▁ഇന്ത്യയുടെ	-10.3036
മാവാം	-10.3039
ക്കൂടെ	-10.3042
ായിരുന്നുവെന്നു	-10.3042
▁കഴിയില്ല	-10.3044
▁ഇവയെ	-10.3046
ho	-10.3049
▁നടുക്ക	-10.3058
▁പണ്ഡിതൻ	-10.3058
▁വ്യക്തമായി	-10.3063
ിനിടയിൽ	-10.3063
ത്ഭുത	-10.3065
▁മദിരാശി	-10.3087
▁അച്യുതാനന്ദൻ	-10.3087
▁ശാരീരിക	-10.3087
▁സാവിത്രി	-10.3087
▁മായാവതി	-10.3087
▁ലീഡർ	-10.3087
▁രാമചന്ദ്രൻ	-10.3087
▁ആകർഷിച്ച	-10.3087
ാരാധന	-10.3088
▁ഐക്യമുന്നണി	-10.3088
പ്രവണത	-10.3088
▁കൃഷ്ണമേനോൻ	-10.309
▁അകലെ	-10.3091
▁യോഗ്യത	-10.3091
▁ശുഭ	-10.3091
▁ജൈനമത	-10.3092
▁പാർത്തിരുന്ന	-10.3094
▁വന്നുചേർന്ന	-10.3095
▁നീക്കം	-10.3096
ist	-10.3097
▁അന്തസ്സ	-10.3097
▁ഒഴുകി	-10.3098
▁പിന്നാക്ക	-10.3099
കിടന്നിരുന്ന	-10.3099
ഭക്ത	-10.3099
▁ഭരണകൂട	-10.3099
പ്പിടിച്ച	-10.3103
ഹീന	-10.3106
▁ഈവക	-10.311
▁അച്യുതാനന്ദന	-10.3111
▁പലതരം	-10.3111
▁കോൺഗ്രസിനു്	-10.3111
▁പാവപ്പെട്ട	-10.3113
▁പറയുകയുണ്ടായി	-10.3115
▁നിനക്ക	-10.3119
▁തിരിച്ചെത്ത	-10.312
▁ചന്ദ്രിക	-10.3122
ൊരിക്കൽ	-10.3125
▁അസുഖ	-10.3128
യെപ്പറ്റിയുള്ള	-10.3137
▁വർണ്ണിച്ച	-10.3139
സൗന്ദര്യ	-10.314
പെരുമാൾ	-10.3141
ശബ്ദ	-10.3142
▁മനുഷ്യർക്കു	-10.3145
▁കവിതയെഴുത	-10.3146
▁വളർന്ന	-10.315
▁ഒന്നുകൂടി	-10.315
▁നുണ	-10.3152
ചക്രവർത്തി	-10.3153
▁വയസ്സിൽ	-10.3153
മാണെങ്കിലും	-10.3168
▁നടപ്പില	-10.3173
48	-10.3175
▁കത്തോലിക്കാ	-10.3179
▁പരിപൂർണ്ണ	-10.3184
ഴിഞ്ഞു	-10.3185
il	-10.3191
▁സംഭവിക്കുന്ന	-10.3191
▁കുട്ടികളുടെ	-10.3192
ുന്നതിലൂടെ	-10.3192
▁എന്തുകൊണ്ടു്	-10.3195
വണ്ടി	-10.3199
ുകാരെ	-10.3199
▁തേട	-10.3202
രാഷ്ട്രീയ	-10.3203
ുയർത്തി	-10.3204
രിയുന്ന	-10.3208
▁കടന്നുപോ	-10.3211
▁തീർന്നു	-10.3212
▁ചുണ്ട	-10.3216
▁നയിക്കുന്ന	-10.3219
▁ഒരുമിച്ചു	-10.3221
▁രജ	-10.3221
▁സന്ന്യാസി	-10.3222
ഭക്തി	-10.3231
▁പ്രാരംഭ	-10.3235
▁ശരിയാണു്	-10.3238
േയ്	-10.3238
▁അനുഭവിക്ക	-10.3241
▁ഇല്ലാതെ	-10.3249
▁ചിത്രീകരണ	-10.3251
▁ചാരി	-10.3254
▁പ്രാണ	-10.3256
▁പേന	-10.3257
▁സമൂഹത്തിന്റെ	-10.3263
▁നിർത്തിയ	-10.3266
ha	-10.3267
▁രണ്ടോ	-10.3267
▁കഥാപാത്രങ്ങൾ	-10.3292
▁കൂടുതലായി	-10.3295
▁ഏട്ടന	-10.3296
▁ഏറെക്കുറെ	-10.3296
▁ഒഴിച്ചു	-10.3296
▁കൗൺസിൽ	-10.3296
▁പരിതഃസ്ഥിതി	-10.3296
▁പ്രയത്ന	-10.3296
▁ശാശ്വത	-10.3296
▁എറണാകുളത്ത	-10.3296
▁പ്രചരിപ്പിക്ക	-10.3296
▁സ്ക്കൂള	-10.3296
▁ഗൂഢ	-10.3296
▁പ്രതിനിധി	-10.3296
▁രാവിലെ	-10.3296
▁സമ്പാദിക്ക	-10.3296
▁ജർമ്മൻ	-10.3296
▁മലബാറിലെ	-10.3296
▁പ്രഭാത	-10.3296
▁ഇക്കൂട്ടത്തിൽ	-10.3296
▁സമ്പന്ന	-10.3296
▁ശതാബ്ദത്തിന്റെ	-10.3296
ചിത്യ	-10.3297
▁ഹോട്ടല	-10.3298
പ്പെടാത്ത	-10.3298
നികുതി	-10.3298
▁പ്രത്യേകിച്ചും	-10.3299
▁വിശ്വനാഥ	-10.33
ാഭിമാന	-10.3302
▁പ്രാകൃത	-10.3302
▁വിപ്ലവകാരി	-10.3303
▁മുപ്പതു	-10.3303
▁സർക്കാര	-10.3305
▁ഇവയെല്ലാം	-10.3307
▁വിവരങ്ങൾ	-10.331
ൊരാള	-10.3315
തോറും	-10.3315
▁പരിധി	-10.3316
▁അപ്പോഴ	-10.332
▁നിശ്ചയിച്ച	-10.3322
▁രാധാകൃഷ്ണൻ	-10.3326
▁നിനക്കു്	-10.3329
ന്റേതു	-10.333
▁സർക്കാറിന്റെ	-10.3331
വിടുന്ന	-10.3339
പ്രകടന	-10.3353
ഗുരു	-10.3355
▁പരാജയപ്പെട്ട	-10.3358
▁കാറ്റു	-10.337
രാഗ	-10.3371
ിക്കുകയുണ്ടായി	-10.3373
▁ഉപദേശിച്ച	-10.3376
▁നിലയ്ക്കു്	-10.3402
ിരിക്കയാണു്	-10.3412
▁വ്യക്തമായ	-10.3421
▁ഞങ്ങൾക്കു്	-10.3425
▁സംശയമാണു്	-10.3426
വാർത്ത	-10.343
▁രോഗികൾ	-10.3432
▁ചങ്ങമ്പുഴയുടെ	-10.3433
▁മരിച്ചുപോയ	-10.3451
▁നിവൃത്തി	-10.346
▁തേങ്ങ	-10.3464
▁ആഴ്ച	-10.3469
ിലുമുള്ള	-10.3486
ക്കറിയാം	-10.3498
▁അതേസമയം	-10.3508
▁ഉദ്ധരിക്ക	-10.3508
▁ഒക്ടോബർ	-10.3508
▁കലാകൗമുദി	-10.3508
▁കൗമുദി	-10.3508
▁മ്യൂസിയ	-10.3508
▁വിശദീകരിച്ച	-10.3508
▁യുധിഷ്ഠിര	-10.3508
▁സനാതന	-10.3508
▁പിറ്റേന്നു	-10.3508
▁പ്രതികൂല	-10.3508
▁അംഗീകാര	-10.3508
▁സുരക്ഷിത	-10.3509
പതിറ്റാണ്ട	-10.3509
▁ഉപദ്രവ	-10.3509
▁ധൃതി	-10.3509
▁വൈകാരിക	-10.3509
▁സവിശേഷത	-10.3509
▁ലെനിൻ	-10.3509
▁മൂന്നാമത്തെ	-10.351
▁മുഖപ്രസംഗ	-10.3511
▁1998	-10.3512
▁അസൂയ	-10.3512
▁പരിഭ്രമ	-10.3512
▁സംഭാവന	-10.3513
▁സെന്റ്	-10.3514
▁കോൺഗ്രസുകാർ	-10.3515
പ്പോകും	-10.3516
▁ആവശ്യമാണു്	-10.3516
▁പ്ലേറ്റ	-10.3518
ിട്ടുണ്ടെങ്കിലും	-10.3523
ുന്നതിനുമുമ്പു്	-10.3534
ാറായി	-10.3534
▁കിളി	-10.3534
വഞ്ചന	-10.3543
നോക്കിയാൽ	-10.3544
▁എന്തുകൊണ്ട	-10.3545
▁വേലി	-10.3548
▁നാശ	-10.3549
മുട്ട	-10.3556
▁വൈരുദ്ധ്യവാദ	-10.3559
▁മാംസ	-10.3561
സങ്കല്പ	-10.357
▁മന്ത്ര	-10.3571
പഠന	-10.3572
▁മഠ	-10.3573
▁കുടിക്ക	-10.3574
രേഖ	-10.3582
▁ഉണ്ടോ	-10.3583
സഹജമായ	-10.3586
മാക്കാൻ	-10.3587
ണമല്ലോ	-10.3594
വിജ്ഞാന	-10.36
ന്മാരാണു്	-10.3605
▁ചരിത്രകാര	-10.3609
▁കേൾക്കാൻ	-10.361
▁രേഖപ്പെടുത്ത	-10.3615
▁മുന്നില	-10.3619
▁നീച	-10.3619
ിയ്ക്കുക	-10.3628
▁കൃതികളിൽ	-10.364
▁സംഭവങ്ങൾ	-10.3644
▁എന്നതായിരുന്നു	-10.3646
▁റഷ്യയിൽ	-10.3647
▁ഉപയോഗ	-10.3648
▁മങ്ങി	-10.3656
കൊണ്ടുമാത്രം	-10.3659
▁മറ്റുള്ളവര	-10.3671
▁വീട്ടിലേക്കു	-10.3675
▁ബാലകൃഷ്ണ	-10.3679
▁ബാധിക്ക	-10.3691
ിട്ടില്ലെന്നു	-10.3693
▁ഉയർത്ത	-10.3695
▁രാജിവെച്ചു	-10.3705
▁പിൽക്കാല	-10.372
▁നിയമസഭയിൽ	-10.3722
▁വടി	-10.3725
▁പ്രദർശിപ്പിക്ക	-10.3726
▁എഡിറ്റർ	-10.3726
▁നിസ്സഹായ	-10.3726
▁അദ്ഭുത	-10.3726
▁അഭിവൃദ്ധി	-10.3726
▁ക്ഷത്രിയ	-10.3726
▁ജർമ്മനി	-10.3726
▁ലീഡറ	-10.3726
▁വാർഷിക	-10.3726
▁സമകാലിക	-10.3726
▁മലബാർ	-10.3726
▁കൊളുത്ത	-10.3726
▁എന്നുവെച്ചാൽ	-10.3726
▁പ്രായേണ	-10.3726
▁പിരിഞ്ഞു	-10.3726
▁പ്രേരണ	-10.3726
▁കൈകാര്യം	-10.3726
▁അനുകരണ	-10.3727
▁പതിനൊന്ന	-10.3727
▁അതിഥി	-10.3729
▁വഹിക്കുന്ന	-10.3733
▁രാധ	-10.3733
▁ലീല	-10.3735
▁മറ്റുള്ളവരുടെ	-10.3737
ങ്ങളെപ്പോലെ	-10.3738
▁പ്രസിഡന്റു	-10.3741
▁നിന്നുള്ള	-10.3741
▁കരിങ്ക	-10.3742
▁ആവർത്തിക്ക	-10.375
വ്യവസ്ഥിതി	-10.3754
▁നിമിത്തമ	-10.3758
▁അമര	-10.3764
▁കുടിച്ചു	-10.3766
▁ഇദ്ദേഹത്തിന്റെ	-10.3776
▁സങ്കൽപ	-10.3783
▁സീറ്റുകൾ	-10.3783
▁നിശ്ചയിക്ക	-10.3792
▁ഉമ്മറത്ത	-10.3798
വിജയ	-10.3798
▁ഞാ	-10.3802
ചരിത	-10.3804
മല്ലെന്നു	-10.3806
കളൊന്നും	-10.381
▁ആത്മാവു്	-10.3812
▁സ്ത്രീകളെ	-10.382
▁അക്കാലത്ത	-10.3825
ാവട്ടെ	-10.3827
▁സംബന്ധ	-10.3828
യെടുത്തു്	-10.3828
▁ബ്ല	-10.3828
ോളു	-10.3829
▁വെയില	-10.3831
▁സ്വന്തമായി	-10.3834
ചുര	-10.3838
മെത്ര	-10.3878
▁അഹിംസാ	-10.3886
▁കമ്യൂണിസ്റ്റ	-10.3889
▁ചുറ്റ	-10.3891
ഴുകി	-10.3893
▁സുന്ദരി	-10.39
▁തൊഴ	-10.3924
▁ഞങ്ങളെ	-10.3934
▁ലോക്സഭ	-10.3936
▁അഖിലേന്ത്യാ	-10.3948
▁അനിവാര്യ	-10.3948
▁ഇന്ദിരാഗാന്ധി	-10.3948
▁കുഞ്ഞിരാമൻ	-10.3948
▁ദൃഢ	-10.3948
▁ഫിലോസഫി	-10.3948
▁ബൂർഷ്വാ	-10.3948
▁സുറിയാനി	-10.3948
▁കൗൺസില	-10.3948
▁മാനദണ്ഡ	-10.3948
▁ഡൽഹി	-10.3948
▁വ്യാകരണ	-10.3948
▁സമ്പാദിച്ച	-10.3948
▁ആസ്വദിക്ക	-10.3948
▁മണിക്കൂർ	-10.3948
▁അമ്പരന്നു	-10.3948
▁സാധ്യമല്ല	-10.3948
▁ജയിലിൽ	-10.3948
▁ചെലുത്ത	-10.3949
▁മദ്രാസ	-10.3949
▁സംരക്ഷിക്ക	-10.3949
▁കപില	-10.3949
▁കീഴടക്ക	-10.395
▁കപ്പൽ	-10.395
▁28	-10.3952
▁സ്വർണ്ണ	-10.3952
തോന്നി	-10.3953
▁പുറത്തേയ്ക്കു	-10.3953
▁ടിക്കറ്റ	-10.3953
▁ഗ്ലാസ	-10.3953
ാരംഭിച്ച	-10.3954
▁ചെയർമാന	-10.3954
▁പശു	-10.3957
ഭരിത	-10.3958
▁മുടക്ക	-10.3961
കിടക്കുന്ന	-10.3963
▁ഗുരുവായ	-10.3964
▁റഷ്യയിലെ	-10.3972
▁ശല്യ	-10.3977
െങ്ങും	-10.3977
▁വാഴ്ച	-10.3978
▁കൽപ്പ	-10.3979
▁മുന്നിട്ടു	-10.3983
▁പ്രത്യേകിച്ചു്	-10.3993
രീതിയിലുള്ള	-10.3996
▁അവധി	-10.4
▁കണ്ണടച്ചു	-10.4002
▁അയയ്ക്ക	-10.4003
▁തീരുമാനിക്ക	-10.4003
est	-10.4005
▁പല്ലു	-10.4013
▁കഴുക	-10.4015
ശത്രുക്കള	-10.4021
പ്രതിഷ്ഠ	-10.4022
▁വിമർശിക്ക	-10.4026
മനോഭാവ	-10.4028
▁താടി	-10.4033
കല്പന	-10.4041
▁സാമാന്യമായി	-10.4041
▁പ്രഖ്യാപിച്ച	-10.4048
▁മുന്നേറ	-10.4053
ുന്നതിനിടയിൽ	-10.4054
▁വീതി	-10.4055
▁മീനു	-10.4078
▁പറയുകയാണു്	-10.408
ലോണ	-10.41
▁50	-10.4105
98	-10.4106
▁വ്യാഖ്യാനിക്ക	-10.4107
ുകയുമില്ല	-10.4122
▁പിടികിട്ട	-10.4124
ir	-10.4139
▁നൂറ	-10.4139
▁വ്യക്തിപരമായ	-10.414
▁മലയാളികൾ	-10.4157
വെക്കുന്ന	-10.4161
പൂർണ്ണമായ	-10.4164
▁സന്മാർഗ	-10.4175
പൗരോഹിത്യ	-10.4175
▁2004	-10.4175
▁കർണാടക	-10.4175
▁റേഡിയോ	-10.4175
▁വക്കീല	-10.4175
▁1965	-10.4175
▁1970	-10.4175
▁കൊച്ചച്ഛൻ	-10.4175
▁ചങ്ങാതി	-10.4175
▁ഉത്തരവാദിത്ത	-10.4175
▁കുഞ്ഞിയമ്മ	-10.4175
▁മേല്പറഞ്ഞ	-10.4175
▁ചാർവാക	-10.4175
▁ദയനീയ	-10.4176
▁സംഘട്ടന	-10.4176
▁കർണ്ണ	-10.4176
▁വിനോദ	-10.4176
▁തിരിച്ചറിവ	-10.4176
▁അപ്പേട്ടൻ	-10.4176
പ്രേരക	-10.4176
▁രാജ്യസഭാ	-10.4177
▁വിശാലമായ	-10.4177
▁ഉപഭോഗ	-10.4177
ism	-10.4178
ിടയ്ക്കു	-10.4179
▁ദുർബല	-10.418
▁സാക്ഷി	-10.4181
▁കാഴ്ചപ്പാട	-10.4181
▁നേരെമറിച്ചു്	-10.4186
▁സിംഹ	-10.4187
▁ലോക്സഭാ	-10.4188
▁മകന്റെ	-10.4189
▁അതിനുവേണ്ടി	-10.419
▁ദീപിക	-10.4192
ൊപ്പം	-10.4193
▁ഭാര്യയെ	-10.4195
നന്ദ	-10.4197
▁തത്ത്വജ്ഞാനി	-10.4198
കളയുന്ന	-10.4206
▁കേസിൽ	-10.4206
▁അവയെല്ലാം	-10.4206
▁കറുപ്പ	-10.4211
▁അതിനകത്ത	-10.4211
ിരിക്കട്ടെ	-10.4215
am	-10.4221
▁വിലാപ	-10.4221
▁തിരിച്ചറിഞ്ഞ	-10.4226
▁ചോദിച്ചാൽ	-10.4227
യിലെത്തിയ	-10.423
▁ലങ്ക	-10.4236
▁കണ്ടെത്തിയ	-10.4239
▁നേരിടുന്ന	-10.4242
നിരൂപണ	-10.4252
▁മാനസികരോഗ	-10.4255
▁നാലാം	-10.4271
▁ഉപയോഗിച്ചു്	-10.4273
ുവല്ലോ	-10.4277
▁വിചാരിക്കുന്ന	-10.4277
▁സൃഷ്ടിക്കുന്ന	-10.4279
ാതിരിക്കുക	-10.4286
ന്യാസ	-10.4287
വെളിച്ച	-10.4287
▁ഇരട്ട	-10.4288
▁പദങ്ങൾ	-10.4291
മീതെ	-10.4293
▁പാടിയ	-10.4303
ശിക്ഷ	-10.4304
▁അത്രയ്ക്കു	-10.431
▁ബുദ്ധന്റെ	-10.4329
മിഷ	-10.4339
▁സരസ	-10.4343
മുറുക്ക	-10.4345
▁അക്കാലത്തെ	-10.4349
▁ഇല്ലെന്നു	-10.435
▁മറ്റുള്ള	-10.4354
▁മന്ത്രിയാക്ക	-10.4355
▁നിരത്ത	-10.4359
▁പൂവ	-10.4382
▁ഗ്രന്ഥകാരന	-10.4388
ായിരിക്കണമെന്ന	-10.439
ുകയാണെന്ന	-10.4402
▁ഡോക്ടറ	-10.4408
▁നിർവ്വഹിക്ക	-10.4408
▁വിശകലന	-10.4408
▁ഉണർത്ത	-10.4408
▁ദാർശനിക	-10.4408
▁പ്രക്ഷോഭ	-10.4408
▁ശവകുടീര	-10.4408
▁സന്ദർശിച്ച	-10.4408
▁പുരാതന	-10.4408
▁പ്രേരിപ്പിച്ച	-10.4408
▁പട്ടികജാതിക്കാര	-10.4408
▁പ്രേരിപ്പിക്ക	-10.4408
▁ആശ്രയിച്ച	-10.4408
▁വിദ്യാർഥി	-10.4408
▁അത്യന്തം	-10.4408
ച്ഛേദ	-10.4408
▁നാരായണഗുരു	-10.4409
▁പരിഗണിച്ച	-10.4409
സംഗ്രഹ	-10.4409
▁പാഠപുസ്തക	-10.4409
▁വെറുക്ക	-10.441
▁വാതിൽക്കൽ	-10.441
▁അജ്ഞത	-10.4411
▁യുക്തിവിചാര	-10.4412
▁ഉണ്ടെങ്കിൽ	-10.4413
▁മനുഷ്യസമുദായ	-10.4416
▁രാജവംശ	-10.4416
▁31	-10.4417
▁തലക്കെട്ട	-10.4421
▁കഴിയുമോ	-10.4422
▁മാരാരുടെ	-10.4423
▁ഗന്ധ	-10.4427
മാക്കുക	-10.4427
▁മറ്റുള്ളവരെ	-10.4428
▁അനുമാനിക്കാം	-10.4431
▁ഇന്നുവരെ	-10.4432
▁നിലവിൽ	-10.4433
▁വീഴുന്ന	-10.444
▁അത്ഭുതപ്പെട	-10.444
▁ഏതൊരു	-10.4451
▁ശ്രീരാമ	-10.4453
▁നിലവിളി	-10.4467
▁ചതുര	-10.4469
▁മകനെ	-10.448
▁വല്ലാത്ത	-10.449
സഞ്ചാര	-10.449
▁കേട്ടാൽ	-10.4501
▁നിഷ്ക	-10.4503
▁തോന്നിയില്ല	-10.4507
▁ഇരുട്ടിൽ	-10.4513
ിരുന്നുവെങ്കിൽ	-10.4518
▁ഇഷ്ടപ്പെട്ട	-10.4527
ാണവർ	-10.4562
▁വിറ്റു	-10.4564
നിർത്തി	-10.4566
ലക്ഷം	-10.4573
▁കേറി	-10.458
വുമല്ല	-10.4588
െതിരെ	-10.461
പ്രത്യക്ഷപ്പെട്ട	-10.461
▁അനുഭവപ്പെട്ട	-10.4616
▁സ്കൂളിൽ	-10.4626
▁തെളിയുന്ന	-10.4626
ത്തിന്മേൽ	-10.4631
▁പിരിച്ചുവിട	-10.4645
സത്യാഗ്രഹ	-10.4646
▁അർജ്ജുന	-10.4646
▁ഏട്ടൻ	-10.4646
▁ഗോപാലകൃഷ്ണ	-10.4646
▁ദാമ്പത്യ	-10.4646
▁ദ്രോഹ	-10.4646
▁നാട്ടിൻപുറ	-10.4646
▁മൗലവി	-10.4646
▁റെംബ്രാൻഡ	-10.4646
▁വാത്സല്യ	-10.4646
▁ശിങ്കിടി	-10.4646
▁ശുണ്ഠി	-10.4646
▁പിന്തിരിപ്പ	-10.4646
▁രവീന്ദ്ര	-10.4646
ദൃഷ്ട്യാ	-10.4646
▁പരിഷ്കൃത	-10.4646
▁ശൃംഗാര	-10.4646
▁പ്രയാസം	-10.4646
▁പകർന്നു	-10.4646
▁സങ്കീർണ്ണ	-10.4646
▁ആഫ്രിക്ക	-10.4646
▁സഹതാപ	-10.4646
ുന്തോറും	-10.4646
▁കുഞ്ഞായിൻ	-10.4646
▁ഉപകരണ	-10.4646
തൃഷ്ണ	-10.4647
▁വൈഷ്ണവ	-10.4647
▁നാട്ടുകാർ	-10.4647
▁ശതാബ്ദത്തിൽ	-10.4647
▁വിളംബരം	-10.4647
▁ഒന്നുകിൽ	-10.4648
▁നശിപ്പിച്ച	-10.4648
▁അവഗണിക്ക	-10.4649
▁ഒന്നാംതരം	-10.465
▁പ്രേത	-10.465
ിന്മേല	-10.465
▁പിടിച്ചടക്ക	-10.4651
ാതീത	-10.4651
▁വിശ്വസ്ത	-10.4657
▁ആൾവാര	-10.466
▁യമ	-10.4662
▁തയാറ	-10.4663
▁മാർട്ടി	-10.4667
▁രാജീവ	-10.4672
ive	-10.4677
ാശ്രമ	-10.4677
ാരോപ	-10.4681
▁കഴിച്ചുകൂട്ട	-10.4683
െങ്കിലോ	-10.4687
സൂചി	-10.4692
▁ബാലകൃഷ്ണൻ	-10.4696
ാറായ	-10.4697
▁വേണമെന്നു്	-10.4698
▁എതിർത്തു	-10.4699
ത്തിനിടയിൽ	-10.4708
▁തുണി	-10.4708
▁ചോറു	-10.4714
▁എതിർപ്പു	-10.4728
വിതരണ	-10.4729
ഗാന്ധി	-10.4735
▁മലബാറിൽ	-10.4751
ുടേതു്	-10.4753
▁കൊമ്പ	-10.4771
▁തകർന്ന	-10.4778
ചക്ര	-10.4802
▁എച്ചി	-10.4804
വരേയും	-10.4807
▁വിദ്യാർത്ഥികൾ	-10.4812
െതിര	-10.4828
ുകയെന്നതു്	-10.4841
▁ലെനിന	-10.4844
ാണുള്ളതു്	-10.485
ul	-10.4852
▁മാത്രമായിരുന്നു	-10.4856
ക്രിസ്ത	-10.4881
ക്ഷീണ	-10.4883
ഹമ്മദ	-10.4887
▁കമ്മ്യൂണിസ	-10.4888
▁ജ്യോതി	-10.489
▁പ്രതിപാദന	-10.489
▁ഊണു	-10.489
▁ഏറ്റവുമധികം	-10.489
▁ക്രിമിനൽ	-10.489
▁ചിലപ്പതികാര	-10.489
▁തന്നിമിത്തം	-10.489
▁ധാർമ്മിക	-10.489
▁സാംഖ്യ	-10.489
▁1968	-10.489
▁1999	-10.489
▁കൂട്ടിച്ചേർത്ത	-10.489
▁പത്മനാഭ	-10.489
▁വാസുദേവ	-10.489
▁നവംബർ	-10.489
▁പരിഷ്ക്കാര	-10.489
ാനുഭൂതി	-10.489
▁യത്ന	-10.489
▁ജീർണ്ണ	-10.489
▁ആലപ്പുഴ	-10.489
▁മിഥ്യ	-10.489
▁ആശാന്റെ	-10.489
▁സംഘടിപ്പിച്ച	-10.489
ക്കടലാസ	-10.4891
▁പുത്തൻ	-10.4891
▁വാടക	-10.4891
▁മൊത്തം	-10.4892
▁പണിക്കർ	-10.4893
▁മോക്ഷ	-10.4894
▁ഭൂരിപക്ഷത്തോടെ	-10.4895
ാനാവാത്ത	-10.4897
▁ഹിന്ദുക്കൾ	-10.4898
വേളയിൽ	-10.4901
▁തൂങ്ങി	-10.4902
▁ഉദാഹരണമായി	-10.4902
▁എനിയ്ക്കു	-10.4906
▁സ്കൂള	-10.4911
▁രേഖപ്പെടുത്തിയ	-10.4911
ാനന്തര	-10.4913
▁പതിഞ്ഞ	-10.4919
▁നയിച്ച	-10.492
▁തുണ	-10.492
▁നീക്കി	-10.492
▁സമയത്തു	-10.4921
ാന്വേഷണ	-10.4921
▁പാഠ്യ	-10.4922
▁കൃഷിക്കാര	-10.4927
▁രോഗികളെ	-10.493
ea	-10.493
▁കീഴിൽ	-10.4934
▁അടിസ്ഥാനമാക്കി	-10.4941
▁മൽസര	-10.4953
▁മൂള	-10.4965
▁വനിതാ	-10.497
ക്കുശേഷം	-10.4975
▁കരഞ്ഞു	-10.4983
▁തല്ലി	-10.4984
▁പൊള്ള	-10.4988
▁ഏറ്റെടുക്ക	-10.4992
ക്ട്	-10.4998
ശ്രദ്ധ	-10.5
ത്വത്തിനു	-10.5015
▁അച്യുതമേനോന	-10.502
▁പ്രചരിച്ച	-10.5033
തിലധികം	-10.5034
വയ്ക്കുന്ന	-10.5048
78	-10.506
▁കോടതിയലക്ഷ്യ	-10.507
ിനുപകരം	-10.5081
▁സ്നേഹിക്കുന്ന	-10.5091
▁കുപ്പി	-10.5098
മ്പ്ര	-10.5107
▁സംശയിക്ക	-10.5108
▁തടവു	-10.5115
▁റിയലിസ	-10.5122
▁നശിച്ച	-10.5136
ിന്റേയും	-10.5139
▁ആസ്പദമാക്കി	-10.514
▁പ്രാതിനിധ്യ	-10.514
▁ബാബിലോണിയ	-10.514
▁സൈക്കിൾ	-10.514
▁1960	-10.514
▁അധിക്ഷേപ	-10.514
▁മക്കത്തുപോയ	-10.514
▁അദ്ധ്യക്ഷ	-10.514
▁അർഹിക്കുന്ന	-10.514
▁കാർഷിക	-10.514
▁അധ്യായ	-10.514
▁കുണ്ടറ	-10.514
▁നായനാർ	-10.514
▁നിഴൽ	-10.514
▁ഹർജി	-10.514
▁ലിപി	-10.5142
ാഖ്യാ	-10.5142
വശാൽ	-10.5142
▁സമത്വവാദി	-10.5142
▁തത്വജ്ഞാന	-10.5142
▁മരണാനന്തര	-10.5142
▁പുരോഗമനസാഹിത്യ	-10.5143
▁1948	-10.5144
▁മൂലധന	-10.5145
യെക്കുറിച്ചു്	-10.5145
▁പിൽക്കാലത്തു്	-10.5147
▁സമ്മതിക്കുന്ന	-10.5147
▁യഥാ	-10.515
▁കുറിക്കുന്ന	-10.515
▁മിടുക്ക	-10.5151
▁സാഹിത്യകാരന്മാർ	-10.5153
▁ഭാരതീയർ	-10.5155
▁കുറെയൊക്കെ	-10.5158
▁ലജ്ജ	-10.5161
▁ഗുരുവിന്റെ	-10.5162
രഹിതമായ	-10.5163
▁അപ്പോഴേക്കും	-10.5165
▁മലയാളസാഹിത്യ	-10.5166
▁കുറെക്കൂടി	-10.5167
▁ഒളിച്ചു	-10.5167
▁കണ്ണട	-10.5169
▁മുമ്പില	-10.517
▁കുറുക്ക	-10.5173
▁നെഞ്ച	-10.5174
▁കാലത്താണു്	-10.5178
▁പ്രതികാര	-10.5182
▁പരാമർശിക്ക	-10.5185
▁എനിക്കൊരു	-10.5185
▁ഇല്ലെങ്കിൽ	-10.5186
▁പുത്രനായ	-10.5192
പോകുമ്പോൾ	-10.5192
ത്തെക്കാൾ	-10.5195
മേനോന്റെ	-10.5208
▁അപ്പോഴാണു്	-10.521
▁അയച്ച	-10.5214
▁നഷ്ടപ്പെട	-10.5219
നിമിത്തം	-10.524
വ്യക്തി	-10.5242
ent	-10.5251
▁ക്വ	-10.5255
▁ഉൾപ്പെടുന്ന	-10.5258
▁കലാരൂപ	-10.5267
ദ്ദേഹം	-10.5268
▁ജനിപ്പിക്കുന്ന	-10.5276
വ്യാപകമായ	-10.5284
▁വീശി	-10.5287
▁അംബ	-10.5295
വീശ	-10.5303
▁കുറ്റപ്പെടുത്ത	-10.5307
▁പ്രതിഫലിക്കുന്ന	-10.5336
▁മനഃശാസ്ത്ര	-10.5338
▁പ്രസക്ത	-10.5339
കാണിക്കുന്ന	-10.5342
▁ഉണ്ടായിട്ടില്ല	-10.5354
▁നന്നാക്ക	-10.5355
▁അനുഭവിക്കുന്ന	-10.5357
▁മനസ്സിനു	-10.5384
വൈദഗ്ദ്ധ്യ	-10.5396
▁ക്രൈസ്തവ	-10.5396
▁പ്രതിനിധാനം	-10.5396
▁പ്രസാധക	-10.5396
▁സ്ക്കൂൾ	-10.5396
▁ന്യൂനപക്ഷ	-10.5396
▁വാദപ്രതിവാദ	-10.5396
▁ഒന്നാമതായി	-10.5396
▁പ്രതിച്ഛായ	-10.5396
▁പ്രാബല്യ	-10.5396
▁അശോക	-10.5396
▁വിസ്തരിച്ച	-10.5396
▁നിലവിലുള്ള	-10.5396
▁ജേക്കബ്	-10.5396
▁എണീറ്റ	-10.5397
▁ചൂണ്ട	-10.5397
▁സംഘടിത	-10.5397
▁സന്യാസി	-10.5397
ഭൃത്യ	-10.5397
▁കൈവശമ	-10.5397
▁ഇക്കൂട്ടർ	-10.5397
▁സപ്ത	-10.5397
വിസ്മയ	-10.5399
▁മുൻകൂട്ടി	-10.5399
▁പകൽ	-10.5399
▁അകത്തേയ്ക്കു	-10.5401
▁സ്വാഭാവികമായും	-10.5402
▁കൊച്ചച്ഛന	-10.5403
▁71	-10.5408
▁സ്മരണീയമാണു്	-10.5416
▁വിദൂര	-10.5417
▁നൂറ്റാണ്ടിന്റെ	-10.5421
മണ്ഡലം	-10.5422
▁നാടുവാഴ	-10.5422
▁നെറ്റി	-10.5427
▁വാശി	-10.5429
ഗണിത	-10.543
▁സാഹിത്യകാരൻ	-10.5431
ിനെക്കുറിച്ചു്	-10.5432
▁ചോദ്യത്തിനു്	-10.5449
സ്കി	-10.547
▁മണീ	-10.5474
▁പുറത്തേക്കു	-10.5479
▁വിധിച്ച	-10.5481
▁രാജിവെച്ച	-10.5491
സാമ്രാജ്യ	-10.5503
▁po	-10.5519
▁പിടികൂട	-10.5523
ത്യാഗ	-10.5523
▁ഇതിൽനിന്നു	-10.5524
ിലേക്കാണു്	-10.5529
വുമില്ലാതെ	-10.5537
പ്രവർത്തിക്കുന്ന	-10.554
ിനകത്തു്	-10.5546
▁പറമ്പ	-10.5547
ടക്കമുള്ള	-10.5558
▁തിരിച്ചുവന്ന	-10.556
▁പാതിര	-10.5571
▁ഭരിക്കുന്ന	-10.5573
▁പാലിക്ക	-10.5613
83	-10.5618
പ്പെടുത്താൻ	-10.562
നമ്പൂതിരിപ്പാട	-10.5623
ഘടകങ്ങൾ	-10.5624
▁വിശേഷണ	-10.5647
▁കൊന്നു	-10.5648
▁ഉപനിഷ	-10.5655
മുഹൂർത്ത	-10.5659
▁യൗവന	-10.5659
▁ജ്യേഷ്ഠ	-10.5659
▁തിരുവമ്പാടി	-10.5659
▁പ്രിൻസിപ്പ	-10.5659
▁രുദ്രാക്ഷ	-10.5659
▁വാർദ്ധക്യ	-10.5659
▁സാന്നിദ്ധ്യ	-10.5659
▁സോവിയറ്റ്	-10.5659
▁പതിനഞ്ചു	-10.5659
▁പ്രതിരോധ	-10.5659
▁ഉടമസ്ഥ	-10.566
▁ഓരോരുത്തര	-10.566
▁വിഭിന്ന	-10.566
▁മണിക്കൂറ	-10.566
▁വൈവിധ്യ	-10.566
▁തണുപ്പ	-10.566
▁ടിബറ്റ	-10.566
സ്ഫുര	-10.566
▁പുറപ്പെടുവിക്ക	-10.566
▁അർദ്ധ	-10.566
▁ചന്ദന	-10.566
▁പ്രസിദ്ധീകരിക്ക	-10.566
സംരംഭ	-10.5661
▁ഷർട്ട	-10.5661
▁വിവക്ഷ	-10.5661
▁സാഞ്ചി	-10.5661
▁പ്രഖ്യാപന	-10.5661
ുടേയും	-10.5662
▁ഉപന്യാസ	-10.5662
▁സദാചാര	-10.5664
▁മലപ്പുറം	-10.5665
▁ഗ്രന്ഥകാരന്റെ	-10.5667
▁വർദ്ധിപ്പിക്ക	-10.5667
▁മൂഢ	-10.5668
▁തകർക്ക	-10.5668
▁നിയമസഭാംഗ	-10.5671
lo	-10.5672
▁ചെരിപ്പ	-10.5673
▁പ്രഖ്യാപിക്ക	-10.5675
ിരുത്തി	-10.5676
▁അയ്യോ	-10.5679
▁രസകരമായ	-10.5682
▁പൊതുവായ	-10.5686
▁സവർണ്ണ	-10.5686
ാകുമോ	-10.5687
ത്തിനകം	-10.5691
▁കരിമ്പ	-10.5703
▁വൈകുന്നേര	-10.5713
▁ഒന്നാണെന്നു	-10.5719
ly	-10.5725
▁ചേട്ടന	-10.5733
സാധാരണമായ	-10.5749
▁എൺപത	-10.575
കിടക്കുകയാണു്	-10.5765
നാട്ടിലെ	-10.5768
ഗർഭ	-10.5774
ുണ്ടാകാം	-10.5793
▁പൊലീസ	-10.5798
▁ശക്തമായ	-10.5831
▁വായിച്ചുനോക്ക	-10.5855
▁വനിത	-10.5859
▁അറിയപ്പെടുന്ന	-10.5864
▁കാണപ്പെടുന്ന	-10.5867
▁അദ്ധ്യാപക	-10.5884
90	-10.5889
▁പുത്രന	-10.5889
▁തയ്യാറായ	-10.5912
രാജാക്കന്മാരുടെ	-10.5923
▁ഭഗവദ്ഗീത	-10.593
▁വാസ്തുശില്പ	-10.593
▁ആത്യന്തിക	-10.593
▁ഉന്നയിക്ക	-10.593
▁കൺവീനർ	-10.593
▁പരമ്പരാഗത	-10.593
▁വൈലോപ്പിള്ളി	-10.593
▁1995	-10.593
▁ചുറ്റുപാട	-10.593
▁അന്യോന്യ	-10.593
▁നിഷ്പക്ഷ	-10.593
▁നിർവഹിക്ക	-10.593
▁അനവധി	-10.593
▁പാലോളി	-10.593
▁കഥാകൃത്ത	-10.593
▁വസ്തുക്കൾ	-10.593
▁കർത്തവ്യ	-10.593
▁ഗ്രാമീണ	-10.593
ലക്ഷ്മണ	-10.593
▁നിശ്ചല	-10.593
▁ദൂത	-10.5931
▁ജപ്പാൻ	-10.5931
▁നിലവാര	-10.5931
▁ബിഷപ്പ	-10.5931
▁ഇന്ദു	-10.5932
▁അസമത്വ	-10.5932
▁ഭൂപ്രദേശ	-10.5932
ത്തൊഴിലാളി	-10.5933
▁കലാകാരന്മാർ	-10.5936
▁അവതാര	-10.5938
▁കലാകാരന്റെ	-10.5939
▁കഴിയുകയില്ല	-10.5946
▁ബാധിക്കുന്ന	-10.595
▁ഇത്രമാത്രം	-10.5951
▁തുടർച്ചയായി	-10.5958
ക്കുളം	-10.5962
▁ഇളകി	-10.5962
▁പറന്നു	-10.5969
▁ബുദ്ധിപരമായ	-10.5978
▁അറുപത	-10.5983
▁ആരുമില്ല	-10.5988
സഹിതം	-10.5993
▁പൊതുവേ	-10.5998
ത്തുടങ്ങി	-10.6
▁കഴിവുള്ള	-10.6001
▁തെറ്റാണെന്നു	-10.6005
▁അമിത	-10.6006
▁മോന	-10.6012
▁നാലാമ	-10.6018
▁പണക്കാര	-10.6032
ാറുണ്ടായിരുന്ന	-10.6032
ായിരിക്കുമെന്നു	-10.6053
▁ഭൂതകാല	-10.6061
ay	-10.6075
▁നൽകിയിട്ടുള്ള	-10.6076
▁വന്നെത്ത	-10.6081
ധ്വനി	-10.6094
ങ	-10.6099
ൊഴിഞ്ഞ	-10.6111
▁29	-10.6116
ുണ്ടാവുക	-10.6116
കാണിച്ച	-10.6123
▁ആഗ്രഹിക്കുന്ന	-10.6131
▁ആലുവ	-10.6142
▁നല്കിയ	-10.6142
ായിരിക്കുമോ	-10.6158
▁മനുഷ്യജീവി	-10.6179
ry	-10.6182
▁തങ്ങൾക്കു	-10.6182
കളുമായ	-10.6203
മുനിസിപ്പാലിറ്റി	-10.6207
▁കുഞ്ഞുപാത്തുമ്മ	-10.6207
സാന്നിധ്യ	-10.6208
▁ഇടയ്ക്കിടയ്ക്കു	-10.6208
▁പാർലമെന്റ്	-10.6208
▁ബേജാറ	-10.6208
▁അർഹത	-10.6208
▁കൈക്കൂലി	-10.6208
ശ്ലേഷ	-10.6208
▁പരാജിത	-10.6208
▁ആൺകുട്ടി	-10.6208
▁പരിണമിച്ച	-10.6208
സ്റ്റെയ്റ്റ	-10.6208
▁ഭൂകമ്പ	-10.6208
തീക്ഷ്ണ	-10.6208
▁പങ്കാളി	-10.6208
▁സാമന്ത	-10.6208
▁അവലംബിച്ച	-10.6208
▁പ്രസന്ന	-10.6208
▁അബ്ദ	-10.6209
▁ഉള്ളടക്ക	-10.6209
▁തെന്നല	-10.621
ഭോഗ	-10.6211
▁വ്രണ	-10.6212
▁ഗുരുവായൂർ	-10.6212
▁തിന്മ	-10.6213
വൈചിത്ര്യ	-10.6213
▁ഇത്രത്തോളം	-10.6214
▁എന്തായാലും	-10.6216
▁പിന്തുണയോടെ	-10.6218
▁ലയിച്ചു	-10.6218
▁42	-10.6218
▁അഴിച്ചു	-10.6219
▁ഹാജി	-10.622
▁പാലക്കാട്	-10.6221
▁പുല്ലു	-10.6221
▁സമാധി	-10.6221
▁അനാവശ്യ	-10.6225
▁അന്ധകാര	-10.6227
▁ഇൻസ	-10.6233
▁നിഷേധിച്ച	-10.6235
▁വിശ്വരൂപ	-10.6242
▁എന്നുള്ളതാണു്	-10.6243
▁സമസ്ത	-10.6243
▁ഇത്തിരി	-10.6246
ാണത്രെ	-10.625
േട്ടൻ	-10.6253
▁ഗ്രഹിക്ക	-10.6256
▁ഇയാൾ	-10.6257
സമാജ	-10.6265
▁ശരിയാ	-10.6276
▁ശിഷ്യന്മാര	-10.6298
▁കണ്ടുമുട്ട	-10.6314
▁മന്ത്രിസഭയുണ്ടാ	-10.6324
▁കത്തിച്ചു	-10.6326
▁കൃഷ്ണമേനോന	-10.6335
വിമർശന	-10.6338
പരീക്ഷ	-10.6338
▁ഉപതെരഞ്ഞെടുപ്പ	-10.6339
കർഷക	-10.6344
നടക്കുന്ന	-10.6344
ത്തിലെത്തിയ	-10.6345
പ്രേമ	-10.6348
▁പൂട്ടി	-10.6379
▁അദ്ദേഹത്തിന്നു	-10.6387
▁ജയിലില	-10.642
വിപ്ലവം	-10.6443
▁ഗ്രഹ	-10.6447
ുവാൻവേണ്ടി	-10.6454
പ്പോഴേക്കും	-10.6467
▁തത്ത്വജ്ഞാന	-10.647
▁ആവശ്യപ്പെടുന്ന	-10.6471
മഹത്വ	-10.649
▁അദ്ധ്വാന	-10.6493
▁അധ്വാന	-10.6493
▁ജനസാമാന്യ	-10.6493
▁തെറ്റിദ്ധാരണ	-10.6493
▁ദുസ്സഹ	-10.6493
▁ദ്രാവിഡ	-10.6493
▁പരശുരാമ	-10.6493
▁ബാല്യകാലസഖി	-10.6493
▁ഭാർഗവ	-10.6493
▁യാദൃച്ഛിക	-10.6493
▁ലത്തീൻ	-10.6493
▁1951	-10.6493
▁അടിയുറച്ച	-10.6493
▁കാരുണ്യ	-10.6493
▁ക്നായിത്തൊമ്മ	-10.6493
▁മുഖസ്തുതി	-10.6493
▁ചൂണ്ടിക്കാട്ട	-10.6493
▁പരിഹസിച്ച	-10.6493
▁മുലായം	-10.6493
▁നിഷിദ്ധ	-10.6493
ോന്മുഖ	-10.6493
▁മതിയാവൂ	-10.6493
▁സ്മാരക	-10.6493
▁ചുറ്റുമുള്ള	-10.6493
▁തൊപ്പി	-10.6493
▁രാജേഷ്	-10.6493
▁എടക്കൽ	-10.6493
▁മേശപ്പുറത്തു	-10.6493
▁വേട്ടയാട	-10.6493
കോലാഹല	-10.6493
▁വന്നുചേര	-10.6493
▁വ്യാജ	-10.6494
▁മെമ്പർ	-10.6494
▁മത്സ്യ	-10.6494
▁മഹനീയ	-10.6494
▁യഥാർഥ	-10.6494
▁കുഞ്ഞുണ്ണി	-10.6495
▁ശാസ്ത്രജ്ഞന്മാർ	-10.6495
▁വിശേഷിച്ചും	-10.6495
▁ആൻഡ്	-10.6497
ൊഴികെ	-10.6497
▁തൽഫലമായി	-10.6499
▁കഷ്ടപ്പാട	-10.6502
ശ്ശീല	-10.6502
▁സിറിയക്	-10.6503
▁അവതാരിക	-10.6503
▁സാഹിത്യപ്രസംഗ	-10.6508
വ്യാപ്തി	-10.6508
▁രാജിവെക്ക	-10.6512
കീറ	-10.6512
▁പ്രബുദ്ധ	-10.6514
▁ഭഗവാന	-10.6516
▁പൊങ്ങി	-10.6518
▁മനോഹര	-10.6522
▁കോഴിക്കോട്ടെ	-10.6522
▁ചാനല	-10.6529
▁പ്രതിബന്ധ	-10.653
▁ഇടക്കാല	-10.6543
ിലെന്നപോലെ	-10.6579
നെതിരായ	-10.6583
▁ചുമ്മാ	-10.6603
ദൈവ	-10.6609
▁മറഞ്ഞു	-10.6615
ect	-10.6627
മലയാള	-10.6636
ുവെങ്കിലും	-10.6648
▁നിലനിറുത്ത	-10.6653
▁എഴുപത	-10.6657
▁കടന്നുവരുന്ന	-10.6671
മലബാറ	-10.6677
▁പേരുണ്ടായിരുന്ന	-10.6694
▁de	-10.67
▁പുറപ്പെട	-10.6703
കുംഭ	-10.6739
നിർണ്ണയ	-10.6768
▁ഒഴുക	-10.6771
▁അനുമാനിക്ക	-10.6781
▁ദിയോനീസസ്	-10.6787
▁നിയോജകമണ്ഡല	-10.6787
▁ലൈബ്രറി	-10.6787
▁ഇടയ്ക്കിടെ	-10.6787
▁തിളങ്ങുന്ന	-10.6787
▁നിർവ്വചന	-10.6787
▁പെയിന്റ	-10.6787
▁ബോധിസത്വ	-10.6787
▁മദാമ്മ	-10.6787
▁മുരളീധരൻ	-10.6787
▁രക്തസാക്ഷി	-10.6787
▁സാർവ്വദേശീയ	-10.6787
▁നീതിന്യായ	-10.6787
▁വ്യാമോഹ	-10.6787
▁യജമാന	-10.6787
▁മുസ്ലീങ്ങള	-10.6787
▁പരിഹസിക്ക	-10.6787
▁ദുഷിച്ച	-10.6787
▁രണ്ടുമൂന്നു	-10.6787
▁ഭിക്ഷുണി	-10.6787
▁അഭിഭാഷക	-10.6788
▁പരിണമിക്ക	-10.6788
▁സവർണ	-10.6788
▁തൊണ്ട	-10.6788
▁പ്രതാപ	-10.6788
വിനിമയ	-10.6788
ശൃംഗ	-10.6788
▁അശ്വ	-10.6789
▁തിളക്ക	-10.679
▁മേൽപ്പറഞ്ഞ	-10.679
▁ചിന്ന	-10.6791
▁അഭിമുഖ	-10.6793
▁45	-10.6795
▁ജനസംഖ്യ	-10.6796
ിക്കളഞ്ഞു	-10.6796
▁വലിപ്പ	-10.6804
▁കാലത്തോളം	-10.6808
▁നോക്കിക്കാണ	-10.681
▁നീണ്ടുനിന്ന	-10.6811
▁അങ്ങനെയൊരു	-10.6812
▁ഭാരതീയരുടെ	-10.6813
▁അക്കിത്ത	-10.6813
▁വർക്കി	-10.6813
▁ഉദാര	-10.6816
▁മാത്രമേയുള്ളു	-10.6822
ുണ്ടെന്നുള്ള	-10.6832
▁64	-10.6838
▁തടവുകാര	-10.6861
സ്ഥാനത്തേക്കു	-10.6865
▁കോപ്പി	-10.6869
▁വായനക്കാർക്കു	-10.6894
▁ഉദ്ദേശിക്കുന്ന	-10.6894
ിൽനിന്നുള്ള	-10.6908
▁അവലോകിതേശ്വര	-10.6909
▁പ്രചരിച്ചിരുന്ന	-10.6916
▁സഹായിക്കുന്ന	-10.6926
▁ജീവിച്ചിരിക്ക	-10.6933
ബ്രാഹ്മണ	-10.6935
രണ്ടു	-10.6938
സമിതി	-10.6941
▁അടയാള	-10.6953
▁നിന്നിരുന്ന	-10.6954
▁അതിലേക്കു	-10.6987
▁ഉയർത്തിപ്പിടി	-10.6991
▁വായനക്കാർ	-10.7034
▁ഇരിയ്ക്ക	-10.7049
▁രണ്ടുപേര	-10.7052
▁ശങ്കറി	-10.7069
▁വിശദീകരണ	-10.709
▁അസാമാന്യ	-10.709
▁ഇരിങ്ങാലക്കുട	-10.709
▁കരുണാകർജി	-10.709
▁തൃക്കണാമതിലക	-10.709
▁തൃണമൂൽ	-10.709
▁നരേന്ദ്ര	-10.709
▁ഫ്രഞ്ച്	-10.709
▁ഭീഷ്മ	-10.709
▁മഹാവിഷ്ണു	-10.709
▁വാജ്പേയി	-10.709
▁ശ്രീധരൻ	-10.709
▁സെൻട്രൽ	-10.709
▁1947	-10.709
▁1985	-10.709
▁അദ്വൈതാശ്രമം	-10.709
▁ബുദ്ധമുനി	-10.709
▁അസ്തിത്വ	-10.709
നാമധേയ	-10.709
▁അമ്മൂമ്മ	-10.7091
▁അത്തവണ	-10.7091
▁പഠിയ്ക്ക	-10.7091
▁ഹൈന്ദവ	-10.7091
മ്പാടും	-10.7091
▁അനുഭൂതി	-10.7091
▁വരാന്തയിൽ	-10.7091
ാസക്തി	-10.7092
പറയേണ്ടതില്ലല്ലോ	-10.7092
▁ബോദ്ധ്യ	-10.7093
▁ഉറ്റ	-10.7095
▁അനുരാഗ	-10.7097
▁അജിത	-10.7097
▁നല്ലവണ്ണം	-10.71
▁രണ്ടെണ്ണ	-10.71
▁46	-10.7101
▁ഗുരുനാഥ	-10.7101
▁ഉപാധി	-10.7104
▁എവിടെയെങ്കിലും	-10.7104
ൈക്യ	-10.7105
▁വശത്തു	-10.7107
▁നിലകൊള്ളുന്ന	-10.7108
▁പിരിച്ച	-10.7109
▁വിശേഷിച്ചു്	-10.711
▁വ്യാസ	-10.7115
▁ഏറ്റെടുത്തു	-10.7136
▁ആരാധിക്ക	-10.7147
▁മുസ്ലി	-10.7167
▁സ്വീക	-10.7171
▁തിരിച്ചെത്തിയ	-10.718
▁വയല	-10.718
മീശ	-10.7196
ാണദ്ദേഹം	-10.7197
ിലിരുന്നു്	-10.72
▁ചുഴി	-10.7207
▁സുഖക്കേട	-10.7209
▁അവസാനിപ്പിക്ക	-10.7224
മത്സര	-10.725
▁33	-10.7253
ഗ്രന്ഥങ്ങളിൽ	-10.7256
▁പോലീസുകാര	-10.728
▁വിശേഷിപ്പിക്ക	-10.7281
ാണത്രേ	-10.7285
▁യാതൊര	-10.7296
▁കമ്യൂണിസ്റ്റുകാ	-10.7301
▁ജനിപ്പിക്ക	-10.7302
ന്മാരോടു	-10.7302
▁പൊയ്ക	-10.7315
▁മഹാരാജാവ	-10.7316
കുറഞ്ഞ	-10.7352
▁രാധാകൃഷ്ണ	-10.7357
▁തിരിച്ചടി	-10.7359
▁തെങ്ങ	-10.7371
▁സ്നേഹിതന	-10.7376
പ്പറയുന്ന	-10.7393
സഞ്ചി	-10.7398
▁കമ്യൂണിസ	-10.7402
ശുശ്രൂഷ	-10.7403
▁ആവിഷ്കരിക്ക	-10.7403
▁ഇതിഹാസ	-10.7403
▁പ്രതിപാദ്യ	-10.7403
▁ഉചിത	-10.7403
▁ഉത്തർപ്രദേശ	-10.7403
▁ഉന്മേഷ	-10.7403
▁എറണാകുളം	-10.7403
▁തെറ്റിദ്ധരിച്ച	-10.7403
▁പര്യാപ്ത	-10.7403
▁ഫാക്ടറി	-10.7403
▁സംതൃപ്ത	-10.7403
▁സർവകലാശാല	-10.7403
▁ഹൈസ്ക്കൂൾ	-10.7403
▁1952	-10.7403
▁ദിവാകരന	-10.7403
▁നൂതന	-10.7403
സ്സംബന്ധിച്ച	-10.7403
▁ശിലാലേഖന	-10.7403
ുകയാണുണ്ടായതു്	-10.7403
▁അട്ടിമറി	-10.7403
▁രാക്ഷസ	-10.7403
▁ജനതാദള	-10.7403
▁മൂർച്ഛ	-10.7403
▁ഗാഢ	-10.7403
▁അനിയത്തി	-10.7403
▁സപ്തർഷി	-10.7403
▁പതിനായിര	-10.7403
▁കണ്ണുനീര	-10.7403
▁പിൻബല	-10.7403
▁ലാങ്ങ്	-10.7403
▁തുടക്കത്തിൽ	-10.7404
▁പ്രാവശ്യം	-10.7404
▁ഒഴുക്ക	-10.7404
▁ലീഗിന്റെ	-10.7404
▁വിനീത	-10.7404
▁ഘടിപ്പിച്ച	-10.7405
▁മേൽവിലാസ	-10.7405
▁നിഷ്കർഷ	-10.7405
▁സമർപ്പിച്ച	-10.7405
▁അയിത്ത	-10.7406
▁ജോർജ്ജ്	-10.7406
▁തുച്ഛ	-10.7407
▁തുറമുഖ	-10.7407
▁ശഠിച്ച	-10.7407
▁വീട്ടുകാര	-10.7409
▁ശൂന്യത	-10.7409
ment	-10.741
▁ബഹുമതി	-10.741
▁അകാലി	-10.7411
▁അനശ്വര	-10.7411
▁ഉടുപ്പ	-10.7412
▁മനുഷ്യവർഗ	-10.7413
▁പിൻവാങ്ങ	-10.7415
വാര്യർ	-10.7419
▁കടന്നുവന്ന	-10.7419
▁രണ്ടിനും	-10.742
▁കൈവിട്ടു	-10.7428
▁കുട്ടികൾക്കു	-10.7429
▁തൊട്ടടുത്ത	-10.7433
▁വർഗീയ	-10.7437
▁ആദരിക്ക	-10.7453
▁ബൗദ്ധിക	-10.7468
തിനിടയ്ക്കു്	-10.7476
▁താരതമ്യ	-10.7506
ാനിടയില്ല	-10.7509
▁വെടിഞ്ഞ	-10.7522
വെയ്ക്കുന്ന	-10.753
ോളൂ	-10.7539
ിരുന്നുവെങ്കിലും	-10.7542
▁അടയാളപ്പെടുത്ത	-10.7547
കിടപ്പുണ്ടു്	-10.757
കമ്മിറ്റി	-10.7571
മാനുഷ	-10.7571
വരാരും	-10.7598
വിരിഞ്ഞ	-10.7604
ചലന	-10.7605
▁പറഞ്ഞുകേട്ട	-10.7613
▁പങ്കെടുക്ക	-10.7617
െന്നുള്ളതാണു്	-10.7627
രാജാവു്	-10.7632
▁ഉത്ഭവിച്ച	-10.7645
ിലേർപ്പെട	-10.7679
▁സ്മരണീയ	-10.7702
കർത്താവായ	-10.7709
പത്രിക	-10.7712
ാണുതാനും	-10.7713
▁ഉപദേശിക്കുന്ന	-10.7725
▁തൊണ്ണൂറ	-10.7725
▁സമന്വയ	-10.7725
▁സ്റ്റുഡിയോ	-10.7725
▁അധഃപതന	-10.7725
▁ആകപ്പാടെ	-10.7725
▁ഒളപ്പമണ്ണ	-10.7725
▁കുഞ്ഞിക്കുട്ടൻ	-10.7725
▁കുസൃതി	-10.7725
▁നവോത്ഥാന	-10.7725
▁ബൈബിള	-10.7725
▁സാമർത്ഥ്യ	-10.7725
▁നിഷ്കളങ്ക	-10.7725
▁ബംഗാൾ	-10.7725
▁സോഷ്യൽ	-10.7725
▁കോഴിക്കോടു്	-10.7725
▁മൃദു	-10.7725
▁രാജ്ഞി	-10.7725
▁ഗൗഡ	-10.7725
▁ചക്രവാള	-10.7725
▁രാമുണ്ണി	-10.7725
▁വടക്കേക്കര	-10.7725
▁പീടിക	-10.7726
▁തിരികെ	-10.7726
സങ്കേത	-10.7726
രശ്മി	-10.7726
▁ഗണ്യമായ	-10.7726
▁പൂർത്തിയാക്ക	-10.7726
▁ദേവാലയ	-10.7726
▁പരിഭവ	-10.7726
▁അവശേഷിക്കുന്ന	-10.7726
▁ഭിക്ഷ	-10.7727
▁ഗ്രന്ഥകർത്താ	-10.7727
▁കാളവണ്ടി	-10.7727
▁നാലഞ്ചു	-10.7727
▁അപരിചിത	-10.7727
▁വാസ്തു	-10.7727
▁വജ്ര	-10.7728
▁എഴുത്തുകാർ	-10.7728
▁മറ്റൊരാൾ	-10.773
▁1978	-10.773
▁അസംബന്ധ	-10.7731
▁അഡ്വ	-10.7731
▁പോരെങ്കിൽ	-10.7732
▁ഇരുമ്പു	-10.7732
▁കൊത്തിയ	-10.7734
▁ശബര	-10.7734
▁യാദവ	-10.7735
ുന്നതിനുവേണ്ടി	-10.7737
ith	-10.7738
ജനാധിപത്യമുന്നണി	-10.7741
▁നനഞ്ഞ	-10.7742
▁മാതാവ	-10.775
▁പ്രാപിക്ക	-10.7757
ാത്മാക്കള	-10.7762
▁പറഞ്ഞിട്ടുള്ളതു	-10.777
▁ഘന	-10.7771
കുമാരന	-10.7786
▁വിശേഷിപ്പിച്ച	-10.7797
▁കണ്ടുകിട്ട	-10.7805
▁മേനോന	-10.7811
പ്രവേശം	-10.7813
▁ശതാബ്ദത്തില	-10.782
▁തടവി	-10.7859
ിനോടുള്ള	-10.7866
▁ഉപയോഗപ്പെടുത്ത	-10.7898
നാരായണ	-10.7899
▁സാധിച്ചിട്ടില്ല	-10.7914
ച്ചുകളയ	-10.7948
▁സെമൈറ്റ	-10.7967
▁ഹിന്ദുക്കള	-10.7968
▁വയനാട	-10.7977
▁അടിസ്ഥാനപരമായ	-10.7998
▁ശരിയെന്നു	-10.8008
▁മൂഷികവംശ	-10.8024
ഞ	-10.8039
ിത്തുടങ്ങിയ	-10.8045
▁പോലുമ	-10.8058
ുദ്യോഗസ്ഥ	-10.8059
▁2006	-10.8059
▁അലക്സാണ്ടർ	-10.8059
▁ഗൗരിയമ്മ	-10.8059
▁ദൃഷ്ടാന്ത	-10.8059
▁ന്റുപ്പുപ്പാ	-10.8059
▁രാജേന്ദ്ര	-10.8059
▁വിമോചന	-10.8059
▁സൈക്കിള	-10.8059
▁സ്റ്റഡീസ്	-10.8059
▁സ്വാശ്രയ	-10.8059
▁ഉന്നയിച്ച	-10.8059
▁കോടിയേരി	-10.8059
▁ജമാഅത്ത	-10.8059
▁നസ്രാണി	-10.8059
▁പ്രഗല്ഭ	-10.8059
▁മെഡിക്കൽ	-10.8059
▁ശ്രീകൃഷ്ണ	-10.8059
▁കണ്ടുപിടിത്ത	-10.8059
▁ബംഗ്ലാ	-10.8059
▁ബാലചന്ദ്രൻ	-10.8059
▁മാനേജർ	-10.8059
▁അവാർഡു	-10.8059
▁ഉൽകൃഷ്ട	-10.8059
▁തുനിഞ്ഞ	-10.8059
▁ദിനപത്ര	-10.8059
▁ഇത്രയധികം	-10.8059
▁നിരർത്ഥക	-10.8059
▁നിർവഹിച്ച	-10.8059
▁അഭ്യാസ	-10.8059
▁തുലോം	-10.8059
▁മുഖവുര	-10.8059
▁സൂഫി	-10.8059
▁നിബന്ധന	-10.8059
▁ശിശു	-10.8059
▁ഇന്റർ	-10.8059
▁നിശ്ചിത	-10.8059
▁വഷള	-10.8059
▁പരോക്ഷ	-10.8059
▁പതിവുപോലെ	-10.8059
▁കണാദ	-10.8059
▁നിറവേറ്റ	-10.8059
▁മങ്കട	-10.8059
▁അടിയന്തിരാവസ്ഥ	-10.806
▁യൂത്ത്	-10.806
ാലോചിച്ചു	-10.806
▁con	-10.8061
▁മുൻനിർത്തി	-10.8061
▁പ്രതികരണ	-10.8062
▁അമ്പരപ്പ	-10.8062
▁പ്രത്യാശ	-10.8062
▁തൽക്കാലം	-10.8062
▁പക്ഷപാത	-10.8063
▁പ്രകൃതഗ്രന്ഥ	-10.8064
പ്പോഴേയ്ക്കും	-10.8065
ാനിടയുള്ള	-10.8066
▁അച്ചടക്ക	-10.8066
▁പിന്നേയും	-10.8066
▁പത്രപ്രവർത്തക	-10.8066
▁അവനവന്റെ	-10.8067
▁അശ്രു	-10.8068
▁ഗ്രൂപ്പുകാർ	-10.8072
▁ഇണങ്ങ	-10.8074
ver	-10.8081
▁ഇല്ലാതാക	-10.8085
▁മാർക്സിസ	-10.8089
▁കൽപിച്ച	-10.8111
▁ആക്രമിക്ക	-10.8125
▁അപൂർവ	-10.8162
▁തല്ലു	-10.8218
▁പഴക്കമ	-10.8219
▁ചെന്നെത്ത	-10.8225
▁നൽകിയിരിക്കുന്ന	-10.8235
▁34	-10.8239
മാസ്റ്റർ	-10.825
രാത്രി	-10.8251
▁കേരളോൽപ്പത്തി	-10.8258
നിമിഷം	-10.8259
ലക്ഷണ	-10.8268
വുമാണെന്നു	-10.8284
ുടേതായ	-10.8381
▁ഏർപ്പെട	-10.84
▁ഭാസ്കര	-10.8404
▁ആധ്യാത്മിക	-10.8404
▁ആവിഷ്ക്കരിക്ക	-10.8404
▁ഉറുപ്പിക	-10.8404
▁കൺഫ്യുഷ്യസ	-10.8404
▁ഗവർണർ	-10.8404
▁സന്ദർശിക്ക	-10.8404
▁സൈനിക	-10.8404
▁1984	-10.8404
▁അധഃപതിച്ച	-10.8404
▁തിരഞ്ഞെടുപ്പ	-10.8404
▁മുസ്ലീങ്ങൾ	-10.8404
▁തലച്ചോറ	-10.8404
▁കബീർ	-10.8404
▁മേൽക്കാണിച്ച	-10.8404
▁ഹിമാലയ	-10.8404
▁കുറ്റവാളി	-10.8404
▁ശൂദ്ര	-10.8404
▁കലശലായ	-10.8404
▁സിംഹാസന	-10.8404
ാധിഷ്ഠിത	-10.8404
▁ഭഗവതി	-10.8404
▁കെട്ടിപ്പടുത്ത	-10.8404
▁തണുത്ത	-10.8404
▁ആർക്കെങ്കിലും	-10.8404
▁ക്യൂബ	-10.8404
▁സംഘാടക	-10.8404
▁പത്നി	-10.8405
▁അസാദ്ധ്യ	-10.8405
▁വരുമാന	-10.8405
▁അഞ്ഞൂറ	-10.8406
▁അവശേഷിച്ച	-10.8406
▁നടുവിൽ	-10.8406
▁തീർപ്പു	-10.8407
▁ജന്മവാസന	-10.8407
▁ഫലമുണ്ടായില്ല	-10.8407
▁മടങ്ങിയെത്തി	-10.8407
▁തത്വചിന്ത	-10.8408
▁നാണയ	-10.8408
▁ഏറെക്കാലം	-10.841
▁മിക്കപ്പോഴും	-10.841
ഗണേശ	-10.8412
ക്യാമ്പ	-10.8414
▁അനുസ്മര	-10.8415
▁ഹിന്ദുക്കളുടെ	-10.8418
▁വീർപ്പ	-10.8418
▁തുന്നി	-10.8421
▁ആറാം	-10.8425
േണ്ടിവരുന്ന	-10.8428
ച്ചേരി	-10.8448
▁ഇക്കൂട്ടര	-10.8451
▁പൗരസ്ത്യകല	-10.8453
▁അടിമകള	-10.846
▁പിണക്ക	-10.8461
▁തുള്ളി	-10.8465
▁നൂറ്റ	-10.8485
▁ചിത്രമെഴുത	-10.8503
▁നേതാക്കന്മാര	-10.8525
▁ഓർമ്മിപ്പിക്ക	-10.8525
▁ശിൽപ	-10.8551
▁അകത്തേക്കു	-10.8562
മനഃസ്ഥിതി	-10.8605
പരിണാമ	-10.8605
ഹിന്ദു	-10.8607
രാമൻ	-10.8625
▁ഭ്ര	-10.8713
േക്കിറങ്ങ	-10.8713
▁കേരളീയർക്കു	-10.8758
▁സാത്വിക	-10.876
ുദ്ദീൻ	-10.8761
ക്കൊരാനേണ്ടാർന്ന	-10.8761
സാഹോദര്യ	-10.8761
▁ആഭിമുഖ്യ	-10.8761
▁കാശ്മീര	-10.8761
▁കുപ്രസിദ്ധ	-10.8761
▁ഗോപിനാഥ	-10.8761
▁നരസിംഹ	-10.8761
▁പൊടുന്നനെ	-10.8761
▁ബാനർജി	-10.8761
▁ശാകുന്തള	-10.8761
▁സിൻഡിക്കേറ്റ	-10.8761
▁സെനറ്റംഗം	-10.8761
▁സ്പിനോസ	-10.8761
▁1954	-10.8761
▁എപ്പിക്യൂറ	-10.8761
▁ക്യാമറ	-10.8761
▁ദൈനംദിന	-10.8761
▁മമ്മാലി	-10.8761
▁മീനാക്ഷി	-10.8761
▁റൊമാന്റിക്	-10.8761
▁ശ്രേണി	-10.8761
▁സൂപ്രണ്ട	-10.8761
▁കണ്ടുപിടുത്ത	-10.8761
▁കബീറ	-10.8761
▁ജോസഫേട്ടന	-10.8761
▁പാർവ്വതി	-10.8761
▁രൂക്ഷ	-10.8761
▁കൈവശപ്പെടുത്ത	-10.8761
▁നിലനില്പ	-10.8761
▁വിഴുങ്ങ	-10.8761
▁മറ്റുചില	-10.8761
▁തമ്പുരാന്റെ	-10.8761
▁ദർശിക്ക	-10.8761
േക്കാളും	-10.8761
▁സ്കന്ദ	-10.8761
▁മിസ്റ്റർ	-10.8761
▁അന്നേരം	-10.8761
▁രത്ന	-10.8761
▁പവിത്ര	-10.8761
▁സാഹിതീ	-10.8761
▁ജോണി	-10.8761
▁അക്കൂട്ടത്തിൽ	-10.8762
തേജസ്സ	-10.8762
▁നീതീകരണ	-10.8762
▁മൂഷികവംശകാവ്യ	-10.8762
▁യാതന	-10.8762
ാണല്ലൊ	-10.8763
▁വിഭാഗങ്ങള	-10.8764
ന്ദര്യ	-10.8764
▁2000	-10.8765
▁അഞ്ചാറു	-10.8765
▁കണ്ണുതുറ	-10.8766
▁പാഴാക്ക	-10.8766
െക്കാളും	-10.8767
▁കുലുങ്ങ	-10.8767
▁കണ്ണീർ	-10.8768
▁പെർസ	-10.8773
▁മുഴുവന	-10.8775
▁സൂക്ഷിച്ച	-10.8781
▁കുട്ടിക്കാലത്ത	-10.8783
കുശല	-10.8783
▁തെണ്ടി	-10.8791
▁ഭാസ്കരരവിവർമ	-10.8801
▁നിലാവു	-10.8801
പ്പതിപ്പ	-10.8806
മാകുമെന്ന	-10.8825
ിനൊപ്പം	-10.8864
ിളക്കി	-10.8876
ിരിക്കുന്നുവെന്ന	-10.8897
കഴിയുമ്പോൾ	-10.8897
▁ഗണിച്ച	-10.8902
ചേഷ്ട	-10.8974
തലമുറ	-10.8975
പുരോഗതി	-10.8975
▁പരിചിത	-10.8982
▁വിധത്തില	-10.8987
▁അവളോടു	-10.9012
▁not	-10.9038
കഴിച്ച	-10.9045
ചേതന	-10.9052
തിനെക്കാൾ	-10.9059
▁മാർക്സിസ്റ്റു	-10.909
▁പ്രസ്താവ	-10.9111
▁കണ്ണുനീർ	-10.9129
▁നിർഭാഗ്യ	-10.9131
ഗ്വേദ	-10.9131
യൂണിയൻക്രിസ്ത്യൻ	-10.9131
▁ഇമ്മാതിരി	-10.9131
▁എത്തിച്ചേര	-10.9131
▁കൊടുങ്കാറ്റ	-10.9131
▁ക്യാപിറ്റൽ	-10.9131
▁ഡയറക്ടറ	-10.9131
▁നിസ്സംശയം	-10.9131
▁പോതാളക	-10.9131
▁ഭരണസമിതിയംഗം	-10.9131
▁മലയാളപരിഭാഷയുടെ	-10.9131
▁യൂറോപ്യൻ	-10.9131
▁സൈബീരിയ	-10.9131
▁1989	-10.9131
▁ആവിർഭാവ	-10.9131
▁ഉണര	-10.9131
▁ചെന്നിത്തല	-10.9131
▁പുരോഗമിക്ക	-10.9131
▁സങ്കുചിത	-10.9131
തെന്തിനു്	-10.9131
▁ഉല്പത്തി	-10.9131
▁ഏതാദൃശ	-10.9131
▁കേശവൻ	-10.9131
▁രമേശ്	-10.9131
▁മാതൃഭാഷ	-10.9131
▁പൊങ്ങച്ച	-10.9131
▁വളരെയേറെ	-10.9131
▁ഗോർക്കി	-10.9131
▁പിറകിൽ	-10.9131
▁പ്രത്യയശാസ്ത്ര	-10.9131
▁ഭക്ഷ്യ	-10.9131
▁ട്രേഡ്	-10.9131
▁ഒന്നാമതു്	-10.9131
▁മംഗള	-10.9132
▁ഉരുണ്ട	-10.9132
▁മാമ്മൻ	-10.9132
▁it	-10.9132
▁മോഡി	-10.9133
▁വസന്ത	-10.9134
▁ആപ്പീസ	-10.9134
▁സമർപ്പിക്ക	-10.9135
▁സംയോജ	-10.9135
ാനിടയുണ്ടു്	-10.9135
▁സരള	-10.9136
▁മനോരോഗ	-10.9136
▁ഭാഗവത	-10.9137
▁രാജാക്കന്മാര	-10.9142
ഭഗവ	-10.9142
▁തെല്ലു	-10.9142
▁കലാശിച്ച	-10.9144
▁വീഴ്ത്ത	-10.9145
▁നൂല	-10.9153
▁വാചാ	-10.9155
▁പാസാക്ക	-10.916
▁ഏറ്റുമുട്ട	-10.9168
▁ശേഖരിച്ച	-10.9181
▁കൂടിച്ചേർന്ന	-10.9188
▁അനുസ്മരിപ്പി	-10.92
തൊട്ടു	-10.9205
▁പൊളിച്ചു	-10.9207
▁പ്രാമാണ്യ	-10.921
▁അനങ്ങാത	-10.9212
മാകുക	-10.9224
188	-10.9253
▁സമ്പർക്ക	-10.9255
സ്മൃതി	-10.9334
മധുരമായ	-10.9342
മുമ്പേ	-10.936
മഹിമ	-10.9362
െന്തെങ്കിലും	-10.9371
▁ഇതെന്ത	-10.9397
ൊരിക്കലും	-10.9492
▁ജീർണ	-10.9515
▁ഉണങ്ങ	-10.9516
▁2007	-10.9516
▁അപ്പേട്ടന്റെ	-10.9516
▁അപ്രതീക്ഷിത	-10.9516
▁ആഖ്യാന	-10.9516
▁ചാലക്കുടി	-10.9516
▁ചെങ്ങന്നൂർ	-10.9516
▁ചെയർമാൻ	-10.9516
▁ജ്യോതിബസു	-10.9516
▁നിഗൂഢ	-10.9516
▁പഴഞ്ചൊല്ല	-10.9516
▁ബീഹാറ	-10.9516
▁യെദിയൂരപ്പ	-10.9516
▁ലഘുജീവചരിത്രം	-10.9516
▁ശിപാർശ	-10.9516
▁1953	-10.9516
▁1964	-10.9516
▁1969	-10.9516
▁ഭാരവാഹി	-10.9516
▁യൂനിയൻ	-10.9516
▁ലാളിത്യ	-10.9516
▁വിസ്മരിക്ക	-10.9516
▁സച്ചിദാനന്ദ	-10.9516
▁സുമേറിയൻ	-10.9516
▁കെട്ടിപ്പടുക്ക	-10.9516
▁പരമാവധി	-10.9516
▁യൂണിയൻ	-10.9516
▁പ്രേക്ഷക	-10.9516
▁വെളുപ്പ	-10.9516
▁പിക്കാസോ	-10.9516
▁വാഗ്ദാനം	-10.9516
▁തപസ്സു	-10.9516
▁തിരുമേനി	-10.9516
▁വിശ്രുത	-10.9516
▁സുഹ്റ	-10.9516
▁കാലാവധി	-10.9516
▁ഇത്തരത്തിലുള്ള	-10.9516
▁മുറുകെ	-10.9516
▁വിസ്തരിക്ക	-10.9516
▁ഹോട്ടൽ	-10.9516
▁അരങ്ങേറി	-10.9516
േടത്തോളം	-10.9516
▁സ്മരിക്ക	-10.9516
▁അല്ലാഹു	-10.9516
▁മഹത്ത്വ	-10.9516
▁ഉരുവം	-10.9516
▁അഹമ്മദ്	-10.9516
▁കൈരളി	-10.9516
▁ചേക്കേറി	-10.9516
▁ആഗോള	-10.9516
▁ചങ്ങല	-10.9517
▁നേതൃമാറ്റ	-10.9517
▁കുടുങ്ങി	-10.9517
▁ഏർപ്പെട്ട	-10.9517
▁കാഞ്ഞിര	-10.9517
▁തോൽപിച്ചു	-10.9517
▁മനുഷ്യസത്വ	-10.9518
▁പാത്രസൃഷ്ടി	-10.9518
▁പിരിച്ചുവിട്ട	-10.9518
▁മുപ്പത്തി	-10.9519
▁മാർത്തോമ	-10.9519
▁സ്വരത്തിൽ	-10.9521
▁മറ്റാർക്ക	-10.9521
തെന്തും	-10.9522
▁ക്ഷാമ	-10.9523
▁കഷണ	-10.9525
▁ഹൗസ	-10.9525
▁പയറ്റി	-10.9527
▁സാമ്യ	-10.9531
▁ശാരി	-10.9532
▁എത്തിച്ചേർന്ന	-10.9533
ുന്നതായാൽ	-10.9554
▁ഗംഗാ	-10.9566
യ്ക്കകത്തു	-10.958
▁ഇംഗ്ലീഷുകാര	-10.9583
▁ഏറ്റുവാങ്ങ	-10.9598
▁ചിന്തകന്മാര	-10.9598
▁ഫാഷിസ	-10.9602
വിശ്വസി	-10.9619
ിനെത്തുടർന്നു	-10.9658
വൈകല്യ	-10.9704
മുന്നണി	-10.9746
ചൈതന്യ	-10.9759
വിദ്യാഭ്യാസ	-10.976
ധ്യാപക	-10.9763
ാനസികരോഗാശുപത്രി	-10.9781
ചിരി	-10.9787
പണ്ഡിതന്മാര	-10.9815
ച്ചേർന്നു	-10.9839
▁അഭിനയിക്ക	-10.9877
പ്രഖ്യാപ	-10.9883
▁യൂണിവേഴ്സിറ്റി	-10.9916
ഗാംഭീര്യ	-10.9916
▁അധഃകൃത	-10.9916
▁അഹങ്കാര	-10.9916
▁ആവിഷ്കാര	-10.9916
▁കേരളകോൺഗ്രസ	-10.9916
▁ഖിലാഫത്ത	-10.9916
▁ഗൊദാർദ്	-10.9916
▁ജോസഫേട്ടൻ	-10.9916
▁ദിവാകരൻ	-10.9916
▁ശിഥില	-10.9916
▁സൈക്യാട്രി	-10.9916
▁സോവിയറ്റു	-10.9916
▁സ്പോർട്സ	-10.9916
▁1959	-10.9916
▁ചെങ്കൊടി	-10.9916
▁ചേലനാടന	-10.9916
▁തെറ്റിദ്ധരിക്ക	-10.9916
▁തൊമ്മാശ്ലീഹ	-10.9916
▁പരബ്രഹ്മ	-10.9916
▁പൊന്നാനി	-10.9916
▁മദ്യവർജന	-10.9916
▁വസ്തുനിഷ്ഠമായ	-10.9916
▁സ്റ്റാലിൻ	-10.9916
▁ചെയ്വാൻ	-10.9916
▁വഴിതെറ്റി	-10.9916
▁വിസ്തൃത	-10.9916
▁സത്യഗ്രഹ	-10.9916
▁ഒരക്ഷരം	-10.9916
▁വഴിതെളി	-10.9916
▁മുഴങ്ങി	-10.9916
▁ബാന്ധവ	-10.9916
▁മുഖർജി	-10.9916
ക്കാളധികം	-10.9916
▁ഇബ്നു	-10.9916
▁ചേട്ടാ	-10.9916
▁ദേവസ്വം	-10.9916
▁തിരഞ്ഞെടുത്ത	-10.9916
▁തുനിയ	-10.9916
▁വ്യംഗ്യ	-10.9916
ശിരസ്സ	-10.9916
▁ആശ്രയിക്ക	-10.9916
▁സൗഹൃദ	-10.9916
▁തിരഞ്ഞെടുക്ക	-10.9916
▁രാജേഷി	-10.9916
▁പ്രദാനം	-10.9916
▁തന്റേട	-10.9916
▁അത്യുന്നത	-10.9917
▁ഏകദേശം	-10.9917
▁മോതിര	-10.9917
▁പ്രഭാഷണ	-10.9917
▁കാത്തിരുന്നു	-10.9917
▁വിഷകന്യക	-10.9917
▁വിവർത്തന	-10.9917
▁അസഹ്യ	-10.9918
▁നിർണയ	-10.9918
▁വസതി	-10.9918
▁ഏർപ്പെടുത്ത	-10.9918
▁പ്രൊഫസറ	-10.9919
ുദ്ധരിച്ച	-10.9919
▁അതിക്രമിച്ച	-10.9919
▁മിസ്റ്റി	-10.9919
െന്തിനാ	-10.992
▁നിശിത	-10.992
▁വൈൽഡ	-10.9921
▁ശുഷ്ക	-10.9921
▁നടുവില	-10.9926
▁സ്നേഹിതന്മാര	-10.9926
▁ദ്വേഷ	-10.9929
▁തല്ക്കാല	-10.9931
ാനിടയായ	-10.9948
സഞ്ചയ	-10.9948
▁ഴാങ്	-10.9952
▁രാജകുമാര	-10.9952
▁ഇണക്ക	-10.9955
നിർമ്മിത	-10.9958
തിനുശേഷമാണു്	-10.9987
▁കക്കാട	-11.0009
ിരിയ്ക്കും	-11.0028
▁മടക്ക	-11.0048
▁പരമേശ്വര	-11.0073
▁ശതമാന	-11.0116
സ്നേഹം	-11.0161
▁no	-11.0172
നിയന്ത്രണ	-11.0176
യാഥാർത്ഥ്യ	-11.0176
സ്വാധീന	-11.0177
മാസിക	-11.018
ill	-11.0181
▁പ്രകാശിപ്പിക്ക	-11.021
▁പരിചയപ്പെടുത്ത	-11.0289
്റ്റിറ്റ്യൂട്ടു്	-11.0308
വൈപരീത്യ	-11.0332
▁2011	-11.0332
▁ഉദാസീന	-11.0332
▁ഞായറാഴ്ച	-11.0332
▁നൈരാശ്യ	-11.0332
▁പത്തനംതിട്ട	-11.0332
▁ബാലാമണിയമ്മ	-11.0332
▁ഹരിശ്ചന്ദ്ര	-11.0332
▁ഹോസ്റ്റലിൽ	-11.0332
▁1936	-11.0332
▁1945	-11.0332
▁1955	-11.0332
▁1971	-11.0332
▁1972	-11.0332
▁1997	-11.0332
▁എല്ലായിടത്തും	-11.0332
▁നിരീശ്വര	-11.0332
▁പ്രതിപാദിച്ച	-11.0332
▁മാന്ത്രിക	-11.0332
▁മുസ്ല്യാര	-11.0332
▁1930	-11.0332
▁യാന്ത്രിക	-11.0332
▁സ്ഥൂല	-11.0332
▁ദൗത്യ	-11.0332
മേധാവി	-11.0332
▁ഓരോരുത്തർ	-11.0332
▁നാലുപാടും	-11.0332
▁കൈകോർത്തു	-11.0332
▁സിറ്റിംഗ്	-11.0332
▁മാനേജര	-11.0333
▁അന്യാദൃശ	-11.0333
▁ഖേദ	-11.0333
▁അച്യുതമേനോൻ	-11.0333
▁ഉത്സവ	-11.0333
▁അനുസരിക്ക	-11.0333
▁കല്ല്യാണ	-11.0333
▁മൈതാന	-11.0333
▁ജേക്കബി	-11.0333
▁വിശദമായി	-11.0333
▁ഖദർ	-11.0334
▁സ്വൈര	-11.0334
▁നൂൽ	-11.0335
▁വേഗത്തിൽ	-11.0335
രൂപേണ	-11.0338
▁അന്തിമ	-11.0339
▁കാര്യക്ഷമ	-11.034
▁ഇടത്തരക്കാര	-11.034
▁മുഷിപ്പ	-11.0341
▁ലൈറ്റ	-11.0342
▁ഗായക	-11.0342
▁തളർന്നു	-11.0342
▁ഒന്നാമന	-11.0342
▁കിരാത	-11.0351
പെറ്റ	-11.0352
▁പ്രജാ	-11.0361
▁ആറുമാസ	-11.037
▁അനുയായികള	-11.0373
▁പന്നി	-11.0387
▁ആർജ്ജി	-11.0391
ബദ്ധമാ	-11.0415
കച്ചവടക്കാര	-11.0425
ുണ്ടാക്കുക	-11.0444
നുഷ്ഠിച്ച	-11.0464
മണ്ഡലത	-11.0474
▁ട്രെയ	-11.0478
സീനിയ	-11.0543
▁കയ്പ	-11.0543
▁എങ്ങോട്ട	-11.0567
ൻസ്റ്റിറ്റ്യൂട്ട	-11.0583
ീകരണത്തിനു	-11.0586
▁മിനക്കെട	-11.0597
േശ്വരൻ	-11.0601
ഇ	-11.0609
പരിശോധിച്ചുനോക്ക	-11.0609
സൈന്യ	-11.0611
നേതാവു്	-11.0612
ജനാധിപത്യ	-11.0625
▁പെരുകി	-11.0645
പ്പെടുത്തുകയും	-11.0687
ശാന്തി	-11.0755
▁ചാതുർവർണ്യ	-11.0767
ence	-11.0767
▁അത്യന്താപേക്ഷിത	-11.0767
▁അപ്രസക്ത	-11.0767
▁ഉത്പാദന	-11.0767
▁എഴുത്തച്ഛൻ	-11.0767
▁കരുണാനിധി	-11.0767
▁തിങ്കളാഴ്ച	-11.0767
▁നിരപരാധി	-11.0767
▁പിന്തുടർന്നു	-11.0767
▁പ്രോത്സാഹിപ്പി	-11.0767
▁ബ്രിട്ടീഷുകാർ	-11.0767
▁മാനസികാരോഗ്യ	-11.0767
▁മിസ്സിസ്	-11.0767
▁മൻമോഹൻ	-11.0767
▁വെള്ളപ്പൊക്ക	-11.0767
▁1946	-11.0767
▁അന്തർഭവിച്ച	-11.0767
▁ഏൽപിച്ച	-11.0767
▁കൃതജ്ഞത	-11.0767
▁ഗവർണറ	-11.0767
▁ഗൗതമ	-11.0767
▁ജനസമൂഹ	-11.0767
▁തായാട്ടു്	-11.0767
▁നിർവ്വഹിച്ച	-11.0767
▁നീതീകരിക്ക	-11.0767
▁ബ്യൂറോ	-11.0767
▁മുത്തശ്ശി	-11.0767
▁മുൻഗാമി	-11.0767
▁ആസ്വാദ്യ	-11.0767
▁കുമ്പസാര	-11.0767
▁കൂട്ടായ്മ	-11.0767
▁ഉദ്ഘോഷിക്ക	-11.0767
▁ചുവട്ടിൽ	-11.0767
▁ആകർഷണ	-11.0767
▁പരിഷ്കരിക്ക	-11.0767
▁സർവ്വോപരി	-11.0767
▁ലീഗുകാർ	-11.0767
▁ദലിത്	-11.0767
▁നാടുകടത്ത	-11.0767
▁വിലയേറിയ	-11.0767
▁മറ്റേതെങ്കിലും	-11.0767
▁ബീഡി	-11.0767
ൊതുങ്ങി	-11.0767
▁അഭിമുഖീകരിക്ക	-11.0767
▁മിഥ്യാബോധ	-11.0767
ാന്തരീക്ഷത്ത	-11.0767
▁നട്ടെല്ല	-11.0767
▁പേപ്പർ	-11.0767
▁ഉടനടി	-11.0768
മീമാംസ	-11.0768
യുടനെ	-11.0768
▁മാർച്ചിൽ	-11.0768
▁വക്താവ	-11.0768
▁ഭഗവാൻ	-11.0768
▁ആകുമ്പോഴേക്കും	-11.0768
▁മുഷിഞ്ഞ	-11.0768
▁മാലിക്ക്	-11.0768
▁ഇഹലോക	-11.0768
▁ഓഹോ	-11.0768
വർദ്ധന	-11.0768
▁അജന്ത	-11.0768
▁പിറവി	-11.077
രഹസ്യം	-11.077
▁പരിപാലിക്ക	-11.077
▁തൃപ്തിപ്പെടുത്ത	-11.077
▁അവതരിച്ച	-11.0771
▁ചിന്തകന്മാർ	-11.0771
▁തോല്പിക്ക	-11.0771
▁കുരങ്ങ	-11.0771
പ്രവേശന	-11.0771
ഭാണ്ഡ	-11.0772
ോദാഹരണ	-11.0774
▁പാസ്സായ	-11.0775
▁നിലവിലുണ്ട	-11.0782
▁ബന്ധുക്കള	-11.0789
▁ക്ഷീണിച്ച	-11.0793
ൊതുക്ക	-11.0796
▁നടപ്പായ	-11.08
സംബന്ധിയായ	-11.0802
വിനാശ	-11.0821
▁മനുഷ്യസ്നേഹ	-11.0833
▁പല്ലവ	-11.085
▁സായ്പ	-11.0851
ത്തിനെതിരായി	-11.086
പുരോഹിതന്മാർ	-11.0863
വെയ്ക്കുക	-11.0928
▁അച്യുത	-11.0929
ോക്തി	-11.0943
▁പിന്മാറ	-11.0977
സാധ്യത	-11.0988
ാണാവോ	-11.0991
▁പുരോഹിതന്മാര	-11.0995
പ്രാധാന്യമുള്ള	-11.1044
തൊഴിലാളി	-11.106
താല്പര്യ	-11.1065
വൈരുദ്ധ്യ	-11.1066
സന്ദർഭ	-11.1066
▁ജോണിക്കുട്ടാട്ട	-11.1087
ുപയോഗിച്ചു	-11.111
▁സമ്മർദ്ദ	-11.1119
ചെയ്തിട്ടുള്ളതു്	-11.115
▁അബ്ദുല്ല	-11.1156
▁വിഷയമാക്ക	-11.1174
നുമാനിക്കാം	-11.1193
▁നായന്മാര	-11.1197
▁ഇംപ്രഷണിസ	-11.1222
▁ദൗർബല്യ	-11.1222
▁സൗഹാർദ്ദ	-11.1222
atter	-11.1222
▁അധിനിവേശ	-11.1222
▁അഴീക്കോട്	-11.1222
▁അവിവാഹിത	-11.1222
▁അശ്ലീല	-11.1222
▁ഉൽപാദന	-11.1222
▁ഏൽപ്പിച്ച	-11.1222
▁കുമാരനാശാന	-11.1222
▁കേരളകൗമുദി	-11.1222
▁ഗസറ്റിയർ	-11.1222
▁ന്യൂയോർക്ക	-11.1222
▁പെൺകിടാവ	-11.1222
▁മബൂസെ	-11.1222
▁മുസ്ല്യാർ	-11.1222
▁ലിസിപ്പെണ്ണ	-11.1222
▁വെന്റേഴ്സ്	-11.1222
▁വേലായുധൻ	-11.1222
▁വ്യതിയാന	-11.1222
▁ശുപാർശ	-11.1222
▁സത്യപ്രതിജ്ഞ	-11.1222
▁സപ്തർഷ്യബ്ദ	-11.1222
▁സുകുമാരൻ	-11.1222
▁സുധാകരൻ	-11.1222
▁സെപ്തംബർ	-11.1222
▁സൊസൈറ്റി	-11.1222
▁സ്പീക്കർ	-11.1222
▁ഹൈക്കമാന്റ	-11.1222
▁1976	-11.1222
▁ജിജ്ഞാസ	-11.1222
▁വെറുതേ	-11.1222
▁സുപ്രീം	-11.1222
▁സുവ്യക്ത	-11.1222
▁ഭർത്തൃ	-11.1222
ോപനിഷത്ത	-11.1222
▁ഏഴിമല	-11.1222
▁ഇംപ്രഷണിസ്റ്റ്	-11.1222
▁ഒരുദാഹരണം	-11.1222
▁പാക്കിസ്ഥാന	-11.1222
▁ഘോഷയാത്ര	-11.1222
▁നാടൻപാട്ട	-11.1222
▁മുഹമ്മദ്കോയ	-11.1222
▁പിൻവലിച്ച	-11.1222
▁പൃഥ	-11.1222
▁ലംഘിച്ച	-11.1222
▁ഐശ്വര്യ	-11.1222
▁കാരണങ്ങളാൽ	-11.1222
▁അഖില	-11.1222
▁പ്രസവിച്ച	-11.1222
▁കടവൂർ	-11.1222
▁മർത്ത്യ	-11.1222
▁നിർഭാഗ്യവശാൽ	-11.1222
▁മദ്യപാന	-11.1222
▁വിംസീ	-11.1222
▁വർധിച്ച	-11.1222
▁പൊരുതി	-11.1223
▁കുഞ്ഞാപ്പ	-11.1223
▁അവരോധ	-11.1224
▁പോരാട്ടം	-11.1224
ുമ്പോലെ	-11.1225
▁വേറിട്ട	-11.123
ോദ്ദേശ്യ	-11.123
▁അടിത്തട്ട	-11.1232
സമർപ്പണ	-11.1235
▁ലണ്ടന	-11.1239
▁വേറൊന്ന	-11.124
▁കലാകാരന്മാര	-11.1247
▁ആസ്തിക	-11.1251
നുകൂല	-11.1259
▁ഉപേക്ഷിച്ച	-11.1282
▁വിട്ടുപോക	-11.1295
▁പാടുപെട	-11.13
▁പാസായ	-11.1321
▁പ്രശാന്ത	-11.1329
പയോഗിച്ച	-11.1335
▁അഞ്ചുകൊല്ല	-11.1348
▁ഫാസിസ	-11.1417
ാഗ്നി	-11.1428
▁വിസ്മൃത	-11.1441
▁സമ്പൂർണ	-11.1469
വംശത്തിൽപ്പെട്ട	-11.149
വിശ്വാസികള	-11.1492
▁ഉൾക്കൊണ്ട	-11.151
സമ്പർക്കം	-11.154
വ്യവസായ	-11.1542
ആ	-11.1543
പരിസര	-11.1543
▁ഇതെഴുത	-11.1595
▁ഭാസ്കരരവി	-11.1688
ാരതമ്യപ്പെടുത്തി	-11.1693
▁പാർലമെന്റി	-11.1697
▁നിന്നുത്ഭവി	-11.1698
▁വാണിജ്യ	-11.1698
▁ഉത്പാദിപ്പിക്ക	-11.1698
▁ഊന്നി	-11.1698
▁ഏൽപിക്ക	-11.1698
▁വേവലാതി	-11.1698
▁അത്തരമൊരു	-11.1698
▁അധഃപതിക്ക	-11.1698
▁അഭിഷേക	-11.1698
▁ആധിപത്യ	-11.1698
▁ഇത്തരമൊരു	-11.1698
▁ഉറപ്പുവരുത്ത	-11.1698
▁കണ്‍ഫ്യൂഷ	-11.1698
▁കന്യാകുമാരി	-11.1698
▁നാഷനൽ	-11.1698
▁പാർലമെന്റംഗ	-11.1698
▁ഭൂരിഭാഗവും	-11.1698
▁മഹാത്മജി	-11.1698
▁മിശ്രവിവാഹ	-11.1698
▁മോയിൻകുട്ടി	-11.1698
▁വേരുറച്ച	-11.1698
▁1950	-11.1698
▁ആസ്വാദന	-11.1698
▁കൊള്ളരുതായ്മ	-11.1698
▁പില്ക്കാല	-11.1698
▁സുബ്രഹ്മണ്യ	-11.1698
▁സ്പീക്കറ	-11.1698
▁ഇല്ലായ്മ	-11.1698
▁ചുരുക്കിപ്പറഞ്ഞ	-11.1698
▁ടോളമി	-11.1698
▁നാഴിക	-11.1698
▁ശിപായി	-11.1698
▁നിരീക്ഷിക്ക	-11.1698
▁ദുരവസ്ഥ	-11.1698
▁വൈരാഗ്യ	-11.1698
▁കുചേല	-11.1698
▁ഗൗനിക്ക	-11.1698
▁ടൂറിസ	-11.1698
▁തൽസ്ഥാനത്തു്	-11.1698
▁പട്ടികജാതിക്കാർ	-11.1698
▁ഇന്ദിരാജി	-11.1698
▁കോമാളി	-11.1698
▁റബ്ബർ	-11.1698
▁യഥാക്രമം	-11.1698
▁സന്ദർശന	-11.1698
▁ഗരുഡ	-11.1698
▁അസാധ്യ	-11.1698
ുൾപ്പെടെ	-11.1698
▁അകൽച്ച	-11.1698
▁വളർത്തിക്കൊണ്ടു	-11.1698
▁ജ്യോതിശ്ശാസ്ത്ര	-11.1698
▁മെല്ലെ	-11.1698
▁അധീന	-11.1698
▁കൂറ്റൻ	-11.1698
▁ഉറൂബ	-11.1698
▁പോഷക	-11.1698
▁ന്യായീകരിക്ക	-11.1699
▁പബ്ലിക്	-11.1699
▁ശ്രീധരന	-11.1699
▁ക്രൈം	-11.1699
▁ബദൽ	-11.1699
▁സൗമ്യ	-11.1699
▁കേന്ദ്രീകരിക്ക	-11.1699
▁വികസിക്ക	-11.17
▁മെമ്പറ	-11.17
▁പൂർത്തിയായ	-11.17
ാലങ്കാര	-11.1701
▁സംഘടിപ്പിക്ക	-11.1701
▁പാസ്സാക്ക	-11.1703
▁കൈക്കൊള്ള	-11.1704
▁കുഞ്ഞൂസ	-11.1706
▁അമൃത	-11.1711
▁എഴുത്തച്ഛന	-11.1715
തിമിര	-11.1717
▁ചിത്രമെഴുത്തു	-11.172
▁പേജു	-11.1738
▁ഗ്രീസി	-11.1799
പ്രത്യക്ഷ	-11.1815
▁പരിമിതികള	-11.184
കൃഷി	-11.1936
▁കഥയെഴുത	-11.1939
മര്യാദ	-11.2041
സ്വപ്ന	-11.2042
ഭാര്യ	-11.2046
▁സൂചക	-11.2072
ture	-11.2084
ുന്നതിനായി	-11.2098
ന്വേഷണ	-11.2189
▁അതിപ്രാചീന	-11.2198
▁അധിഷ്ഠിത	-11.2198
▁ഉളവാക്ക	-11.2198
▁കാർത്തികേയൻ	-11.2198
▁ക്നായിതൊമ്മന	-11.2198
▁ഗൃഹസ്ഥാശ്രമ	-11.2198
▁മാധുര്യ	-11.2198
▁സുദീർഘ	-11.2198
▁സൈദ്ധാന്തിക	-11.2198
ാഭിലാഷ	-11.2198
▁അചിരേണ	-11.2198
▁കാല്പനിക	-11.2198
▁കീമണ്ടാനി	-11.2198
▁കോടീശ്വര	-11.2198
▁ജയലളിത	-11.2198
▁ടീച്ചർ	-11.2198
▁തെമ്മാടി	-11.2198
▁പിന്തുടര	-11.2198
▁പ്രലോഭന	-11.2198
▁പ്രസിഡണ്ട	-11.2198
▁മാണിഗ്രൂപ്പ	-11.2198
▁മായിൻഹാജി	-11.2198
▁യാത്രാവിവരണ	-11.2198
▁ലക്ഷക്കണക്കിനു	-11.2198
▁വ്യതിചലി	-11.2198
▁ശരീഅത്ത	-11.2198
▁സുധാകരന	-11.2198
▁സോക്രട്ടീസി	-11.2198
▁സോഷ്യോളജി	-11.2198
▁1942	-11.2198
▁1979	-11.2198
▁ഒന്നടങ്കം	-11.2198
▁കൊത്തുചിത്രങ്ങള	-11.2198
▁ചുരുണ്ട	-11.2198
▁ജനതാദൾ	-11.2198
▁നാണിക്കുട്ടി	-11.2198
▁നിരീക്ഷക	-11.2198
▁നിശ്ശേഷം	-11.2198
▁പിശാച	-11.2198
▁പുറകോട്ടു	-11.2198
▁സേസന്റെ	-11.2198
▁ഹിറ്റ്ലറ	-11.2198
▁1931	-11.2198
▁പ്രൗഢ	-11.2198
▁കൈവശം	-11.2198
▁മംഗളപത്ര	-11.2198
▁മുസ്തഫ	-11.2198
▁വെള്ളാപ്പള്ളി	-11.2198
▁you	-11.2198
▁ആർഭാട	-11.2198
▁കേൾവി	-11.2198
▁അപലപിക്ക	-11.2198
▁ടൈഗർ	-11.2198
▁ഉരുത്തിരി	-11.2198
▁പെറുക്കി	-11.2198
▁താക്കീതു	-11.2198
▁പുകഴ്ത്ത	-11.2198
▁സ്ത്രീലിംഗ	-11.2198
▁കഷണ്ടി	-11.2198
▁കൈക്കലാക്ക	-11.2198
▁അറസ്റ്റു	-11.2198
▁വലിച്ചെറിഞ്ഞ	-11.2198
▁പൊരുൾ	-11.2198
▁ഹേതുവായി	-11.2198
▁അത്തരത്തിലുള്ള	-11.2198
▁യോജിപ്പ	-11.2198
▁വൈഭവ	-11.2198
▁മനുഷ്യരാശി	-11.2198
▁പ്രശോഭിക്കുന്ന	-11.2199
പ്രേരിത	-11.2199
▁ദ്വാര	-11.2199
▁നാസറുദ്ദ	-11.2199
▁കമീഷന	-11.2199
▁പടവെട്ട	-11.2199
▁തള്ളിക്കളയ	-11.2199
▁തകരാറ	-11.2199
▁കുര്യന	-11.2199
▁പൂമുഖത്തു	-11.2199
തുകൊണ്ടാവാം	-11.22
▁ചോദിയ്ക്ക	-11.22
▁നൃപ	-11.2201
▁ക്രിയാത്മക	-11.2201
▁അവലംബിക്ക	-11.2202
▁പാരായണ	-11.2202
▁കലിവർഷ	-11.2202
▁കോൺഗ്രസ്സുകാര	-11.2203
▁വയറു	-11.2205
▁വൈഷമ്യ	-11.2208
പൊയ്ക്കോള	-11.2217
▁തറവാട്ട	-11.2227
ഹൃദ	-11.223
▁നിരോധിക്ക	-11.2237
▁കുട്ടികൃഷ്ണമാരാ	-11.2246
ാധിപത്യം	-11.2249
ചോഴൻ	-11.2263
▁പൊതുയോഗ	-11.2275
ുണർന്ന	-11.2277
▁ശേഖരിക്ക	-11.2292
െരിഞ്ഞു	-11.2301
▁കാത്തുനിൽക്ക	-11.2313
▁തൊട്ടുമുമ്പ	-11.2346
ാരംഭത്തിൽ	-11.2347
▁സുപ്രധാന	-11.2358
▁മതപണ്ഡിത	-11.2419
▁പരിഭാഷപ്പെടുത്ത	-11.2427
പരിഷ്കാര	-11.2568
വ്യാഖ്യാന	-11.2568
പ്പെരുമാള	-11.2625
▁നേതൃ	-11.2645
ചിഹ്ന	-11.2691
ന്വേഷിക്ക	-11.2698
▁അടിയന്തിര	-11.2723
▁സങ്കീർണ	-11.2724
▁നീതിപീഠ	-11.2724
▁പ്രോത്സാഹന	-11.2724
പതുക്കെപ്പതുക്കെ	-11.2724
▁have	-11.2724
▁അസംബ്ലി	-11.2724
▁ഇൻസ്പെക്ടർ	-11.2724
▁ഉജ്ജ്വല	-11.2724
▁ഐസ്ക്രീം	-11.2724
▁ഒറീസ	-11.2724
▁കമീഷൻ	-11.2724
▁ചങ്ങനാശ്ശേരി	-11.2724
▁ജവഹർലാൽ	-11.2724
▁ദുര്യോധന	-11.2724
▁നാഷണൽ	-11.2724
▁നിർണായക	-11.2724
▁പശ്ചാത്താപ	-11.2724
▁പാത്തുമ്മയുടെ	-11.2724
▁ബയസ്ക്കോപ്	-11.2724
▁മോഡേൺ	-11.2724
▁യഥേഷ്ടം	-11.2724
▁യഹൂദ	-11.2724
▁വാൻഗോഗിന്റെ	-11.2724
▁വെട്ടിത്തുറന്ന	-11.2724
▁ശനിയാഴ്ച	-11.2724
▁2002	-11.2724
▁ഇൻസ്പെക്ടറ	-11.2724
▁ഉത്തരേന്ത്യ	-11.2724
▁ജാബാലി	-11.2724
▁തത്ത്വസംഹിത	-11.2724
▁രാജീവ്ഗാന്ധി	-11.2724
▁റവന്യൂ	-11.2724
▁വക്കീൽ	-11.2724
▁സുരേശ്വരന	-11.2724
▁1962	-11.2724
▁സ്പെയിനി	-11.2724
▁മുസ്ലീമ	-11.2724
▁വീഡിയോ	-11.2724
▁പെൻഷൻ	-11.2724
▁പതിനേഴ	-11.2724
▁താക്കോൽ	-11.2724
▁സൗജന്യ	-11.2724
▁കൊൽക്കത്ത	-11.2724
▁ആശ്ചര്യ	-11.2724
▁നിസ്സംഗ	-11.2724
▁മതവികാര	-11.2724
▁കഥാകഥന	-11.2724
▁പതിമൂന്ന	-11.2724
▁മുഹമ്മദാലി	-11.2725
▁കാലക്രമത്തിൽ	-11.2725
▁അസ്തമിച്ച	-11.2725
സാഹിബ്	-11.2725
▁ക്രോധ	-11.2725
▁കുലീന	-11.2725
▁സന്തതി	-11.2725
▁അടുത്തുചെന്നു	-11.2725
▁അവഗണിച്ചു	-11.2726
▁ഹൃദ്യ	-11.2726
ത്തിലേർപ്പെട്ട	-11.2726
▁പതിനാറ	-11.2728
▁പുക്കാറ	-11.273
▁പുലർന്ന	-11.2731
▁തൃപ്തികരമ	-11.2731
▁ഉപകരിച്ച	-11.2732
▁വീക്ഷിക്ക	-11.2734
▁വിദ്വാന	-11.2738
▁തോൽപിക്ക	-11.2739
▁കേശവന	-11.2751
▁വനവാസ	-11.2755
പ്രസ്താവിക്കുന്ന	-11.2763
ക്കുമെതിരെ	-11.2768
കർമയോഗ	-11.2803
രിശ്രമ	-11.2818
വിവരിച്ചിട്ടുള്ള	-11.2823
▁അപ്രത്യക്ഷമാ	-11.2971
എന്നറിയപ്പെടുന്ന	-11.2974
▁തിരിച്ചുപോക	-11.2983
നേതാക്കള	-11.3126
സാഹിത്യകാരന്മാര	-11.3133
▁ചേരരാജാവ	-11.3168
കാലഘട്ട	-11.3202
ഡിപ്പാർട്ടുമെന്റ	-11.3228
ധുനിക	-11.3234
▁അതിസൂക്ഷ്മ	-11.3248
▁ഇബ്രാഹി	-11.328
ാഭിവൃദ്ധി	-11.328
▁ആർകൈവ്	-11.328
▁ഏജന്റ	-11.328
▁ഒടുങ്ങ	-11.328
▁ഒന്നാമത്തേത	-11.328
▁കിരീട	-11.328
▁കുരിശുമുടി	-11.328
▁ഗത്യന്തരമില്ല	-11.328
▁ജനപിന്തുണ	-11.328
▁പെരുന്തച്ചൻ	-11.328
▁പ്രാപഞ്ചിക	-11.328
▁പ്രൈവറ്റ്	-11.328
▁ബിയനാലെയിൽ	-11.328
▁മഴനൃത്ത	-11.328
▁മുനിസിപ്പൽ	-11.328
▁മേൽക്കോയ്മ	-11.328
▁യശോവർമ	-11.328
▁യാഥാർഥ്യ	-11.328
▁രാഹുൽ	-11.328
▁വിക്രമാദിത്യ	-11.328
▁വെറുമൊരു	-11.328
▁സെബാസ്റ്റ്യ	-11.328
▁സോമബ്രഹ്മാവ	-11.328
▁ഹൈക്കമാൻഡ	-11.328
▁1938	-11.328
▁അനേകായിരം	-11.328
▁അഭിലാഷ	-11.328
▁ഇടുങ്ങിയ	-11.328
▁ഉദാഹരിക്കുന്ന	-11.328
▁തോമസും	-11.328
▁നിരാകരിച്ചു	-11.328
▁പ്രതിഭാശാലി	-11.328
▁ലാവണ്യ	-11.328
▁സ്തൂപ	-11.328
▁1992	-11.328
▁ദ്വൈത	-11.328
▁വിവേകാനന്ദൻ	-11.328
▁മറികടക്ക	-11.328
▁വിഷാദാത്മകത്വ	-11.328
▁വെള്ളിയാഴ്ച	-11.328
▁ഇടനാഴി	-11.328
▁കൊള്ളരുതാത്ത	-11.328
▁സുഗന്ധ	-11.328
▁ഗാന്ധാര	-11.328
▁പറയിപെറ്റ	-11.328
▁മുറുമുറു	-11.328
▁അകമ്പടി	-11.328
▁ശിവദാസൻ	-11.328
▁എപ്പോഴെങ്കിലും	-11.328
▁കൂട്ടാക്കിയില്ല	-11.328
▁ശ്രുതി	-11.328
▁മാലാഖ	-11.328
▁നാടകകൃത്തു	-11.328
▁കാപട്യ	-11.328
▁പംക്തി	-11.328
▁പ്രവചിച്ച	-11.328
▁ശുചി	-11.328
▁സെന്റർ	-11.328
നിഘണ്ടു	-11.328
▁പാർലമെന്റിലേക്ക	-11.328
േന്ദ്രിയ	-11.328
▁സ്ഥിതിഗതികൾ	-11.328
▁തലപൊക്കി	-11.3281
ിലധികവും	-11.3281
▁കിണറ്റ	-11.3281
▁മരുമകന	-11.3281
ോത്സുക	-11.3283
▁വിസമ്മതിച്ച	-11.3285
▁ആദർശശാലി	-11.3285
▁അനുഷ്ഠിക്ക	-11.3286
▁മുനീറ	-11.3286
▁കടപുഴക	-11.3287
മായിത്തോന്നി	-11.3291
▁ഗോകർണ	-11.3298
▁മനുഷ്യസ്വഭാവത്ത	-11.3325
▁കുടിയേറി	-11.3359
പൊട്ടിപ്പുറപ്പെട	-11.3375
സൂചകമായ	-11.3422
മണ്ഡലങ്ങളിൽ	-11.3426
▁ഒളിച്ചോട	-11.3522
പരിചയം	-11.3544
▁ഭാഗത്തുനിന്ന	-11.3578
പ്രാധാന്യം	-11.3648
ഘടകങ്ങളെ	-11.3663
ശാസ്ത്രജ്ഞന്മാര	-11.3692
▁രൂപപ്പെടുത്ത	-11.3701
സുഹൃത്ത	-11.3712
ചികിത്സ	-11.3712
മുഴുവൻ	-11.3713
തെന്താണെന്നു	-11.3845
വിളംബര	-11.3865
▁അനിശ്ചിത	-11.3868
▁അപരിത്യാജ്യ	-11.3868
▁തൃക്കാക്കര	-11.3868
▁നൈതിക	-11.3868
▁പന്തിരുകുല	-11.3868
▁യൗവ്വന	-11.3868
▁സാർവ്വത്രിക	-11.3868
▁life	-11.3868
▁അകൃത്രിമ	-11.3868
▁അടിച്ചമർത്ത	-11.3868
▁അഡ്വക്കേറ്റ്	-11.3868
▁അപരിഷ്കൃത	-11.3868
▁അബ്ദുറഹിമാ	-11.3868
▁ആറന്മുള	-11.3868
▁ആവിർഭവിച്ച	-11.3868
▁ഉപരിപ്ലവ	-11.3868
▁കശാപ്പു	-11.3868
▁കാർത്തികേയന	-11.3868
▁ജുഡീഷ്യൽ	-11.3868
▁താൽക്കാലിക	-11.3868
▁തിരുമങ്കൈ	-11.3868
▁ദലേലാമ	-11.3868
▁നിർവ്വചിക്ക	-11.3868
▁പെരിന്തൽമണ്ണ	-11.3868
▁പെൺവാണിഭ	-11.3868
▁പ്രത്യുപകാരം	-11.3868
▁മഞ്ചേരി	-11.3868
▁ലാഞ്ഛന	-11.3868
ഓ	-12.0341
‍	-13.7516
ഊ	-13.7517
ഐ	-13.7518
ഏ	-13.7519
ഉ	-13.752
ഒ	-13.7521
ഈ	-13.7522
എ	-13.7522
